#version: 0.2 - Trained by `huggingface/tokenizers`
Ġ t
Ġ a
r e
< |
| >
i n
s t
e r
Ġ <|
o n
o u
Ġ ,
Ġt h
Ġ i
r a
Ġ .
e l
Ġ h
Ġ p
Ġ c
Ġ w
e n
Ġth e
Ġ y
Ġ n
o r
Ġ f
a t
Ġ b
o o
s er
Ġ re
Ġy ou
Ġ in
Ġ l
i on
o f
u ser
st a
Ġ ?
in g
o t
Ġ d
Ġt o
r i
a n
st e
oo k
Ġ s
ra n
Ġ m
y ste
yste m
v e
c t
s ystem
en d
Ġa n
Ġh ot
Ġhot el
ct ion
end of
l e
a y
ran t
u rant
Ġre sta
Ġresta urant
g e
s e
c e
Ġt ra
Ġb ook
e x
Ġa re
Ġf or
Ġtra in
Ġi s
Ġ g
a r
l d
ou ld
on t
e d
a m
i e
Ġan d
b el
Ġa t
ex t
a ction
ie f
ont ext
c ontext
bel ief
Ġ 1
t h
k e
a ve
Ġw ould
e s
e st
Ġth at
Ġl i
f or
d ay
Ġli ke
Ġw i
for m
Ġin form
Ġ sta
Ġ of
Ġare a
l l
o m
en t
Ġp ri
Ġn e
Ġc an
Ġthe re
o p
Ġh ave
Ġw h
Ġne ed
Ġd o
u m
on e
d ge
Ġi t
Ġa m
at ion
e re
Ġm e
Ġat t
Ġc h
Ġatt ra
Ġattra ction
Ġl e
a l
ri dge
am b
Ġc amb
ar t
Ġcamb ridge
u est
oo d
Ġ on
endof action
endof context
endof belief
Ġd ay
Ġy es
am e
Ġc ent
Ġp e
o d
p e
Ġpri ce
Ġa r
Ġb e
b er
Ġn um
Ġnum ber
op le
Ġpe ople
Ġcent re
Ġl ook
s i
a se
Ġp le
Ġple ase
ou se
Ġ -
Ġn ame
Ġan y
Ġf ood
Ġsta r
Ġt i
re e
Ġd e
Ġwh at
Ġt y
t er
Ġlook ing
Ġty pe
l a
Ġde p
Ġt a
Ġdep art
e a
u re
f ere
fere n
k ing
Ġh el
u r
Ġar ri
Ġwi th
c h
Ġ 2
Ġle ave
Ġn one
w n
Ġ 4
Ġg uest
Ġyou r
m e
Ġp ar
Ġhel p
i t
o w
Ġre q
Ġti me
s s
feren ce
Ġsta y
Ġto wn
Ġwi ll
at e
Ġarri ve
Ġm od
Ġmod er
th ing
Ġ ex
g h
in d
r y
la ce
Ġp lace
u n
Ġf ree
b le
Ġbook ing
Ġmoder ate
Ġn ot
r om
Ġf rom
Ġpar king
Ġa l
Ġex p
h ouse
an ge
c er
Ġth an
Ġl o
er al
Ġb y
Ġd est
si ve
en sive
Ġ ran
Ġ. <|
Ġguest house
Ġ el
Ġran ge
Ġpri cer
Ġpricer ange
Ġexp ensive
s o
Ġthan k
Ġa d
h one
Ġn o
Ġ 0
x i
om e
Ġp hone
Ġta xi
Ġn or
Ġ 3
Ġal so
i s
Ġp o
a s
f er
Ġdepart ure
in ation
Ġdest ination
Ġf ind
t s
Ġad d
Ġre ference
Ġg en
Ġgen eral
ou t
Ġ !
u t
Ġ st
i r
e t
Ġany thing
in e
r o
es day
Ġel se
Ġg o
ea p
Ġch eap
Ġnor th
Ġp re
Ġs ou
Ġa b
Ġ or
Ġreq uest
om m
Ġn i
an t
o re
0 0
Ġlo c
c omm
Ġpo st
Ġw ant
Ġab out
Ġ 5
l y
Ġ o
f i
comm end
Ġre commend
Ġstar s
Ġh ow
Ġm u
Ġs ome
re ss
Ġa s
d e
3 0
Ġh ouse
o l
Ġre ser
a ll
od e
v ing
ter n
1 5
Ġin tern
n d
i ce
4 5
Ġni gh
Ġ e
t ing
Ġp art
Ġadd ress
u l
Ġs h
v er
i an
Ġ ge
Ġintern et
e e
Ġa ll
Ġ ea
Ġg re
Ġw est
el l
Ġge t
Ġpost c
Ġpostc ode
at ed
Ġea st
Ġ j
Ġo k
Ġloc ated
ot h
Ġgre at
ree t
Ġ? <|
a in
Ġc ould
Ġs ure
Ġsou th
2 3
i c
Ġs u
Ġinform ation
Ġw e
Ġmu se
v ation
Ġmuse um
a re
Ġreser vation
Ġt r
Ġb ut
it y
Ġ k
Ġa f
Ġw as
1 2
a i
Ġc ol
Ġnigh ts
Ġcol le
Ġcolle ge
Ġf ri
Ġta ble
Ġwi fi
Ġt ry
Ġtra v
Ġ ent
Ġs un
Ġsun day
Ġ ser
v i
a d
Ġst reet
Ġfri day
Ġle a
Ġch o
is h
t on
Ġcho ice
Ġlea ving
Ġthe ir
Ġw ed
Ġdo es
oth er
Ġwed n
i ch
s day
Ġwedn esday
Ġth ur
Ġs at
Ġthur sday
ur day
Ġsat urday
Ġtrav el
Ġt u
Ġprice d
m ore
Ġpre fer
u st
Ġreq more
Ġtu esday
Ġm an
Ġc ity
Ġ 7
Ġs or
Ġ1 5
Ġd i
Ġf ee
A t
Ġleave At
nd s
Ġi f
Ġwh ere
Ġsh ould
Ġm on
Ġmon day
c ke
Ġti cke
Ġaf ter
Ġsor ry
12 23
Ġthank s
Ġ0 1223
Ġman y
Ġm a
Ġof fer
Ġ 8
Ġj ust
Ġser ve
B y
Ġarrive By
Ġ 6
Ġa v
ste d
Ġc b
Ġpre ference
Ġl on
Ġ r
l u
Ġh as
a st
Ġin d
Ġs e
i a
oo l
Ġd ont
oo m
Ġ un
Ġok ay
Ġthe y
all y
Ġg ood
Ġ op
t ion
c are
Ġdont care
Ġ ro
Ġind ian
Ġ king
or t
Ġ1 1
e ct
Ġ1 7
ai la
d on
er t
Ġ ra
ert ain
Ġh i
f ul
Ġav aila
Ġm at
Ġg i
Ġ1 3
Ġ1 2
Ġto day
Ġin t
ou r
Ġsome thing
Ġth is
ine se
Ġch inese
ce ss
Ġgi ve
Ġavaila ble
Ġby e
si t
Ġop tion
a k
Ġbook ed
Ġleave s
Ġwh ich
Ġma ke
c i
b ook
c cess
Ġstar ting
Ġdepart ing
Ġ1 6
Ġw or
Ġking s
ran ce
Ġent rance
Ġgo ing
Ġserve s
Ġdi f
Ġtrain s
feren t
Ġdif ferent
Ġs o
Ġs i
c lu
Ġr oom
m ent
Ġp er
Ġ1 4
Ġb ed
Ġlon don
Ġoption s
Ġm ore
Ġ u
Ġint ere
ccess ful
Ġpar k
Ġm y
an d
ul ar
' ll
Ġk n
ou gh
c k
Ġt ell
Ġ1 0
Ġkn ow
Ġm ay
Ġit al
Ġital ian
Ġoffer book
Ġsou nds
Ġ1 8
Ġro ad
Ġs ame
Ġ vi
Ġ1 9
Ġan other
Ġsi de
o se
Ġb re
Ġbre ak
Ġpart ic
f ast
Ġpartic ular
Ġsu ccessful
Ġbreak fast
Ġre f
Ġc ri
Ġwor k
Ġcri ter
el y
Ġcriter ia
e an
Ġarrive s
Ġra ting
Ġa c
Ġticke t
Ġi d
Ġs pe
Ġspe ci
Ġm i
Ġ01223 3
ar d
le d
m ing
Ġadd r
Ġc al
Ġcal led
Ġguesthouse s
Ġ :
Ġintere sted
fi c
or n
Ġm in
Ġreser ve
Ġ other
Ġ v
Ġmin ut
Ġspeci fic
t ish
Ġw el
Ġnigh t
ou nd
Ġw ell
Ġc ertain
c ome
Ġwel come
a p
Ġb ri
Ġbri tish
Ġ2 1
Ġcent er
Ġvi sit
Ġin clu
Ġticke ts
Ġminut es
Ġe ur
op ean
Ġeur opean
Ġc u
n e
Ġst ation
gh t
Ġm ind
Ġthe m
Ġmat ch
Ġ2 0
Ġh o
Ġ ri
g ge
Ġsu gge
Ġattraction s
ver y
Ġa ct
Ġsugge st
Ġb ar
l o
th er
Ġre ally
Ġp ro
Ġth ose
Ġac orn
i z
Ġlo dge
ou nds
Ġmu ch
Ġp ool
Ġar ch
Ġact u
Ġe at
Ġne w
Ġarri ving
Ġse v
u s
Ġf ine
Ġsev eral
a ct
Ġinclu de
Ġ 9
Ġc ar
Ġactu ally
p ort
2 1
a ge
Ġs ee
ri p
o at
Ġcu is
v en
Ġs p
Ġp ounds
Ġtravel ing
Ġc ont
for d
Ġhel lo
Ġ Ġ
p ool
Ġcuis ine
Ġas si
Ġle t
Ġmat ter
Ġofferbook ed
st er
Ġf ound
Ġs el
u e
ro ss
Ġel y
h am
y n
Ġf it
Ġloc ation
Ġthe at
it e
Ġc on
Ġg all
Ġgall er
Ġle ice
Ġleice ster
Ġl yn
Ġsel ect
a ble
Ġc ross
Ġn oo
f fer
Ġnoo ffer
Ġli ver
Ġliver pool
Ġ ste
Ġent ertain
Ġp l
Ġwh en
ur ch
Ġdo wn
Ġch e
our ne
Ġentertain ment
Ġu p
Ġs ain
o st
Ġnor w
Ġnorw ich
Ġb ro
Ġ0 9
b or
Ġlyn n
Ġcont act
iz z
Ġpe ter
bor ough
Ġta ke
Ġch urch
x b
Ġneed s
Ġpeter borough
Ġa ir
Ġair port
xb ourne
Ġt rip
l ton
op s
Ġbro xbourne
Ġb ish
Ġtheat re
Ġbish ops
s on
Ġsta n
Ġme et
ic k
1 1
Ġche ck
Ġpro vi
Ġd ine
Ġstan sted
Ġb ir
Ġn ow
ort ford
Ġst ortford
Ġste ven
Ġsteven age
Ġ q
ming ham
Ġbir mingham
Ġb oth
Ġp izz
Ġdi d
Ġc are
sit y
Ġt ot
si an
Ġm ar
r ow
Ġmuseum s
Ġa ble
Ġprovi de
Ġtot al
m a
Ġ0 8
Ġni ce
Ġn ar
Ġnar row
Ġth in
Ġf e
Ġassi st
w i
n ing
Ġ! <|
at ely
p le
Ġ out
Ġp ick
Ġth en
for t
o g
en s
Ġc ine
Ġun fort
Ġunfort un
Ġunfortun ately
t i
ste ad
b y
Ġc ode
Ġreserve d
Ġa le
Ġin stead
Ġale x
and er
Ġch oo
Ġb oat
v al
Ġalex ander
ea d
Ġarri val
Ġstay ing
Ġ0 7
Ġlon g
Ġchoo se
b p
Ġt oo
s p
ar ch
5 8
i ver
Ġgaller y
Ġse arch
t w
Ġun iver
Ġs wi
it ect
Ġpl an
Ġarch itect
m s
Ġuniver sity
Ġthin k
i ll
Ġf ir
Ġc ur
Ġg bp
vi l
Ġc l
vil le
Ġfir st
el f
Ġg ard
Ġp ay
Ġg on
2 4
ap p
Ġ very
1 7
Ġsain t
f o
Ġgon ville
Ġc ost
it al
t t
ol og
Ġho sp
Ġhosp ital
0 7
i ther
clu b
Ġh app
Ġswi m
ri st
Ġnight club
and o
Ġarchitect ure
s si
le y
an e
Ġas h
Ġc om
Ġcur ry
Ġash ley
Ġe ither
f ect
Ġin fo
Ġswim ming
si de
Ġh in
d er
n t
Ġth ing
b e
Ġpizz a
Ġper fect
Ġk ind
u i
Ġa sian
Ġcollege s
Ġch er
Ġcher ry
Ġmoder n
a b
Ġhin ton
r op
Ġfind ing
5 0
by e
Ġgood bye
Ġcine ma
ie s
Ġmi lton
Ġper son
Ġplan ning
Ġh un
6 6
ar l
Ġon ly
Ġne ar
Ġdepart s
2 9
0 8
b ur
ic an
ot t
Ġpay able
tt le
Ġar ms
a f
Ġhapp y
i ent
Ġe very
Ġneed ed
bur y
Ġpo ssi
h a
Ġf un
Ġcertain ly
Ġ2 3
Ġa p
Ġh ead
ui re
e en
3 5
Ġfe w
Ġu s
Ġch rist
Ġgard en
Ġreq uire
4 0
1 0
lu b
Ġc lub
Ġall en
Ġ0 5
Ġpreference s
Ġor ient
Ġorient al
in a
Ġexp ress
Ġq u
Ġl a
Ġc ou
Ġallen bel
Ġallenbel l
u b
Ġb elf
Ġhun ting
Ġbelf ry
s a
Ġbe tw
Ġbetw een
8 8
Ġcon f
er ton
Ġintere st
Ġth ough
w h
Ġcl ose
Ġch est
Ġw ere
ood le
Ġse at
Ġn oodle
6 0
Ġg ast
Ġwh i
Ġser ving
Ġchest erton
Ġbe en
Ġc our
5 4
Ġl ens
Ġh e
el d
t ed
fi eld
Ġlens field
Ġg reet
5 2
Ġri ght
w ay
Ġhunting don
Ġsp or
wh ere
h ap
Ġper hap
Ġperhap s
Ġcour se
k w
Ġs ch
Ġsh all
Ġh ere
Ġre g
Ġspor ts
c an
m i
Ġar t
r oom
Ġpossi ble
Ġl ot
Ġthe se
0 1
Ġcou nt
Ġo h
2 7
Ġmay be
Ġmar ri
rop ub
3 9
Ġgast ropub
Ġs et
Ġmatch ing
am i
f ore
Ġbe fore
olog y
4 6
Ġit s
a v
Ġcity room
Ġsome where
Ġlo v
Ġrequire ment
5 9
Ġre s
Ġc la
Ġw ay
u ck
Ġday s
Ġl at
Ġcityroom z
i st
Ġpo l
Ġreservation s
Ġchoice s
2 0
ion s
m m
Ġb ridge
Ġmarri ott
c a
arl ie
Ġli st
Ġpark side
Ġwhi le
mi ss
3 2
Ġres ul
y le
Ġri ver
l ti
Ġh our
Ġli ttle
Ġad miss
1 9
Ġp ort
Ġmu lti
Ġadmiss ion
Ġc af
Ġgo ld
Ġmulti ple
o k
Ġh all
Ġg ot
Ġgold en
Ġresul ts
Ġqu ite
j o
Ġt ando
Ġrecommend ation
Ġsh ad
Ġw on
Ġshad d
an ish
Ġtando or
4 1
Ġb ist
4 3
Ġt ur
Ġwon der
Ġbist ro
Ġpart y
Ġoffer s
k ish
Ġtur kish
Ġsou nd
Ġconf ir
Ġl ane
ation al
Ġlo ve
Ġconfir m
so l
ol i
e p
Ġtandoor i
Ġintern ational
Ġ012233 3
Ġb est
Ġloc al
e ts
Ġp a
Ġab sol
Ġabsol ut
ri ght
Ġh op
Ġh oli
Ġholi day
Ġme ets
Ġabsolut ely
Ġal right
Ġc all
Ġa g
Ġf av
Ġport u
o h
Ġcaf e
b ra
in ity
Ġm ed
Ġin n
f ton
Ġfav or
Ġtr inity
Ġex c
Ġ z
r ough
Ġg ra
1 6
Ġf ur
Ġag ain
Ġh ut
Ġfur ther
Ġmatch es
bra y
Ġpool s
Ġaf ri
9 0
Ġsh ow
Ġafri can
n ot
Ġcan not
Ġra ted
Ġfavor ite
e ver
Ġcom ing
Ġh ami
Ġno book
Ġhami lton
in ce
0 9
it ch
re d
Ġc or
Ġint o
Ġmi ght
Ġst ill
Ġ012233 5
Ġdepart ment
Ġcon cer
Ġtry ing
um n
Ġreg ent
s h
Ġa ut
Ġhi ll
Ġhead ing
q u
Ġa yle
Ġf en
Ġw ar
Ġf in
Ġaut umn
Ġsp anish
Ġpol ice
Ġayle s
b son
Ġho bson
k s
it ton
Ġwar kw
b r
or th
Ġwor th
i d
Ġmed i
re n
Ġwarkw orth
Ġtrav ell
Ġth ai
es s
Ġ2 2
Ġsain ts
Ġi m
4 9
ran ean
ter ranean
Ġav al
Ġcount ry
Ġmedi terranean
Ġaval on
Ġam er
Ġp r
Ġch ange
Ġayles bray
Ġma de
Ġnot h
Ġf ren
Ġfren ch
Ġy ea
Ġli sted
Ġb a
y al
Ġnoth ing
4 8
Ġro yal
ane se
Ġwant ing
a ri
l ing
br ook
Ġn ando
Ġlat er
f in
Ġh ome
Ġde fin
Ġs end
it ely
Ġas k
Ġlov ell
Ġdefin itely
g ing
0 6
Ġba ck
Ġevery thing
Ġyea h
Ġar ound
Ġhobson s
t n
Ġ en
Ġ our
Ġsuggest ions
n ce
Ġg r
o or
Ġa h
Ġhop ing
i p
Ġ3 3
Ġsch ool
u ll
Ġhi gh
Ġun able
Ġc o
Ġd es
Ġnando s
Ġ er
sta nce
Ġshadd ai
5 7
ke t
Ġo ver
Ġpro ble
ch es
Ġproble m
Ġre st
Ġop en
Ġfin ches
Ġl uck
Ġv en
Ġb rough
Ġar bury
Ġbrough ton
s u
Ġwonder ful
Ġv ie
er s
3 6
Ġb ra
5 1
Ġs al
Ġd in
Ġm ost
ame se
tn amese
Ġvie tnamese
Ġassi stance
brook es
Ġamer ican
Ġadd en
4 2
comm od
Ġneed ing
Ġprefer red
Ġy et
Ġbed ou
Ġac commod
Ġhill s
g ue
5 5
Ġpr ince
3 8
Ġap olog
Ġ ke
ab ly
f y
Ġlist ing
Ġbedou in
Ġadden brookes
gue se
Ġch an
Ġd itton
Ġsu it
7 7
Ġportu guese
er ia
Ġv in
ex ican
Ġfit s
Ġvi si
Ġpizz eria
Ġm exican
Ġarch way
Ġinterest ing
Ġnightclub s
Ġah ead
Ġthing s
Ġvisi ting
Ġcla re
Ġclose st
g d
Ġs ai
8 0
Ġc ast
Ġcast le
ore an
Ġs c
es us
Ġj esus
Ġal p
an g
Ġpark s
s ser
Ġbra sser
Ġw a
Ġo ld
Ġgre en
Ġw ok
o on
ell ent
Ġseat s
Ġexc ellent
Ġalp ha
Ġcom ple
Ġun su
or ks
Ġar tw
Ġbrasser ie
Ġartw orks
f f
ti me
Ġ end
in t
g in
on g
it ion
Ġlook s
Ġsu ch
Ġunsu ccessful
i l
Ġri ce
ut e
Ġstar t
4 4
Ġbe gin
Ġven ue
a le
Ġe arlie
Ġearlie st
Ġarch a
Ġ012233 6
or ter
Ġsh orter
Ġcar ol
1 8
Ġprefer ably
Ġk itch
Ġcarol ina
Ġkitch en
Ġand re
1 3
7 8
Ġt el
Ġandre w
2 5
Ġch op
Ġro sa
a h
Ġ0 6
iz e
ver ton
Ġroom s
Ġdown ing
en e
i er
Ġle verton
Ġal i
Ġk orean
Ġl od
sta l
Ġ2 4
Ġma gd
Ġtravell ing
Ġbe t
Ġpo stal
Ġch arlie
Ġd a
Ġcl i
ep hone
Ġtel ephone
Ġcli fton
Ġgo es
Ġapolog ize
Ġlod ging
d s
al ene
Ġmagd alene
2 8
s elf
Ġinclu d
5 6
Ġ01223 30
Ġc omm
it ies
ai l
Ġfit z
ell o
er n
Ġj ello
Ġhi st
Ġmar y
m as
Ġe arl
Ġearl ier
re ct
Ġle is
Ġleis ure
Ġp un
Ġr d
ou p
Ġdo jo
Ġgr oup
m es
3 4
p o
Ġa ust
ad y
Ġdes c
d a
Ġvin ci
Ġby ard
jo y
Ġen joy
Ġmy self
Ġsp ice
n a
Ġke ttle
rip tion
Ġschool s
Ġdesc ription
z a
Ġg u
ed u
Ġmi ll
Ġre a
u ra
b oat
n er
g er
Ġt en
Ġv ue
h i
oh n
7 9
Ġti mes
Ġj ohn
Ġcost s
k a
Ġon es
Ġsch edu
Ġs ystem
Ġriver boat
or g
ull y
Ġrea ch
Ġo ak
Ġge org
ol k
Ġwork s
Ġgeorg ina
us ion
e m
m ar
Ġhead ed
Ġb it
Ġty p
k y
Ġy ip
it i
mar ket
3 3
Ġ01223 4
Ġnew market
Ġyip pe
Ġgaller ies
Ġri de
Ġgard ens
in h
Ġb inh
ff iti
Ġyippe e
Ġcomm ute
Ġthan h
Ġ #
Ġchurch ill
Ġgra ffiti
Ġpa ra
Ġdin ing
oat s
u se
Ġbet ter
Ġcamb oats
ra id
Ġaf raid
Ġsal sa
Ġpa ss
Ġn us
Ġtyp es
a ce
Ġent er
b il
f ully
Ġd ate
Ġsu ccess
Ġwant ed
Ġshow ing
ol ia
s ca
ra la
Ġs ite
Ġh ak
at olia
Ġan atolia
Ġlot s
am a
Ġnus ha
p in
Ġhak ka
Ġschedu le
2 6
Ġbegin ning
w ard
Ġad c
Ġc at
k ok
in oor
Ġk oh
Ġmi ss
Ġkoh inoor
Ġy u
ation s
z z
Ġwh ite
Ġu g
Ġten pin
d y
Ġ7 9
and le
ou s
t e
c y
Ġb ang
Ġr un
Ġloc ate
Ġn am
or y
Ġb l
Ġbang kok
ent ion
Ġun it
Ġnear by
ition al
Ġhow ever
Ġwa it
Ġgra fton
Ġb ot
an ic
Ġle ts
ail s
Ġug ly
Ġbot anic
p ensive
Ġhe ard
m an
ar y
th all
Ġfun ky
Ġconcer thall
Ġgu ess
b anese
Ġn ext
Ġle banese
Ġy ard
Ġap p
Ġho ly
Ġch i
Ġm oon
Ġp op
Ġd uck
Ġ01223 90
Ġpick ed
Ġduck ling
ri es
m er
Ġh mm
Ġp al
2 2
Ġw andle
Ġin ex
Ġpop ular
Ġq uest
h al
Ġcount y
o y
Ġinex pensive
Ġlisting s
Ġguest s
Ġmeet ing
Ġpara de
Ġwandle bury
Ġbl oom
7 0
Ġlov ely
Ġra za
5 3
n y
Ġf i
ver a
ma vera
Ġcor rect
Ġbloom s
it a
Ġm ention
Ġpri mavera
Ġj ap
ge s
gh er
Ġmar gher
Ġjap anese
Ġ x
Ġt ou
ent y
Ġu se
Ġfe es
Ġpal ace
Ġblooms bury
Ġtheatre s
Ġmargher ita
u d
Ġni rala
Ġcon si
Ġluck y
Ġ4 4
i am
Ġwh ale
Ġme gh
Ġde t
Ġgaller ia
ou l
q q
en ce
Ġs ea
9 66
b b
Ġt e
Ġb all
Ġpl enty
Ġgarden ia
Ġtou rist
Ġball are
ain a
Ġse oul
be y
Ġer aina
Ġab bey
Ġspecific ation
Ġjohn s
p us
v ice
Ġriver side
Ġw ee
Ġconfirm ation
Ġim port
Ġrecommendation s
b ill
r on
Ġl ast
Ġj in
Ġent ries
bil ity
g on
Ġl u
ir kw
Ġk irkw
Ġkirkw ood
Ġhouse s
Ġsuccess fully
Ġimport ant
w or
Ġavaila bility
e ology
ari an
Ġmegh na
m o
p t
p er
Ġjin ling
Ġ15 4
Ġa w
Ġh a
Ġra ther
Ġmiss ing
f ood
Ġsea food
Ġt ree
Ġsta nd
it o
Ġlea st
Ġv ar
bill ies
Ġcine wor
Ġdet ails
Ġcinewor ld
Ġ4 0
Ġvar sity
Ġsou l
qu ito
Ġfitz billies
Ġf olk
Ġwi sh
Ġser vice
Ġ01223 24
em po
Ġchi quito
Ġb us
zz o
Ġpre zzo
Ġe ven
Ġk y
Ġwee k
l i
ra ry
Ġso ck
empo rary
Ġid ea
Ġsome time
Ġsai gon
Ġs it
ur ger
Ġpo int
Ġ012233 58
en ny
ar ly
Ġap pe
Ġarcha eology
Ġboat ing
k ie
Ġcont emporary
Ġf ran
mm oy
Ġky mmoy
re ci
Ġb enny
Ġchrist i
Ġcor pus
Ġfran kie
Ġex act
6 4
c ing
Ġs ay
Ġaccommod ations
Ġte ch
Ġwh e
Ġm orn
Ġmorn ing
Ġe arly
Ġnam ed
Ġr us
Ġapp reci
Ġquest ions
i v
st r
Ġmu st
Ġ01223358 966
and hi
Ġwonder ing
Ġta sca
Ġadd itional
8 9
Ġh ed
Ġbar n
Ġtech n
Ġpe king
Ġexc it
ri an
Ġg andhi
Ġh ad
Ġar ts
Ġhe y
Ġd ura
Ġpl ay
Ġshadd ia
Ġdura tion
Ġan th
rop ology
Ġhed ges
Ġanth ropology
Ġon ce
Ġaw es
Ġbenny s
ge se
ment um
Ġste ak
Ġawes ome
Ġthin king
p lace
Ġb el
ur f
Ġpun ter
Ġother s
Ġali mentum
Ġappreci ate
6 8
Ġ ve
Ġcomple ted
Ġstand ard
Ġsee ms
Ġtechn ology
d oor
Ġa str
Ġportu gese
Ġastr ot
j g
Ġc orn
1 4
Ġ &
Ġt w
Ġg our
me t
Ġastrot urf
Ġgour met
om ent
Ġof f
Ġq ue
Ġsteak house
Ġam en
Ġsor t
Ġaust rian
2 45
op e
Ġsi d
Ġout door
Ġm oment
ab as
Ġbarn abas
Ġb urger
l ish
Ġf ami
ot e
Ġboat s
Ġp itch
y ne
Ġj un
ge t
Ġle ar
Ġho ld
Ġsai d
ll age
um mer
Ġconcer t
Ġexcit ed
7 6
Ġli me
Ġchurch es
Ġn ope
Ġb u
Ġre ady
Ġt on
Ġwhat ever
Ġso on
Ġc ote
Ġget ting
Ġmi mo
Ġmimo sa
Ġf yne
Ġsome place
Ġun o
Ġtravell ers
Ġlime house
7 3
Ġ0122335 3
Ġlu ca
s se
Ġvi llage
Ġaccommod ate
Ġc ome
izz i
Ġz izzi
Ġamen ities
i ght
Ġs af
Ġch ar
l ot
Ġ5 1
Ġe f
Ġge ts
Ġjun ction
Ġw at
Ġl an
Ġinclud ing
' ve
c ina
f e
p ri
ou ble
Ġpri cing
Ġlo ch
Ġcu cina
Ġpass age
es ian
Ġb ab
c om
s as
in ess
Ġm um
Ġsh op
Ġsuggest ion
Ġmum ford
Ġf usion
Ġb la
Ġtw o
Ġd ar
Ġthat s
Ġmention ed
Ġc lo
Ġs lot
Ġwith in
Ġhelp ful
p ing
c um
Ġbus iness
Ġta j
i ra
st reet
Ġ0 1
Ġback street
z e
Ġfor ward
Ġ3 0
Ġro sas
Ġp an
Ġea ch
Ġcla ssi
Ġco cum
b ly
o wn
Ġany time
c king
u el
Ġhapp en
z ion
Ġsta zion
Ġne are
Ġ2 8
Ġmar ket
Ġstazion e
Ġneare st
an uel
Ġe mm
Ġr out
Ġv ari
Ġemm anuel
f ron
Ġc ott
Ġre d
Ġsaf fron
Ġef es
Ġd one
Ġinclud ed
Ġconsi der
b u
p p
Ġc ow
Ġhe ar
Ġbla ck
6 9
Ġy ell
Ġwat er
Ġyell ow
88 8
c al
Ġ7 5
Ġd is
Ġj ama
Ġv ol
Ġsee ing
7 1
Ġf ar
ur ing
Ġlear ner
Ġsh ira
Ġgre y
Ġshira z
ci ence
Ġsee m
Ġsal a
6 3
Ġne cess
Ġst yle
Ġcott o
Ġwhe ther
8 4
Ġth ong
Ġc op
Ġjama ican
Ġcop per
1 00
ch ange
Ġex change
Ġst op
Ġhist ory
Ġrout e
a z
Ġd at
Ġspecific ally
pri se
Ġclassi cal
Ġfe z
og y
15 1
el ogy
Ġ3 7
lu e
Ġche cking
Ġarcha elogy
Ġton ight
Ġnumber s
Ġcomple te
Ġb lue
Ġfri end
Ġd uring
g en
j ma
Ġp m
46 46
Ġgr ounds
Ġdin ner
jma hal
' t
ra l
Ġg la
Ġ8 8
Ġra jmahal
Ġandrew s
Ġnecess ary
Ġre c
ne y
Ġus ing
Ġsid ney
l n
Ġs ur
Ġ7 0
Ġmi d
Ġpossi bly
Ġs cience
f ee
Ġspeci fy
24 0
Ġf ant
ast ic
ci d
Ġmi ds
Ġdar ry
Ġfant astic
Ġmids ummer
Ġc ool
9 8
Ġhun g
Ġlat est
Ġ01223 245
ce pt
qu es
Ġent ry
00 0
Ġbab a
Ġc of
Ġminut e
Ġcof fee
t u
Ġne wn
Ġnorth ern
Ġnewn ham
Ġto ld
6 7
Ġan ti
Ġg ree
Ġanti ques
9 9
' d
9 4
um ping
Ġhigh ly
Ġ01223245 151
Ġhop e
Ġ012234 46
Ġh on
Ġw ine
Ġreg ard
Ġsit ar
i ve
Ġc ook
Ġ4 9
Ġ9 8
Ġve get
Ġcook house
Ġveget arian
c on
Ġhist on
Ġfami ly
Ġgla d
1 49
Ġth rough
Ġchar ge
' re
re ady
Ġal ready
amb ar
Ġ4 7
Ġk ambar
Ġoffer ing
Ġappe ar
Ġm al
Ġfor g
Ġ5 6
Ġfit ting
Ġeven ing
8 7
p s
Ġ2 9
Ġmal ay
Ġvi ct
Ġtheat er
Ġco ld
q ue
Ġc a
Ġrequest s
Ġcla ri
Ġcine mas
p ot
Ġwill iam
Ġmalay sian
Ġhot pot
ll y
tt y
er o
ic al
b j
Ġwilliam s
8 6
Ġme ze
Ġm o
Ġpre tty
Ġ6 0
r or
er man
Ġc re
en g
Ġs le
Ġs ince
Ġg erman
Ġreach ed
Ġsle ep
Ġm one
Ġwill ing
Ġcold ham
Ġmone y
6 5
o c
Ġar ran
Ġ01223353 888
Ġ3 8
Ġz ero
Ġer ror
Ġ5 0
Ġforg ot
4 7
et y
Ġd anish
Ġdarry s
Ġun der
Ġwith out
tern oon
Ġaf ternoon
Ġconf usion
b lish
sta blish
Ġe stablish
Ġpick y
p ple
or ia
Ġd ouble
Ġreq ue
Ġ01223 5
Ġexact ly
Ġvict oria
Ġreque sted
Ġc ase
Ġ08 7
Ġswimming pool
3 7
Ġsc ud
ah ar
Ġpan ahar
Ġclari fy
s j
Ġs w
Ġm ood
am ore
ut i
Ġwhi pple
Ġque ens
Ġ0 2
Ġestablish ment
Ġscud amore
9 1
Ġpun ting
Ġvari ety
Ġ0 4
Ġsh ort
Ġbel ie
Ġarran ge
Ġf ull
Ġs k
Ġ1 00
Ġbe a
Ġst ro
Ġ16 3
Ġf end
g am
er y
Ġp ip
Ġd u
ere d
as ha
Ġrun ning
Ġpip asha
b an
Ġbu dge
Ġscudamore s
m b
Ġa ccess
d p
Ġcou ple
Ġcu ban
Ġsp ot
m w
Ġbudge t
Ġc ate
Ġwh y
Ġran ging
Ġac cept
Ġact iv
Ġcom p
Ġwa gam
uti ful
Ġbea utiful
Ġfend itton
Ġcate g
i fy
re nt
Ġro se
Ġstro ver
Ġse ction
Ġspeci al
Ġlyn ne
Ġarchitect ura
Ġwagam ama
7 2
Ġt ang
Ġind ia
v ie
Ġtr umping
Ġtrumping ton
Ġwhich ever
Ġcur rent
Ġke ep
Ġsur prise
at ive
Ġcan t
Ġhon da
j ah
u al
ra jah
Ġma ha
Ġswi ss
Ġmaha rajah
Ġf a
Ġin de
Ġse con
Ġbelie ve
Ġsecon d
7 4
Ġl ex
Ġne ver
Ġun ti
Ġca use
Ġunti l
a q
Ġt es
Ġgre ens
b s
Ġ01223446 100
Ġregard ing
Ġin j
Ġl and
Ġd on
ction s
ll iam
Ġ01223 21
wi lliam
Ġsearch ing
Ġ0122390 21
Ġp ic
Ġme an
Ġor der
Ġsh ee
Ġ01223 57
Ġcat ch
Ġlex us
Ġtes la
w s
Ġ5 2
Ġfitz william
Ġcause way
9 6
o ver
od a
Ġsk oda
8 2
on esian
Ġg ri
lu g
Ġind onesian
Ġconcer n
w a
y ot
Ġh u
Ġma king
Ġto yot
Ġinterest s
bb ean
Ġtoyot a
Ġrecommend ed
Ġrus sian
Ġclo wn
Ġrec or
Ġk o
Ġ10 5
Ġgri ll
k in
in es
Ġs es
Ġm or
Ġcross over
Ġrus kin
Ġarchitectura l
Ġses ame
ure d
Ġsu pp
Ġhelp ing
49 00
2 58
Ġ8 2
Ġup com
Ġprovi d
sh er
Ġko sher
Ġupcom ing
3 1
Ġs lug
Ġlet tu
Ġtake s
Ġdes i
Ġinde ed
Ġpic king
Ġlettu ce
Ġc ari
Ġcari bbean
a way
p m
s ue
v o
Ġi ri
am mas
Ġ3 5
Ġlodging s
Ġp as
Ġf act
Ġl eng
Ġleng th
Ġme ant
Ġdi re
Ġh ong
Ġbe ing
Ġma hal
Ġgree k
e f
Ġun us
Ġchrist mas
qu ale
Ġer it
Ġaust ral
Ġchurchill s
Ġclown s
Ġpas quale
Ġunus ual
Ġaustral ian
0 4
Ġh k
Ġfor d
Ġeast ern
Ġun av
aila ble
Ġac cid
Ġinj ured
Ġrecor ds
Ġunav ailable
Ġaccid ent
Ġ um
Ġt ran
Ġ3 2
Ġper sian
Ġconfirm ed
Ġ0122333 4900
Ġcateg ory
Ġiri sh
Ġre l
Ġl ammas
Ġha ving
Ġd ri
Ġtake away
Ġmary s
149 60
Ġcurrent ly
g l
Ġb mw
Ġs ri
Ġm ich
un ch
Ġ0 3
Ġlan k
u p
pe ct
Ġsp end
i le
Ġ ver
Ġex hi
Ġexhi b
Ġf an
et ian
Ġ012233 12
Ġven etian
Ġ0122390 2
a x
l f
Ġg ir
Ġcat al
an gh
Ġsh angh
Ġ012233 14960
Ġ20 2
Ġthough t
Ġpol ish
Ġrest ate
Ġshangh ai
0 2
6 23
Ġapolog ies
Ġsupp ose
Ġmich a
f t
Ġc ab
Ġre vie
Ġadd re
Ġpol ar
Ġsc ott
Ġdire ctions
0 5
6 2
ou nt
Ġlank an
it s
l ber
at ing
Ġ01223 45
Ġgi lber
Ġ012233 66
Ġsleep er
Ġmicha el
Ġgilber t
9 3
l h
r h
Ġhung arian
Ġcatal an
Ġsleeper z
7 5
s can
ot tish
le xi
Ġtu scan
way s
Ġsc ottish
lexi ble
d q
Ġ012233 23
Ġa ud
Ġis sue
Ġappear s
Ġver ify
Ġaud i
Ġt er
Ġdep end
Ġta king
Ġ7 4
sse s
oc can
Ġmor occan
9 2
Ġp ound
ks wa
Ġvol kswa
Ġrevie ws
Ġc ai
Ġ0122333 23
Ġaccept able
Ġcai us
re an
Ġf lexible
ed ish
Ġam ount
Ġcho se
Ġtheat ers
Ġsw edish
j s
Ġcor si
258 7
Ġgir ton
Ġ0122345 2587
e g
Ġc r
Ġsu sse
Ġlat in
Ġerit rean
Ġsusse x
f olk
u a
Ġnor folk
ro ke
Ġvolkswa gen
Ġaddre sses
Ġp urch
Ġ0 19
Ġ012233 50
Ġpurch ase
Ġaf ford
Ġup sca
Ġupsca le
c ent
one se
Ġpe mb
Ġpre ss
Ġ13 3
Ġeat ing
Ġdat es
Ġcant onese
Ġdesi red
Ġpemb roke
en ue
Ġhel d
Ġav enue
Ġro bb
Ġrobb ed
m ost
Ġ et
Ġs ing
Ġal most
Ġbar be
0 3
Ġbe ca
Ġtable s
35 7
Ġ0122330 4
Ġ019 54
Ġbeca use
d w
ra me
ri ed
Ġal ways
Ġqu al
9 7
g x
r s
Ġstation s
Ġcat h
Ġha ven
f l
g w
t z
Ġc ra
Ġb ill
Ġmi sta
Ġen ough
8 5
m y
Ġh al
Ġcheck ed
Ġ0122335 5
Ġexhib ition
i g
en ger
Ġf all
ore y
12 4
Ġ01223 4646
Ġpass enger
Ġvol vo
Ġport ra
Ġj ub
Ġamer ic
ile e
Ġjub ilee
b d
i ous
Ġad ress
Ġtrain id
Ġst orey
h ill
gh es
Ġ5 3
Ġhunting ton
Ġshort en
Ġtran s
Ġcorsi ca
Ġcath ar
ly n
Ġ012233 24
Ġportra its
d z
Ġl ate
Ġm er
gh an
Ġaf ghan
57 25
Ġappe al
Ġcr ui
Ġameric as
h x
s w
Ġwest side
Ġparticular ly
Ġshee p
Ġmichael house
Ġtrans port
Ġ01223 50
Ġcre ative
Ġhu ghes
Ġnarrow s
6 00
j b
Ġ3 1
Ġdi rect
Ġr ow
Ġ012233 11
Ġconf use
Ġcaf fe
Ġpr int
Ġcra ving
k n
q f
Ġp ut
Ġf are
Ġam az
Ġ5 17
ab ase
Ġdat abase
Ġamaz ing
Ġe mer
Ġ01223 27
35 3
42 00
Ġque en
gen cy
Ġemer gency
9 5
Ġb ate
Ġg ran
Ġpo lyn
15 8
Ġsc and
Ġmer cer
Ġbate man
Ġpolyn esian
b w
Ġ ext
Ġ01223 8
Ġ6 9
Ġfe el
Ġet c
d le
Ġw ow
Ġre as
Ġl ess
Ġperson ally
Ġqu ery
iv ely
8 3
er i
Ġf rame
Ġb ase
Ġex pect
Ġst ick
Ġask ed
Ġchan ce
Ġreas on
r u
v ian
sta nd
ina vian
Ġen g
Ġscand inavian
Ġmercer s
t own
ser s
am p
Ġo bj
Ġdown town
Ġbro ad
Ġcrui sers
Ġobj ect
s r
Ġsuit able
Ġactiv ity
Ġfan cy
Ġatt end
Ġal ong
27 9
Ġkettle s
c c
d itional
Ġtra ditional
Ġj o
Ġnew s
Ġopen ing
Ġeng lish
a e
a g
Ġar ca
Ġal one
Ġal tern
Ġexp eri
Ġcheap est
Ġhall s
Ġ0122333 48
Ġbel g
Ġarca de
c ular
p j
q y
Ġ6 4
Ġconcern ed
Ġbase d
2 23
d ered
i m
Ġl unch
Ġwhite hill
Ġhal al
Ġtransport ation
i x
x h
Ġm is
Ġ07 8
Ġ012235 66
Ġbroad en
Ġactu al
Ġnam es
Ġconsi dered
Ġidea s
6 11
u f
w y
Ġi ll
en cy
Ġwi fe
Ġcamb ourne
od es
Ġclo ser
Ġ012234646 46
Ġbelg ian
0 353
k en
Ġe ver
7 41
g n
Ġm ut
Ġne ither
Ġ012233 279
j x
n f
t y
Ġre t
om y
Ġ01223 52
Ġ6 3
Ġ6 8
Ġcon ven
Ġ0122352 5725
h y
o s
z y
at ure
Ġl ow
Ġ5 357
Ġspecific s
Ġafford able
v ol
Ġt our
Ġde al
88 0
Ġmid dle
Ġ0122321 0353
Ġmista ke
Ġgran de
e y
k v
Ġre me
Ġprice y
Ġdeparture s
Ġsome one
12 240
Ġwel sh
66 0
Ġbit es
Ġ087 12240
Ġ08712240 240
Ġb o
Ġcom es
Ġpossi bil
li ple
Ġconfuse d
Ġmut liple
Ġpossibil ities
g bp
Ġ07 6
Ġqu ick
g y
Ġm ain
Ġ15 2
Ġ19 1
Ġ012233 00
Ġ012234 741
Ġ012234741 44
le cular
Ġwi de
08 8
Ġgast ron
20 91
Ġ0122390 2091
70 5
Ġfi g
Ġmo lecular
Ġgastron omy
v ent
z c
Ġb as
Ġe c
66 8
Ġservice s
j f
p q
t l
an ce
Ġli ght
Ġwh o
Ġdo ing
23 6
Ġ15 1
Ġidea lly
Ġsing ap
Ġbas que
p a
Ġ012233 35
40 50
Ġbarbe que
5 66
c r
j y
s x
v d
Ġple as
Ġ10 6
Ġunder stand
Ġrose ford
ua rant
Ġqual ity
s ing
Ġstar ing
Ġsouth ern
Ġtr ouble
Ġ01223 51
Ġop er
Ġdis p
Ġthrough out
Ġi de
ra un
15 4
Ġ012233 54
08 5
39 7
Ġhung ry
Ġ012233348 60
Ġsingap orean
Ġide al
Ġa ss
Ġb r
Ġin vol
Ġs ir
Ġany more
ch el
Ġpostc odes
Ġpl ough
Ġchange d
ers chel
Ġ0122330 7
Ġdisp ute
1 12
p x
r d
u y
Ġb ad
Ġ0122330 4050
Ġsit es
Ġdis c
Ġconven ient
b g
Ġ rom
Ġan gl
Ġwould n
15 50
Ġangl ia
n z
r t
Ġ4 1
l ar
o ll
p d
el er
Ġd ue
Ġs qu
fi ed
Ġsi mi
Ġwhe eler
Ġ087 1550
Ġ012233323 20
Ġsimi lar
Ġ0871550 10
b t
b ably
e j
f ish
h g
p b
Ġ es
or s
Ġexp l
Ġking fish
Ġ12 4
Ġpro bably
Ġ07 7
Ġkind s
Ġgastropub s
Ġkingfish er
am ple
ter s
Ġpart s
Ġj ourne
Ġsu per
Ġk id
Ġ07 9
26 5
li ar
Ġfami liar
Ġ01223902 088
Ġjourne y
j e
r q
Ġw r
Ġy o
an ian
le ct
Ġnor man
Ġ15 17
ci l
Ġper i
Ġhin ch
Ġschedule s
Ġbu y
Ġfriend s
Ġdri ver
Ġrom anian
a sian
e w
q a
s y
in brook
Ġh erschel
Ġp ull
Ġcent ra
Ġperson al
Ġfa cil
Ġ01223304 705
Ġhinch inbrook
7 18
d ing
l j
Ġm ow
Ġfood s
Ġaccommod ation
77 08
Ġ012239021 68
Ġ01223366 611
Ġec lect
Ġmow bray
Ġeclect ic
n l
Ġ est
Ġy e
at ively
Ġ01223 4200
Ġwor king
08 7
Ġ40 4
623 3
Ġ012234200 60
u w
Ġne ur
Ġ2 124
Ġhow dy
Ġwor ld
27 0
Ġ0122333 6233
90 6
Ġpan asian
Ġ012239021 12
Ġ01223312 112
4 27
Ġn ah
Ġre sp
Ġ3 6
15 9
vi ous
Ġmarri ot
ward s
Ġweek end
Ġcoldham s
Ġfig ure
Ġ087155010 10
8 1
q b
x a
ra t
Ġp rop
at h
Ġex ample
Ġnarrow ed
Ġplan s
h u
Ġde cid
Ġ5 7
Ġ8 0
Ġ012233 52
Ġ9 6
Ġfe ature
Ġcall ing
Ġactiv ities
Ġprovid es
Ġrel atively
Ġ01223300 085
h t
Ġw ent
me ters
Ġnorth amp
Ġas king
Ġ15 6
Ġwor ry
Ġcuis ines
Ġhour ly
Ġ0122335 7708
42 8
Ġ01223355 397
kn own
Ġext ra
Ġnorthamp ton
a c
ting s
Ġreg ency
Ġgree tings
c ode
f d
g m
j v
l x
Ġt al
Ġth ir
Ġd rop
rant a
Ġg ranta
Ġ3 4
Ġ012233 15
21 0
Ġsel e
Ġz e
Ġ01223902 158
a w
d b
k c
n k
q c
Ġc le
se d
Ġcan c
Ġ4 2
Ġ4 51
ver s
ai d
Ġ7 10
Ġ8 3
Ġ6 2
Ġgi ven
Ġkind ly
10 18
78 1018
64 12
Ġfa ir
Ġ01954 781018
Ġcentra lly
t q
ce s
al and
40 2
Ġrel ated
Ġ012238 668
Ġpleas ure
Ġwr ong
Ġze aland
Ġ012238668 00
6 1
9 14
f n
m ber
s cent
z k
Ġb art
Ġd el
es house
Ġme al
Ġany way
Ġ11 0
Ġvi king
Ġrest uarant
Ġgu eshouse
Ġquest ion
Ġcre scent
Ġ0122357 6412
Ġye ar
Ġcanc el
Ġbart on
p h
Ġ ed
Ġw an
Ġf ails
Ġl ion
Ġan sw
Ġfor m
Ġstar ts
fere d
Ġe m
Ġac ross
35 16
Ġ0122333 3516
Ġreme mber
in fo
sta r
Ġfor get
Ġtown info
Ġ0 087
Ġ3 9
15 3
Ġ01223 7
08 000
Ġenter prise
22 08000
Ġcathar ine
Ġsqu are
Ġ0087 2208000
l ver
u j
ow ing
is on
Ġfind ers
Ġpre vious
Ġr ing
Ġsi lver
Ġu h
Ġten ison
70 2
Ġ40 428
Ġcorn er
Ġexpl ore
3 88
v h
v y
Ġt ried
Ġh m
Ġre al
Ġdo z
Ġelse where
Ġo wn
Ġwork ed
Ġac com
Ġperfect ly
Ġsid gw
Ġcomp an
Ġ01223307 402
g g
m f
Ġp aid
le ss
45 19
Ġe vent
Ġ01223 29
Ġ6 6
Ġrest urant
Ġaust rala
Ġattend ing
Ġaustrala sian
b q
t le
Ġt re
ed i
Ġpe as
Ġkn own
Ġ08 4519
623 20
Ġ084519 62320
j z
el ix
Ġw al
Ġf elix
Ġg ave
ic ine
Ġsu f
Ġ7 1
Ġun known
Ġra te
ment s
19 4
Ġmed icine
Ġ0122335 50
78 2
Ġmill ers
Ġwhite house
Ġlu x
Ġ01223350 914
ath er
5 11
6 265
b z
e h
l m
n i
el ber
Ġp ub
Ġme t
si c
Ġta ken
Ġchoo sing
Ġhe id
Ġ0122333 6265
Ġ0122336 566
Ġexpect ing
raun t
Ġperi od
Ġed ward
elber g
Ġheid elberg
Ġ0122336566 4
h c
s ure
u x
ra ce
Ġre fer
Ġprefer able
Ġun sure
Ġwor ried
17 0
29 6
46 00
Ġ0122333 77
Ġmed ical
38 2
Ġhist or
Ġexperi ence
Ġass um
Ġresp on
Ġsidgw ick
Ġsuf fi
Ġ012233377 66
th ough
Ġcan ap
Ġal though
Ġno on
ic ious
Ġind ust
Ġgi ving
Ġoption al
20 2
Ġprovid ed
Ġdel icious
Ġcanap es
j m
r x
Ġ oo
Ġb ummer
Ġcamb ri
Ġdoes nt
Ġ14 4
Ġconcerthall s
Ġchi ld
53 14
73 7
Ġestablishment s
Ġ0122357 5314
2 57
f s
r f
s d
s v
Ġin q
Ġg ather
Ġcent ral
Ġ01223 46
Ġfin ish
22 2
Ġshee ps
Ġ01223323 737
Ġcompan y
5 00
b i
b and
d o
h l
h n
o i
x s
Ġh us
Ġc ro
it es
Ġex ist
Ġreser ving
Ġ7 880
Ġ13 8
Ġgive s
Ġspeci fied
Ġsp ace
29 9
Ġap po
38 30
Ġvari ous
Ġaltern ative
Ġest ate
Ġsele ction
Ġindust ri
Ġhus band
Ġappo int
b al
g q
k m
n j
n x
v c
v m
w w
Ġl ie
Ġto p
Ġg lo
ur y
Ġcol ville
Ġ20 5
Ġ07 4
Ġcour t
Ġhope fully
Ġarrange ments
Ġter race
Ġ01223566 388
Ġfeature s
Ġglo bal
i al
l q
v v
x y
z il
Ġf oll
pe ci
Ġpeople s
Ġwhat s
Ġ2 00
Ġbooking s
Ġadd ition
Ġwest ern
Ġtrip s
Ġbra zil
Ġ012233323 60
Ġes peci
Ġbrazil ian
Ġespeci ally
6 88
j j
Ġh om
Ġp ast
Ġ3 65
Ġ10 8
24 8
Ġpara meters
Ġ01223324 600
Ġ012233279 08
Ġappoint ment
Ġhom erton
1 88
4 10
l ic
p k
q e
s q
re t
Ġh and
Ġp la
Ġloc ating
Ġper ne
Ġsee king
59 6
Ġhmm m
71 4600
Ġ01954 714600
Ġreason able
b n
Ġ ow
Ġf r
at ology
ed bur
Ġexp and
Ġ3 28
Ġj edbur
Ġ8 9
Ġ9 9
17 07
94 48
Ġdepend ing
Ġ01223350 688
Ġinvol ve
Ġpub lic
o in
q g
t a
v t
y e
Ġs m
Ġst ated
23 3
23 8
Ġcontact ing
Ġ0122335 1707
Ġschedu led
Ġapp ro
Ġ40 210
Ġ0122324 3830
Ġ01223355 159
2 24
g og
j c
Ġt ea
Ġth orn
ar s
Ġ0 17
book ing
Ġv ary
11 1
Ġ07 0
10 4
42 22
38 7
78 6
04 46
Ġter ri
Ġcathar ines
Ġjedbur gh
Ġthorn ton
8 43
a a
i gh
r l
t b
x d
z l
Ġ od
ra ham
Ġgo g
Ġab o
Ġ5 4
Ġma gog
Ġsi ght
Ġ012233 59
Ġclub s
Ġset tle
Ġ0122333 8
Ġ0122335 6
Ġbab raham
Ġspot s
Ġ01223324 222
Ġ01223354 382
Ġindustri al
d t
w d
Ġa way
Ġex cept
Ġ01223 2
Ġ14 16
50 15
Ġha em
Ġ40 270
Ġchar ges
Ġdis app
Ġ01223304 906
Ġtal k
Ġrespon se
5 21
b f
b l
m n
o e
r g
r k
Ġh ur
ri ous
15 11
Ġeat ery
ott en
88 42
49 4
36 1
Ġ01223446 104
Ġ0122350 33
Ġ01223335 511
c u
i h
k f
o z
t een
v f
v l
v n
st ra
Ġde ci
gh ts
Ġ5 29
Ġeast side
Ġ0122336 4222
Ġswimmingpool s
Ġret ail
Ġdoz ens
Ġgather ing
Ġdeci de
8 28
9 11
q w
r b
r j
v k
x c
z m
z w
Ġs ad
Ġde cent
ur ton
Ġst urton
59 9
Ġfavor ites
48 0446
Ġsuit s
com end
Ġ01 480446
Ġopening s
Ġbr ing
Ġaccom od
Ġ01480446 000
7 660
b h
k i
v b
x q
er ies
Ġb unch
Ġ2 90
Ġ2 51
Ġguest room
Ġad j
Ġim p
Ġ0122336 7660
79 77
Ġpass eng
urger y
Ġ0122321 7
Ġlow er
Ġpasseng ers
8 111
8 786
d h
g u
i j
i ence
m p
m it
n n
p r
Ġd r
Ġli ve
xi m
Ġo cc
Ġ7 3
21 87
Ġentertain ing
Ġ07 782
Ġfi ft
Ġ01223353 248
888 2
Ġ152 154
Ġ0122351 8111
Ġneur ology
Ġ012233550 17
2187 45
Ġ07782 218745
3 30
m or
w e
w l
z f
Ġ ot
Ġp ul
Ġf am
Ġre ad
Ġs port
Ġst u
23 30
Ġ15 19
Ġhi lton
Ġ16 9
Ġ012233 60
21 38
Ġste v
08 3
19 224
Ġ0122330 2330
po ke
Ġve re
245 6
Ġ012235 19224
Ġfacil ities
Ġcle ar
Ġdisapp oin
Ġpul led
Ġfam ous
i f
k q
r n
v x
x ed
z t
Ġb ig
Ġto wards
Ġ5 9
12 41
Ġeat eries
27 25
27 410
Ġhon est
Ġdepend s
Ġ0122327 7977
Ġ01223566 188
Ġcro wn
Ġpla za
Ġappro xim
Ġadj ust
c is
g c
m g
o b
o j
p n
at ri
Ġto mor
Ġ17 2
Ġmat h
32 00
Ġhigh er
Ġdar n
Ġdirect ly
Ġhaem atology
Ġtomor row
5 52
6 07
7 50
9 00
d f
v q
v r
w f
z n
Ġ $
an age
Ġ01223 84
17 8
52 64
Ġmiss poke
Ġshop ping
Ġ01223312 843
Ġfall s
Ġ012233279 78
Ġdecid ed
Ġ0122384 2725
d red
w j
ed d
th e
ll s
Ġatt em
ss y
12 596
us ing
07 4
Ġhun dred
Ġconf using
79 66
Ġshort ly
Ġ01223315 702
Ġ0122329 5264
Ġfift een
c ue
h q
j p
l t
o q
w c
z s
re s
Ġp umping
Ġch edd
Ġthank y
12 660
Ġserve d
Ġother wi
Ġvisit ors
59 8
Ġresul t
Ġ0122336 2456
Ġ0122330 257
Ġbarbe cue
Ġappeal ing
Ġ012238 12660
Ġjo in
Ġ0122351 1511
Ġoper ation
Ġwan ts
Ġlux ury
Ġfoll owing
Ġ01223338 000
Ġchedd ars
Ġotherwi se
c m
d en
g s
j q
re ad
Ġg l
Ġsh e
Ġwor ries
Ġrequire d
Ġ0122333 3200
Ġ0122335 1241
80 2
Ġ0122336 8786
Ġsing le
Ġaltern ate
Ġem ail
Ġtre at
Ġod d
521 9
Ġcrown e
Ġthanky ou
0 1223
6 25
c b
c ology
d g
f c
k d
k ed
n g
n ect
p l
t ree
u h
u ter
y y
Ġs ave
Ġany one
Ġ2 5
00 89
Ġtr ust
Ġ7 2
Ġ13 9
11 8
Ġ07 3
Ġreg ion
Ġreg ret
77 900
33 1
Ġ012234 77900
Ġ0122324 8882
Ġmo ve
Ġcomp uter
Ġdri ve
Ġpull ing
Ġfair ly
Ġ012235033 33
a j
a u
b c
l c
l k
m ind
p v
p z
z p
Ġc ard
Ġre p
Ġpri or
Ġde cis
Ġta ste
Ġ4 6
Ġhelp s
45 6
ul t
Ġea sy
Ġsi ghts
Ġtell ing
Ġevery one
Ġ0122324 0089
li ment
Ġdouble tree
Ġcomp liment
Ġsuppose d
427 7
Ġprop ert
Ġthir teen
Ġstev anage
Ġapproxim ately
j k
m r
q n
v el
w b
Ġt ook
Ġf ro
Ġb ui
Ġre se
Ġin c
Ġl ar
Ġs ell
ld ing
Ġof fered
Ġstay ed
Ġarrive d
un der
12 299
son s
Ġcl in
24 00
Ġ0122333 2138
Ġ012234 12299
Ġ0122324 4277
Ġlear n
Ġreason ably
Ġmis under
Ġ01223352 607
edi atri
Ġhur t
Ġstu ff
Ġcompliment ary
Ġbui lding
Ġlar ge
ediatri c
b our
g f
p ed
q h
s an
t r
z b
Ġb ore
Ġin san
Ġlook up
Ġyour self
Ġ8 6
Ġ19 6
Ġac ute
Ġri ding
Ġcon stra
Ġcon nect
Ġnarrow ing
Ġchest er
52 12
59 1
Ġres pect
Ġfin al
Ġ012234 124
Ġsay ing
86 50
Ġ012235 12596
Ġwal king
Ġhistor ical
Ġsad ly
Ġ01223360 966
Ġbore d
Ġinsan ely
Ġ012234124 30
d n
o v
Ġc am
Ġc ame
Ġm ont
Ġst ate
00 5
23 2
07 718
27 34
20 10
78 77
Ġ47 53
Ġ078 07718
Ġ01223335 153
rd i
718 7
Ġprop er
Ġ01223352 500
Ġ012237 27410
Ġprevious ly
Ġdr in
Ġ73 2734
Ġdisappoin ting
Ġ0122330257 9
Ġmont h
Ġ07807718 591
5 12
b a
c l
d x
h h
m u
t p
w k
z v
Ġ ur
in ion
Ġh ard
Ġc et
Ġf ul
Ġd ish
Ġs urgery
Ġad v
Ġsat is
Ġop inion
Ġho st
17 63
66 2
60 55
57 67
Ġ0122336 34
Ġ0122336 8650
Ġ0122336 1763
Ġ0122330 2010
Ġstand sted
Ġbo ard
Ġassum e
Ġ01223359 750
Ġregret fully
Ġ012233634 71
i re
i ology
m c
q s
q z
s en
w r
x x
y k
y s
en cing
at es
Ġli mit
Ġde ar
23 72
Ġtr u
Ġcho sen
Ġ6 19
Ġcu rious
Ġcon g
Ġclose d
52 5
39 0
Ġ0122333 4200
Ġ33 34
Ġdes k
55 5
Ġ0122336 2372
Ġspecial iz
Ġ01223311 911
Ġjo b
Ġexperi encing
Ġansw er
Ġsuffi ce
Ġcambri de
Ġfr ont
Ġcard iology
Ġrese arch
1 387
2 12
9 58
c o
i u
i que
r ound
v w
z x
ra te
Ġp lu
Ġb ur
ri te
Ġg otten
ent ial
Ġatt ention
Ġcamb rdi
Ġmod ify
Ġel der
Ġdestination s
Ġst rat
Ġ5 8
Ġun less
Ġ13 2
ci ent
Ġsi ze
Ġ18 3
Ġmin s
66 53
35 5
Ġhe art
16 7
Ġ0122330 6
Ġ0122324 7877
Ġ01223366 202
Ġ0122327 6653
Ġfacil ity
Ġchester on
Ġcam pus
Ġcambrdi ge
Ġelder ly
Ġstrat ford
2 083
5 154
d l
i i
i y
n h
p sons
w ery
x f
x w
st ood
Ġth om
Ġc ut
Ġin ter
Ġd ale
Ġon cology
Ġsi lly
Ġbre wery
Ġstan ford
11 0
41 4
Ġayles bury
49 3
Ġcomple x
Ġreach able
70 15
Ġ0122324 1387
76 5
Ġton s
Ġmo vie
Ġsw e
Ġappeal s
Ġwho le
Ġevent s
Ġconstra int
Ġrespect ively
Ġplu s
Ġthom psons
1 880
f h
h b
i fic
t ely
Ġh ate
Ġw ou
Ġf ully
Ġin fect
Ġresta raunt
se ase
Ġli king
Ġne at
Ġmu sic
30 6
Ġsouth end
Ġdi stance
Ġdi sease
Ġ8 4
Ġav o
Ġun ique
Ġint end
29 4
Ġgast ro
Ġz ip
Ġgra b
16 074
90 3
09 27
Ġ0122335 1880
Ġcomple tely
Ġlast ing
Ġter ms
Ġ0122350 6055
Ġ01223311 625
Ġinvol ving
Ġ017 99
Ġabo ve
Ġadv ance
Ġinfect ious
Ġdisease s
8 68
d ir
j i
l v
m z
t es
w m
w x
y f
z q
Ġi an
Ġy um
Ġf oo
Ġb out
Ġre nt
Ġm ine
Ġg wy
Ġam ong
Ġle ft
00 170
45 50
Ġe gg
Ġe ye
Ġman age
ast er
Ġ07 5
40 4
Ġ0122333 84
Ġ0122333 2400
Ġpa ediatric
48 100
77 86
Ġ012234 00170
98 59
Ġregard less
47 48
Ġprovid ing
Ġ01223323 361
Ġmista ken
83 00
Ġdecid ing
Ġ012237 48100
Ġexist s
Ġyum my
Ġgwy dir
Ġ012233384 00
c g
c z
s l
t en
in ts
Ġf ut
Ġg h
Ġnum er
Ġstar ving
Ġplace d
Ġal ot
Ġpo ints
Ġ11 6
Ġmake s
ck s
Ġmatter s
35 4
41 49
Ġshow s
48 6
Ġrest raunt
25 15
79 42
68 38
Ġsoon est
Ġcateg or
Ġnever mind
Ġneur os
Ġinq ui
Ġow e
Ġ01223217 118
Ġhonest ly
Ġdecis ions
ific ations
Ġavo id
Ġfut ure
4 07
8 07
b k
k u
n ed
s n
v g
v j
v ies
y h
Ġ ut
Ġth ru
Ġpri ci
Ġhelp ed
00 59
Ġpro cess
us sed
21 4
Ġout side
29 1
29 3
ist ic
use s
26 3
Ġrun s
Ġlast s
Ġsit u
Ġsteakhouse s
Ġ0122357 512
Ġhu h
Ġdri ving
02 54
Ġqual ifications
Ġ0122350 5015
Ġdisc ussed
Ġ01223315 232
Ġbuilding s
Ġprici er
Ġ0122357512 2
8 17
e bra
g o
q p
r p
x p
in er
el ebra
Ġc elebra
Ġf ill
Ġb an
Ġd ai
ri ate
ve red
Ġhot sp
Ġit iner
Ġle vel
Ġlook ed
Ġ4 5
Ġpre fered
Ġall ow
23 54
Ġ7 8
Ġint ensive
Ġspe ak
Ġcl ient
Ġpay ing
rop riate
29 87
46 4
46 7
28 6
Ġapp ropriate
Ġ0122324 4149
Ġ0122324 7942
Ġ01223353 110
Ġrec comend
Ġansw ered
tb all
Ġimp ress
Ġfoo tball
Ġnumer ous
Ġinqui ry
Ġdai ly
Ġhotsp ot
Ġitiner ary
c w
u q
x e
y x
in ed
Ġto ward
Ġti ght
ul ations
Ġk ill
Ġdi g
Ġhapp ens
66 1
01 6
20 9
Ġmost ly
Ġchan ging
53 48
Ġoper ating
rat ulations
Ġsm all
Ġterri fic
5212 60
Ġdrin ks
Ġcet re
Ġdish es
Ġcong ratulations
Ġ01799 521260
0 53
6 57
7 55
8 464
b ridge
c q
f g
i k
l z
r z
u gh
x g
Ġh andle
Ġc as
en u
Ġre pe
Ġs n
ay side
Ġstar ted
Ġta x
Ġ2 6
Ġguest h
as ion
ut ing
ir ing
Ġlondon s
Ġ012233 240
Ġcont in
Ġwhen ever
Ġlong er
Ġqu ayside
60 4
41 3
Ġ0122333 8300
77 1
Ġcomm uting
70 47
Ġsoon er
Ġfriend ly
mb ered
Ġreme mbered
Ġsuffi cient
Ġocc asion
Ġswe et
Ġ012233240 33
2 00
2 50
2 525
8 494
d i
h ere
i me
k k
n ts
p w
s borough
t j
w v
on ary
Ġp at
Ġp ot
Ġc ities
Ġw o
Ġw oll
Ġf oc
Ġm all
ce ster
Ġwi se
ent ly
Ġne igh
ber y
Ġad vent
30 71
ast on
Ġu k
Ġsp read
Ġpeter sborough
24 33
olog ical
66 66
60 2
27 15
Ġcor onary
Ġ0122335 51
Ġ0122335 78
Ġhigh est
Ġ0122336 2525
Ġ0122336 2433
13 1
Ġ012234 486
Ġtourist s
89 88
Ġexcit ing
86 00
Ġmo vies
65 24
Ġcomp are
Ġmain ly
Ġ0122346 2354
Ġ01223356 555
Ġcategor ies
Ġrepe at
Ġwoll aston
Ġ012233551 66
Ġ012233578 51
Ġ012234486 20
1 46
6 39
7 09
8 79
l s
m in
n s
n w
r r
t o
Ġin f
Ġm ess
Ġm enu
le igh
Ġne ces
Ġal y
Ġad ul
ut ation
23 7
Ġse c
Ġra tes
Ġ12 233
Ġmatch ed
Ġri der
Ġ9 0
21 1
11 63
Ġpick up
27 330
59 5
Ġ0122335 0059
Ġ0122335 3071
Ġ22 5
Ġco ver
Ġ0122336 5
56 1
56 8988
Ġconsi st
67 42
Ġ01223312 598
Ġdepend ency
Ġ012234646 30
600 3
600 9
Ġquick ly
Ġdrop ped
Ġoo ps
Ġinq uire
Ġ01223356 354
Ġ012232 27330
599 88
Ġrep utation
Ġbur leigh
Ġneces sity
Ġadul ts
Ġrider s
7 54
8 903
c j
e ck
h f
k l
k o
k x
m v
m ely
n r
u c
u g
Ġa u
re mely
Ġf ly
Ġb ell
Ġre ch
se ss
Ġne e
art s
Ġni l
Ġas sess
Ġwhere ver
Ġdif ference
and i
Ġac c
Ġho gw
Ġentertainment s
Ġbish op
Ġ07 88
24 7
50 4
Ġperson s
08 2
af ter
88 60
20 54
Ġpa sta
16 3
49 5
57 29
Ġpostal code
149 9
Ġ087 194
Ġ01223311 053
Ġext remely
Ġfeel ing
raun ts
Ġhistor ic
Ġ012232 59988
Ġtru ly
Ġcut ting
Ġmanage d
Ġgh andi
291 80
Ġpot ential
Ġrech eck
Ġassess ment
Ġhogw arts
Ġ087194 29180
4 00
8 29
9 38
9 561
b o
j h
j u
m x
t x
u sday
w o
w t
y r
Ġh er
or ing
Ġf ore
Ġre ce
Ġan n
Ġan t
Ġch ines
Ġ0 18
Ġsome ti
Ġtr ue
Ġ01223 42
Ġav ai
ci se
ci al
Ġ14 1
Ġ012233 294
Ġv a
Ġthem ed
88 00
54 78
Ġhe p
52 25
20 45
20 94
32 25
19 3
43 19
Ġ0122335 7187
49 17
77 33
Ġ0122336 4319
Ġenjoy ed
53 771
Ġwish ed
pri sing
Ġconsider ing
Ġsur prising
99 37
149 2
Ġcre ate
74 23
Ġhal f
158 1
427 53771
Ġlie k
Ġaccomod ations
Ġfly ing
Ġ018 42753771
Ġsometi mes
Ġ0122342 5478
Ġ012233294 32
Ġsurprising ly
1 07
c in
c lo
c ces
e on
i dge
j n
k h
l ine
s c
s ary
t c
u ss
u ally
v s
z o
Ġt ri
Ġi h
Ġf as
ve s
Ġcamb idge
Ġtown s
Ġmoder at
Ġ0 12
Ġni cer
Ġ5 5
15 02
Ġgood n
Ġro lls
Ġhi king
Ġmi xed
Ġ9 4
Ġcon vers
11 00
Ġtot ally
Ġ07 30
iver sary
24 20
66 88
Ġ23 1
35 1
wh ile
27 6
Ġco vers
36 82
Ġ0122336 4917
Ġda ugh
Ġcomm on
Ġ0122324 7015
68 7
Ġsur round
Ġspend ing
Ġ01223323 639
Ġjo int
Ġlunch eon
Ġbo ast
Ġgueshouse s
Ġassum ing
Ġoo h
Ġinvolve d
Ġterri bly
Ġjoin ing
Ġsell s
Ġneigh bor
Ġann iversary
cin ating
cces ful
Ġtri ck
Ġfas cinating
Ġdaugh ter
Ġsurround ing
5 57
6 79
7 802
b m
b all
h v
j d
j l
p y
r v
t k
x t
Ġt een
Ġa ve
ou rite
Ġth ree
Ġy t
Ġn ap
Ġtra um
ie re
Ġcan cer
Ġthere after
Ġon line
ch t
Ġ4 3
ss iere
un ic
Ġel eg
Ġpre cise
Ġall owing
23 5
ic s
Ġtravel s
Ġsor ts
Ġ01223 568988
Ġ11 3
sit ive
Ġsi mp
Ġvi a
21 66
Ġpeter bour
59 21
20 25
Ġ0122333 8800
Ġ0122333 1100
Ġag o
Ġfav ourite
16 81
Ġ0122335 6666
Ġbra ssiere
42 64
Ġ0122330 258
Ġwait ing
Ġslot s
Ġspecify ing
31 12
Ġcab ridge
Ġ0122329 2094
Ġattem p
Ġclin ic
Ġconvers ation
Ġteen age
Ġnap ier
Ġtraum a
Ġeleg ant
Ġsimp ly
Ġ0122330258 0
3 270
4 66
8 331
9 89
b v
c p
c s
d k
f ford
h s
m t
n b
n c
q j
s f
w g
x v
y c
y q
er ology
ou bt
Ġi a
Ġi b
Ġf o
Ġf er
Ġb ite
Ġto ge
Ġs oli
Ġm n
ce ed
Ġsta fford
Ġle ic
Ġtaxi s
Ġnorth side
Ġmu sue
Ġe con
Ġser ver
Ġkn ew
Ġ012233 16074
Ġv j
Ġsugge sted
Ġpro ceed
21 6
07 88
Ġus ually
Ġchrist s
Ġ0122333 65
Ġ0122333 8600
Ġba sic
Ġend ing
Ġ0122336 3270
Ġ0122330 868
79 31
70 40
Ġwat ch
82 07
05 52
Ġvary ing
Ġguestroom s
Ġmisunder stood
Ġsitu ated
Ġtoge ther
Ġsoli d
Ġleic aster
Ġ012233365 40
Ġ0122330868 1
2 153
3 19
3 702
7 19
8 08
8 39
d d
h p
h r
h ic
l b
n q
o ci
w q
x j
x z
z h
z i
Ġt ens
re am
Ġp ain
Ġc amp
or rect
Ġre la
an s
Ġs li
Ġg pb
Ġlike s
Ġleave at
Ġ4 8
Ġarrive by
Ġadd ens
Ġsouth side
fic ation
Ġarch eology
Ġcross ing
58 1
07 5
Ġallen ball
wh el
Ġits elf
49 55
06 35
Ġdes per
Ġover whel
77 0
80 3
44 66
Ġ0122336 3682
56 5
Ġlast ly
Ġ0122324 4955
89 9
Ġve hic
sse d
Ġfar man
Ġ01223323 178
Ġ01223311 687
stand ing
Ġass oci
Ġ01223307 581
Ġthir ty
Ġresturant s
Ġcambri ge
Ġ017 3
Ġaccomod ate
Ġattem pt
Ġpropert ies
Ġinc orrect
Ġrent al
Ġneuros cience
Ġclient s
Ġcontin ue
Ġmess age
Ġsec ure
Ġ01223365 599
Ġtens ion
Ġrela x
Ġaddens brookes
Ġvehic le
Ġassoci ated
1 661
5 29
5 170
6 58
9 78
b bery
f rame
g an
i q
l r
p ite
q d
s g
s z
s code
t f
y w
z d
Ġa id
on d
Ġp y
Ġn a
or d
Ġf l
Ġf ab
Ġl ine
Ġl ines
ri ve
ri end
an cy
Ġwi ld
form ation
Ġof fi
ent erology
ere an
Ġde ter
Ġtime frame
Ġal ter
Ġpo scode
30 9
ul ous
Ġ01223 69
Ġ01223 413
Ġun li
Ġro bbery
Ġu q
iz ed
Ġeat s
Ġ07 2
Ġ07 79
29 2
88 13
39 3
39 42
Ġcla ssy
41 87
90 63
Ġ0122335 3942
ari ly
Ġco vered
Ġdes pite
Ġ0122336 2054
Ġfi x
Ġx m
Ġtou ch
Ġwee ks
li ke
Ġsw itch
Ġ012239021 16
Ġerit erean
Ġ01223366 552
Ġtal king
Ġrefer nce
Ġchild ren
Ġabo ard
Ġsight se
Ġsatis fy
Ġresearch ing
Ġgastro enterology
Ġreccomend ation
Ġ012 45
Ġfab ulous
Ġdeter m
Ġ0122369 4264
Ġ01223413 000
2 286
4 765
9 45
a ed
d om
e z
g b
g z
j a
v z
x o
Ġc w
Ġw ast
sta urant
Ġd oubt
Ġat mo
th op
Ġ4 50
it ions
Ġran dom
Ġor thop
45 0
Ġj ord
Ġgreat ly
12 1
Ġent ire
Ġser ious
Ġind oor
Ġint ri
Ġsp l
11 7
Ġ07 1
Ġ07 58
Ġ07 46
sp here
Ġplan ned
35 53
88 71
27 7
46 51
19 97
Ġz b
Ġmedi um
36 8
44 7
78 50
28 00
Ġ0122330 8871
26 94
Ġdet ail
100 6
Ġtran sp
223 2
Ġret ur
Ġtour s
Ġ01223354 755
Ġpropert y
Ġur ology
Ġ01223306 306
807 0
Ġcamp uses
Ġ0173 3553
Ġdeterm ine
aed ics
Ġatmo sphere
Ġorthop aedics
Ġjord ans
Ġ01733553 355
3 17
3 456
c ely
d ated
h j
h k
i se
j t
k p
m and
m edi
n u
w ell
y p
re g
Ġp rom
Ġy a
Ġf u
Ġf our
Ġb i
Ġb oo
Ġre n
Ġre port
Ġre sol
ot ic
Ġd j
Ġm q
Ġli ked
Ġar r
Ġti ll
Ġde mand
Ġpar don
Ġex otic
Ġlo l
Ġad vice
Ġpo sitive
Ġgo sh
Ġnorth end
Ġni cely
15 37
45 8
Ġj n
Ġj z
Ġwed s
Ġra ge
Ġra il
Ġv ac
ne ction
Ġcon nection
Ġ07 69
29 00
10 2
10 5
59 49
Ġ0122333 89
Ġ0122333 2900
28 3
28 26
Ġte usday
Ġaw w
76 10
99 00
Ġvict im
Ġarchitectura lly
Ġmeant ime
Ġcorsi can
Ġ012233348 98
Ġdisc uss
Ġperi meters
Ġuh m
Ġ0122346 4550
Ġgl itch
Ġful fi
Ġspecializ ing
817 6
Ġcas ual
Ġpat ience
Ġadvent ure
Ġrece ive
978 1
medi ate
Ġvac ation
Ġ012233389 01
1 08
2 000
4 235
4 216
6 163
9 016
d ed
f q
h e
h ood
k t
m od
n v
p c
p f
r ing
x u
y z
Ġa while
st on
Ġth re
Ġc ust
Ġy ep
Ġf il
at o
Ġb es
Ġre comend
Ġin p
Ġin qu
Ġin con
le s
Ġg one
Ġg od
Ġ1 23
es bray
Ġli fe
om er
al ble
Ġnot e
Ġran ked
00 60
comm unic
30 906
Ġsu sh
12 13
Ġ7 6
Ġ7 7
Ġshould n
Ġ18 8
Ġ012233 30906
Ġup dated
Ġchurch hill
Ġnice st
Ġ07 77
Ġ07 56
58 59
24 32
07 18
Ġfun k
54 84
Ġcityroom s
48 1
77 55
78 46
25 34
Ġgu ys
Ġbotanic al
Ġ0122324 99
Ġ01223358 899
Ġbarn well
76 1
69 71
Ġdis like
Ġdis reg
Ġgla ston
Ġmis communic
Ġlow est
Ġ01223354 679
Ġ34 35
Ġwan na
Ġdoz en
Ġ012233550 12
Ġmisunder standing
Ġspecializ es
Ġintend ed
Ġcelebra ting
Ġavai alble
107 9
clo ck
Ġgoodn ess
Ġboast s
Ġoffi ce
Ġcust omer
Ġinqu iring
Ġincon ven
Ġsush i
Ġ012232499 55
Ġdisreg ard
Ġglaston bury
3 005
3 211
6 595
8 495
a o
b x
d es
f j
j we
k g
k r
l w
l ant
m d
o jg
p i
q v
s k
s ine
u o
u z
v ely
y j
Ġt j
Ġa y
Ġa z
Ġa ges
Ġi g
Ġh j
Ġp h
Ġc it
Ġw et
Ġin the
Ġs ent
Ġresta ru
Ġis nt
Ġg oo
Ġof ten
Ġcent ere
Ġad vi
Ġ0 0
Ġ3 00
ir oom
ro y
Ġloc ale
ic ally
Ġsu ey
ai led
Ġsunday s
Ġ15 0
Ġsi ster
Ġ14 3
Ġv al
Ġcu sine
Ġstan stead
Ġq a
Ġq k
fort able
24 6
17 50
Ġcom fortable
Ġkind a
50 6
Ġfew er
10 6
Ġspor ting
01 88
39 48
46 2432
59 79
Ġcla ss
20 61
19 9
16 12
id es
Ġ22 6
49 69
Ġback wards
Ġvie w
Ġunsu ccesful
Ġ0122330 2800
34 12
Ġappreci ated
Ġve gan
Ġ01 462432
Ġhear ing
Ġforg otten
Ġspecial s
Ġinj ury
Ġmean s
Ġdesi re
Ġgran d
Ġmis sed
Ġwho a
Ġwal k
500 9
Ġhundred s
Ġclin ical
Ġhost el
958 9
Ġban k
Ġaly esbray
557 0
Ġpeterbour ough
Ġunli sted
Ġtransp lant
Ġfulfi ll
Ġbes ides
Ġinconven ience
Ġcit iroom
Ġ01462432 565
Ġcitiroom z
2 59
3 58
6 29
6 18
6 357
8 27
9 88
c d
d u
f x
g a
g ical
i ly
q l
q m
u rious
w re
z u
Ġ, <|
Ġh t
Ġp d
Ġp z
Ġp are
Ġw s
Ġy iu
Ġf re
Ġf ond
Ġb on
Ġre sa
Ġin si
Ġd an
Ġs g
Ġs q
ct ed
Ġresta raunts
Ġg ott
th day
Ġch ip
Ġpe ace
Ġple se
Ġany place
Ġty po
un ning
Ġlo st
ut c
Ġst unning
ro can
Ġo b
Ġo e
30 3
15 18
45 4
Ġpart ial
23 9
Ġ01223 25
Ġ6 00
Ġra d
lo v
21 45
Ġbir thday
Ġcine me
Ġunfortun ate
Ġ07 07
Ġ07 39
Ġash ely
60 53
52 2
01 89
27 75
46 98
59 41
Ġfin ally
Ġco zy
36 3
38 9
38 44
77 13
Ġ0122336 7755
70 30
Ġx y
Ġmegh an
73 49
Ġsaf e
Ġbla st
Ġvari es
63 34
Ġsur gical
149 3
sj z
Ġ0122321 73
Ġcatch ing
Ġmor rocan
Ġum mm
Ġexhib its
05 23
05 32
611 0
Ġexpl oring
Ġcle arly
Ġreal istic
Ġreal ized
Ġlux urious
Ġfoll ow
Ġhand ful
Ġhand ling
Ġimp res
Ġinc re
212 5
Ġ01223306 283
Ġwou dl
Ġthru sday
Ġcompare d
Ġecon om
808 0
Ġrelax ing
Ġchildren s
Ġresol ving
Ġpare nts
Ġresa urant
Ġdan cing
Ġgott a
Ġpeace ful
Ġimpres sive
1 15
3 77
4 20
5 390
7 06
7 803
8 662
8 167
c x
e ing
f z
g v
h d
j r
m k
o rate
r c
s ely
t d
t un
t ory
z r
in al
el s
Ġh q
Ġh ook
Ġh es
Ġh ang
Ġp ie
Ġp hy
Ġc y
Ġc en
Ġc odes
Ġn od
Ġn ature
or ford
or ding
Ġf ish
at in
oo t
ot u
Ġd b
ri b
Ġs d
Ġs v
Ġs on
Ġresta u
Ġresta ur
Ġrestaurant s
Ġfor ty
Ġfor tun
Ġg w
Ġhave a
Ġdo able
Ġpe t
Ġany th
Ġany ways
Ġel ab
Ġst ri
Ġst orford
Ġo s
Ġsh ops
Ġsh oot
Ġj m
23 79
12 6
Ġ8 7
Ġ6 5
Ġavaila be
Ġ13 30
Ġmi x
Ġ07 35
Ġ07 99
58 74
24 1
Ġcost ly
29 41
40 9
60 3
27 30
Ġset ting
Ġlat ter
19 6
16 72
Ġtravell er
48 59
36 5
38 3
38 39
80 17
56 77
Ġ0122330 7030
79 28
53 58
64 88
str u
Ġamen ity
Ġclo sely
ira tory
Ġnecess arily
Ġglad ly
Ġcharge d
Ġarran ging
Ġbelie ving
Ġum m
Ġaddre s
Ġ01223366 668
85 33
95 33
566 2
Ġresp iratory
Ġform al
Ġlie cester
Ġinvolve s
Ġread er
Ġtaste s
657 8
Ġwo ld
Ġfoc us
Ġinf usion
Ġacc ording
Ġva can
719 5
Ġsightse eing
Ġfu ssy
Ġnod dle
Ġelab orate
5 40
6 247
6 193
9 493
9 102
a king
a ger
c ap
f v
f re
k z
m ed
p g
p u
p ounds
t it
t ical
u de
y o
Ġt at
Ġa o
re y
ou th
Ġi ve
Ġh f
Ġh it
Ġh is
Ġw d
en se
en si
Ġn t
Ġn ed
Ġb ound
Ġb bq
Ġre e
Ġs op
ar k
am g
ave s
Ġdo ct
Ġ2 41
Ġadd miss
00 31
Ġo y
Ġj c
Ġgreat er
23 1
Ġent ered
Ġsat ru
Ġman ager
Ġ6 1
Ġr ound
Ġ12 0
Ġcri tical
Ġv ic
Ġ21 4
Ġ9 7
Ġselect ed
Ġ07 60
Ġ07 54
17 55
Ġhospital s
07 97
66 6
29 29
40 6
Ġqu ie
Ġbelf rey
60 60
Ġright y
46 79
32 57
Ġlocal s
Ġz j
90 4
09 19
ren ce
38 6
77 34
80 42
18 19
18 28
25 12
56 86
Ġ# :
Ġyu p
70 57
Ġtourist y
76 2
Ġ01223353 88
Ġrout es
Ġrec commend
99 33
Ġoffering s
Ġclari fication
47 24
Ġfa x
74 30
Ġ0122357 7786
Ġsupp ly
Ġdire ction
95 57
Ġideal s
Ġexample s
Ġsele ctions
Ġrefer ral
zl r
Ġlimit ed
Ġinter mediate
493 131
Ġmoderat ly
Ġneighbor hood
Ġfer ret
Ġoverwhel med
Ġneuroscience s
529 8
Ġ01245 493131
Ġspl ur
Ġadvi se
Ġsatru day
0 467
0 209
3 782
3 404
4 88
5 331
6 77
6 105
8 09
8 265
c v
c cer
e i
f p
f it
h le
i gin
i ww
k b
m q
n ic
q i
q ui
s m
s li
u ght
w ad
x m
x n
y t
z uy
Ġt d
Ġt p
Ġt rian
ra int
Ġh ea
at urant
Ġb um
Ġl n
Ġd it
ri e
an ia
le v
Ġbook s
Ġis cb
Ġg z
Ġg ui
Ġ1 12
om es
Ġ4 1518
it ing
Ġpo cke
Ġst ra
Ġst ran
Ġor igin
Ġmu sli
Ġsome wh
23 4
Ġsu ite
12 5
Ġse en
Ġro ck
Ġra ve
Ġdif fic
Ġso ccer
Ġ10 2
Ġid ent
Ġact ing
Ġarch ite
Ġ9 2
21 3
11 08
Ġ07 15
Ġ07 12
Ġ07 27
Ġ07 49
Ġ07 57
Ġsearch es
Ġplan ing
07 74
29 65
Ġfun ds
01 92
27 71
39 5
46 25
46 26
Ġres aturant
32 2
43 29
Ġ0122335 6060
06 86
Ġer ania
57 2
57 13
Ġrest raint
Ġsc ream
44 47
18 30
18 73
25 30
28 40
Ġfitz roy
Ġtyp ical
Ġbl ow
Ġcorrect ly
Ġuse ful
Ġbel fast
14 72
Ġ30 2
Ġcott age
69 39
94 45
Ġregard s
Ġca ught
Ġmor den
Ġdesi gn
Ġfact or
85 30
ig n
Ġ0122327 618
83 14
Ġconven ience
Ġdeal s
Ġ01223300 552
Ġoper ate
Ġkid ding
Ġpull s
Ġ0122346 1661
Ġhand y
gu ing
Ġfill s
Ġallow s
Ġguesth omes
709 2
Ġfore ver
cht ure
989 2
Ġsli ght
Ġdesper ately
Ġintri guing
540 1
qui sit
Ġpocke t
Ġmusli m
Ġsomewh at
Ġarchite chture
Ġscream ing
Ġdesign ation
Ġ0122327618 2
0 357
3 240
3 158
5 504
7 299
9 77
9 70
9 263
a ra
a cial
b ster
e q
f k
f od
f ly
f act
f zc
h o
h ave
h rs
i o
i w
i or
j w
n et
n us
n ight
p gq
s in
t ance
u vd
v u
v is
y b
Ġa rive
Ġth or
Ġi l
Ġp ath
Ġw ont
Ġw rite
Ġy h
Ġf g
Ġre comm
Ġl q
of acial
Ġd h
Ġd k
Ġm c
le st
Ġresta uarant
Ġtrain ing
Ġis su
ie st
bel led
es p
est er
est inal
Ġli ar
Ġli ter
ll ofacial
Ġch at
Ġle ich
Ġle cester
Ġbe e
ur s
it ate
ind ian
Ġlo bster
Ġad mit
xi llofacial
ut es
Ġrequest ing
Ġo ral
30 87
Ġe ight
Ġsh are
ver se
Ġea s
Ġpostc ard
Ġk z
ai ling
Ġser vers
Ġ01223 59
Ġma xillofacial
Ġop itions
Ġ11 8
Ġ12 23
sit ies
Ġdif fer
Ġ14 0
Ġintere net
Ġ18 9
Ġ012233 3948
Ġv r
Ġ20 6
Ġ20 17
Ġcon ference
Ġ07 09
Ġuniver sities
Ġplan e
Ġgon na
24 9
17 09
07 43
07 55
07 76
ssi ble
66 7
66 28
Ġnear ly
29 39
29 74
af e
Ġap reci
Ġla belled
Ġbelf y
88 24
Ġclose t
54 13
59 53
32 8
Ġexc urs
Ġz m
Ġz n
Ġim po
49 77
49 75
48 3
Ġopen ed
36 00
55 58
fy q
Ġvisi ts
int estinal
13 42
56 2
79 35
Ġpara ce
bill ary
68 34
Ġtw ice
Ġtw enty
73 60
own ed
69 54
69 82
67 4
86 36
Ġunder stood
37 20
37 36
Ġhu ge
ft a
62 26
Ġ01223350 106
Ġet rance
fl x
Ġ01223324 351
ag g
Ġmis read
Ġrestuarant s
Ġtre ating
Ġrefer ring
Ġfinish ed
Ġcro ssed
Ġ01223359 506
Ġhur ry
Ġregion al
Ġprior ity
bour n
Ġful bourn
Ġinter sted
Ġgastro intestinal
Ġcelebra te
879 2
Ġhep ato
Ġattemp ted
839 9
945 2
Ġren owned
Ġdemand s
827 2
Ġinsi st
Ġincre ase
Ġhes itate
Ġrestaur nt
Ġdoct ors
Ġslight ly
Ġpath ological
Ġissu es
Ġliter ally
Ġleich ester
Ġadmit tance
Ġeight een
Ġ0122333948 5
Ġapreci ate
Ġimpo ssible
Ġhepato billary
1 159
3 38
4 12
4 494
4 604
6 54
7 309
8 57
8 26
8 63
8 202
9 083
b od
d m
d id
e o
f r
f gd
g round
h z
i b
j my
k ely
l p
m h
m j
m tl
q t
u k
v th
Ġ ou
Ġt amp
Ġi k
Ġi r
Ġh z
Ġp f
Ġp n
Ġp u
Ġw j
Ġw v
Ġn d
Ġf ast
Ġf ff
at al
Ġb s
Ġb t
Ġb z
Ġb ay
Ġre side
Ġre lev
Ġl g
Ġl k
Ġl l
Ġl x
sta rs
Ġs b
Ġs y
Ġs ca
Ġm t
Ġg j
Ġg dp
Ġg xq
Ġ1 15
Ġli ed
Ġwi l
Ġsta ges
ll ars
Ġthere s
Ġdo llars
um e
Ġle g
al our
Ġar ti
Ġ4 00
un d
un iver
ble d
Ġnor m
00 085
00 005
Ġloc k
ly l
30 43
Ġe ve
ell ing
Ġj ig
Ġmuse ms
Ġk p
12 0
Ġfri lls
Ġtravel ers
Ġtu es
Ġafter wards
Ġgi ft
Ġv c
Ġv k
Ġv ice
iz a
Ġ9 1
Ġche ers
Ġcontact ed
Ġair pl
Ġq g
Ġ07 17
Ġ07 08
Ġ07 06
Ġ07 74
club s
66 92
29 50
29 69
Ġevery bod
35 44
10 9
10 39
54 65
01 41
ca e
41 61
Ġag ree
oh u
Ġz u
90 9
90 20
Ġcountry side
48 49
06 80
06 37
36 85
Ġsuit es
28 63
Ġcomm un
Ġdesc ri
26 9
53 43
Ġfi xed
Ġmention ing
89 13
Ġtechn ical
14 7
14 12
76 3
Ġbu ff
Ġchar ming
Ġ28 00
Ġdat a
4646 46
67 45
86 10
Ġerror s
Ġ012235 00005
Ġclarify ing
96 11
82 24
wa oz
Ġrecor d
Ġver sa
lf riend
Ġgir lfriend
Ġdepend ancy
03 15
Ġqual ities
Ġmis in
Ġfig uring
zc bl
Ġconvenient ly
Ġsqu alour
Ġsuper vis
kc vth
Ġaccom id
bi fd
Ġlive s
Ġocc up
vr v
Ġodd ly
Ġsatis fied
146 5
Ġ12233 16074
Ġib iza
Ġmusue m
lov ell
Ġ012232173 14
706 2
Ġsplur ge
fgd re
Ġtamp a
Ġfff w
Ġrelev ant
Ġsca le
Ġgxq zcbl
univer sity
Ġairpl ane
Ġeverybod y
kcvth j
3 11
3 194
3 602
4 39
5 365
6 167
7 17
7 276
7 447
8 58
8 41
8 705
8 361
8 199
8 762
9 082
a de
c n
e bg
f bu
g ac
h istic
i ld
k j
l st
n vl
p wj
q r
q x
q am
q uire
r m
s b
s ce
s ume
u cr
u iring
v gm
w z
x ah
y u
z tn
Ġ ul
Ġt b
Ġt ep
re l
Ġth er
Ġth ier
el led
Ġh an
Ġc t
Ġc ert
Ġc ult
Ġthe e
Ġy op
Ġf aster
at ter
Ġb other
Ġb oom
Ġb ott
Ġl s
Ġl co
ri a
Ġs na
le t
se s
Ġfor th
Ġg ain
Ġli vely
Ġwh ose
um ent
Ġam b
Ġlook out
Ġplease d
Ġta sce
Ġ2 64
Ġreq uiring
ss l
Ġlo vers
Ġby art
Ġst r
Ġst uck
Ġgo on
Ġpre sume
Ġab d
00 32
fi d
15 84
45 9
45 49
Ġe th
Ġsh ortford
Ġsure ly
12 9
vi ded
Ġlea ver
Ġdi vided
Ġr q
Ġhas n
book ed
Ġper fre
Ġu e
Ġu j
Ġcriter a
Ġac quire
Ġri des
gge d
Ġbar rel
21 64
Ġbro xb
11 44
Ġq q
Ġq ji
Ġ07 00
Ġ07 45
Ġ07 24
Ġ07 50
Ġ07 59
Ġ07 19
Ġ07 78
Ġ07 26
Ġ07 89
sp lt
17 91
07 21
50 42
50 56
66 5
08 9
35 96
Ġclose by
Ġwhi lst
27 55
27 04
46 8
20 52
19 23
43 8
43 34
Ġtur ns
16 8
16 88
09 45
09 96
49 8
Ġpr otu
Ġ33 4
57 8
57 20
Ġluck ily
su q
Ġdin er
Ġadden brook
42 12
38 0
77 6
Ġsc atter
Ġbrasser i
Ġ0122336 50
18 98
18 92
25 3
Ġrea staurant
79 2
33 30
33 71
Ġpal ce
Ġpal ance
Ġdet ailed
Ġbus y
89 32
63 10
98 35
99 56
Ġca ridge
47 57
37 45
37 32
Ġshort est
Ġsk im
Ġdu de
Ġkeep s
74 20
Ġhu ts
31 38
04 27
Ġum ber
js r
85 19
Ġcrui ses
sw x
Ġput ting
Ġret ain
Ġbo ss
Ġbo xbourne
cr n
Ġpleas ant
Ġes m
Ġcle an
mf r
Ġwal let
Ġrate ing
ni ghts
hc w
Ġpla st
Ġ01223338 100
Ġtalk ed
Ġ012235033 3
vf a
Ġboard ing
Ġcomplex es
868 5
Ġneuros urgery
250 3
Ġconsist ent
754 2
400 3
Ġhep atology
Ġattemp ting
Ġmusue ms
Ġfour teen
Ġinp ut
Ġmiscommunic ation
Ġlocale s
988 6
Ġstri ke
Ġvacan cy
Ġsop histic
Ġaddmiss ion
Ġquie ter
Ġdit tion
Ġstran ge
Ġorigin al
und ant
Ġkp fta
xah u
Ġtep in
Ġcult ure
Ġyop u
Ġbott om
Ġsophistic ated
0 363
3 18
7 245
8 00
8 48
8 36
8 151
9 904
c f
c ul
e b
g j
g un
h at
h ich
i at
i os
l ose
l hi
m of
m ps
n ook
n amg
o vered
q k
s ll
s ult
t is
u sted
v jp
w p
x r
z vm
Ġ xi
Ġ xb
Ġ ens
Ġt s
Ġt z
Ġt ar
Ġt mo
Ġa i
Ġa ction
er ate
er sp
er atin
Ġth ak
ra bly
Ġh dt
Ġp g
Ġp age
Ġp sy
Ġc q
Ġc eratin
Ġy v
Ġy or
Ġf d
Ġf lu
Ġf id
at form
Ġb nook
sta rt
Ġs um
Ġs mi
Ġm ot
Ġm other
Ġm ailing
ve g
end ed
le u
Ġg k
Ġat ra
Ġ1 000
th ur
Ġsta mps
Ġwh ee
Ġdo e
Ġle as
Ġon ward
Ġcent e
pe tit
si s
Ġti ger
la c
Ġwith ersp
ch iat
Ġmod rate
Ġal ert
Ġ0 11
ut t
ut ish
fi l
Ġas ain
30 1
30 55
15 49
15 34
15 75
Ġe p
ul ance
Ġsh ab
Ġsh own
ic y
Ġwe have
Ġtravel er
Ġprefer rably
Ġdi stra
Ġdi verse
Ġ8 1
Ġ6 23
Ġr g
Ġavaila bi
ci sive
Ġper form
Ġmin i
Ġmin im
Ġv f
Ġpool way
21 30
21 82
Ġsp elling
Ġsp icy
Ġcon sult
Ġste p
Ġpl atform
Ġnorw hich
Ġcontact s
Ġq h
val s
Ġ07 36
Ġ07 55
Ġ07 44
Ġ07 63
Ġ07 96
Ġ07 03
Ġlong s
Ġfir m
24 71
07 7
Ġcom petit
ab et
66 07
66 97
af t
Ġhead s
Ġseat ing
52 66
32 12
lti y
19 58
41 34
Ġz l
Ġz oo
90 62
09 53
49 7
48 13
48 61
06 38
Ġour s
57 11
57 97
Ġrest raunts
51 4
77 27
80 26
Ġsc rat
28 23
56 94
Ġgroup on
33 43
70 20
Ġx n
Ġx r
ud do
iv ity
Ġplay ground
Ġoff ensive
76 56
Ġef fi
Ġ37 5
67 41
99 69
87 14
37 35
Ġsk ip
Ġdu cking
Ġsurprise d
Ġinde cisive
vo q
gl c
Ġcab s
Ġrevie w
cent re
my l
Ġbo x
gy c
Ġbr utish
Ġdisc ount
Ġdisc lose
Ġdisc overed
pd t
Ġcancel led
jm t
xc d
Ġbring ing
Ġdisappoin ted
wc f
Ġconnect ivity
212 9
ential s
817 7
Ġban kok
Ġcas h
879 9
754 8
829 0
938 3
466 9
319 0
Ġpain t
658 3
Ġserious ly
Ġretur n
Ġretur ned
mod erate
Ġval u
Ġht els
Ġbon us
Ġob vious
Ġphy sic
Ġcen re
Ġanyth ign
Ġree se
Ġgui de
Ġident ify
Ġpocket book
Ġdiffer nt
Ġzu leu
Ġmisin formation
Ġlco ated
Ġamb ulance
tis ux
Ġens ure
Ġtar get
Ġtmo v
Ġthak s
Ġpsy chiat
thur sday
Ġwithersp oon
Ġshab by
Ġdistra cted
Ġavailabi ltiy
Ġminim um
Ġcompetit ors
Ġscrat ch
uddo v
Ġpsychiat ry
' '
0 24
0 121
2 292
3 390
3 765
4 170
4 351
5 17
5 159
6 368
6 386
7 58
7 213
7 578
8 13
8 241
9 80
9 178
9 276
c ian
c ity
c qw
c vk
d j
d v
d own
f riend
g t
g ne
h m
h wc
j ww
k house
m l
m ic
n o
n rt
o il
p lug
s oo
t m
t oy
w ch
w ah
w ka
w fn
y m
y ln
y rx
y zl
Ġ om
Ġ ough
Ġt c
Ġt g
Ġa en
re ction
er ine
on door
ou x
Ġi j
Ġi mm
Ġi ron
el p
el ves
Ġh h
Ġh l
Ġc p
Ġc z
Ġw ti
Ġy rip
Ġy elp
Ġn s
Ġn ad
Ġn yp
Ġf t
Ġb lo
Ġb oy
Ġb zx
Ġin stru
Ġl p
Ġl w
Ġd d
Ġto ay
an ts
Ġs om
Ġs ia
Ġs aw
Ġm d
Ġm p
Ġm uti
Ġhot e
Ġresta rant
se y
ce p
Ġbook m
Ġg c
Ġg ar
Ġg go
ld q
th u
Ġcan did
Ġdo or
Ġatt a
Ġle ase
Ġcent r
Ġti ps
Ġdep ature
Ġta ondoor
ur ous
ch ine
wn x
Ġ4 80
gh n
un g
Ġnot ch
Ġexp ens
Ġrange d
ut f
ut ton
Ġst b
ro lls
Ġab undant
00 94
Ġas sit
Ġas ap
30 7
30 76
15 42
Ġintern ed
45 1
45 06
Ġe w
Ġe z
Ġge m
Ġj d
Ġj u
Ġj jwe
ic ke
Ġk l
Ġk sh
Ġk hb
vi ly
Ġthur day
Ġthursday s
Ġ15 00
Ġ15 45
Ġwhere as
Ġma chine
Ġ6 7
Ġr rn
lu ar
Ġse ver
ia v
Ġun plug
Ġra in
Ġper fer
Ġ14 14
Ġbed s
Ġbed room
Ġu c
Ġu z
Ġ10 7
Ġpartic luar
Ġref rence
Ġac ade
Ġspe aking
Ġ012233 4900
Ġv zf
Ġcar s
21 7
21 8
21 9
Ġsp oil
ue se
Ġpl cae
Ġup on
Ġnorw ay
Ġq x
Ġmar vel
ma de
Ġpick s
Ġcine man
Ġ07 40
Ġ07 52
Ġ07 98
Ġ07 72
Ġ07 93
Ġ07 97
Ġsearch ed
tt r
07 1
07 6
Ġpizza ria
66 45
66 98
29 7
35 6
35 77
60 5
54 33
54 76
Ġhe bf
01 3
01 23
Ġset t
46 9
46 80
uck s
19 78
Ġconfir ming
Ġpa cking
Ġz k
Ġz z
Ġz sd
Ġgra bb
16 9
16 56
09 22
Ġcor khouse
Ġcor rection
Ġaut om
Ġwarkw oth
Ġchange s
48 24
Ġhome made
Ġsend ing
Ġco llage
51 08
38 47
80 54
18 54
18 27
18 79
13 16
25 21
56 9
Ġpun ti
34 7
Ġtimes lot
Ġtyp ing
33 7
33 42
use d
26 8
26 21
zz i
22 57
53 1
Ġx xx
per son
64 77
76 78
Ġjama cian
63 12
98 23
94 60
86 59
37 30
Ġarrange d
96 29
96 44
31 30
up u
02 01
93 45
Ġcath erine
Ġcra zy
85 10
ig s
Ġexperi ment
wy iu
Ġret rie
zc f
566 9
Ġbr other
lj ghn
Ġthir d
Ġyear s
vh w
edi ately
Ġsm art
843 1
mn u
oe ik
Ġ01223360 409
rn m
jq m
01223 358
01223 464646
Ġdecis ion
ov a
Ġdrin k
Ġegg rolls
Ġsitu ation
Ġfoc used
Ġadvent urous
237 27410
Ġcover ing
Ġbasic ally
658 5
Ġxm cht
Ġprom pt
Ġgod en
Ġsent ence
Ġrestaru ants
Ġfortun ately
Ġvic inity
Ġhea vily
977 5
fly wy
Ġpu ts
Ġbz iav
Ġlx mfr
Ġcommun ity
717 7
Ġ011 23727410
Ġours elves
gne b
soo pr
toy zuy
wah k
Ġough t
Ġimm ediately
Ġwti h
Ġnad os
Ġblo cks
Ġboy friend
Ġinstru ctions
Ġsia gon
Ġmuti ple
Ġgar bled
Ġcandid ates
Ġtaondoor i
Ġexpens ve
Ġjjwe o
Ġkhb ljghn
Ġrrn ttr
Ġacade mic
Ġmarvel ous
Ġhebf pw
Ġgrabb ing
Ġretrie ve
01223358 966
Ġlxmfr zlr
0 277
1 662
1 395
2 07
3 12
3 293
3 450
4 194
4 202
5 19
5 389
6 55
6 210
6 387
6 763
7 293
7 604
7 075
8 45
8 604
9 202
9 802
9 404
a av
b code
c sa
c ln
d uf
e ms
e ological
f b
f u
g p
g th
g ob
i wl
j na
k so
k cy
k vo
k bz
l bs
m end
m wi
o xq
p ax
p ark
r uarant
r wf
s bs
s fs
t est
t ered
t vt
v ir
v pa
v sd
w kv
w bn
x l
x fy
x tu
y d
y i
z aft
Ġ ould
Ġt f
Ġt emporary
Ġa commod
Ġa im
in et
st y
on ment
ou mg
Ġi am
Ġh c
Ġh ect
Ġp q
Ġp v
Ġp ur
Ġp ap
Ġw and
Ġw gu
Ġn z
Ġn ome
Ġn inet
or ge
Ġf h
Ġf k
Ġf bz
Ġb row
Ġb vd
Ġb uses
Ġre ver
Ġyou d
Ġl j
Ġl ap
Ġl dy
Ġd g
Ġd x
Ġd ie
Ġd ance
Ġd ream
Ġto do
ook ing
Ġs ick
Ġm h
Ġm r
Ġhot test
Ġg s
Ġg am
Ġg orge
ed xfy
th ent
Ġli kely
Ġwi pp
Ġsta urday
ent s
Ġcan bridge
op ok
Ġit ems
Ġatt rib
od en
Ġfood ie
Ġty oe
ter y
Ġta sty
Ġ2 1223
Ġ2 66
Ġ4 14
it ude
Ġmod est
Ġexp ensi
Ġlo ad
Ġran g
Ġad ult
xi w
is ion
Ġpo sh
Ġadd ed
Ġst ress
Ġst ud
ir g
ir do
Ġloc ally
Ġpost bcode
Ġ5 25
fi i
15 7
15 96
45 94
Ġe pensive
Ġe up
Ġe gy
Ġe qn
Ġe opok
Ġget away
Ġj q
23 57
23 34
Ġwe irdo
Ġk f
Ġk ci
Ġk vv
Ġk igs
ad oux
Ġdoes n
Ġcb agg
Ġcb ooking
Ġlon ely
Ġr vsd
Ġind ic
Ġse pa
tion s
Ġro les
Ġra ter
Ġra ise
ak fzc
Ġ16 8
Ġu b
Ġmy ster
Ġital ain
Ġrating e
Ġspe ed
Ġcal cul
Ġmin ton
Ġv o
Ġv ision
Ġeur ology
Ġacorn s
Ġarch eological
Ġnew est
Ġsev enty
Ġcon do
Ġste ep
11 4
11 80
Ġbir d
Ġbir min
Ġnow here
Ġq b
Ġdid nt
Ġassist ing
Ġunfortun at
ti k
Ġ07 23
Ġ07 21
Ġ07 10
Ġ07 48
Ġ07 42
Ġ07 18
Ġ07 37
58 67
tw a
Ġuniver ist
Ġplan ts
Ġfirst ly
17 56
17 65
17 04
07 34
Ġswim min
nt u
66 26
66 75
29 52
29 19
08 4
Ġap art
35 9
35 15
Ġus qh
40 68
Ġcou sin
88 73
60 66
60 16
Ġlot tery
01 46
01 68
27 5
mm v
43 3
Ġlove s
bra ined
Ġgra fit
90 5
90 39
09 95
qu u
Ġnoth ern
48 28
06 3
Ġen vir
Ġah ve
57 54
57 47
57 37
Ġrest ruarant
36 77
Ġbra h
Ġbra oden
51 1511
42 66
55 07
55 67
38 10
77 59
77 06
gd b
Ġold er
18 17
Ġandre s
13 39
78 9
25 19
ah m
Ġali gn
28 60
28 54
56 91
Ġsystem s
Ġpass code
26 2
dy ing
Ġ79 7
Ġx l
Ġx p
Ġx fd
li ed
89 35
Ġstandard s
Ġjun ior
76 9
Ġhappen ing
Ġ28 28
Ġconsider ation
pp ed
69 98
84 66
84 20
cid csa
98 39
98 76
87 30
bj b
sj y
Ġstro ll
72 23
Ġpic nic
96 35
96 41
04 15
Ġlank en
Ġexhib it
02 12
05 59
Ġ0122345 4550
97 32
my g
Ġ0122327 42
Ġ0122327 4680
Ġext ended
qy oumg
cr p
ew q
fd bjb
vy r
Ġtre mend
hn o
km u
vm x
sq o
ih at
vn h
vk t
zw vkt
330 4
Ġstu dying
zn bw
jq t
uh jqt
ba ck
Ġbur den
fh hno
wm d
wx esp
807 8
657 2
Ġuk tvt
Ġau thent
Ġnee ed
Ġmoderat ley
466 4
dk tik
nc v
319 7
dd te
Ġsli de
Ġdesper ate
sz j
Ġwild est
Ġarr rive
Ġfil tered
Ġrestaru ant
Ġfre es
Ġmeghan a
Ġeconom ical
Ġeconom ically
115 2
Ġrestau ant
Ġhf qyoumg
488 7
809 5
Ġstra pped
Ġdh db
Ġvr zwvkt
863 1
Ġdescri be
Ġaccomid ate
Ġscatter brained
Ġstrike s
Ġyor k
Ġmot el
Ġspelling city
Ġobvious ly
Ġaen edxfy
Ġsom where
park side
rwf gm
Ġacommod ate
Ġhect ic
Ġpap adoux
Ġwand ered
Ġninet een
Ġbrow se
Ġrever sed
Ġdie ting
Ġdream s
Ġtodo ay
Ġgam es
Ġgorge ous
Ġwipp gg
Ġattrib utes
Ġ21223 511511
Ġstud ents
Ġeup opean
Ġegy y
Ġeqn ky
Ġeopok ff
Ġkci wxesp
Ġcalcul ates
Ġbirmin ham
Ġuniverist y
Ġusqh znbw
Ġgrafit ti
Ġenvir onment
Ġalign s
Ġtremend ous
Ġauthent ic
' m
0 29
0 32
2 211
3 246
4 40
4 294
4 322
5 58
5 234
5 077
7 28
7 355
8 18
8 69
8 387
8 306
8 522
8 406
8 674
9 17
9 26
9 209
9 246
9 219
a urant
b nk
d vil
d zz
d jx
d hn
d den
e ed
e bn
f pq
g mingham
g ff
g cy
g pa
h w
h ist
h ua
h erschel
i ming
i kv
i vals
j or
j ir
j ful
k oq
k pv
m on
m gy
n p
n vq
o a
o ve
o le
o ld
o as
p end
q it
q is
r nd
r fl
r ces
r gdb
s lf
s zc
t si
t ain
t code
t vyr
u u
u v
u ing
u ic
v a
v ma
v ft
v sr
w la
x wh
x lc
x rz
y l
y way
z jf
Ġ `
Ġt end
Ġa st
Ġa fer
Ġa kf
re quisit
st ish
st cu
Ġth ous
Ġi v
Ġi xe
Ġi cqw
el ene
Ġh b
Ġh s
Ġh um
Ġh its
Ġh hq
Ġp ops
Ġp ediatric
Ġc e
Ġc k
Ġc x
Ġc ct
Ġc ap
Ġc age
Ġc kl
Ġw p
Ġw y
Ġw ai
Ġthe me
Ġy p
Ġy y
Ġy ay
Ġy vh
Ġy cg
Ġn bor
Ġn zp
Ġn mt
or ical
or ious
Ġf z
Ġf est
Ġf li
Ġf vn
Ġf aves
at ient
at ological
Ġb m
Ġb q
Ġb w
Ġb pe
oo p
Ġre si
Ġre un
Ġl f
Ġl r
Ġl ies
Ġl bs
Ġl nk
Ġl vt
sta la
Ġd l
Ġd p
Ġd w
Ġd ci
Ġd kv
ri bbean
ook ed
ook sh
Ġan ten
le aves
ge d
Ġis herschel
Ġg a
Ġg f
Ġg q
Ġg dh
Ġg dzz
ar nt
th y
ke i
es q
Ġli ving
Ġwi ki
Ġwi den
ll w
om an
ent ure
Ġpri se
Ġpri cy
Ġwh ch
Ġdo ck
Ġatt action
al thy
art er
Ġon oc
pe pn
Ġar con
Ġbe vm
Ġlook ng
ree ment
Ġlooking for
la j
la gcy
Ġta g
ea et
ch a
ch ed
ch urch
Ġ2 29
Ġ2 56
Ġ2 662
Ġleave es
Ġ4 52
me g
it d
it lz
ow r
Ġwill l
Ġex ha
cer tain
Ġlo al
Ġran ger
Ġnor fo
Ġpo sr
as cular
Ġst ort
Ġst rip
ro gd
Ġgo int
Ġgo jir
Ġpre requisit
Ġsou rces
Ġloc ates
Ġ5 00
Ġ5 66
Ġo jful
fi ve
ress ing
30 57
30 85
all ing
45 43
ul r
ul ty
Ġsh ot
Ġwest ies
Ġj x
Ġj ot
Ġj um
Ġj gn
Ġcould nt
23 11
23 92
Ġsu cks
Ġsu ccesful
Ġwe althy
Ġk j
Ġk oo
Ġcolle ction
Ġfri st
Ġent ree
Ġthur s
Ġ15 15
Ġdi lton
Ġma jor
Ġr f
Ġr h
Ġr x
Ġr z
Ġse ve
Ġse ated
ia ble
oom end
Ġun ite
Ġun certain
Ġ11 7
Ġ17 93
Ġhi dden
Ġ12 2
cess ful
Ġ16 00
Ġso cial
Ġ14 6
Ġu x
Ġu of
ck ls
ck qx
Ġknow s
Ġvi v
Ġ19 5
Ġref s
Ġspe ct
Ġspeci fc
Ġmi le
Ġmi les
Ġmin or
Ġv enture
Ġv ascular
Ġnight li
ap y
Ġbri stish
Ġcu ri
ne h
Ġho vw
Ġarch yway
Ġnew er
Ġ9 3
Ġcar rib
Ġcar ribbean
21 18
Ġlet ting
yn w
ite ment
Ġste et
Ġ09 59
11 9
11 60
11 49
Ġcheck in
Ġbir gmingham
Ġq my
Ġ08 00
Ġboat ers
Ġ07 29
Ġ07 01
Ġ07 32
Ġ07 16
Ġ07 13
Ġ07 76
Ġ07 67
Ġ07 86
Ġ07 65
Ġ07 47
Ġ07 263
58 9
58 06
58 63
24 73
24 75
17 6
17 61
fo esq
tt lk
Ġswim iming
be ib
08 6
af sw
af lv
Ġqu arter
Ġhunting down
88 2
88 05
54 2
54 73
Ġhe ck
Ġpossible s
27 8
27 88
39 2
39 76
59 01
59 72
59 02
20 3
20 21
mm pi
Ġadmiss ions
Ġadmiss oin
Ġcaf fee
Ġlove d
Ġhop ital
Ġexc use
Ġexc itement
Ġz g
Ġz i
Ġz p
Ġz ht
Ġz vft
Ġgra te
16 10
90 30
90 25
90 33
09 25
Ġconcer ning
sh k
sh y
Ġayle bray
br m
Ġim formation
49 90
49 92
48 40
06 84
57 70
57 93
Ġover all
Ġover night
Ġover booked
Ġrest ating
Ġbra y
55 17
38 28
77 43
77 63
77 47
Ġinteresting ly
80 44
Ġsc ra
Ġwa u
Ġold est
18 63
25 57
Ġlod on
Ġmagd elene
28 2
Ġ0122330 1761
Ġcomm it
34 70
ura te
Ġnus hua
26 1
26 17
26 34
zz ny
Ġug pe
Ġwandle bery
oy oas
Ġx t
Ġx z
Ġx den
qq kf
bb n
Ġaw v
Ġsit ting
Ġappe alling
68 33
Ġjun e
76 48
73 24
Ġef fort
Ġclassi fication
69 3
Ġdis ag
Ġrec oomend
240 2
Ġ01223245 15
94 27
ps ulr
Ġ29 29
86 32
86 76
Ġmo vt
65 17
Ġbea ch
dp n
Ġactiv ites
Ġcomp ara
Ġinde pend
96 78
82 25
pm q
Ġfact ors
04 40
Ġum s
Ġmarys church
up l
Ġ01223312 41
ax u
Ġcatal am
05 45
05 16
93 10
93 60
92 26
js q
Ġpurchase d
03 78
dw v
bd j
bd neh
hx gl
95 17
ru xd
qy c
im g
jx k
jx n
jx p
Ġret aurant
zy m
zc q
jf xlc
Ġbr ooksh
px r
rt b
pd l
Ġ087155010 1
sy t
hu v
fd t
gm ntu
kc z
nk z
nk gs
Ġaccom ad
gg r
Ġlux orious
hc upl
Ġrespon d
rf jq
sd psulr
Ġfinish ing
Ġindustri cal
km vo
Ġ074 79
Ġhaem atological
mn bdneh
vf v
Ġdecent ly
ij iww
Ġocc ur
Ġstev ange
vx l
ob ile
df jfxlc
vq l
Ġgl bnk
dg a
bc ckqx
pz gff
Ġprior ities
mr shk
hh s
wk ab
Ġtru sday
Ġcong ra
Ġwou old
lv ha
Ġdig ressing
Ġcontin uing
200 1
200 6
Ġau stala
Ġacc urate
tk j
sf jm
Ġib tn
dd c
zi oman
Ġoverwhel ming
Ġcw ruxd
317 7
Ġmq rgdb
Ġjz xs
Ġrail way
Ġinp atient
Ġmiscommunic ated
md beib
Ġaz syt
Ġph dx
115 6
Ġpie ces
Ġrestau arnt
Ġ0799 89
Ġao xh
Ġ97 25
Ġbum p
Ġdiffic ulty
fact s
Ġthor ton
Ġyh ou
Ġrecomm rnd
Ġrestauarant s
Ġeas iest
Ġ0122359 6066
857 5
Ġll ammas
Ġarti facts
Ġnorm al
Ġvk km
Ġoccup ational
858 5
Ġther apy
Ġsna gged
Ġgoon a
Ġaddenbrook s
Ġ012233650 68
Ġskim p
swx at
Ġplast ic
Ġai port
Ġeffi cient
Ġvalu ed
980 5
Ġiron y
Ġrestarant s
Ġkl pepn
Ġautom obile
312 8
818 5
869 9
dvil huv
ebn qr
hist orical
ikv z
mgy yh
nvq d
zjf z
Ġast ropub
stcu za
Ġthous and
Ġixe zzny
Ġicqw vql
Ġhum ble
Ġhhq dga
Ġckl foesq
Ġyvh r
Ġycg v
Ġnbor th
Ġfest ivals
Ġfli ght
Ġresi ding
Ġreun ion
Ġanten atal
Ġonoc cl
Ġexha usted
Ġnorfo ld
Ġposr tcode
Ġstort fod
Ġgojir rq
Ġprerequisit es
Ġmajor ity
ckls laj
Ġspecifc ally
Ġnightli fe
Ġcarrib ean
aflv a
Ġzvft q
Ġgrate ful
Ġxden so
Ġdisag reement
Ġcompara ble
Ġindepend ently
Ġbrooksh ite
nkgs n
ijiww q
pzgff t
Ġaustala sian
Ġmqrgdb za
Ġrecommrnd ation
Ġklpepn ed
Ġixezzny l
0 30
0 39
0 57
0 33
0 117
1 42
1 428
2 602
3 237
3 347
4 082
4 117
5 24
5 60
5 39
6 45
6 51
6 71
7 59
7 239
8 50
8 131
8 239
9 18
9 382
9 286
9 522
9 792
a ue
a ully
a jsr
b ro
b iz
b oh
c ou
c ion
c fic
c ds
c jz
d ander
d tz
d xh
d gy
d jl
e ce
e um
e pe
e zt
e oj
f a
f m
f fic
f ence
g st
g ate
g ment
g ah
g urf
g fl
g fn
g bq
g jj
g ih
g ently
h bg
i op
i ant
i jx
i qg
j ky
j uf
j lm
j df
j hq
k er
k jk
l in
m ky
m qq
m lj
n re
n ter
n wk
o zc
p are
p uw
p ensi
q at
q ot
q vg
r um
r ry
r ni
r cm
s ame
s ly
s zk
s mf
t sted
t iz
t able
u ct
u es
u ate
u cu
v so
v ince
v bdj
w ave
w xs
w ki
x li
x ta
x ob
y g
y ac
y jm
y ki
y vg
z te
z qn
Ġ ry
Ġt gf
Ġa j
Ġa ver
Ġa vi
in x
in ks
st n
er ts
er ue
on one
ou g
Ġth usday
Ġi u
Ġi il
Ġi kc
Ġi ohu
ra y
ra ting
ra ted
el or
Ġp enny
Ġp atri
Ġp crn
Ġc v
Ġc em
Ġc pri
Ġc vw
Ġc xf
Ġc nus
Ġw w
Ġw z
Ġw en
Ġw all
Ġw oul
en rl
Ġy g
Ġy q
Ġy ur
Ġy wn
Ġy ah
Ġy sv
Ġn l
Ġn n
Ġn uw
or p
Ġf p
Ġf ot
Ġf kv
Ġf uh
at c
at uring
at wave
Ġb v
Ġb end
Ġb ly
oo th
Ġre feren
Ġin side
Ġl z
Ġl jo
Ġl aid
Ġl zl
ot ford
Ġd n
Ġd y
Ġd om
Ġd jf
Ġd vd
Ġd ztn
Ġs ly
Ġs lyn
Ġs ample
Ġs ense
Ġm am
Ġm bg
ve st
ve pj
ct uate
end ar
end ors
Ġan e
Ġan h
Ġhot al
Ġhotel ex
ay fn
ay lk
se o
ce des
Ġtra ffic
Ġbook n
Ġg m
Ġg n
Ġg v
Ġg al
Ġg as
Ġg vq
Ġg fil
ar lest
ld n
ed back
ie ster
Ġat b
es a
Ġthat wor
Ġthat res
Ġli f
Ġinform ant
ent a
Ġwh t
Ġdo dgy
Ġch ain
Ġattra cion
Ġle iester
al f
al able
Ġpe me
Ġbe gun
Ġplease s
Ġany the
Ġstar ters
Ġti tle
Ġty hat
la in
Ġdep erts
Ġta ll
ea ir
Ġwith outh
ch s
ch edu
Ġ4 63
Ġyour s
Ġhelp p
Ġtime table
Ġmod el
Ġex quisit
Ġplace s
Ġnot able
Ġal ley
house s
Ġlo se
Ġdest ined
Ġ3 45
Ġpo e
Ġpo or
as g
Ġreference s
Ġst ree
Ġst ates
Ġst inks
ro am
Ġgo ig
Ġcheap ish
Ġpre fence
Ġpre pare
Ġab ou
Ġni gth
00 17
00 33
00 85
Ġ5 93
Ġo i
Ġo st
Ġo sa
Ġrecommend ing
Ġmu lt
Ġas pect
30 52
15 6
15 67
15 62
nd ca
nd tr
45 5
Ġe g
Ġe o
Ġe bl
Ġe arlest
Ġaddress s
ee fi
Ġea wi
Ġj a
Ġj w
Ġj ud
Ġj umping
Ġj pk
Ġj eefi
23 82
Ġsu prise
Ġtr qq
Ġaf fect
Ġcollege are
vi gate
ust rating
Ġ7 18
Ġsor rry
Ġdi al
Ġmon ument
Ġr j
Ġr u
Ġr ude
Ġind if
Ġse ms
Ġse pt
Ġun rated
Ġ13 50
ak cn
Ġ16 10
Ġso ld
Ġu uct
Ġknow ing
Ġ19 4
Ġ19 97
Ġref ine
Ġref use
Ġspe cfic
Ġ012233 481
Ġ012233 483
Ġcal endar
Ġv rn
Ġv yr
Ġv orp
Ġv endors
Ġspecific ations
Ġ21 0
Ġeur ope
Ġcu ts
Ġho le
Ġho gurf
Ġact aully
lo x
iz vma
Ġeat en
Ġnew com
Ġ9 25
Ġ9 73
21 78
Ġsp ark
yn z
Ġcon d
Ġcon cent
Ġcon stru
Ġcon vince
Ġselect ing
Ġste ve
Ġste am
Ġentertain ent
Ġche f
Ġbro ke
Ġ09 30
bor oq
xb f
xb y
Ġstan tsted
11 88
Ġq d
Ġq lc
Ġq ewq
Ġfe aturing
Ġfe edback
wi k
og ur
Ġalex dander
Ġarrival s
Ġ07 11
Ġ07 66
Ġ07 43
Ġ07 73
Ġ07 75
Ġ07 95
Ġcl so
24 36
17 4
fo yj
07 2
07 93
29 12
29 85
08 13
af p
Ġfun ction
Ġus b
40 15
10 58
10 90
10 44
Ġcou d
88 4
88 93
Ġthough ts
Ġclose s
Ġchest ert
oodle s
60 34
54 08
54 96
Ġhe atwave
01 84
39 22
46 38
Ġrequirement s
59 65
59 85
Ġres chedu
Ġcla ire
Ġpol enta
20 6
20 58
Ġriver bo
Ġtando on
41 8
41 15
41 80
Ġbistro s
Ġpa ces
oh z
Ġz w
Ġz wn
Ġz dt
Ġz crp
16 4
Ġcor ss
Ġconcer ts
sh twa
qu jhq
Ġwar n
br l
Ġworth while
49 87
49 131
48 63
Ġdefin ite
06 78
06 72
Ġen cou
ip t
ip py
Ġco in
Ġover ly
36 34
36 8786
42 50
42 26
Ġaccommod ating
38 5
38 58
38 54
38 43
77 21
80 11
ff a
44 40
18 62
78 5
78 78
78 64
25 6
ize yl
56 88
Ġgroup s
34 66
34 356
Ġenjoy s
79 8
79 17
79 40
em ber
ky cw
33 70
26 35
26 56
26 73
zz ahm
dy t
cy x
Ġguess ing
Ġinex pensi
oy k
Ġguests houses
70 12
Ġfi ght
Ġx h
Ġx j
Ġx chs
Ġsea son
Ġsea same
Ġte h
Ġjin lin
Ġaw ful
Ġstand by
Ġappe tiz
Ġsay s
89 20
89 44
Ġplay ing
place d
jg oxq
14 78
ight ful
Ġsaf ety
Ġ01 233
Ġclassi fied
69 30
Ġseem ed
Ġrec all
Ġmid st
Ġmid day
98 1
tu la
67 23
87 24
ps d
bj gh
65 60
Ġdouble d
91 88
Ġfend er
Ġdu y
dp b
dp aue
Ġcomp lain
Ġsection s
Ġfa xed
Ġfa ult
Ġconcern s
Ġiri c
04 66
04 71
Ġtran fer
up roam
93 66
93 20
Ġcr lj
tz h
my wh
Ġportra it
Ġameric a
Ġshorten ing
Ġmer cedes
hx g
kn f
Ġjo ke
im ated
xh m
Ġmis placed
uf xta
Ġever day
zy c
Ġdeal ing
kv smf
Ġ01223300 0085
cr clo
sx gd
Ġoper ates
bg iww
ej z
pb za
Ġes cap
Ġ077 27
Ġ079 1862
ew g
Ġest imated
427 4
Ġ36 54
jv t
lx vbdj
aw x
qc l
qc s
qc dt
qc ba
tq wl
fn et
zk d
Ġdel ightful
ph v
Ġem ailed
uj kd
vy tsi
fs n
oi se
oi wki
vc x
vv pv
vv zyc
xy h
xy dz
410 6
pk hc
sq l
sq us
Ġow a
Ġow ln
Ġfr ustrating
Ġsm ooth
rg a
vl it
Ġbring s
Ġ01223217 231
Ġsport y
if ex
Ġapproxim ate
oj rd
pn c
ssy p
cm ogur
01223 368786
fc d
aj a
bc ai
ult ies
mr w
qh d
zb ffa
ov ti
Ġstate ment
Ġur gently
Ġcet nre
Ġful lest
958 2
Ġheart bro
nh ojrd
Ġwou d
wx mky
Ġmanage ment
cg ynw
sl gy
vg a
Ġut ufxta
yx z
Ġkill ing
ik ohz
rz r
Ġsn app
Ġsn ippy
Ġguesth oise
di w
nts yb
709 4
Ġinf lexible
Ġ12233 00085
Ġconsist ently
cj t
nr c
Ġau umn
Ġrece ipt
jn xhm
Ġgoodn ight
Ġboast ing
Ġneighbor ing
Ġpeterbour gh
989 1
wg ayfn
Ġfo ra
Ġecon omy
Ġna vigate
Ġfl ip
Ġ01245 49131
Ġintri gue
Ġren ting
Ġreport ed
Ġreceive d
Ġrecomend ations
Ġchip s
Ġfortun ate
126 194
Ġoy g
yt gb
Ġdiffic ulties
Ġcottage s
io vi
nus ha
Ġfg om
Ġexcurs ion
Ġexcurs ions
fyq ha
Ġinsist s
338 23
654 9
mtl qcba
Ġwj boroq
Ġjig gy
Ġsupervis or
Ġct v
Ġstr otford
Ġeth iop
Ġprotu gese
Ġinput ting
Ġts ounds
Ġtz phv
Ġflu ctuate
xcd mw
Ġphysic ian
758 3
wka wi
yzl gjj
Ġdd izeyl
207 8
Ġexpensi ove
Ġ012232742 84
Ġtremendous ly
Ġwai ll
Ġdp fnet
Ġattaction s
meg fyqha
Ġviv iting
Ġspect rum
Ġ07479 126194
Ġ079989 34356
biz r
dxh djl
gst qc
gah v
gih o
iqg aylk
jky mx
juf q
jlm p
mqq fcd
nter ing
qvg t
rni i
xli o
xob m
yki hn
Ġtgf jkymx
Ġaver age
Ġavi alable
Ġiohu vga
elor qb
Ġpatri cks
Ġcem bridge
Ġcpri o
Ġcvw akcn
Ġcxf enrl
Ġyah bizr
Ġysv sly
Ġfuh pbza
Ġbend er
Ġreferen ece
Ġljo ey
Ġlzl sjz
Ġdom ain
Ġdvd lh
Ġslyn f
Ġmbg jnxhm
Ġhotelex pensive
Ġthatwor k
Ġanythe ing
Ġexquisit e
Ġprefence s
Ġnigth clubs
Ġosa gfn
Ġaspect s
Ġeawi q
Ġjud gment
Ġtrqq xobm
Ġindif ferent
Ġsems yf
Ġsept ember
Ġuuct foyj
Ġ012233481 44
Ġhogurf vc
Ġnewcom ers
Ġconcent rate
Ġconstru cted
Ġconvince d
Ġreschedu le
Ġriverbo ar
Ġzcrp olk
qujhq img
Ġencou ntering
Ġinexpensi vely
Ġappetiz ing
jgoxq px
Ġcrlj awx
bgiww z
Ġescap ing
Ġ0791862 0184
vytsi j
Ġsmooth ly
Ġheartbro ken
wxmky a
Ġwjboroq r
Ġethiop ian
yzlgjj l
Ġcxfenrl z
0 15
0 66
0 60
0 393
0 269
0 217
1 309
2 016
2 089
2 514
3 39
3 353
4 08
4 46
4 79
4 210
4 404
4 249
5 45
5 59
6 24
6 16
6 89
7 45
7 38
7 151
7 222
7 667
7 468
7 438
7 169
8 21
8 44
8 966
8 149
8 598
8 504
8 121
9 494
9 331
9 303
9 693
: #
a ut
a urday
a ok
b at
b et
b ne
b vr
b xw
b ucks
c ation
c la
c ad
c os
c uj
c vy
c wcf
d gh
d ode
d ul
d sday
d ws
d cc
d ohu
e k
e ave
e house
e ander
e ub
e cc
e ki
e ves
f st
f an
f ir
g or
g ran
g de
g xb
g bu
g uw
g zk
g jp
g iest
h ow
h sh
h qy
h abet
i rant
i de
i ian
i ks
i ky
i ques
i hc
i fdt
j en
j ed
j ee
j our
j ci
j yn
j ua
j vd
j qg
k le
k ic
l g
l um
l cy
l pm
l ru
l zx
l myl
l ooked
m ia
m exican
m tz
m nl
m jc
m vl
m vx
m qh
m xx
m veg
n m
n sp
n ess
n pd
o es
o int
o ah
o alf
p sp
p lly
p rt
p uq
p elled
q ee
q gd
r ting
r vation
r by
r jx
r vh
r vy
r mr
r mv
s ry
s bray
s outh
t op
t thing
t ry
t rip
t jo
t aq
t vv
u esday
u ul
u fo
u vol
u zzi
v p
v ate
v lu
v jo
v xd
v zn
w ai
w fo
w een
w li
w dw
w cr
w kmu
w knf
x k
x ct
x ol
x ha
x fl
x my
x xh
x gy
x ni
x pk
x ov
x kh
y a
y ay
y em
y ru
y gn
y do
y lk
y dx
y mc
y zx
y uc
y zo
y glc
z le
z ar
z ed
z od
z ft
z cc
z pd
z sy
z db
z jm
Ġ *
Ġ oom
Ġ ess
Ġ edu
Ġ oodles
Ġt x
Ġt ll
Ġt vf
Ġa x
Ġa at
Ġa side
Ġa oy
Ġa yq
Ġa jsq
re en
re sh
re vf
in b
in ent
st i
st ing
er l
ou a
ou nts
Ġth s
Ġth ich
Ġth uesday
Ġi in
Ġi kie
Ġi gc
ra se
ra xkh
Ġh y
Ġh ar
Ġh ating
Ġh vy
Ġp s
Ġp si
Ġp it
Ġp qa
Ġp iks
Ġc od
Ġc ic
Ġc ops
Ġc ma
Ġc qb
Ġc kk
Ġw k
Ġw q
Ġw lu
Ġw zy
Ġw fii
Ġw cvy
en bd
en wm
Ġy b
Ġy yx
Ġn h
Ġn k
Ġn r
Ġn ay
Ġn gh
Ġn ast
Ġn aw
Ġn mc
Ġn vzn
or ow
or id
Ġf f
Ġf og
Ġf pq
Ġf jv
Ġf cz
Ġf cq
Ġf mtz
at er
at jee
Ġb b
Ġb d
Ġb x
Ġb ct
Ġb ood
Ġb ck
Ġb uck
Ġb ok
Ġb ud
Ġb bg
Ġb nn
oo ag
Ġre z
Ġre book
Ġre mo
Ġre ph
Ġre inb
Ġin sp
Ġin bet
Ġl v
Ġl ay
Ġl so
Ġl yln
Ġl oop
ing ton
ing pool
Ġd m
Ġd ir
Ġd ad
Ġd ang
Ġd yy
Ġd hs
Ġd xz
Ġto mm
ri ty
an nc
Ġs for
Ġs ut
Ġs ol
Ġs lac
Ġs aurday
Ġs lum
Ġm f
Ġm tz
Ġm nf
Ġm kv
Ġm tl
Ġm rq
Ġm wd
Ġm pl
Ġm mind
Ġm xg
ve boat
ve zk
ct iy
end id
le dge
le pn
ay fr
ay raxkh
Ġresta irant
se bray
ce w
Ġtra shy
Ġbook in
Ġg for
Ġg ut
Ġg uese
Ġg pmq
Ġg wik
ar u
ar ole
ld pgq
ont u
ont ime
am sd
Ġand d
Ġat zt
Ġat mxx
th ouse
ke v
Ġli w
Ġlike to
Ġinform atin
om ation
om rc
Ġpri vate
op l
op o
um j
Ġme ed
Ġatt itude
Ġch bh
Ġch xfl
Ġle hr
Ġle eave
amb ridge
Ġcambridge sh
Ġyes si
Ġpe a
Ġpe opl
pe q
pe ople
pe mvx
Ġar thu
Ġar ray
ber s
Ġcentre m
si cal
si pb
Ġany how
Ġstar bucks
Ġti ck
Ġti red
Ġde ap
Ġde cad
ter ly
Ġta cos
Ġdepart ung
ur k
ur ne
Ġ2 52
Ġ2 78
Ġ4 39
Ġ4 20
Ġpar ing
it lhi
ow lti
ow fl
ss gx
gh j
gh k
gh xn
Ġfrom s
Ġthank l
Ġ3 60
Ġ3 802
Ġ3 293
Ġpo ast
Ġst ating
Ġst vhw
Ġanything s
Ġpre cis
Ġab ound
Ġab npd
00 13
Ġloc ked
comm ed
Ġwant a
Ġ5 43
Ġo ou
Ġo le
Ġo dge
fi b
Ġsome tthing
de vy
de ga
30 93
15 90
15 55
15 70
Ġnigh clubs
Ġe y
Ġe vd
Ġe qc
Ġe ooag
Ġpart ies
Ġall right
Ġea fy
Ġpostc od
Ġpostc dode
Ġpostcode e
Ġj v
Ġj ci
Ġj ac
Ġj pn
Ġj bv
ain s
ic king
Ġwe el
Ġk c
Ġk u
Ġk cc
Ġk hh
Ġk sfs
Ġk ldpgq
Ġk icking
Ġcol to
Ġfri dy
Ġsunday mon
vi ll
Ġthur dsday
Ġ15 27
Ġif xp
Ġafter all
Ġ01223 257
Ġ01223 00085
Ġ8 59
Ġav ail
Ġr c
Ġr p
Ġr r
Ġr jv
Ġr lt
Ġr commed
Ġind iian
Ġse cu
Ġse uss
Ġun ne
Ġun aw
Ġ11 30
Ġ17 4
Ġra iting
Ġ12 5
Ġ12 235
our be
cess arily
Ġ16 4
Ġdif fid
Ġsi zed
Ġper im
Ġu v
Ġu oe
Ġu zf
Ġu dg
Ġvi g
Ġvi sting
Ġ19 8
Ġ19 00
Ġbre aking
Ġcri me
Ġcri ti
Ġcri sti
Ġticket sis
Ġmi gran
Ġv h
Ġv y
Ġv an
Ġv mf
Ġv rx
Ġbri ght
Ġinclu sive
ne q
Ġ20 4
Ġho sv
Ġho sons
Ġri ch
Ġri gam
Ġri veboat
Ġbar bers
lo qw
iz i
us q
us ac
21 48
21 06
21 76
21 75
Ġsp elled
Ġassi gn
Ġsel f
Ġely pax
Ġfit ted
Ġcon fid
ops y
11 10
11 65
Ġbir mi
Ġq ca
Ġq cla
Ġq yglc
Ġpizz eri
Ġmar ger
ma c
og ue
by qu
Ġale sbray
Ġalex eander
Ġ07 38
Ġ07 80
Ġ07 28
Ġ07 33
Ġ07 64
Ġ07 330
Ġ07 389
Ġlong on
sp fc
58 0
58 16
58 31
Ġcl bj
Ġgon vill
24 94
17 64
fo aja
Ġcost ing
07 57
07 98
Ġhapp ily
Ġswim mo
ab x
50 1
50 50
50 89
50 91
66 9
66 73
66 91
29 58
08 23
08 22
08 64
08 62
af s
af y
Ġevery where
Ġfun ny
Ġ23 30
Ġap dcc
40 16
Ġqu icke
Ġla eves
sa jv
88 06
wh g
60 45
54 7
54 12
Ġhe jf
52 45
52 82
52 85
kw t
01 15
01 96
27 1
27 4
27 59
27 76
39 12
39 29
39 34
39 53
59 2
59 09
59 28
59 71
Ġres rvation
20 48
mm fd
ca ri
ca oa
Ġlist en
32 62
19 8
19 11
19 31
Ġshadd i
41 6
43 44
ets l
Ġag ent
Ġz f
Ġz h
Ġz x
Ġz za
Ġz nn
Ġz izi
Ġgra y
Ġgra ded
90 24
09 98
09 92
Ġ0122335 5909
Ġdepartment s
Ġaut o
Ġfin s
ks zqn
49 43
49 28
Ġpr tu
Ġpr xy
yal fst
48 0
48 7
48 98
48 03
Ġdefin ately
06 25
06 74
tn q
Ġen oalf
Ġover looked
su gzk
36 59
42 30
42 56
42 83
Ġbedou is
55 11
55 38
77 8
77 68
77 69
gd jz
gd to
Ġsc reen
Ġalp habet
ff g
ff km
il v
78 52
78 79
78 22
Ġchop house
ah jv
Ġali ke
28 15
28 50
56 48
56 93
56 95
Ġ0122330 914
Ġcomm unic
da j
na opsy
Ġdescription s
za o
hi h
79 56
79 79
mar ks
ky sn
26 36
26 25
26 96
Ġmiss pelled
Ġ79 1
cy j
Ġpop pin
Ġhmm mm
22 50
oy ghk
ny hs
Ġfi day
Ġfi bne
Ġx v
Ġx pe
Ġx xa
Ġx pk
Ġx eo
Ġx gbq
Ġx amsd
Ġx usq
Ġuse d
Ġmegh a
qq c
qq s
bb aj
Ġimport ance
gon ville
Ġlu ch
pt mtl
Ġaw a
Ġaw are
Ġha g
Ġ0122324 882
li x
64 73
iv x
89 25
89 28
89 33
Ġhey a
Ġbel t
68 4
Ġastrot urk
jg gjp
73 10
Ġchar ging
Ġ01 1223
Ġclassi c
69 89
888 5
63 19
84 76
Ġpm hz
Ġrec ap
Ġ70 1570
98 31
tu jxn
67 15
67 59
94 17
94 07
bj t
Ġsleep s
47 58
Ġestablish ed
37 34
mb ws
mw j
mw guw
74 11
aq ja
bs bw
Ġland marks
Ġ0122321 629
96 88
over ing
Ġdri ing
gl mu
gl jed
Ġmich ehouse
ax dyt
lf b
lf vd
05 21
lh qc
92 25
eg i
Ġ01223350 420
97 51
97 56
gx pl
gw jc
gw vj
tz um
tz jq
Ġbill ing
my c
my x
my wn
sw c
Ġ0122350 655
jb n
jb qs
jb zo
Ġdirect ory
qf hx
cc s
ag mlj
pj jbzo
223 6
uf n
wy tnq
gn ham
jx x
nf kvo
zy q
zy ccs
Ġ076 21
Ġfig ured
zc l
zc fv
tl w
tl kh
vd d
vd abx
Ġbr unch
px c
Ġdisc ounts
Ġdisc overing
rt ree
bt g
bt p
bt gc
bt bjt
hg sjz
Ġes pensive
je v
Ġwr ote
uw f
81 43
gm v
qc xni
zk z
zk dn
Ġcancel ed
ph p
Ġansw ers
Ġsquare d
vy tx
Ġreal m
mf g
mf on
bq t
jz u
jz wai
eh d
lm ex
Ġrefer rence
jm g
rx n
rx kq
Ġcambri gde
257 5401
fs fj
rf a
sv u
vc ad
vc ak
lq hd
vv x
188 7
pk u
bn o
Ġfr m
vt pj
Ġsm h
Ġappro ve
jc svu
Ġod b
Ġdisapp oint
Ġresponse s
bf up
rg oi
rk j
ih pemvx
oz v
vf zt
vl gu
911 0
911 4
zm cr
zw xd
vb m
ij p
if p
gc l
vr pp
wj l
the at
jp u
oq sq
oq kev
zs m
01223 355
lc nfkvo
wb myc
gf w
dn b
Ġsatis fact
yk ji
Ġlimit ations
958 0
iy annc
Ġswe ar
Ġadvance d
zq v
Ġbout iques
407 8
bk fic
Ġut terly
263 3912
cq l
fg i
xg plly
Ġsn oring
250 8
kk afp
Ġpat ient
Ġwo es
Ġwo ah
min s
Ġinf omation
Ġaly sebray
Ġ12233 14960
Ġ01223365 454
kl ra
938 4
938 6
Ġ55 35
Ġyt ou
yc mi
yq dy
Ġmn kwt
nq i
Ġfl orid
Ġ072 29
Ġswitch ing
Ġsightse ers
Ġspl endid
Ġ0746 2575401
317 3
Ġprom inent
Ġbi king
Ġbi btgc
Ġdemand ing
Ġfil led
ato ions
ao ctiy
uo ivx
Ġay els
Ġval ue
Ġht el
Ġbon jour
Ġsg ssgx
Ġob fyq
Ġxy aoctiy
420 5
Ġpie h
Ġphy sical
Ġcen rtree
Ġsd rn
Ġsv eral
Ġtat se
Ġwd vi
Ġnt kq
Ġround trip
Ġvic zdb
Ġln rxn
Ġstra ight
970 4
Ġthor ough
Ġrecomm en
Ġmc itlhi
flx pt
Ġnd sugzk
Ġbt ts
Ġsb devy
Ġjig giest
Ġqg i
Ġagree able
Ġsupervis ors
ebg t
Ġhan ging
Ġcert re
Ġcert ian
Ġbroxb urne
Ġbroxb ourbe
ios f
Ġxi pjjbzo
Ġsmi dge
Ġatra in
Ġrg owfl
Ġvf ux
Ġqh kc
Ġxn qn
voq php
jmt ai
813 4
cvk lm
wch ymc
Ġtc lmex
Ġft voqphp
Ġgc ghxn
Ġatta ched
Ġuc spfc
Ġ0772 2633912
0123 25
Ġsett led
845 3
aav a
wbn rp
Ġlap top
Ġdg ghj
Ġmyster y
Ġunfortunat ley
Ġxp cari
728 5
Ġ` `
Ġyp ou
Ġga aqja
Ġjgn hu
Ġkj bb
Ġcongra dul
850 9
918 7
kjk zod
Ġaj te
Ġyq xgplly
Ġnn yalfst
Ġpoe ple
Ġdial ogue
Ġsnapp iness
545 456
aut umn
bat dn
bvr lm
bxw kv
cuj q
dgh ac
dws qn
eub hwc
ecc cs
eki ufo
fan wj
gbu zf
ihc zv
jua a
lpm km
lru gfw
lzx jr
mnl c
nsp k
prt qhd
rjx c
rvh je
uul b
uvol vxd
vjo bno
wdw lv
xol ra
xov bbaj
yem rmr
ydo a
yzx fd
zle fo
zpd m
zsy zs
Ġoom oe
Ġess entials
Ġtvf ex
Ġaoy flxpt
Ġayq o
Ġajsq zy
revf j
Ġikie ezt
Ġhar vest
Ġpsi dghac
Ġpit c
Ġpiks vfzt
Ġcic ina
Ġcma bridge
Ġwlu oqkev
Ġwzy cql
enbd th
Ġyyx r
Ġngh d
Ġnast y
Ġnvzn jx
Ġfog gy
Ġfpq jqm
Ġfjv atjee
Ġfcz jmtai
Ġfcq zw
Ġfmtz qot
Ġbck qcxni
Ġbnn zyccs
Ġremo ve
Ġreph rase
Ġinsp ire
Ġinbet ween
Ġdir ty
Ġdyy ute
Ġdxz bh
Ġtomm orow
Ġsut xd
Ġmtz oyghk
Ġmnf wdwlv
Ġmkv vdabx
Ġmwd lzxjr
lepn cc
Ġgut en
Ġguese thouse
Ġatzt dm
Ġatmxx nqi
Ġchbh zpdm
Ġcambridgesh ire
Ġyessi ree
Ġarthu rian
sipb f
Ġtick le
Ġdeap rting
Ġdecad ent
Ġprecis ely
Ġabound ing
Ġabnpd u
Ġevd o
Ġeqc lfb
Ġeooag zcf
Ġeafy z
Ġjac uzzi
Ġjpn lh
Ġjbv umn
Ġkhh jbqs
Ġksfs kic
Ġfridy a
Ġsundaymon day
Ġifxp nyhs
Ġrjv ne
Ġrlt ot
Ġsecu rity
Ġunne cessarily
Ġunaw are
Ġ12235 12596
Ġdiffid ently
Ġperim ater
Ġuzf w
Ġudg bvrlm
Ġcriti eria
Ġmigran es
Ġvmf xyh
Ġhosv dega
Ġrigam arole
loqw xpk
Ġassign ed
Ġelypax qz
Ġconfid ence
Ġbirmi gnham
Ġqcla b
Ġqyglc ine
Ġpizzeri as
Ġmarger ita
Ġ07330 545456
Ġ07389 012325
Ġswimmo ingpool
Ġquicke st
Ġhejf vrpp
kszqn wl
Ġprtu guese
Ġprxy mnlc
Ġenoalf av
gdjz q
Ġalphabet ically
Ġ0122330914 7
Ġcommunic ation
kysn b
Ġxpk rjxc
Ġxgbq hc
Ġxamsd try
Ġ0122321629 7
gljed pz
gwjc j
agmlj m
zkdn rmv
vytx wh
01223355 397
Ġsatisfact ory
Ġflorid a
Ġbibtgc na
Ġayels bray
Ġobfyq jzu
Ġsbdevy h
Ġgcghxn vn
Ġucspfc vi
Ġgaaqja qq
Ġcongradul atoions
Ġkhhjbqs z
0 58
0 55
0 236
0 662
0 481
0 328
0 469
1 38
1 088
1 4600
1 233
1 393
2 88
2 80
2 013
3 29
3 279
3 111
3 661
3 292
4 454
4 905
5 124
5 167
5 293
6 40
6 10
6 49
6 44
6 2456
6 456
6 125
7 00
7 90
7 458
7 409
7 483
7 278
8 23
8 34
8 70
8 31
8 233
8 531
8 542
8 385
9 100
9 299
9 495
a rant
a fast
a gd
a ua
b ry
b tu
b vl
b kd
b llw
c ies
c ws
c rh
c zk
c zf
c qz
c utc
d c
d ra
d ha
d ka
d ze
d im
d lx
d nn
e es
e ha
e ky
e if
e vw
e kt
f w
f ri
f xb
f wh
f da
f li
f uw
f rx
f au
f wx
f bo
f afy
g ouse
g zz
g rd
g bi
g vm
g jc
g rl
g ij
g vr
g rc
g ument
h ri
h an
h ar
h ould
h ensive
h ut
h and
h ub
h zz
i ate
i lo
i jz
i oz
i res
j me
j ad
j ny
j nf
j rt
j rb
j nn
j au
k ar
k lu
k be
k ff
k mb
k hx
k tq
k xx
k jsr
l it
l club
l ies
l pl
m en
m ri
m tw
m gx
m xa
m zl
m qw
n th
n ia
n ito
n bu
n sw
n xa
n ph
n esa
o end
o jb
o qa
o xc
o vx
p en
p ar
p ss
p ital
p ha
p ial
p cu
q ts
q ah
q li
q bu
q lh
q xs
r in
r te
r gy
r lm
r mg
s at
s ct
s al
s whg
t g
t ar
t action
t ca
t em
t qq
t fe
t fl
u fi
u az
u hu
u vy
u km
u vz
v ha
v bb
v ze
v zv
w u
w ent
w ol
w jy
w rd
w kc
w qh
w zq
x en
x um
x oc
x dq
x vm
x ji
x xby
y at
y ce
y ir
y led
y ka
y dy
y hu
y ww
y kf
y suq
z er
z ll
z ps
z fs
z gq
z qe
z uc
Ġt n
Ġt ge
Ġt ie
Ġt gd
Ġt cy
Ġt js
Ġt qa
Ġt qd
Ġa in
Ġa ri
Ġa kn
Ġa oj
re o
re q
re om
re ly
re sses
re hensive
in c
in nn
st s
st ig
st qb
er ol
er istic
er mediate
on i
on atal
ou sity
Ġth us
Ġi un
Ġi ir
Ġi req
ra ined
el ing
el jf
el vha
Ġh v
Ġh x
Ġh at
Ġh ld
Ġh si
Ġh ni
Ġh sv
Ġh ng
Ġh jh
Ġh reom
Ġp est
Ġp ertain
Ġp lub
Ġp int
Ġp fl
Ġp uw
Ġp xs
Ġp dl
Ġp lox
Ġc c
Ġc d
Ġc m
Ġc ul
Ġc red
Ġc ej
Ġw b
Ġw f
Ġw x
Ġw fo
Ġw jc
Ġw bh
Ġw tj
Ġw ql
Ġw reo
en sitive
Ġy i
Ġy fi
Ġy ff
Ġy bt
Ġy fn
Ġn f
Ġn u
Ġn al
Ġn the
Ġn tp
Ġn cz
Ġn sl
or q
or we
or fz
Ġf c
Ġf ry
Ġf lo
Ġf tz
Ġf gm
Ġf xd
Ġf neq
at ch
at jmy
Ġb k
Ġb ran
Ġb se
Ġb ple
Ġb nf
Ġb vc
Ġb vt
Ġb bo
Ġb vu
oo ple
oo ps
Ġre ma
Ġre mod
Ġin xji
Ġl m
Ġl ce
Ġl ak
Ġl ne
Ġl hy
Ġl gm
Ġl tq
Ġl we
Ġl lt
Ġl yy
Ġl pz
Ġl qs
Ġd q
Ġd ke
Ġd gm
Ġd ki
Ġd tx
Ġd ldq
Ġd utton
Ġd fsn
Ġto d
ri g
an o
an p
an xm
Ġs an
Ġs ens
Ġs yx
Ġs ssl
Ġs zgq
Ġs ensitive
Ġm l
Ġm es
Ġm gy
Ġm nl
Ġm xj
Ġm fp
Ġm wjy
ve c
ct pe
ct ly
ct eristic
Ġan kle
le ge
le ast
le ted
ge dh
se c
se wy
Ġtra ck
Ġare at
Ġfor u
Ġg un
Ġg yne
Ġg kd
Ġg xt
Ġg pg
Ġg pu
Ġg gjc
ar pt
ar zr
ar cqz
ed l
am ican
ie j
Ġat least
th rough
th dk
Ġthat nk
Ġwi il
Ġwi res
ll ly
ent een
ent ative
Ġne tf
Ġne onatal
Ġwh ould
Ġwh ic
Ġwh oops
Ġit ermediate
Ġam d
Ġam f
Ġam ple
Ġam men
Ġme a
Ġme h
Ġme at
Ġatt taction
Ġch ara
Ġattra ct
Ġle kn
al s
al jt
al yd
Ġcamb ir
Ġyes m
Ġcent ry
Ġpe z
Ġpe ple
Ġpe oople
od al
pe fs
Ġar gument
Ġbe ast
Ġbe jrb
Ġnum be
Ġpeople at
si ble
si tion
Ġti ye
Ġde oend
Ġty de
ter borough
ur c
Ġwith ing
ch za
ch ance
Ġ2 59
Ġ2 44
wn h
Ġ4 68
Ġ4 668
Ġguest gouse
me f
Ġmoder ite
Ġex lp
ind er
ry k
ry fc
ry hj
un l
Ġnot es
Ġnot ice
Ġal s
Ġal kk
Ġal kso
Ġexp ense
Ġexp resses
Ġ0 10
Ġ0 277
Ġ3 58
Ġ3 25
is ness
as a
ut m
ut tle
Ġst one
Ġst ol
Ġst yled
et dx
Ġpre der
Ġpre stig
Ġab otu
Ġab kff
ant ic
00 35
00 88
Ġ5 44
Ġ5 81
Ġo g
Ġo q
Ġo z
Ġo ic
Ġo zz
Ġo ae
Ġo yy
Ġo bk
fi li
fi dq
Ġmu wl
Ġmu btu
30 8
30 21
30 66
30 62
ol w
ol on
15 5
15 77
15 26
nd a
ice d
45 15
45 46
Ġe ference
Ġe ww
Ġe pn
Ġe wf
Ġe hh
Ġe ebg
Ġpart ner
Ġsh ound
Ġsh oul
Ġsh oes
Ġsh uttle
Ġget me
Ġpostcode in
Ġj b
Ġj p
Ġj wi
Ġj ff
Ġj hi
Ġj ix
Ġj wd
Ġj hq
Ġj qp
Ġj uz
Ġj quu
Ġj ctpe
Ġj arzr
Ġj amican
Ġok v
ic mm
ic ide
Ġsu cessful
Ġwe ather
are nt
Ġtr in
Ġk h
Ġk vj
Ġk xe
Ġk cd
Ġk gmv
Ġaf fili
ai o
ai ment
Ġcolle ag
Ġwifi i
Ġent ert
Ġent race
Ġent ires
Ġlea v
ish ment
Ġleaving a
Ġwedn sday
Ġsat iate
Ġman ufi
Ġcity centre
Ġsor y
Ġ15 24
Ġdi abet
Ġ01223 44
Ġ01223 62456
Ġ8 15
Ġserve al
Ġ6 76
Ġ6 383
Ġav pk
Ġav olon
Ġcb m
Ġcb r
Ġcb fd
Ġr l
Ġr t
Ġr ood
Ġr mg
Ġr lc
Ġr tp
Ġr zd
Ġr voq
Ġse mi
Ġse staurant
Ġop pss
Ġindian a
Ġ11 1
Ġ11 4
Ġ11 45
Ġra rte
Ġ13 00
Ġ12 1
Ġ12 263
Ġsi llly
Ġper chance
Ġu ber
Ġu ft
Ġu orey
Ġu xy
Ġu yww
ck a
ck cc
Ġtell s
Ġ10 4
Ġ10 64
Ġ18 36
Ġ19 55
Ġbre afast
Ġbreak er
Ġref f
Ġac w
Ġmin ist
Ġv x
Ġv ross
Ġv kw
Ġv sj
Ġv js
Ġv xq
Ġv hb
Ġv mz
Ġv mwi
Ġv wcr
Ġv urc
Ġnight lclub
Ġ21 1
Ġeur o
Ġcu y
lo zqv
iz s
iz gbi
Ġnew ham
Ġsev enteen
Ġ9 01
Ġ9 91
Ġcar pool
21 41
Ġsee k
Ġsee university
Ġsp are
Ġsp rained
Ġpl ft
Ġpl bf
Ġpl rlm
Ġche ar
Ġup jb
11 93
Ġbir dw
Ġsteven s
Ġq it
Ġq ah
Ġq rd
Ġq hg
Ġq vc
Ġq bv
Ġq qv
Ġq owr
Ġq oqa
Ġpizz as
ma edl
Ġfe et
og br
og zjm
ti i
ti stqb
Ġ07 20
Ġ07 70
Ġ07 53
Ġ07 68
Ġ07 84
Ġ07 04
Ġ07 623
Ġ07 62
Ġ07 92
Ġ07 85
Ġ07 598
bp mp
bp dka
58 70
tw wh
24 4
24 42
24 78
17 1
17 44
17 72
17 31
fo yc
07 0
Ġcom leted
nt y
ab nrt
50 8
50 17
66 55
29 25
08 43
ha en
Ġ23 6
Ġ23 20
Ġ23 926
10 27
Ġ05 00
sa jf
88 30
60 6
60 37
54 88
54 28
54 31
54 97
Ġlens fe
Ġlens di
Ġhe mp
52 67
mi q
01 12
Ġoh n
39 9
39 40
Ġbefore hand
46 3
46 55
46 89
46 73
Ġits hould
av oo
59 10
59 06
59 98
Ġcla ssed
Ġcityroomz s
20 5
20 29
mm o
mm y
32 07
Ġresul ting
19 55
ok t
43 1
43 79
43 82
Ġtur sday
ep i
ep k
Ġabsolut e
Ġz t
Ġz y
Ġz xi
Ġz bj
Ġz pd
Ġz kt
Ġz wcf
16 99
16 74
90 2
90 98
09 8
Ġ0122335 5711
sh c
qu qa
Ġfin est
br c
br ht
br tc
49 9
Ġaval iable
Ġyea s
Ġba cking
48 00
48 48
48 77
06 77
tn hq
Ġgr j
ip f
ull l
Ġco lege
Ġer m
57 0
Ġrest rant
su kp
36 2
36 9
Ġdin ers
42 2
Ġbedou ln
38 1
38 73
38 91
Ġapolog ise
77 38
77 71
gd f
Ġsc ene
Ġwa qs
Ġold s
ff tty
Ġend oc
il ple
44 4
Ġ0122336 233
Ġ0122336 9299
Ġcarol ine
18 4
18 35
18 32
18 71
78 34
ah h
ah tb
ah co
Ġ06 32
ds rh
28 7
28 19
28 31
56 78
56 26
Ġpun ch
Ġpun ds
Ġpun ishment
34 15
34 20
34 76
na oo
Ġgu arant
79 6
79 7
79 94
26 151
kok g
zz kq
zz wo
cy irg
cy pcu
Ġbl ond
Ġapp lies
Ġapp arent
70 330
70 3476
Ġfi ves
Ġcorrect ed
Ġx sq
Ġx lk
Ġx dwv
ud kc
qq r
Ġte el
mo bv
Ġha ha
li wo
Ġ01223358 399
Ġfran ky
64 71
89 18
68 3
68 06
68 44
68 70
jg rh
jg cm
76 34
76 96
Ġbu isness
73 29
73 72
fe hf
Ġ01 40
bu qli
69 25
63 36
Ġstyle s
Ġrec o
Ġrec ent
ln f
Ġmid night
tu esday
67 25
94 24
94 20
Ġregard ed
Ġ47 34
ps c
ps gf
Ġcold har
Ġca wrd
Ġclari fied
bj mq
bj ho
86 27
Ġ38 00
Ġ38 54
Ġ38 589
47 5
Ġunder went
Ġ012235 1241
Ġsw fuw
Ġdu h
mb a
dp l
dp m
mw r
Ġcomp rehensive
Ġspecial ize
ual fe
Ġ0122321 77
Ġ0122357 168
96 16
82 60
82 52
Ġgri ffiti
Ġsupp lied
Ġdesi res
vo x
Ġ35 15
ef s
ef x
Ġerit ean
04 49
Ġtran sition
Ġrel ation
Ġrel ating
gl g
up ai
up cw
Ġexhib itions
ax d
Ġmicha e
05 54
62 23
lh o
lh zu
75 19
Ġ01223323 555
Ġvolkswa gon
Ġcr j
Ġcr u
ua jna
Ġ019 6
Ġet ih
Ġ01954 14600
97 24
97 14
gx d
gx w
fl mf
gw k
my zll
sw d
sw q
jb g
jb ih
Ġ31 12
qf q
95 45
bw kg
ag st
Ġbelg ry
pj eh
qy jh
qy psgf
im x
xh uaz
Ġ078 51
uf xj
wy m
gn b
Ġmut ilple
nf d
ty bj
os mvl
zy j
ey wv
ey td
kv hn
Ġbo bt
Ġ076 29
Ġ076 57
Ġec brm
pq pv
tl bk
cr co
jy t
vd xy
Ġass bu
Ġbr qc
112 0
rd dl
bg v
Ġrom antic
nz bg
Ġsqu cln
bt ti
ej qj
Ġes le
Ġ077 15
ew wr
sy c
lj fidq
uw xxby
qb zuy
ac g
gm pa
jv lz
lx m
Ġthir sday
kc boh
nk ti
nk jm
qc nph
zk jyt
ph r
ph ir
Ġem pha
388 2
vh k
vh bc
Ġsidgw ich
bq h
bq s
bq mf
bq kh
jz i
jz qe
jz mv
511 0
hc n
hc myx
ux g
ux rg
ux xum
ux alyd
Ġrespon sible
rx z
rf m
sv p
sv x
bi olw
do zkz
Ġspace s
nj h
nj p
vv f
xy r
xy t
xy zb
qe u
qe crh
sq r
Ġow xj
Ġod vze
Ġ01223359 42
521 6
521 60
bl t
bl cs
mn p
mn s
oe iv
vf h
828 5
qw fwx
zm c
zm uk
ki wfn
xq j
nn r
Ġfift y
we qk
wl r
wl sp
Ġot er
kq dp
rn chza
xed gdf
zt fda
mg rf
Ġmath s
607 2
df w
hq d
res entative
Ġjoin ts
gs lhi
Ġgl by
Ġgl utton
Ġgl odal
01223 21
ng vlit
au gq
bc o
Ġrep resentative
Ġsupposed ly
Ġsell ing
Ġlarge st
tr ut
Ġconstra ined
Ġrespect ive
dn v
cl w
hh pj
wk j
zv p
yk xc
zx o
xf zm
xf mk
xw zar
Ġinter ist
fh jvd
Ġzip code
Ġ01799 52160
mz qy
wx pz
Ġ075 58
Ġgh andhi
Ġcategor ized
ku vl
vj ze
yh rk
755 6
ugh q
879 3
min utes
Ġaly dozkz
cj po
hf qts
829 2
jh os
wt aljt
Ġih phir
hv te
jl p
py ok
rv tnhq
cp i
mt g
yq nnr
Ġia uxalyd
hr cy
sg im
sz jzmv
Ġpy gl
Ġpy dlx
Ġfl g
gb oni
gb agst
yp ss
Ġarr ving
Ġglitch ed
nv nf
xu jb
yz by
sk orq
Ġay ilo
Ġhj kokg
Ġhj cyirg
Ġph sey
Ġgoo h
Ġstanstead through
Ġqa od
988 3
Ġoe v
Ġ0122325 6645
Ġxy iq
Ġxy gxd
Ġhq osmvl
Ġcy bpdka
Ġpet terborough
Ġstri ctly
Ġvacan cies
Ġwd etdx
Ġned eed
Ġbbq xvm
Ġree staurant
Ġjc zkjyt
809 2
Ġtd peq
Ġbum ped
fzc vec
iw mr
Ġdk hcmyx
Ġmc swq
Ġzn ro
flx sj
jmy oi
Ġou f
Ġwj ch
Ġlk le
Ġarti sts
Ġvc upcw
Ġqg abnrt
Ġoccup ancy
qam ughq
ztn k
Ġul z
Ġul swhg
Ġstr pxc
Ġeth nic
Ġrq ljfidq
Ġuj wym
Ġprotu guese
hcw ce
318 3
836 4
Ġsmi le
Ġatra ctions
Ġ0763 2382
glc vb
024 4
nrt v
yrx r
Ġtg kx
Ġlp nkz
Ġksh hcwce
Ġrain id
Ġzk ogbr
Ġzsd xs
Ġzsd flxsj
Ġxxx x
kbz um
sbs njp
Ġtf up
Ġfh zmuk
Ġmh erl
Ġindic ate
Ġsepa rate
qit l
qis g
xrz d
Ġakf p
Ġcct lxm
Ġcap able
itd rh
Ġjx kuvl
Ġjum ped
Ġkoo j
Ġseve rely
Ġux glg
Ġcuri ousity
Ġ07263 70330
Ġscra pe
Ġaccomad ation
wxs l
Ġry ed
stn zy
Ġwz rj
Ġyg myzll
Ġbv dpm
Ġdy amg
Ġgal ley
Ġjw erol
Ġ012233483 13
Ġsteve anage
Ġchestert om
446 10
689 5
puq pr
xgy l
ygn ka
Ġbud dha
Ġlv rg
Ġsol o
Ġjv gyc
Ġ07621 703476
agd qcl
bkd r
czf pqpv
cutc ph
dze g
eky i
eif xn
fri day
fxb r
grd rb
hub dz
jrt r
kbe v
khx r
ktq seo
kxx pr
kjsr rga
nth k
nia a
nsw k
nxa or
ojb nt
ovx x
pial jo
qbu v
rin ology
rmg sh
sal jyn
tqq g
ukm liwo
wqh v
xen h
ykf j
ysuq o
zps l
Ġtgd ye
Ġtcy avoo
Ġtjs xo
Ġtqd mtw
Ġakn pf
Ġaoj gd
Ġiun u
Ġiir b
Ġhsi innn
Ġhsv g
Ġhjh e
Ġpest icide
Ġpertain ing
Ġplub ryfc
Ġpint o
Ġpfl vz
Ġpuw pi
Ġpdl pm
Ġcred entials
Ġcej p
Ġwfo qfq
Ġwjc ua
Ġwbh zzwo
Ġwtj er
Ġyfi orwe
Ġyff shc
Ġyfn h
Ġnal gedh
Ġntp yzby
Ġncz qbzuy
Ġnsl kei
orfz pb
Ġflo or
Ġftz qcnph
Ġfxd nf
atch ing
Ġbran d
Ġbse jzqe
Ġbple ase
Ġbvt k
Ġrema inder
Ġremod eling
Ġlce xhuaz
Ġlak qv
Ġlhy lov
Ġltq hut
Ġlwe ogzjm
Ġlyy mc
Ġdgm g
Ġdldq ir
anxm ea
Ġsens ational
Ġsssl foyc
Ġszgq o
Ġmes sed
Ġmgy r
Ġmxj rf
Ġmwjy c
cteristic s
Ġgyne cology
Ġgkd dpl
Ġgxt xw
Ġgpg cypcu
Ġggjc v
arpt z
arcqz h
Ġnetf lix
Ġammen ities
Ġchara cteristics
Ġlekn i
Ġcambir dge
Ġbejrb nda
Ġdeoend ancy
Ġtyde g
Ġexlp ress
ryhj tp
Ġ358 7
Ġstol en
Ġprestig ous
Ġoic bjmq
Ġozz glcvb
Ġoae jmyoi
Ġoyy uxxum
Ġmuwl bllw
Ġmubtu utm
Ġepn sy
Ġewf xujb
Ġehh sin
Ġeebg s
Ġjix sct
Ġjhq jlp
Ġjqp iej
Ġjctpe zt
Ġkvj nzbg
Ġkxe quqa
Ġkgmv nkjm
Ġaffili ations
Ġcolleag ues
Ġentert aiment
Ġmanufi que
Ġdiabet es
Ġavpk tybj
Ġcbfd x
Ġrvoq bwkg
Ġuyww vhk
ckcc u
Ġminist ry
Ġvkw mnp
Ġvjs d
Ġvxq s
Ġvmwi vzv
Ġplft p
Ġplbf mns
Ġupjb mq
Ġbirdw atching
Ġqah kt
Ġqrd n
Ġqhg ualfe
Ġqvc sajf
Ġqbv p
Ġqqv pn
bpmp u
Ġlensfe ild
Ġlensdi eld
Ġzpd xc
brht v
Ġendoc rinology
dsrh j
Ġguarant ees
26151 603
Ġapparent ly
Ġxsq hk
Ġxlk z
udkc nbu
buqli k
Ġcoldhar ms
Ġtransition al
Ġetih er
flmf k
jbih kc
pjeh zw
qypsgf h
Ġecbrm js
vdxy hih
Ġsqucln la
ejqj ws
kcboh zb
Ġempha sis
vhbc g
Ġodvze u
blcs b
kiwfn ou
hfqts au
Ġpydlx tii
Ġcybpdka z
Ġbbqxvm zk
Ġvcupcw da
Ġqgabnrt x
Ġulswhg vk
Ġstrpxc ft
Ġ07632382 262
Ġzkogbr mr
Ġfhzmuk mo
Ġmherl swd
Ġ0726370330 6
Ġyfiorwe k
Ġqvcsajf u
0 23
0 292
0 497
0 176
1 382
1 238
1 082
1 328
2 60
2 51
2 25
2 28
3 00
3 60
3 504
3 498
3 433
3 798
4 005
4 414
4 7769
5 30
5 50
5 291
6 41
6 36
6 413
6 459
7 11
7 49
7 178
7 277
7 307
7 013
7 156
8 238
8 118
8 126
8 337
9 30
9 15
9 52
9 39
9 64
9 765
9 803
9 605
a ion
a ar
a ow
a un
a gue
b ge
b ination
b nce
b ale
b ae
b zk
b kq
b irg
c ch
c wn
c ine
c yn
c wh
c nx
c gc
c fq
c ambridge
d oo
d od
d ress
d ft
d dz
d ance
d nk
d vq
d dfw
e el
e ve
e bq
e oyk
f ts
f og
f rent
f ua
f ux
f vv
f mn
f utf
f miq
g r
g nd
g ul
g ci
g pd
g rq
g jv
g sq
h ir
h ks
h qq
h uy
h rq
h lm
h wo
i th
i um
i as
i ir
i og
i br
i stal
i bility
i its
i fied
i qn
i ung
j su
j mb
j jv
j nk
j jm
j wt
k el
k end
k ex
k ut
k ir
k ol
k ds
k ig
k ty
l on
l oo
l un
l tw
l ks
l bj
l rs
l jxx
m al
m ate
m ir
m ks
m tn
m po
m da
m use
m cy
m bb
m rq
m rk
m ko
n wn
n ks
n nf
n sd
n sv
n nx
n rb
n ov
o ber
o gh
o et
o ad
o zz
o ag
o vk
p is
p as
p ton
p ose
q ay
q ci
q ck
q dy
q wa
q cc
q im
q lx
q gg
q km
q xf
q lv
r ly
r inese
r ps
r fd
r wd
r myg
s le
s ow
s fl
s mz
t ad
t tish
t yn
t bw
t db
t jz
t xc
t vb
t cm
t dx
u of
u ld
u ke
u oh
u hi
u qf
u kd
u uo
u vxl
v av
v mo
v tz
v nl
v bz
v gnb
w ood
w ss
w ind
w un
w ly
w ick
w tq
w xy
w gf
x la
x ne
x fo
x tn
x da
x za
x cum
x ag
x ej
x fc
x esp
y ey
y px
y fn
y xd
y mg
y cm
y zb
y jn
y quu
z si
z ut
z nt
z pq
z pb
z jv
z mf
z oi
z ww
z bn
z ih
Ġ +
Ġ ridge
Ġ oth
Ġ uti
Ġ ontime
Ġt jz
Ġt xe
Ġt jl
Ġa e
Ġa ge
Ġa si
Ġa ch
Ġa ward
Ġa yk
Ġa qim
re ts
re vation
re zc
re fn
in ing
in king
st house
st qi
er ac
on ur
Ġth he
Ġth nks
Ġi i
Ġi q
Ġi x
Ġi gm
Ġi qc
Ġi oj
Ġi gf
ra us
ra bnce
Ġh ol
Ġh ic
Ġh ia
Ġh kw
Ġh rs
Ġh vt
Ġh yp
Ġp w
Ġp or
Ġp ran
Ġp qq
Ġp hx
Ġp wf
Ġp di
Ġp vfa
Ġc ere
Ġc ouse
Ġc de
Ġc row
Ġc js
Ġc pb
Ġc xc
Ġc wl
Ġc zq
Ġc fr
Ġc fpq
Ġw ood
Ġw xi
Ġw ff
Ġw bd
Ġw vs
Ġw lb
Ġw gv
Ġw pgq
Ġy ont
Ġy iz
Ġy bg
Ġy nz
Ġy hn
Ġy tb
Ġy we
Ġy bc
Ġy ys
Ġy kx
Ġy onur
Ġn m
Ġn on
Ġn qf
Ġn qc
Ġn tq
Ġn ba
Ġn zx
or mc
Ġf w
Ġf at
Ġf ing
Ġf rs
Ġf zl
Ġf kd
Ġf co
Ġf tf
Ġf zr
at vb
Ġb en
Ġb ia
Ġb ix
Ġb mz
Ġb oring
Ġb fod
Ġb dj
Ġb cyn
oo vy
oo wm
Ġre th
Ġre ster
Ġre place
Ġre mind
Ġre booked
Ġin i
Ġin iti
Ġl wi
Ġl ny
Ġl fe
Ġl pv
Ġl mj
ot kf
ot yz
Ġd f
Ġd v
Ġd se
Ġd ood
Ġd ak
Ġd arl
Ġd xd
Ġd zn
Ġd go
ri tish
ri ott
ri ctions
an av
ook es
Ġs r
Ġs x
Ġs ge
Ġs ould
Ġs ed
Ġs is
Ġs ummer
Ġs rs
Ġs lw
Ġm s
Ġm th
Ġm ere
Ġm ouse
Ġm lq
Ġm jj
Ġm gc
Ġm lk
Ġm rr
Ġm tx
Ġm wt
Ġm rv
Ġm xm
Ġm mh
Ġm icke
ve d
ve fog
ve erac
ct f
ct ober
Ġan f
Ġan im
Ġhotel s
le tn
le verton
le vh
ay oet
ge uese
se xh
ce by
ce kg
Ġtra id
Ġtra il
Ġbook it
Ġfor tr
Ġis v
Ġg ge
Ġg ur
Ġg ds
Ġg vd
Ġg sd
Ġg vn
Ġg qs
Ġg ja
ld f
ld z
ld da
ed a
ed ady
am xi
am na
am pt
ie pe
Ġat yka
ke yj
est hwo
Ġwi ch
Ġwi pple
Ġwi qe
Ġwi ukd
Ġinform tion
Ġsta ud
Ġof ter
ll h
ll iant
om b
om v
Ġthere a
op tion
op ping
Ġwh hat
Ġwh opping
Ġdo x
Ġdo ers
um s
um sy
dge wick
Ġit ail
Ġam bridge
Ġch arl
Ġch rinese
Ġle gn
Ġle mrq
art ial
od ns
pe y
pe vy
Ġbe hal
si cr
Ġany ting
Ġti yzb
Ġde ep
Ġde em
ter fly
la sh
Ġta pas
Ġdepart iung
ea fs
ur os
ur je
ch wd
Ġ2 40
Ġ2 761
wn u
Ġ4 269
Ġ4 455
it ti
it jjm
Ġreq ure
ss ah
Ġex cep
gh g
gh nz
ind s
un esian
un zjv
Ġfree e
Ġal sexh
Ġdest roy
Ġran ce
Ġel aa
so x
so zl
Ġad am
Ġad jo
Ġ3 56
Ġ3 53
is ing
Ġpo sey
Ġpo inds
as q
Ġfind me
ts c
ts nq
ts ormc
Ġadd dress
ut lu
ut ical
Ġst ore
Ġst ops
Ġst up
ir cwh
ir nsv
et vs
et nnf
Ġcheap moderate
Ġnorth e
Ġnorth ham
Ġni go
Ġni futf
00 44
00 14
Ġpost oc
Ġ5 54
Ġ5 46
Ġ5 36
ly p
ly jq
Ġo bl
Ġo xw
Ġo asa
Ġo aow
Ġo ctober
Ġo esthwo
fi ka
Ġmu d
Ġmu cy
Ġmu ei
de pi
30 4
30 209
ol qy
15 0
nd d
nd raus
45 58
45 09
45 64
Ġnigh club
Ġe v
Ġe za
Ġe ka
Ġe bq
ul i
ul sp
ul fl
ul uc
Ġsh ucks
ver side
Ġge st
ell g
Ġj g
Ġj t
Ġj y
Ġj ra
Ġj ak
Ġj oy
Ġj vc
Ġj zm
ic sa
Ġsu e
Ġwe ill
Ġmuse m
Ġbut terfly
Ġk wn
Ġk ad
Ġk po
Ġk ix
Ġk kv
Ġk vk
Ġk dft
Ġwas nt
12 7
Ġnights star
Ġcolle ct
Ġcolle ague
Ġent rabnce
Ġser cr
vi qay
ad j
Ġlea vers
Ġwed ding
Ġwedn edady
Ġman ny
Ġcity r
Ġ7 32
Ġ7 38
Ġ7 562
Ġ7 089
Ġsor ting
Ġ15 32
Ġmon der
Ġ01223 596
Ġma p
Ġma riott
Ġ8 19
Ġ8 53
Ġ8 665
Ġ6 53
Ġav vx
Ġav aion
Ġr w
Ġr fd
Ġr bq
Ġr rk
Ġr jq
Ġse jbn
Ġun wind
Ġop af
Ġop gq
Ġro cks
Ġro ez
Ġro verside
Ġ17 00
Ġra ving
Ġra eg
Ġhi ding
Ġhi ya
Ġgi bf
Ġ13 4
ak a
ak dvq
Ġ16 5
Ġ16 45
Ġdif frent
Ġsi dgewick
Ġ14 30
Ġu ow
Ġu az
Ġu known
Ġu uh
Ġu wr
Ġpark ign
Ġkn rf
ck ed
Ġ18 30
Ġref resh
Ġwork ers
Ġid s
Ġ012233 48
ming han
Ġv q
Ġv wi
Ġv bp
Ġv ca
Ġv oon
Ġv hn
Ġv zp
Ġv zb
Ġv vbm
Ġv akdvq
ap vb
Ġbri ttish
Ġbri lliant
Ġ21 00
Ġcenter s
Ġcu za
Ġ20 30
Ġ20 58
Ġho ild
Ġsugge tions
iz qt
Ġ9 5
Ġ9 18
Ġ9 89
21 44
21 02
21 62
Ġsp lash
Ġcont ains
ster ton
ue k
ue mwr
yn o
Ġcon formation
Ġcon du
Ġstan sed
11 62
11 625
Ġbir minghan
Ġq f
Ġq sas
Ġq gl
Ġq bq
Ġq zp
Ġq sn
Ġq lyjq
Ġpizz e
ma vy
wi d
Ġout standing
Ġ07 34
Ġ07 245
Ġ07 94
Ġ07 82
Ġ07 906
Ġ07 0552
bp cy
bp qwa
58 69
Ġswi ming
itect ure
ms av
ms vt
ms uuo
Ġcl umsy
24 17
24 08
24 600
17 3
17 9
17 66
17 70
17 73
07 67
07 62
Ġcom bination
Ġhin to
nt vhw
be ww
Ġcher y
Ġcher sterton
ab u
ab qg
ab ctf
rop od
50 32
50 18
50 34
66 50
66 78
66 68
66 552
29 0
29 8
29 70
29 98
08 90
08 99
bur g
af f
Ġap ha
35 43
35 64
35 47
40 45
40 17
40 67
40 31
10 47
10 62
Ġcou ny
ub q
88 7
wh wl
wh fpq
Ġgast ropod
54 3
54 4
Ġhe v
52 07
52 56
kw g
kw ma
Ġreg ular
mi p
27 64
39 8
46 2
46 29
46 3830
av u
av nb
59 4
59 75
59 03
Ġpol itely
Ġpol unesian
20 26
mm d
ca zn
32 45
32 59
32 67
19 52
19 75
ok b
41 36
43 7
43 00
43 73
Ġtur n
Ġhop istal
Ġportu geuese
oh ew
oh hp
oh dj
Ġz s
Ġz uf
Ġz if
Ġz jp
Ġz mz
Ġz nv
Ġz fre
Ġz cjz
Ġz etnnf
Ġgra ff
16 5
Ġfur thu
Ġhut ington
Ġafri an
09 887
Ġ0122335 124
sh u
sh v
ks x
br x
br my
49 2
49 71
49 4679
Ġba hv
48 2
48 5
48 9
48 90
48 75
06 15
06 27
06 13
tn z
Ġen gl
Ġen xxh
Ġgr oovy
ip cz
ip ime
Ġdes ination
57 3
57 90
57 73
Ġproble ms
Ġrest rictions
su xc
su agg
36 297
51 46
Ġsal sas
42 88
42 59
38 42
38 05
Ġke pt
fy o
Ġsuit ed
77 4
77 44
77 03
gd p
gd z
80 40
Ġalp ah
Ġ0122336 26
Ġ0122336 265
18 69
18 407
13 7
78 08
78 55
78 53
ah e
ah ds
ah uy
ah hb
Ġda a
Ġda ey
56 4
po s
po zmf
na jf
Ġrea ches
79 64
ky w
ky z
iti mate
33 2400
Ġpara ge
Ġhak ks
26 13
26 87
zz c
zz vv
Ġug u
Ġbl owing
Ġchi ense
Ġ0122390 268
Ġbloom bury
70 43
53 49
53 44
ny c
ny h
Ġblooms burg
Ġmargher it
Ġx x
Ġx al
Ġx ell
Ġx oy
Ġx rr
Ġx ldda
Ġx gdp
ud n
ud v
Ġte hcn
Ġha w
Ġha aka
Ġky wf
64 19
Ġhed ing
urf tu
68 1
68 11
Ġve g
Ġve dx
jg kv
Ġamen ites
76 92
76 30209
Ġbu pk
Ġef gw
Ġclassi fy
Ġvari ed
bu a
bu c
bu qp
pp dy
69 7
69 08
69 46
84 10
100 8
az c
az n
Ġrec oment
Ġhung ting
tu gn
tu yx
67 88
99 26
99 84
99 31
99 92
Ġ47 559
Ġ56 36
47 4
47 23
ety f
Ġ012235 5017
37 2
sj sp
sj wc
sj qkm
Ġ02 233
72 12
Ġfa e
74 60
Ġlex ux
Ġtes iir
bs y
Ġ0122321 6811
Ġ012239021 6
ws g
Ġ52 57
96 2
96 80
31 08
pm zk
pm nb
pm ucr
Ġhk mr
gl x
up hir
Ġgir l
ft k
05 58
93 12
93 46
93 32
lh x
Ġ01223323 61
js x
eg c
Ġcr lm
roke s
03 39
97 33
gx hks
tz ff
Ġcra sh
bd l
bd bf
dz w
hx f
sw fb
Ġ01223311 62
kn m
kn zyj
Ġ0122327 4222
Ġscand anav
83 35
ru wch
Ġeng ine
sr qi
cc gz
ae ksx
Ġaltern atively
qy upu
ix j
ix r
ix gge
wy uf
wy cw
wy sle
gn q
gn zk
jx a
nf srqi
ty b
ty l
os fm
zy v
zy ru
vol r
ey sd
Ġ076 08
Ġ076 25
Ġ076 36297
gy wss
pq mz
236 1
Ġsingap ore
Ġ01223335 16
jy ol
jy tw
sx t
vd h
rd abu
uy in
uy gs
uy qck
nz d
bt dt
hg volr
Ġ077 39
Ġ077 3854
Ġ077 26151603
je bz
je zp
lj q
lj rt
uw gdz
427 9931
81 35
qb m
qb zy
rat ely
hu ghes
ht b
jv px
lx w
lx x
lx z
aw bi
kc u
nk qu
nk ty
nk kol
qc qdy
61 66
fn c
zk x
ph zut
vh m
vy o
Ġhm n
Ġhm uh
Ġreal ize
Ġcompan ion
Ġcompan ies
mf a
mf m
jz ee
lm k
lm xs
lm lr
ni my
hc u
ux kir
Ġoo amxi
Ġoo ghnz
sd oh
sv q
Ġinq uest
hl s
hl jo
hn mj
hn vgm
oi mm
oi uy
gq j
gq tnz
km zer
Ġtop ic
Ġ074 11
Ġ074 218
lq ra
lq bdl
jj n
sq sc
bn br
qg j
233 3057
Ġappro x
Ġ070 39
Ġ070 48
Ġ070 4379
wd nd
wd kf
wd nm
wd okb
bf w
bf xw
rk t
rk xu
oz r
oz ak
zm vox
zm buc
zw p
Ġaccomod ation
vb kj
xq vc
Ġimp artial
Ġ01223217 450
Ġ01223217 261
dh ipime
ij n
ij u
pr fe
if k
vx vb
vx azn
gc sqr
Ġmath cing
750 9
df po
wf hnvgm
wj a
hq fy
hq vd
zs f
Ġgl vbz
01223 332400
ng avnb
yy gy
yy doo
yy ijn
aj h
bc ji
pv zd
pz hljo
Ġrep lied
Ġ46 73
wb x
wb ud
Ġrese revation
bour hood
Ġchester son
dn o
005 105
hh ood
Ġadv ic
qs fk
wr v
Ġtru ama
ii kbz
nh so
fh z
Ġamong st
ten pin
407 6
bk o
sn r
rp hxf
467 40
uq im
yx aff
rz rh
Ġguesth ous
tj se
wv u
Ġpat ch
Ġfoc uses
Ġneigh bourhood
709 5
rr jvpx
Ġmess ing
Ġsec rets
Ġ12233 11625
Ġinquire d
754 34
hf ucr
kl g
kx rkt
Ġau hgvolr
Ġ0788 7630209
247 2408
829 7
ju vw
Ġant olia
Ġavai ble
Ġavai bale
jn uy
Ġ0730 836
Ġneighbor hhood
jd ar
tk id
Ġyt oiuy
qj phzut
qj dno
sf ko
Ġib fe
808 9
lb cu
Ġna utical
Ġfl ick
Ġunli kely
Ġxm l
ez ldf
hj su
nu co
Ġprom ising
Ġbi bj
108 6
Ġ0756 2472408
bx l
bx nrb
lw vq
lw lxz
md v
uz fnc
Ġph o
827 19
Ġpd ms
Ġinsi sted
Ġoe bh
Ġ0122325 6459
Ġ0122325 6650
Ġ0122325 6166
Ġrad ically
Ġincre ments
Ġhq ka
Ġhq gn
Ġhq sozl
Ġcy jdar
Ġsd mc
Ġgw z
Ġgw me
196 30
Ġaddmiss on
Ġround ing
Ġ0760 99
Ġquie t
yt amna
Ġgui dance
Ġident ical
Ġ0712 1756
Ġ0757 463830
fk ixr
iw uzfnc
pgq mfm
Ġ1223 568988
Ġzm gywss
hz qe
Ġik oi
Ġir de
Ġpn pgqmfm
Ġgj pmzk
Ġleg itimate
lyl sh
Ġdescri option
Ġaccomid ations
rm lz
Ġtb icsa
Ġhan ker
Ġct etvs
Ġsna cks
Ġgoon ville
Ġue klg
Ġuj umj
Ġaddenbrook e
380 56
Ġ012233650 98
Ġskim ping
swx ej
Ġretain ed
Ġplast ics
gun h
Ġts refn
Ġpage s
Ġgk jebz
Ġrg bb
Ġ0744 4279931
Ġ0703 494679
Ġxr wycw
Ġphysic ally
517 3
cvk z
Ġhh bz
Ġcp ndraus
Ġatta cked
Ġju apvb
Ġ67 42
Ġsever ail
Ġrain s
Ġsett ling
Ġzz pp
jna c
sbs l
wkv k
Ġpq pb
Ġpur pose
Ġmr tsnq
Ġload ed
Ġkf hqfy
Ġindic ation
Ġsepa rately
Ġ0748 18407
917 9
djx lt
djx azc
rfl pz
vsr vh
vsr rz
Ġwp kwg
Ġwy ixgge
Ġyy ppdy
Ġfvn msuuo
Ġlf bb
Ġlf qbm
Ġrz kwma
Ġ0786 2333057
afsw e
afsw la
Ġxz hnmj
kcz qa
hhs lxw
142 6
yvg z
Ġww zs
Ġwen esday
Ġsample s
Ġgn bko
ldn jzee
Ġmult o
Ġeg rkxu
Ġrj oua
Ġcond ition
Ġclso er
Ġzdt m
Ġxh rx
Ġ01233 66552
Ġ07727 005105
zkd it
nrc wj
060 1
624 2
616 2
mia vh
sry tu
vlu xu
xmy y
Ġps nfsrqi
Ġnh crn
Ġbok o
Ġdm iepe
Ġmrq ellg
Ġole zkdit
Ġey egc
Ġweel kend
Ġavail ibility
Ġvh wyuf
Ġzza a
Ġawa epk
theat res
xoc sa
Ġhv gcsqr
Ġnf kr
Ġfc gnzk
Ġbnf zmvox
Ġlm ap
Ġdq rt
rig ty
Ġsan y
Ġjb bpqwa
Ġzy ohew
Ġzxi bge
acg ot
svp om
0122321 0353
cpi fs
636 4
aun t
bzk av
cch v
cine mas
ddz b
ddfw ph
eel pu
eve w
ebq sqsc
fts p
fmn hc
gnd z
gul pv
gpd oy
grq wbx
gjv z
gsq vs
hqq ulfl
huy uygs
ith cs
iits nd
iqn sl
jsu f
jnk dod
kel m
kex q
kut ua
kds ff
kig ns
ltw hg
lks u
lrs l
mir fir
mks m
mpo ew
muse ums
nwn db
nnx w
nov fd
ogh ua
oad qcc
ozz gl
oag c
pis wdkf
qci iz
qgg j
rly zkx
rps y
rfd cgc
sfl v
tad it
tyn uq
tdb iju
tjz nf
uke yo
uhi uu
wgf k
xla q
xfo bdbf
xfc shu
yey utc
yxd k
ycm lxx
zsi hls
zpq n
zpb nfd
zww qn
zih sz
Ġridge wood
Ġoth e
Ġtjz my
Ġtxe b
Ġtjl zzc
Ġasi a
Ġach itecture
Ġaward ed
Ġaqim z
Ġigm rvy
Ġioj tyl
Ġhol el
Ġhic miavh
Ġhia ssah
Ġhvt afs
Ġhyp pozmf
Ġpor tions
Ġpran k
Ġpqq vsrvh
Ġpwf vg
Ġpdi wvu
Ġcere p
Ġcjs en
Ġcpb uemwr
Ġcwl kmzer
Ġwood bridge
Ġwxi aok
Ġwff ljrt
Ġwvs mpoew
Ġyont chwd
Ġybg swxej
Ġyhn s
Ġywe kso
Ġybc vluxu
Ġyonur jsx
Ġntq sjsp
Ġnba udv
Ġnzx pp
Ġfing ered
Ġfrs z
Ġfzl k
Ġfkd ue
Ġftf rigty
Ġbia zmbuc
Ġbix l
Ġbfod sbsl
Ġbdj acgot
Ġbcyn hp
oowm jen
Ġreth inking
Ġrester aunt
Ġreplace ment
Ġremind ed
Ġiniti ally
Ġlwi xne
Ġlny gvm
Ġlpv gjvz
otkf h
Ġdak q
Ġdarl ing
Ġsge zxo
Ġsrs otyz
Ġmth f
Ġmlq zyru
Ġmgc svpom
Ġmrr v
Ġmtx ch
Ġmrv afswe
Ġmxm ohdj
Ġmmh ron
Ġmicke y
Ġanim als
ceby u
Ġgur sthouse
Ġgqs ot
ampt j
Ġwiqe bn
Ġstaud ct
Ġitail ian
Ġcharl in
Ġlegn th
odns bf
pevy v
Ġbehal f
sicr d
Ġdeep ly
eafs m
uros y
itjjm jc
Ġexcep tion
Ġalsexh ly
Ġadjo ining
Ġstup id
Ġnorthham pton
Ġnifutf qf
Ġpostoc ode
Ġoxw o
Ġoasa ahhb
Ġoaow j
Ġmuei ryk
olqy p
Ġeza wt
Ġebq n
Ġjoy gndz
Ġkad pmucr
Ġkix yygy
Ġkvk izqt
Ġkdft beww
Ġnightsstar ting
Ġsercr cln
Ġ7562 5428
Ġmonder n
Ġavvx fl
Ġrbq lun
Ġrrk zoi
Ġrjq o
Ġraeg fil
Ġgibf wdnm
Ġuaz uxkir
Ġuwr mv
Ġknrf fo
Ġrefresh ed
Ġvbp wad
Ġvca w
Ġvoon s
Ġvhn bpcy
Ġvzp whwl
Ġvakdvq nb
Ġhoild ay
Ġ989 2
Ġsplash ing
Ġcondu ct
Ġqzp cebyu
Ġqsn suagg
Ġqlyjq kty
mavy rq
msvt p
whfpq t
Ġzuf sd
Ġzmz lmlr
Ġznv pvzd
Ġzfre k
Ġzetnnf n
Ġgraff itti
Ġfurthu er
brmy hp
Ġbahv a
Ġengl and
ipcz jp
Ġ012233626 82
ahds d
ahuy b
zzvv l
Ġxldda gqj
Ġtehcn ology
Ġkywf gunh
urftu c
Ġbupk jytw
Ġefgw y
tuyx ww
sjwc xza
Ġ02233 24600
Ġtesiir j
Ġhkmr si
uphir t
Ġcrlm atvb
Ġscandanav ian
ruwch n
wysle g
Ġ07636297 454
btdt ol
Ġ0773854 4250
jezp dw
nkkol wnu
qcqdy fq
Ġooghnz gw
Ġ0704379 5737
bfxw tp
vbkj ft
Ġglvbz vyo
qsfk bm
iikbz bl
Ġ0730836 7931
Ġhqsozl wh
ytamna ao
Ġ07121756 826
Ġ0757463830 7
Ġzmgywss o
Ġhanker ing
Ġtsrefn qw
Ġgkjebz n
Ġ0703494679 6
Ġxrwycw bt
Ġpurpose s
Ġmrtsnq mu
Ġ074818407 29
Ġxzhnmj rs
Ġdmiepe ty
Ġawaepk rt
Ġfcgnzk ow
Ġzxibge vs
Ġvhnbpcy y
Ġvzpwhwl v
0 279
0 106
0 904
0 605
0 275
1 66
1 480
2 52
3 15
3 66
3 46
3 41
3 71
3 000
3 387
3 447
3 769
4 909
4 902
5 33
5 164
6 78
6 270
7 07
7 34
7 147
7 514
8 01
8 06
8 53
8 782
8 390
8 363
9 35
9 19
9 41
9 53
9 236
9 531
9 084
a pe
a fi
a cy
a cks
b re
b ing
b ere
b pe
b it
b sit
b qy
b qqs
c en
c ame
c ur
c so
c ational
c wor
c nl
c jv
c xj
c ncv
d r
d in
d at
d ts
d ose
d fy
d cj
e u
e se
e ops
e be
e brookes
e bb
e ive
e gl
e qw
e ku
f ry
f tt
f ui
f za
f ud
f ze
f hg
f pb
f rf
f ku
f mx
g as
g ine
g ose
g ies
g ari
g ging
g ama
g oi
g zp
g tr
g tj
g cae
h il
h sy
h rl
h zf
h kq
h zr
i ct
i xi
i bp
i il
i ht
i oq
i wb
j sp
j ds
j qy
j rd
j lt
k od
k arl
k gy
k je
k bl
k rn
l and
l ha
l qf
l rf
l bi
l zn
m its
m ht
m db
m jz
m jk
m qz
m qd
m outh
n at
n ge
n am
n ke
n ow
o x
o yn
o sity
o sa
o je
o bz
o jc
p um
p pe
p by
p nf
p cl
q o
q sh
q ka
q ef
q vl
q zn
q mu
r w
r day
r me
r ms
r inity
r nx
r zn
r cp
s of
s ot
s ome
s ally
s zt
s kx
s aru
t v
t ra
t ie
t ately
t pr
t vx
t ftk
u ve
u guese
u ds
u da
u ries
u fe
u zk
u zp
u ug
u cessful
v ay
v qu
v na
v qf
v xh
v uy
v lj
v jm
w at
w ce
w af
w dz
w rt
w eda
x ts
x ad
x ens
x ander
x ui
x ds
x wy
x oe
x oj
x pz
x kl
y wn
y hg
y xa
y mf
y zf
y hh
y to
y qqs
y ghg
y htb
z j
z am
z la
z william
z bh
z udn
Ġ ode
Ġt ext
Ġt th
Ġt ss
Ġt xi
Ġt and
Ġt qq
Ġt jf
Ġt cr
Ġt tr
Ġt xx
Ġt nu
Ġa ed
Ġa ain
Ġa ck
Ġa ab
Ġa stra
Ġa qm
Ġa qr
Ġa eb
Ġa xl
Ġa uli
re ma
re comend
re ssed
in s
in yn
st ate
er ss
er ling
er gies
ou xbourne
Ġth a
Ġth yat
Ġi e
Ġi ma
Ġi po
Ġi gn
Ġi vu
ra a
el u
Ġh cy
Ġh bb
Ġh rt
Ġh xs
Ġh xy
Ġh jp
Ġh bx
Ġp c
Ġp ity
Ġp ad
Ġp gy
Ġp bg
Ġp bz
Ġp gq
Ġp kei
Ġp bnbr
Ġc f
Ġc j
Ġc n
Ġc oo
Ġc ore
Ġc ince
Ġc oor
Ġc mb
Ġc ig
Ġc dh
Ġc xz
Ġw t
Ġw oo
Ġw ri
Ġw ol
Ġw sp
Ġw ama
Ġw cr
Ġw ku
Ġw wq
Ġw ucr
en sday
Ġthe ie
Ġy j
Ġy n
Ġy pe
Ġy uck
Ġy ello
Ġy bd
Ġy hc
Ġy dg
Ġy yk
Ġy ku
Ġy rr
Ġy xv
Ġy nu
Ġn x
Ġn y
Ġn sta
Ġn om
Ġn ch
Ġn ue
Ġn bw
Ġn vl
Ġn sg
Ġn uv
or o
or ri
or ting
or zp
Ġf j
Ġf n
Ġf ss
Ġf ror
Ġf dp
Ġf cr
Ġf zk
Ġf oe
Ġf rfm
at us
at pj
at gu
Ġb ry
Ġb ust
Ġb ast
Ġb ourne
Ġb cu
Ġb cm
Ġb nh
Ġb wx
Ġb xr
oo q
oo tz
oo gy
Ġre read
Ġre verse
Ġyou like
Ġin market
Ġin eed
Ġl t
Ġl ma
Ġl bu
Ġl zy
Ġl fn
Ġl bh
Ġl xv
of f
of k
of z
ing y
Ġd c
Ġd t
Ġd si
Ġd our
Ġd ough
Ġd ope
Ġd tu
Ġd pj
Ġd ql
Ġd mk
Ġto w
Ġto me
ri cular
an er
ook i
Ġs s
Ġs of
Ġs arch
Ġs ket
Ġs rt
Ġs aa
Ġs bh
Ġs rc
Ġm b
Ġm j
Ġm m
Ġm z
Ġm la
Ġm un
Ġm vi
Ġm ht
Ġm qg
ve zi
ct t
Ġan o
Ġan q
Ġhotel l
ay s
ay les
ge j
ge vp
ce frf
Ġtra y
Ġare nt
Ġtrain did
Ġis or
Ġg b
Ġg ue
Ġg yn
Ġg dy
Ġg bb
Ġg bz
Ġg fg
ar p
ld e
ld o
ed on
am li
ie gtj
ie pcl
th h
ke fy
es u
Ġthat k
Ġli mits
Ġsta nds
Ġsta ff
ll as
om k
Ġpri iced
Ġthere fore
Ġthere ban
um ae
dge on
Ġch ick
Ġle zo
Ġle va
Ġle aner
al a
al i
al v
al ian
Ġpe ts
Ġpe pp
od s
od le
od dn
od sg
od kg
od hqy
Ġbe g
Ġbe came
ber ry
Ġnum bere
ouse s
Ġti p
Ġde bit
Ġwhat a
la at
Ġta i
ea a
ea s
ur so
ur xq
Ġarri vi
ch y
ch way
Ġ2 7
Ġguest ouses
it ol
ow a
ow w
ow rr
ss f
Ġwill recomend
Ġmod ified
gh na
gh zv
ry c
ry lh
Ġplace m
un o
un rh
un ker
Ġfree way
Ġal mentum
Ġal fli
Ġby ts
Ġdest iant
Ġel ese
so j
so vu
Ġad z
Ġad ios
Ġ3 24
Ġ3 27
Ġ3 18
Ġ3 245
Ġpo cc
as bz
ts oubt
Ġadd ebrookes
Ġadd erss
Ġst ressed
Ġst erling
Ġst atus
Ġst ingy
ir sf
ir hqy
ro za
ro qg
Ġcheap t
Ġor ig
Ġor vr
00 3
00 9
00 07
00 77
00 25
00 71
00 4877
Ġ5 797
Ġ5 150
Ġo gx
Ġo vn
Ġo gb
Ġo cf
fi o
fi ph
Ġmu f
Ġmu gged
Ġmu cncv
30 5
30 23
30 78
15 24
nd tvx
45 7
45 37
45 31
45 6838
Ġe h
Ġe q
Ġe hn
Ġe qg
Ġe ki
Ġe oj
Ġe oq
Ġe uz
Ġe uoh
Ġpart ricular
ul cke
ul pr
ul kb
Ġsh ore
Ġsh ell
Ġsh arp
Ġall l
Ġall ergies
Ġea ger
Ġpostcode cb
Ġj i
Ġj ck
Ġj umn
Ġj jk
Ġok hx
23 24
23 19
23 25
23 98
Ġsu p
Ġsu s
Ġsu ucessful
Ġwe ts
Ġwe bsit
Ġtr qit
Ġbut the
Ġk is
Ġk ross
Ġk uq
Ġk qlh
12 15
12 42
ai jm
Ġcho ise
Ġwed ensday
Ġsat rday
more s
Ġ7 35
Ġ7 39
Ġ7 51
Ġ7 14
Ġ15 36
Ġif hsy
Ġmon opo
Ġma ghna
Ġ8 00
Ġ6 30
Ġr k
Ġr by
Ġr sd
Ġr qw
Ġr cj
Ġr hf
Ġr ga
Ġr nge
Ġr kefy
ia gd
Ġun v
Ġun nam
Ġra ves
Ġhi m
Ġ13 45
Ġ13 29
Ġ12 00
Ġ12 45
Ġint rinity
Ġint alian
our z
ak er
ak wb
ci ency
ci wl
book es
Ġ16 01
Ġper cep
Ġ14 9
Ġ14 12
Ġu f
Ġu uj
Ġu qg
Ġu au
Ġu ov
Ġu gej
Ġpark in
Ġpark land
Ġkn ick
Ġkn hd
Ġkn acks
Ġ10 29
Ġknow ledge
Ġ18 0
Ġ18 4
Ġ18 15
Ġ18 45
Ġbre ad
Ġbreakfast in
Ġbreakfast ritish
Ġac ron
Ġac cu
Ġac cep
Ġac llas
Ġticket ss
Ġid f
Ġmi fn
Ġ: <|
Ġmin tu
Ġmin osa
Ġv m
Ġv s
Ġv u
Ġv de
Ġv ince
Ġv rh
Ġv xh
Ġv kv
Ġv wf
Ġv vj
Ġv jqm
Ġv vso
Ġ21 45
Ġvisit ed
Ġcu ps
ne c
ne j
Ġsuggest for
iz m
iz lj
Ġ9 00
Ġcar ing
port uguese
21 92
Ġsp acy
Ġsp skx
Ġfit billies
able s
Ġnoo lde
Ġnoo odle
Ġste er
Ġche kc
Ġup per
Ġ09 0
Ġ09 6
xb d
Ġbish eops
11 3
11 11
Ġbir ds
Ġq j
Ġq l
Ġq m
Ġq t
Ġq w
Ġq ol
Ġq qf
Ġq ey
Ġq fn
Ġq bh
Ġq gz
Ġq wz
Ġmar gari
wi gn
wi gas
og bn
Ġunfortun tately
ti ve
by v
Ġ07 90
Ġ07 22
Ġ07 87
Ġ07 83
Ġ07 611
Ġ07 511
Ġ07 413
Ġ07 146
Ġ07 504
Ġ07 2054
Ġ07 193
Ġ07 19630
sp t
sp pp
58 3
58 66
58 25
58 53
58 552
Ġsearch by
tw fu
Ġuniver sally
ms f
ms mb
ms rk
ms urso
Ġfir day
Ġcur mu
Ġcl unker
24 35
24 40
24 09
24 2400
17 5
17 29
17 19
17 84
tt en
07 3
07 9
07 49
07 13
07 26
07 68
07 63
Ġash bury
Ġash itd
ab s
ab il
ab owrr
50 3
50 5
50 60
50 129
66 33
66 62
29 43
29 13
29 99
29 82
29 188
08 0
08 26
08 880
ha a
ha x
Ġfun house
Ġ23 12
Ġ23 79
Ġap lha
35 66
35 60
35 37
35 7708
35 4679
40 52
40 318
10 1
10 12
10 36
10 37
10 981
Ġclub bing
Ġqu ote
Ġqu eries
Ġla w
Ġla ck
Ġla gging
Ġcou lc
Ġallenbel le
Ġhunting on
Ġhunting do
60 11
60 27
60 56
60 248
54 6
54 92
52 7
52 8
Ġart chway
01 62
27 3
27 13
27 62
27 6037
39 32
39 99
Ġgastropub ed
46 15
46 08
av a
av z
Ġlov el
59 0
59 36
59 18
59 96
Ġcla ir
ca or
ca zm
32 5
32 66
32 55
32 83
19 2
19 06
19 51
19 03
Ġcaf edon
jo s
Ġbist oro
43 4
43 46
43 64
43 76
43 87
Ġsound ing
Ġz c
Ġz r
Ġz one
Ġz ua
Ġz uw
Ġz cm
Ġz iy
Ġz ug
Ġgra t
16 91
16 276037
Ġafri ca
Ġhami lit
red i
sh all
ks k
br p
49 67
48 4
48 31
48 5866
Ġlater s
06 07
Ġen ozr
Ġah ley
Ġ33 30
Ġdes int
Ġer cazm
57 6
57 7
36 7
36 24
36 89
36 37
36 3682
Ġbra in
Ġbra ined
51 8
51 3560
Ġsal on
Ġamerican s
Ġamerican indian
Ġadden bookes
55 6
55 56
fy r
fy yw
77 28
77 79
77 76
77 85
80 36
80 29188
il x
il le
ale xander
18 00
13 47
78 4
78 27
78 43
78 47
78 2800
Ġtel e
ah ej
ah we
ds xpz
28 35
28 55
28 33
28 95
28 719
56 00
56 11
56 49
da ldo
Ġten pen
79 3
79 5
79 00
Ġyip ppe
Ġ# <|
26 30
26 16
26 31
Ġug roza
dy jm
cy zt
22 802
22 303
hal mqd
53 603
ny aw
Ġcorrect ing
Ġblooms berry
Ġx ln
Ġx okt
Ġx ooq
Ġx abowrr
Ġx dyjm
bb d
bb wce
per ative
Ġaw some
Ġwish ing
Ġ0122324 600
89 7
89 54
89 91
Ġbel ow
Ġbel eive
68 5
68 6
68 23
68 66
68 09
Ġve kf
jg wfn
jg oogy
14 19
14 77
Ġoutdoor s
Ġmoment s
Ġlear ning
Ġhold ing
76 21
Ġbu zz
73 18
fe q
fe gx
pri mavera
Ġ28 15
Ġred o
pp d
pp qg
pp sg
69 58
69 13
Ġdis con
71 44
63 7
63 66
63 13
84 88
84 706
Ġrec ently
Ġmid bi
98 54
tu dsxpz
99 1
99 42
99 64
Ġ01223446 400
Ġmal asian
87 23
87 60
87 43
87 4600
86 26
86 53
oc x
47 2
47 08
Ġscud mores
91 39
dp y
mw p
72 57
Ġsecond ary
aq goi
bs be
Ġinj uries
96 1
82 30
82 08
82 55
wa ojc
Ġhu vqf
258 3
Ġpas sed
04 12
04 2435
Ġaccident ally
Ġtran sit
Ġrel iable
gl k
02 20
05 17
62 24
lh urxq
rh ee
dq p
dq z
92 08880
eg rg
97 41
fl t
tz jwt
ig z
dz vf
dz dpy
hx cw
hx xoj
jb qp
jb tf
353 248
bw g
83 66
83 10
Ġexpect ed
Ġchance s
cc p
ae cology
Ġaltern ately
pj f
qy z
xh c
Ġmis poke
Ġ078 16
Ġ078 6666
Ġ078 459
Ġ078 4052
uf ryc
wy jf
741 3
gn i
gn wign
ty o
Ġret ry
Ġret state
zy x
zy uu
Ġdeal bre
kv k
kv n
kv jv
kv rj
Ġ076 43
Ġ076 18
Ġ076 1898
Ġ076 359
Ġ076 485866
gy o
Ġmain ten
tl q
tl glk
Ġbarbeque mod
jy qs
sx vn
Ġbr ouxbourne
Ġsir fmx
px rdi
uy r
uy vay
pd fza
pb mac
Ġ077 00
Ġ077 1027
Ġ079 45
Ġ079 12
Ġ079 39
Ġ079 16
Ġ079 57
Ġ079 80
Ġ079 56
Ġ079 241
Ġ079 40318
rq lg
Ġdriver s
ew b
ew j
nl s
nl gw
Ġye bk
gm vmx
jv b
Ġdrop ping
Ġdrop off
kc bm
nk i
qc j
ph wc
ph jh
Ġed wards
Ġform at
Ġem ailing
uj k
Ġuh h
388 9
vh j
vh n
vh zam
vy sz
Ġown j
Ġown er
bz j
bz xwy
bz tyo
ni rala
ni qs
Ġmet o
hc gf
Ġrefer ance
Ġassum ed
Ġindust ry
rx y
Ġoo oh
sv w
Ġ0122346 166
Ġappoint ments
gq am
km t
nj and
vc v
vm j
vm l
Ġ074 30
Ġ074 17
Ġ074 2054
Ġ074 456838
Ġ074 2943
lq ed
lq xej
410 1
pk tzh
bn u
Ġow gtr
Ġ070 17
Ġ070 569
tb m
tb nx
zl g
zl t
wd inyn
wd raa
mn om
rk q
kf ofz
vl k
vn gn
rb o
xc wj
zm v
bh sg
Ġadj usted
Ġ01223217 498
dh ghzv
gu uk
pr m
we op
kq jt
vx nke
df wj
ssy qh
oq l
wc vj
wc msmb
zs ourz
gs f
Ġtreat ment
cb thh
kd jr
lc xad
lk gevp
jk g
Ġinc redi
qh ue
qh brm
zb nkz
wk cr
Ġhost pital
qz bf
wr ssf
xx mg
ys kr
525 1090
958 8
iy vezi
nh d
Ġinter vals
903 6655
zq if
Ġfoo t
Ġ075 16276037
Ġmistaken ly
cg ob
407 0
vg ulkb
vj l
qp hxxoj
xp fhg
Ġban a
Ġlevel s
755 3
Ġguesth ose
Ġguesth use
250 8366
di q
Ġmall s
Ġuk uno
146 9
Ġbell fry
Ġacc orn
Ġ0788 1581
yr wrssf
jn vz
sc orzp
Ġ012 2021
Ġ0730 458
557 9
679 9
bm gni
jd c
py gg
rv p
bv uve
dk pw
qj ky
Ġvj ubq
Ġsolid ly
839 2
839 4
hp f
nq o
wq r
iq x
sg laat
zd c
Ġoffi cial
Ġalter cation
Ġ072 07
Ġ0779 84706
Ġ0779 9036655
Ġwast ing
Ġentire ly
Ġ071 23
Ġ071 40
Ġ071 32
Ġ0758 5251090
Ġ0746 915
Ġtransp orting
nu zq
Ġfour ty
Ġboo t
Ġdj akwb
Ġarr vie
Ġ0769 304
Ġ0769 22303
he bry
nv qq
pf pz
Ġfil ter
Ġ0777 778
fj w
jwe ilx
lw wa
Ġaz nty
Ġadvi sed
Ġqk zsourz
Ġfulfill ing
Ġ0707 654
Ġfollow s
Ġfollow ed
Ġresaurant s
420 4
td oddn
Ġpie ce
Ġcy jkg
Ġsv ciwl
Ġrestaur nat
Ġmix up
fv tlq
pg ro
yo byv
Ġoy bqs
231 3537
Ġfax ing
Ġsplur ging
488 5
fit zwilliam
Ġhea z
Ġstran d
Ġorigin ally
Ġ0749 9208880
Ġil wv
Ġfg tt
Ġfg ahej
Ġchat ting
Ġkz halmqd
Ġ0122359 6055
Ġ0122359 4264
Ġ1223 363682
Ġ1223 353248
Ġvr su
Ġ0709 9
Ġ0709 749
flx fyyw
826 7
Ġpu vxnke
Ġsy ee
Ġvk jgwfn
Ġ0717 874600
Ġ0706 42
Ġ0774 4629
109 40
109 27
109 1729
Ġcommun te
Ġbuff s
Ġbuff et
kj daldo
sb me
yu zb
Ġ0745 46740
Ġ0726 22802
Ġxb g
Ġxb h
Ġxb yobyv
Ġai ms
Ġyv qa
Ġvf irsf
Ġzl rylh
8026 406
Ġeffi ciency
Ġdiscount ed
Ġvalu ables
yzl p
Ġtc gx
Ġtg ma
Ġhl en
Ġhl gv
Ġft lhurxq
Ġdd lkgevp
Ġmd kcbm
Ġgc su
Ġew sovu
Ġsever ing
Ġ0772 08
Ġ0793 73
Ġ0797 242400
Ġ0797 53603
zzi bbd
Ġretrieve d
655 4531
duf h
kvo vjm
sfs mh
wbn izlj
Ġpur z
Ġnz gyo
Ġlj wdinyn
Ġlap se
Ġldy hl
Ġload s
Ġub tsoubt
Ġmyster ious
Ġqb iagd
Ġunfortunat ly
Ġ0742 2508366
Ġ0737 8026406
sqo ra
917 5
qis l
Ġcct yhu
Ġcap abil
Ġwp ch
Ġdw msurso
Ġdw zmv
Ġgq pn
llw mnom
Ġjum bled
Ġkoo ydy
Ġcuri osity
Ġ0713 7847
Ġ0747 8029188
Ġzp dwv
Ġscra ped
Ġxz oj
Ġaccomad ations
057 9
645 7
Ġiil atpj
Ġwoul s
Ġywn a
Ġgn rkq
Ġ463 1
Ġmult itude
Ġeg iil
Ġcond itions
Ġ0773 782800
Ġ0775 2313537
Ġ0795 1091729
Ġclso e
Ġzw mr
4250 26
Ġ01233 357708
Ġduy cgob
zkd xb
408 24
zcc fku
Ġedu cation
Ġedu cational
Ġbd xd
Ġdad s
cew brp
opo bp
Ġ01223257 168
Ġ01223257 157
mac bp
Ġ011223 464646
Ġ011223 354679
Ġrecommen ation
700 1
tg kmu
yce fu
Ġtn ahh
Ġari ving
Ġmeat s
Ġ0122344 7144
Ġrl ofk
Ġ0785 58552
Ġ012232177 12
Ġcru cial
Ġ07851 425026
260 52
dnk jlt
fvv qz
uqf b
vav o
wxy b
ypx o
Ġdv rx
Ġjak fvtlq
Ġ07245 5207
Ġ070552 28719
bsy ul
dzw out
Ġ074218 10927
Ġ07048 042435
Ġpho en
Ġ076099 26052
cen v
din ate
dts ws
dose twfu
dcj a
ebb la
egl weqk
eqw zdc
ftt jp
fud rx
fpb a
gose u
hil qzbf
hrl wxyb
ict hp
ixi h
iwb oc
jsp fk
jqy rema
kod yj
karl g
kgy bd
kje ce
krn ar
lbi w
lzn g
mjz ig
mjk uw
mqz o
now ledge
oyn j
pum o
pby pd
qvl vd
rme hq
rms dc
rnx jt
rcp ye
sot o
tra ins
uds fh
uug j
vqu hj
vxh kr
waf mf
wrt d
xens ml
xui j
xoe z
ywn k
yhg vysz
yxa w
yto av
yghg spt
zbh m
Ġode mz
Ġtxi pl
Ġtand orri
Ġtjf pd
Ġtxx xcwj
Ġaed kgybd
Ġaain t
Ġack nowledge
Ġaab mc
Ġastra y
Ġaqm kfofz
Ġaqr mt
Ġaeb kvjv
Ġaxl jbtf
Ġima gine
Ġign ore
Ġivu vquhj
Ġhxs pey
Ġhxy macbp
Ġpad gs
Ġpbg q
Ġpbz wh
Ġpgq kg
Ġpkei hxcw
Ġcoo perative
Ġcince ma
Ġcoor dinate
Ġcmb ridge
Ġcig yxaw
Ġcdh r
Ġwri tten
Ġwol uld
Ġwama gama
Ġwcr bsyul
Ġwku zw
Ġwwq vd
Ġwucr xxmg
Ġyhc vv
Ġyyk jrd
Ġyku iegtj
Ġyrr jg
Ġyxv rl
Ġynu ex
Ġnsta ot
Ġnom inal
Ġnue cbthh
Ġnuv bzxwy
Ġfdp k
Ġfcr ra
Ġfzk bqy
Ġfrfm wn
Ġbry ard
Ġbust ing
Ġbast ille
Ġbourne mouth
Ġbcu q
Ġbwx li
Ġbxr zyuu
ootz c
Ġlma bmgni
Ġlbu hu
Ġlbh pktzh
Ġlxv wb
Ġdsi que
Ġdtu fttjp
Ġdpj ods
Ġsket chy
Ġsaa ooki
Ġmla a
Ġmun ber
Ġmvi bvuve
Ġmht jjn
Ġmqg fe
ayles bray
Ġgyn aecology
Ġgdy bqqs
Ġgbz vhzam
Ġgfg rnxjt
amli vl
iepcl qu
Ġthereban y
Ġchick en
Ġleva ing
Ġpepp ered
odsg j
odkg t
odhqy m
Ġnumbere s
Ġarrivi gn
Ġalfli jmy
Ġbyts kqjt
Ġdestiant ion
Ġpocc ode
asbz ha
irhqy o
roqg kd
Ġorig ination
Ġorvr fo
Ġogx ndtvx
Ġovn r
Ġogb az
fiph ul
Ġmucncv pd
Ġehn oql
Ġeoj dk
Ġeuoh k
ulcke v
Ġjck un
Ġjumn qw
Ġwebsit e
Ġkuq svw
Ġkqlh m
Ġifhsy rzn
Ġmonopo ly
Ġrby pr
Ġrqw kodyj
Ġrcj dh
Ġrhf zm
Ġrkefy hm
Ġunnam ed
Ġpercep tive
Ġuau opobp
Ġuov cew
Ġaccu ally
Ġaccep ting
Ġacllas us
Ġmintu es
Ġvrh ksk
Ġvkv t
Ġvvj wu
Ġvvso h
Ġspskx m
Ġqqf bztyo
Ġqey tlglk
Ġqgz ke
Ġqwz xq
Ġmargari ta
Ġ0719630 5390
Ġcurmu dgeon
Ġzuw p
Ġhamilit on
Ġdesint ation
Ġercazm ga
Ġyipppe e
Ġugroza q
Ġxdyjm to
Ġvekf oww
fegx wo
Ġdiscon nect
Ġmidbi ufe
Ġ0786666 6313
Ġ078459 10981
Ġ0784052 5996
wyjf k
gnwign c
Ġdealbre aker
Ġ0761898 7553
Ġ076485866 09
Ġmainten ance
Ġbarbequemod ern
pxrdi hg
Ġ0771027 5649
Ġ079241 38056
Ġ07940318 761
Ġyebk k
niqs m
Ġ0742054 2713
Ġ074456838 00
Ġ0742943 8913
Ġ070569 50129
bhsg t
wcvj fio
iyvezi b
Ġ07881581 074
jnvz ha
scorzp y
Ġ0122021 68
Ġ0730458 5611
Ġ077984706 42
Ġ0746915 6027
Ġ0769304 4050
Ġ076922303 66
Ġ0777778 7318
Ġ0707654 0763
Ġsvciwl wa
Ġoybqs bzj
Ġfgahej d
Ġ0709749 0762
Ġpuvxnke z
Ġvkjgwfn r
Ġ0717874600 2
Ġ07744629 357
Ġ074546740 26
Ġ072622802 07
Ġvfirsf ks
Ġewsovu hu
Ġ0797242400 82
Ġ079753603 45
Ġqbiagd vh
Ġcctyhu u
Ġkooydy fy
Ġ07137847 685
Ġiilatpj i
Ġ0773782800 7
Ġ078558552 25
Ġ072455207 50
Ġtxxxcwj d
0 45
0 12
0 397
0 104
0 667
1 660
1 404
1 389
1 392
2 2725
2 293
2 274
2 155
3 23
3 49
3 13
3 73
3 888
3 493
3 102
3 234
3 147
3 297
4 45
4 49
4 888
4 71
4 792
5 15
5 16
5 38
5 153
5 194
5 163
5 385
6 52
6 32
6 38
6 28
6 70
6 76
6 240
6 880
6 088
6 906
6 159
6 309
6 454
6 203
6 437
6 305
7 40
7 39
7 44
7 33
7 22
7 494
7 598
7 406
7 909
7 569
7 683
7 472
8 35
8 42
8 22
8 73
8 67
8 293
8 365
8 665
8 244
8 372
9 50
9 20
9 13
9 68
9 67
9 65
9 31
9 525
9 2094
9 351
9 199
9 395
9 905
9 487
9 637
a um
a fo
a wa
a eg
a ag
b en
b ck
b tn
b ky
b qq
b lue
b mw
b rokes
b knm
c xb
c fy
c cy
c up
c qb
c vt
c bf
c wx
c xu
d ny
d oc
d tl
d xa
d ht
d vk
d xc
d ii
d uq
e v
e ay
e et
e very
e og
e ig
e zw
e zp
e cl
e iy
f dy
f mw
f lh
f pj
f kv
f vd
f xs
f bn
f zm
f zw
f uq
g al
g ood
g ck
g ip
g gl
g tz
g ious
g ix
g gn
g gy
g vw
g rfm
h th
h wn
h ange
h ak
h ep
h jg
h gx
h pj
h gy
h jy
h sd
h hl
h vx
h ov
h mu
h zv
i ar
i ed
i ter
i it
i ut
i ster
i by
i iv
i ft
i jb
i bg
i kd
i bx
j om
j si
j ur
j mi
j za
j ka
j pq
j pb
j ki
j qcl
k um
k tn
k tz
k dz
k xh
k lq
k ba
l er
l ay
l ol
l led
l iz
l ip
l tl
l je
l rq
l vk
m se
m are
m bur
m mi
m fy
m jx
m hy
m lx
m zp
m xbf
m ains
m jdc
n is
n ies
n hx
n gm
n we
n mc
n pg
o ra
o bd
o im
o xd
o bf
o ade
p re
p am
p ie
p ry
p ai
p ia
p lm
p wd
p yf
q os
q tx
q omb
r lo
r xh
r pq
r gm
r rx
r cu
r pl
r wb
r cq
r ookes
r knm
s uck
s ks
s mo
s gg
s lq
s cu
s urgery
t ck
t us
t ep
t kn
t jf
u ce
u ea
u is
u fl
u wy
u gn
u os
v on
v ge
v ci
v og
v tw
v tt
v af
v mm
v sx
v uj
v qg
v aa
v the
v gf
w of
w est
w as
w ck
w lo
w ms
w ha
w pp
w js
w vk
w gu
w mg
w tp
x ex
x th
x ai
x dw
x dz
x jc
x go
y v
y ic
y af
y pri
y oc
y pd
y aj
y cz
y td
y jxn
y haa
y ava
z g
z ing
z ry
z as
z tw
z iv
z bs
z tz
z bt
z nj
z bqs
Ġ ood
Ġ ooked
Ġt q
Ġt t
Ġt sj
Ġt gu
Ġt kp
Ġa ia
Ġa aw
re af
re ii
in sive
in ci
in rz
st ri
er cise
on ging
ou cjv
Ġth ast
Ġth uz
Ġi c
Ġi o
Ġi y
Ġi ay
Ġi fi
Ġi us
Ġi str
Ġi ef
Ġi pb
Ġi ac
Ġi bi
Ġi vx
Ġi yk
Ġi kr
ra ct
ra ble
ra mes
ra bw
Ġh le
Ġh po
Ġh ous
Ġh ral
Ġh vd
Ġh gq
Ġh xg
Ġh no
Ġp j
Ġp one
Ġp mi
Ġp amp
Ġp ux
Ġp ique
Ġp gv
Ġp wmd
Ġp iced
Ġc lu
Ġc ose
Ġc ep
Ġc iti
Ġc lue
Ġc qe
Ġc zt
Ġw u
Ġw in
Ġw ce
Ġw ww
Ġw jj
Ġw mu
Ġw fz
Ġw yo
Ġw xn
Ġw mh
Ġw qt
en l
en ac
en vmj
en ied
Ġy d
Ġy ol
Ġy sw
Ġy yf
Ġy nw
Ġy cqw
Ġn w
Ġn of
Ġn an
Ġn ir
Ġn by
Ġn app
Ġn ds
Ġn cc
Ġn ye
Ġn lc
Ġn xw
Ġn reaf
or j
or ist
or do
Ġf ed
Ġf ave
Ġf ow
Ġf et
Ġf ool
Ġf na
Ġf ru
Ġf sx
Ġf yf
Ġf sof
Ġf rames
at ched
at nmc
Ġb g
Ġb p
Ġb le
Ġb am
Ġb ke
Ġb ol
Ġb and
Ġb ms
Ġb sj
Ġb kv
Ġb qb
Ġb jj
Ġb ta
Ġb kx
Ġb mv
Ġb cp
Ġb ambridge
Ġb hwn
oo j
oo ow
oo hx
Ġre vi
Ġre li
Ġre im
Ġre iter
Ġre mains
Ġyou u
Ġyou have
Ġin for
Ġin stance
Ġin eq
Ġl ve
Ġl om
Ġl ai
Ġl ab
Ġl ady
Ġl nz
Ġl xq
Ġl xz
Ġl cfy
of bm
of pf
ot i
ot nd
ot vbm
ot orj
Ġd de
Ġd av
Ġd zz
Ġd dy
Ġd bw
Ġd ala
Ġd enied
ri y
ri se
ri can
ri zing
an a
Ġs f
Ġs and
Ġs xq
Ġs sry
Ġm zz
Ġm tb
Ġm sg
Ġm xdz
ct g
ct ing
ct zh
ct ao
Ġan thing
ay r
ay uck
ay cb
ay cp
ay rga
ge z
ge ssi
se ment
se cp
ce tw
ce ren
ce fx
Ġis cwx
Ġg t
Ġg ps
Ġg tz
Ġg kn
Ġg gm
Ġg vm
Ġg wd
Ġg nc
Ġg xv
Ġg pf
Ġg fsn
Ġg inrz
ont o
ed ezp
am rcq
ie ow
Ġand good
Ġat e
th at
ke bo
es xm
es dat
Ġthat ll
Ġli a
Ġli ft
day s
Ġwi li
Ġwi dh
form ed
Ġinform ative
Ġsta ined
Ġof or
Ġpri ve
op fs
Ġwh oop
Ġdo g
Ġdo ors
um k
um z
one kw
Ġit is
Ġam end
Ġam use
Ġam ny
Ġam ended
Ġme mor
Ġme fvd
Ġle w
Ġle ince
amb oats
Ġon wards
Ġpe y
Ġpe po
Ġpe ole
od jmi
Ġbe ef
Ġbe ans
Ġbe gan
Ġnum ner
si m
si u
si er
si ght
si ers
si pital
Ġany ti
Ġti a
Ġti q
Ġti ming
Ġwhat every
la vog
ea jk
ur ring
Ġarri ces
ch eap
Ġ2 45
Ġ4 58
me e
it k
ow s
ss du
Ġex ep
Ġex hange
Ġex ercise
un ff
un te
Ġnot ify
Ġexp insive
Ġlo sing
Ġel l
Ġel ated
Ġad fo
Ġno one
Ġno ise
Ġno ontime
Ġ0 501
Ġ0 482
Ġtaxi that
Ġ3 474
Ġ3 434
Ġfind s
ts my
Ġadd s
Ġreference d
Ġst ren
Ġst ory
ir jd
et f
et onekw
ro sas
ro wnh
Ġgo l
Ġab c
Ġab lt
Ġor dered
Ġor mu
Ġor gan
Ġrequest er
ant ity
00 1
00 6
00 7
00 78
00 53
00 87
00 93
00 200
00 108
00 758
Ġ5 49
Ġ5 71
Ġ5 484
ly qos
Ġo sh
Ġo su
Ġo bt
Ġo sn
Ġo qp
Ġo gz
Ġo lyqos
Ġrecommend vlit
Ġmu bj
Ġas lo
Ġas ks
de b
30 49
30 48
30 962
15 30
15 21
15 46
15 06
15 38
15 28
15 53
15 73
15 98
15 005
15 073
Ġintern ent
45 2
45 35
45 26
45 53
45 87
45 598
45 457
Ġe is
Ġe ck
Ġe qf
Ġe bz
Ġe bc
Ġe iy
Ġe ja
ul pt
Ġsh ame
Ġsh ew
Ġsh ali
Ġsh ift
ian a
Ġall s
Ġea sier
Ġgre ate
ell ation
Ġpostc oade
Ġj k
Ġj s
Ġj qg
Ġj cp
Ġj elu
Ġok at
ain ted
23 21
23 78
23 68
23 100
23 65
23 789
ic ben
Ġwe hj
Ġmuse aum
Ġk a
Ġk i
Ġk k
Ġk s
Ġk x
Ġk xh
Ġk rj
Ġk crp
Ġk uwf
Ġk lnf
Ġk weqk
Ġk tpr
Ġk vna
Ġk gck
Ġaf t
Ġaf ju
Ġaf resh
12 27
12 20
12 49
12 87
12 47
12 62
12 938
12 127
ai is
Ġtrav av
Ġent rean
Ġsun rise
Ġser vies
vi wpp
ad bi
Ġwedn esdat
Ġsaturday s
Ġ7 44
Ġ7 776
Ġ7 4615
Ġdi p
Ġdi stri
Ġmonday thursday
Ġ01223 53
Ġ01223 5869
Ġ01223 92094
Ġma gn
Ġma xim
Ġ8 45
Ġ8 11
Ġ8 602
Ġ8 292
Ġ8 991
Ġ6 20
Ġ6 42
Ġ6 98
Ġav j
Ġav z
Ġav bknm
Ġcb h
Ġcb v
Ġr s
Ġr ough
Ġr bb
Ġr xc
Ġr cs
Ġr bky
lu w
lu ck
Ġind in
Ġind ain
Ġse eng
Ġse cular
ia j
ia ke
Ġun im
Ġun luck
Ġop fpj
Ġ11 00
Ġra hzv
Ġgi by
ak tq
ci w
Ġ16 30
Ġdif feren
Ġ14 00
Ġu d
Ġu ij
Ġu cw
ck bp
Ġref ried
Ġref lect
Ġac om
Ġid cu
Ġid aiis
Ġmin on
Ġmin us
Ġv on
Ġv of
Ġv ale
Ġv dq
Ġv hy
Ġv zc
Ġv ph
Ġv wd
Ġv ys
Ġv nh
Ġv bm
Ġv hz
Ġv pmq
Ġv mdv
Ġv dxa
Ġnight mare
Ġwell ington
ap kq
Ġcu z
Ġcu pc
Ġho sipital
Ġri ser
gge st
Ġbar ring
Ġpro vies
Ġpro ved
us qz
Ġ9 24
Ġ9 468
Ġcar ries
port ant
21 01
21 19
21 09
21 81
21 829
21 072
ven o
Ġsp yic
Ġcont ract
Ġassi sted
Ġlet ters
ue y
yn vv
Ġtheat r
Ġcon vo
Ġcon ceren
Ġleice ister
Ġpl iz
Ġpl vgf
Ġup yaj
Ġ09 3
Ġ09 45
izz ae
11 48
11 74
11 311
11 076
Ġsteven bridge
Ġq dz
Ġq lm
Ġq rj
Ġq au
Ġq lk
Ġq rvy
Ġq eajk
Ġpizz ria
Ġcare fully
ma uel
ma rizing
wi jb
ti al
ti xk
Ġcode yi
Ġale mia
Ġ07 41
Ġ07 149
Ġ07 91
Ġ07 31
Ġ07 02
Ġ07 124
Ġ07 741
Ġ07 880
Ġ07 236
Ġ07 4050
Ġ07 566
Ġ07 087
Ġ07 270
Ġ07 153
Ġ07 299
Ġ07 248
Ġ07 224
Ġ07 118
Ġ07 8650
Ġ07 212
Ġ07 167
Ġ07 306
Ġ07 903
Ġ07 486
Ġ07 237
Ġ07 107
Ġ07 8207
Ġ07 450
Ġ07 447
Ġ07 9900
Ġ07 4969
Ġ07 8017
Ġ07 1342
Ġ07 1039
Ġ07 4134
Ġ07 6645
Ġ07 337
Ġ07 5146
bp lu
sp ital
sp gq
58 2
58 5
58 48
58 84
58 86
58 02
58 95
58 903
58 5413
tw v
tw ff
24 45
24 62
24 3830
24 317
24 165
17 39
17 79
17 14
17 03
17 97
17 163
17 542
fo s
tt n
Ġhosp tial
07 17
07 48
07 1249
Ġarchitecture s
Ġcom fir
nt nn
be zbt
ui l
ui mx
ui gp
ui fxs
Ġcher r
ab k
ab io
50 54
50 57
50 94
50 97
50 198
66 51
66 89
66 63
66 96
66 224
29 26
29 966
29 68
29 73
29 087
29 337
08 53
08 623
08 7755
bur sement
af rican
35 2
35 71
35 909
35 9188
35 2636
40 29
40 19
40 41
40 18
40 93
40 629
10 30
10 24
10 38
10 28
10 91
10 31
10 200
10 1770
10 1174
Ġqu antity
ub x
88 29
88 35
88 46
88 63
88 72
88 559
Ġconf li
wh b
wh otorj
60 24
60 64
Ġwhi p
Ġserving s
54 36
54 900
54 24165
54 1714
Ġhe fmw
52 69
52 5802
kw k
kw orth
Ġsch ag
room z
01 35
01 39
01 807
27 16
27 22
27 94
27 500
39 1
39 38
39 18
39 47
39 02
39 6930
39 508
46 37
46 31
46 2354
46 909
Ġcityroom a
59 77
59 89
59 84
59 61
20 90
20 42
20 69
20 98
20 178
20 467
20 203
ca jen
Ġlist s
32 60
32 26
32 5018
19 0
19 68
19 276
19 35909
19 541714
Ġcaf w
Ġshad ai
41 845
43 89
43 61
43 439
43 451
Ġtur ned
Ġwonder fully
ep l
ep m
ep n
ep ka
Ġ0122333 383
oh lc
Ġz q
Ġz lm
Ġz lk
Ġgra ton
16 1
16 2
16 59
16 16
16 2045
16 945
90 12
90 66
90 59
90 93
90 257
90 583
09 43
09 99
qu dny
Ġwar m
ks v
br ft
br lh
br rokes
49 6
49 31
49 938
Ġpr onto
48 29
48 14
48 99
48 074
48 458
06 94
06 97
Ġback ground
tn bplu
ip gv
Ġco b
Ġco com
57 17
57 22
57 62
57 03
57 6412
57 498
Ġover sight
su h
su ow
36 48
36 91
36 97
36 503
51 37
51 153
51 377
Ġdin ning
Ġadden gr
Ġadden brokes
Ġadden rookes
Ġadden brrokes
42 57
42 80
42 58903
55 24
38 77
38 78
38 64
38 62
38 75
38 666
Ġke en
fy h
fy y
77 5
77 45
77 87
77 977
77 3624
gd ibp
gd cbf
80 4
80 37
80 3720
Ġsc ulpt
Ġcomple ting
ff r
ff cu
il c
il fp
44 29
44 90
44 48
44 458
18 1
18 09
18 49
18 64
18 4149
18 654
13 427
78 24
25 35
25 51
ene se
ds bq
ds kr
28 1
28 51
28 42
56 50
56 29
56 171
56 341
Ġ0122330 1906
34 78
34 792
34 4637
Ġenjoy able
Ġmill ion
hi kz
79 43
79 78
79 26
79 96
79 108
79 311
ka q
Ġgeorg iana
mar y
33 00
33 45
33 50
33 40
33 39
33 19
33 38
33 73
33 218
33 585413
33 1864
33 79311
26 7
26 80
26 456
26 246
zz ty
dy v
Ġ79 9
Ġbl rx
22 602
22 307
Ġwandle bry
Ġquest house
Ġquest ios
hal xp
70 24
70 3661
53 70
ny v
Ġfi qy
Ġjap enese
Ġx f
Ġx q
Ġx u
Ġx zc
Ġx pq
Ġx qe
Ġx cu
Ġx yk
Ġx sm
Ġx zzty
ud b
ud mb
bb um
bb zz
Ġlu dy
Ġlu obd
mo ahh
pt y
Ġha ir
Ġha gw
Ġha xf
Ġstand ing
Ġ40 48
Ġ0122324 77977
Ġky h
Ġky xt
li ig
iv u
iv jm
89 52
89 79
89 74
89 38666
Ġhed ged
Ġbel onging
Ġpunter s
68 12
68 17
jg b
jg i
jg gn
14 00
14 30
14 17
14 75
Ġsort ford
245 2
76 18
76 53
76 73
76 71
76 296
Ġbu wat
Ġbu ggy
73 17
73 40
fe z
fe uy
Ġred undant
Ġred uce
69 19
69 80
69 76296
Ġvol unte
71 15
84 90583
ogy a
151 4490
Ġgla ss
Ġrec urring
ln mfr
240 5869
98 90
98 06
98 42
98 798
000 57498
tu p
67 666
99 3
99 11
99 25
99 10200
Ġ56 5
87 59
87 36
Ġca amboats
ero surgery
ical y
bj l
86 519
Ġmo ving
Ġcre ated
65 30
65 2974
oc u
oc ma
47 20
37 4
37 80
37 53
37 0713
Ġsw ing
Ġsw amp
dp u
Ġwagam ana
Ġspecial ty
Ġfa c
aq v
Ġ0122321 7708
Ġ0122321 6305
Ġ0122321 7671
ws f
wa jpb
258 6
vo ecl
Ġrel ief
Ġdri ven
gl od
ax wo
lf ktz
02 290
05 5747
62 5507
93 49
93 76
75 5984
Ġ01223323 222
Ġaudi o
92 66
js fd
eg os
eg zq
eg rknm
ua soj
Ġet oi
gx co
gx mx
rs owr
fl g
gw oc
85 00
85 21
85 17542
my om
my bk
ig f
ig tj
bd x
Ġtrans fer
hx k
hx nk
jb z
jb it
kn h
kn jsq
Ġ0122327 118
Ġ0122327 4679
353 355
95 34792
bw f
Ġext end
83 27
83 77
83 73
83 2090
Ġstick ler
ae j
ag sv
pj jggn
qy q
qy zi
223 9
im h
ix xh
xh lk
Ġ078 17
Ġ078 35
Ġ078 54
Ġ078 57
Ġ078 25
Ġ078 63
Ġ078 660
Ġ078 087
Ġ078 296
Ġ078 6908
Ġ078 0087
Ġ078 23100
Ġ078 101770
Ġ078 396930
Ġactual y
611 9012
uf rq
wy q
gn up
gn jn
gn mfy
jx l
nf au
nf sn
ty s
Ġ68 34
hy b
hy kw
hy uw
hy lp
os cs
Ġtour ing
ey mmi
kv vf
Ġbo ld
Ġ076 899
Ġ076 108
Ġ076 199
Ġ076 071
Ġ076 5507
Ġ076 2617
Ġ076 4689
Ġ076 1739
gy hjg
zc sj
zc ph
Ġec pe
pq zz
pq ov
tl r
ance s
sx ef
vd j
Ġunderstand ing
Ġdisp lay
154 0721
085 605
397 58
397 36
397 50198
px enu
pd dz
bt f
bt ayr
Ġ077 60
Ġ077 49
Ġ077 48
Ġ077 3200
Ġ077 6666
Ġ077 117
Ġ077 506
Ġ077 469
Ġ077 0823
Ġ077 4019
Ġ077 19541714
Ġ077 0697
Ġ077 51377
Ġ077 33585413
Ġ077 39750198
Ġ079 41
Ġ079 51
Ġ079 65
Ġ079 355
Ġ079 450
Ġ079 5032
Ġ079 24317
Ġ079 01807
je q
je ibg
rq r
sy ve
nl r
087 4608
906 3338
xa af
hu k
hu xe
hu edezp
hu gxco
ht p
ht vv
ac orn
gm u
Ġtal be
210 29087
aw l
kc da
kc lip
sed nsd
Ġcanc ellation
tq ikd
fn sq
zk twv
Ġdel ays
Ġwan kworth
Ġem f
Ġem mauel
Ġem pty
vy sl
Ġown ed
gg gh
gg cup
Ġevent ually
bq j
jz ivu
Ġsuf fered
511 377
bz i
bz mlx
eh el
Ġpub icaly
ux p
jm go
rx dv
257 6
500 3
bi q
hl r
hn b
hn g
xs f
xs m
Ġcro sses
gq vm
vc f
vm t
ww xh
Ġ074 214
Ġ074 247
Ġ074 216
Ġ074 21829
Ġ074 66224
Ġ074 101174
Ġ074 00057498
Ġ074 21029087
lq rj
lq pre
lq gmu
vv a
pk jt
Ġhand s
Ġhand led
596 20
Ġow vuy
Ġjedbur h
qg z
qg vge
Ġsm amrcq
233 1493
224 2319
jc s
Ġ070 21
Ġ070 58
Ġ070 60
Ġ070 59
Ġ070 594
Ġ070 45457
Ġ070 27500
Ġterri ble
aa epl
xd etf
Ġod o
Ġsettle s
oe k
rg kum
rk igf
361 4017
kf is
vf c
828 6
rj k
vk uh
bh e
bh o
bh kwk
vb st
vb mn
7977 95
Ġ01223217 297
dh vw
ij h
ij i
nn gg
Ġdr w
Ġdr ops
Ġocc ured
Ġot q
083 73
kq s
gc abio
mg t
ob im
oj sim
oj fyh
750 5
df kf
vq lv
wf p
wf u
wf zd
zn qomb
178 22602
wj nx
wc o
zs fez
cm h
01223 243830
01223 576412
ng rlo
yy k
Ġsave d
Ġ073 46
Ġ073 78
Ġ073 328
Ġ073 1958
Ġ073 2382
Ġ073 00200
Ġ073 40629
Ġ073 13427
pv p
pz dyv
Ġrep ly
Ġrep ainted
gf xn
ov p
232 666
dx wr
hh z
zv gnjn
Ġcet umj
yk t
ys f
212 9349
958 77
iu c
ii ko
iy u
iy hc
nh oek
xf u
493 32
fh vfc
ific ent
Ġwou le
Ġavo xts
zq o
zq bezbt
Ġrent ed
Ġ075 50
Ġ075 163
Ġ075 328
Ġ075 5492
Ġ075 17822602
cz r
sl gc
486 418
Ġinqui ries
bk ap
bk pddz
ku v
vg qu
Ġprocess ing
291 483
467 3319
286 3087
209 981
053 7
657 0
657 212
lz ab
Ġsn atched
Ġ26 30
di btf
kk kclip
tj a
Ġuk otnd
639 55
709 8
ns k
nw zi
Ġsec ured
cj r
cj so
cj da
kx lnmfr
mv aag
nr ce
Ġ0788 319
Ġ0788 0874608
082 2722
495 603
jh ewg
kh d
Ġih d
Ġih w
Ġmoderat re
Ġ0730 3450
Ġ0730 2617
Ġ0730 88559
Ġ0730 18654
Ġ0730 8517542
6688 661
bm ht
ball s
jl kvvf
989 42
hs g
hs m
sf w
sf wc
wg a
xv z
xv feuy
Ġfo ejz
Ġmn oj
719 8
839 5762
Ġcamp liz
Ġ0173 353355
lr twff
tf x
yw ctg
Ġuq m
Ġ072 291483
Ġ0779 640
Ġ0779 5998
393 6064
Ġswitch ed
ez j
ez bwg
gz ttn
Ġrandom ly
Ġ071 30
Ġ0758 4361
Ġ0758 1540721
Ġ0746 213
Ġ0746 22725
317 6
hk oc
Ġbi bmw
Ġbi ggest
Ġboo ing
Ġboo ok
Ġresol ve
Ġ0769 40824
Ġ0769 9910200
Ġfulfi lled
pc qyq
Ġfil ms
Ġ0777 645
Ġ0777 538
Ġ0777 67666
Ġ0777 02290
Ġ0777 9063338
Ġ0756 206
Ġ0756 5050
Ġ0756 931
Ġ0756 8490583
Ġmisunderstanding s
lw udb
qv odjmi
Ġhj zcph
Ġph on
Ġgoo day
Ġgoo bye
Ġval id
1750 9
629 8
zu psd
Ġ0707 676
Ġ0707 2119
Ġ0707 11311
Ġ0739 1598
Ġ0739 2863087
Ġ012232173 00
Ġ012232173 12
377 5918
td sa
zr jzivu
Ġanyth in
Ġanyth ig
Ġ0735 2155
Ġ0735 5269
Ġ0735 652974
Ġ0735 755984
Ġ0735 9534792
Ġ0799 288
196 5496
383 38
cap o
pg t
Ġsop ap
Ġsop ggcup
Ġdoct or
Ġ0760 6976296
Ġ0754 07
Ġ0754 0853
Ġ0754 26246
Ġ0754 625507
386 590
488 6
677 4
8265 19
hle t
sm lx
xm cefx
yt ln
Ġtd vd
Ġtrian id
Ġhea ar
Ġbum ber
Ġdit ten
Ġrock ed
Ġ0715 789
Ġ0715 3999
Ġ0715 17163
Ġ0712 981
Ġ0712 6119012
Ġ0749 863
Ġ0757 3158
Ġ0757 4928
977 6
Ġlq spgq
Ġmc ca
Ġ1223 462354
Ġvr w
Ġ0709 129
Ġ0709 12938
8824 111
412 7
857 4
857 311
dm zm
ib whb
Ġou n
Ġou kn
Ġpf usqz
Ġlk dt
Ġnorm ally
Ġ0717 7768
Ġ0717 43439
Ġ0708 0139
Ġ0706 759
Ġ0774 0734
Ġ0774 12127
Ġ0774 6689
147 3862
Ġmisin formed
6167 165
ild p
Ġhan k
Ġls qyzi
129 7115
Ġuj egrknm
Ġ0700 4136
Ġ0700 1660
Ġ0745 5408
Ġ0745 30962
Ġ0724 1514490
Ġ0750 3689
Ġ0750 2242319
Ġ0750 8824111
Ġ0759 6698
Ġ0759 057
Ġ0759 1473862
Ġ0719 3902
Ġ0719 184149
Ġ0719 370713
Ġ0778 6419
Ġ0778 3493
Ġ0778 54900
Ġ0726 1965496
Ġ0789 45598
Ġ0789 8395762
498 702
578 77
380 2794
836 50
cf u
cul x
Ġxi viwpp
Ġtz liig
Ġhdt pos
Ġfd lfktz
Ġsum marizing
Ġsum mary
Ġmot orist
Ġperform ances
Ġ0736 20203
Ġ0736 2331493
Ġ0755 6741
Ġ0755 669
Ġ0755 4509
Ġ0755 5424165
Ġ0744 10940
Ġ0763 19276
Ġ0763 44458
Ġ0796 16945
Ġ0796 79108
Ġzl rl
497 147
down ing
wfn bhe
Ġij hh
Ġiron ing
Ġew rn
Ġew ofbm
Ġju kebo
Ġju iake
Ġkl ofpf
Ġuz nf
Ġuz brlh
Ġ0740 40
Ġ0740 3878
Ġ0752 057
Ġ0798 511377
Ġ0793 5848
Ġautom ated
8054 313
531 44
519 8
fb so
gp zktwv
Ġpur se
Ġlj qgvge
Ġdg jk
Ġdx my
Ġexpensi veno
Ġ0723 5895
Ġ0723 4258903
Ġ0721 1297115
Ġ0710 3379311
Ġ0710 3614017
Ġ0748 2129349
Ġ0742 3023
Ġ0742 6688661
Ġ0718 3775918
Ġ0737 515
Ġ012232742 80
558 0
728 9
uv jo
va ahm
wla e
Ġck rjk
Ġwy vysl
Ġbw xb
Ġlnk duq
Ġjgn mhy
Ġ0729 179
Ġ0729 0822722
Ġ0701 3802794
Ġ0716 5032
Ġ0776 4280
Ġ0776 8938666
Ġ0767 1538
Ġ0765 3266
Ġ0765 29966
Ġ0747 386590
Ġ07263 6696
Ġcongra ts
039 4
Ġry xmcefx
Ġikc bzmlx
Ġlz iiko
Ġdy lwudb
Ġgal ary
Ġatb uifxs
esa ver
Ġlif esaver
Ġost code
Ġ012233483 14
Ġsteve age
Ġ0766 4673319
Ġ0743 46909
Ġ0773 162045
Ġ0775 4509
Ġchestert own
060 9
339 6
aok s
nm nty
xmy mr
Ġtll gqvm
Ġps ot
Ġnr dsbq
Ġbok ed
aru omk
Ġole ase
Ġey es
Ġallright y
Ġavail ble
Ġ0728 9
Ġ0733 3936064
Ġ0764 00758
Ġ0764 325018
8806 15
Ġzx knh
Ġzza g
5538 02
Ġawa iting
theat re
Ġ07229 832090
288 5
649 6
870 4
lit xvz
pen vqg
qlh vw
tfl p
Ġtie m
Ġari val
Ġnu erology
Ġnu erosurgery
Ġbvc ge
Ġmeat balls
308 667
Ġjp aq
Ġ0122344 6011
Ġvx syve
Ġ0720 6167165
Ġ0753 2982
Ġ0768 20467
Ġ0768 1935909
Ġ0784 2440
Ġ0704 1247
Ġ07623 362
Ġ0762 29337
Ġ0792 8872
Ġ07598 08623
570 37
683 21
Ġ012232177 15
Ġcru siers
Ġ07629 344637
Ġ07657 055747
Ġ07715 6823
Ġ07558 835
550 2
nsd gj
txc o
xag v
xag z
ymg o
Ġpw uyr
Ġcrow d
Ġcrow ded
Ġben ch
Ġben nies
Ġsx pjjggn
Ġsed kq
Ġjra o
127 325
Ġ01223596 102
Ġ01223596 203
Ġrw vc
Ġrw dskr
Ġ01223348 169
Ġ01223348 527
Ġ0734 2405869
Ġ07906 803720
abqg je
abqg pgt
5018 09
0899 5
398 20
485 210
Ġhungting ton
Ġhungting don
Ġ07608 331864
Ġ07739 352636
Ġ07411 7257
Ġ07411 90257
Ġ07039 085605
Ġ07039 857311
252 6
533 14
919 5
bpe oxq
Ġwsp nwzi
Ġyj ctzh
Ġny gdcbf
Ġnch j
Ġdc lqrj
Ġss cjda
Ġsof t
4537 01
Ġsus pect
Ġrk bqj
Ġqj tixk
Ġql kcda
Ġqm halxp
Ġ0722 8054313
Ġ07413 773624
Ġ07146 797795
Ġ07504 485210
Ġ072054 21072
Ġ07193 127325
2409 44
0726 15005
577 086
ocx gnup
xhc fdt
Ġ07816 577086
Ġ07643 657212
Ġ076359 51153
Ġ07700 0694
Ġ07945 880615
Ġ07916 703661
Ġ07957 232666
Ġ07980 498702
Ġincredi ble
Ġ07207 525802
Ġ07123 501809
Ġ07140 486418
Ġ07132 308667
Ġ07099 497147
Ġ070642 57037
Ġ077208 56341
Ġ079373 48458
Ġcapabil ity
Ġdisconnect ed
6240 4
822 60
967 5
bck q
doc jur
dht qx
dvk tj
eet tjf
eig q
ezw u
fdy tn
fbn en
fzm kl
gix g
grfm vdj
hth zu
hak ka
hep gz
hgy rv
hhl ra
hvx e
iut q
ibx m
jom s
klq wt
kba eg
mbur bc
mxbf ll
nhx a
ora h
oim ds
oxd ciw
pry mdv
pia f
pyf od
sks ry
sgg iuc
slq nhxa
scu vbst
uea gtz
uis ccp
uwy wjnx
ugn g
vtw bv
vaf lr
vmm p
vsx c
vuj l
vthe io
wck t
wms z
wgu qa
xth tja
xai wckt
xgo a
yaf r
yoc ring
zry o
zas af
ztw u
ziv n
ztz u
znj hylp
Ġtsj a
Ġaia obim
Ġaaw vsxc
reii um
Ġiay fj
Ġief d
Ġipb ct
Ġiyk hkoc
Ġikr vr
rabw r
Ġhle p
Ġhpo spital
Ġhgq gs
Ġpamp hlet
Ġclu dxc
Ġwce mvaag
Ġwjj dibtf
Ġwmu c
Ġwfz tqikd
Ġwqt gd
Ġyol n
Ġysw joms
Ġynw ufrq
Ġycqw egos
Ġnof olk
Ġnan fos
Ġnapp ing
Ġnds jbn
Ġncc fyy
Ġnye umz
Ġnreaf g
Ġfow ard
Ġfet ch
Ġfna jhewg
Ġfru gal
Ġfsx m
Ġfyf xwh
Ġble ssed
Ġbam jw
Ġbke hhlra
Ġbms h
Ġbqb o
Ġbkx nwe
Ġbhwn flg
ooow tr
Ġrevi sed
Ġreli gious
Ġreim bursement
Ġreiter ate
Ġineq vbmn
Ġlve iji
Ġlai ter
Ġlab anese
Ġlxq ww
Ġlcfy mn
otvbm ss
Ġdde i
Ġdav inci
Ġdzz pyfod
Ġddy pie
Ġdbw txco
Ġssry qgz
Ġmzz na
Ġmtb hnb
Ġmsg bhkwk
ayrga be
cetw ap
Ġgwd ir
Ġgpf ba
Ġandgood bye
Ġwidh bp
opfs bq
Ġamuse ment
Ġmemor ies
Ġmefvd bwf
Ġleince ster
Ġpepo le
Ġanyti hng
Ġwhatevery ou
Ġexep ensive
Ġadfo rable
tsmy a
Ġstren gth
irjd nn
Ġorgan ize
Ġ549 27
Ġosh zupsd
Ġosu o
Ġobt ain
Ġosn xb
Ġolyqos dv
Ġrecommendvlit tle
Ġmubj smlx
Ġeck x
Ġeqf gnmfy
Ġebz ipgv
Ġeiy ul
Ġeja op
Ġshew p
Ġjqg voecl
Ġkrj nyv
Ġkcrp ui
Ġkvna c
Ġtravav elling
Ġentrean ce
Ġ74615 5219
Ġdistri ct
Ġ0122353 888
Ġ012235869 67
Ġmagn ificent
Ġmaxim um
Ġavbknm xq
Ġrough ly
Ġrbb hgyrv
Ġunim portant
Ġunluck y
Ġopfpj huk
Ġrahzv kvn
Ġucw kfis
Ġvale t
Ġvdq w
Ġvhy o
Ġvzc xfu
Ġvph sfwc
Ġvwd btayr
Ġvys fhvfc
Ġvbm xdetf
Ġvhz umk
Ġvpmq dfkf
Ġvdxa czr
Ġcupc jmgo
Ġconceren ed
Ġplvgf khd
Ġupyaj tep
Ġalemia wn
Ġ07124 495603
Ġ07741 826519
Ġ074050 95877
Ġ07270 553802
Ġ07153 240944
Ġ07248 087755
Ġ078650 26456
Ġ07903 6651
Ġ078207 57877
Ġ07450 209981
Ġ07447 453701
Ġ079900 98942
Ġ074969 08373
Ġ078017 59620
Ġ071342 86519
Ġ071039 63955
Ġ074134 41845
Ġ076645 53144
Ġ07337 359188
Ġ075146 53314
071249 98798
Ġcomfir m
ntnn n
uimx v
Ġconfli cting
Ġhefmw btn
epka u
Ġ0122333383 00
Ġzlm xp
qudny hj
Ġaddengr ookes
Ġsculpt ure
hikz si
Ġblrx v
Ġquestios n
Ġxzc deb
Ġxcu cxu
Ġxyk uxp
Ġxsm icben
Ġxzzty rwb
udmb si
Ġluobd jxl
Ġhagw q
Ġhaxf bkap
Ġbelonging s
Ġvolunte er
Ġswamp ed
jsfd di
uasoj dn
hxnk xo
knjsq xy
ixxh v
Ġ078660 49938
Ġ078087 56171
Ġ078296 17509
Ġ0786908 1756
Ġ0780087 8036
Ġ07823100 765
Ġ078101770 49
Ġ078396930 90
nfau xby
nfsn mzp
hyuw pb
eymmi g
Ġ076899 39820
Ġ076108 39736
Ġ076199 68321
Ġ076071 23789
Ġ0765507 2535
Ġ0762617 3176
Ġ0764689 0093
Ġ0761739 1159
Ġdisplay ing
pxenu hg
Ġ0773200 8521
Ġ0776666 7494
Ġ077117 38338
Ġ077506 08995
Ġ077469 39508
Ġ0770823 8835
Ġ0774019 2551
Ġ0770697 5524
Ġ07751377 592
Ġ079355 36503
Ġ079450 15073
Ġ0795032 8037
Ġ07924317 108
Ġ07901807 088
huxe uz
Ġ074214 49332
Ġ074216 33218
Ġ07421829 709
Ġ07466224 734
Ġ074101174 78
Ġ070594 48074
Ġ07045457 153
Ġ07027500 870
rgkum m
vkuh bi
vqlv p
wfzd ed
ngrlo zv
Ġ073328 20178
Ġ0731958 5629
Ġ0732382 0078
Ġ07300200 666
Ġ07340629 776
Ġ07313427 234
Ġcetumj km
Ġavoxts pm
Ġ075163 11076
Ġ075328 22307
Ġ0755492 5977
Ġ0788319 2583
Ġ07303450 247
Ġ07302617 458
Ġ073088559 44
Ġ073018654 82
Ġfoejz bzi
Ġcampliz o
Ġ072291483 00
Ġ0779640 1968
Ġ07795998 512
Ġ07584361 462
Ġ0746213 1215
Ġ074622725 35
Ġbibmw th
Ġ076940824 26
Ġ0777645 7787
Ġ0777538 009
Ġ077767666 76
Ġ077702290 36
Ġ0756206 3340
Ġ07565050 556
Ġ0756931 2325
Ġ0707676 2321
Ġ07072119 452
Ġ070711311 48
Ġ07391598 275
Ġ07352155 369
Ġ07355269 466
Ġ0735755984 7
Ġ0799288 6663
Ġ07540853 232
Ġ075426246 33
Ġ0754625507 3
Ġ0715789 6056
Ġ07153999 224
Ġ071517163 12
Ġ0712981 3049
Ġ0749863 1779
Ġ07573158 248
Ġ07574928 61
Ġ0709129 1573
Ġ070912938 11
Ġpfusqz ix
Ġ07177768 413
Ġ071743439 71
Ġ07080139 469
Ġ0706759 7569
Ġ07740734 110
Ġ077412127 24
Ġ07746689 138
Ġ07004136 407
Ġ07001660 178
Ġ07455408 697
Ġ074530962 54
Ġ07503689 471
Ġ07596698 267
Ġ0759057 4334
Ġ07193902 205
Ġ0719184149 2
Ġ0719370713 3
Ġ07786419 072
Ġ07783493 391
Ġ077854900 51
Ġ078945598 56
Ġtzliig k
Ġfdlfktz m
Ġ073620203 10
Ġ07556741 489
Ġ0755669 7926
Ġ07554509 101
Ġ074410940 25
Ġ076319276 76
Ġ076344458 15
Ġ079616945 17
Ġ079679108 16
Ġewofbm j
Ġjukebo x
Ġklofpf um
Ġ07403878 307
Ġ0752057 7289
Ġ0798511377 9
Ġ07935848 087
Ġljqgvge a
Ġ07235895 362
Ġ07423023 261
Ġ0737515 6908
Ġwyvysl ff
Ġlnkduq pe
Ġjgnmhy r
Ġ0729179 2842
Ġ07165032 687
Ġ07764280 286
Ġ07671538 206
Ġ07653266 113
Ġ076529966 05
Ġ072636696 45
Ġ074346909 50
Ġ0773162045 2
Ġ07754509 492
Ġtllgqvm h
Ġnrdsbq ty
Ġ076400758 49
Ġ0764325018 6
Ġ07532982 082
Ġ076820467 22
Ġ07842440 492
Ġ07041247 281
Ġ07623362 802
Ġ076229337 33
Ġ07928872 088
Ġ0759808623 9
Ġ077156823 47
Ġ07558835 298
Ġpwuyr mwp
Ġ074117257 80
Ġ0741190257 2
Ġnygdcbf x
Ġqmhalxp g
072615005 33
Ġ077000694 70
docjur l
Ġ079036651 07
