{"!":0,"\"":1,"#":2,"$":3,"%":4,"&":5,"'":6,"(":7,")":8,"*":9,"+":10,",":11,"-":12,".":13,"/":14,"0":15,"1":16,"2":17,"3":18,"4":19,"5":20,"6":21,"7":22,"8":23,"9":24,":":25,";":26,"<":27,"=":28,">":29,"?":30,"@":31,"A":32,"B":33,"C":34,"D":35,"E":36,"F":37,"G":38,"H":39,"I":40,"J":41,"K":42,"L":43,"M":44,"N":45,"O":46,"P":47,"Q":48,"R":49,"S":50,"T":51,"U":52,"V":53,"W":54,"X":55,"Y":56,"Z":57,"[":58,"\\":59,"]":60,"^":61,"_":62,"`":63,"a":64,"b":65,"c":66,"d":67,"e":68,"f":69,"g":70,"h":71,"i":72,"j":73,"k":74,"l":75,"m":76,"n":77,"o":78,"p":79,"q":80,"r":81,"s":82,"t":83,"u":84,"v":85,"w":86,"x":87,"y":88,"z":89,"{":90,"|":91,"}":92,"~":93,"¡":94,"¢":95,"£":96,"¤":97,"¥":98,"¦":99,"§":100,"¨":101,"©":102,"ª":103,"«":104,"¬":105,"®":106,"¯":107,"°":108,"±":109,"²":110,"³":111,"´":112,"µ":113,"¶":114,"·":115,"¸":116,"¹":117,"º":118,"»":119,"¼":120,"½":121,"¾":122,"¿":123,"À":124,"Á":125,"Â":126,"Ã":127,"Ä":128,"Å":129,"Æ":130,"Ç":131,"È":132,"É":133,"Ê":134,"Ë":135,"Ì":136,"Í":137,"Î":138,"Ï":139,"Ð":140,"Ñ":141,"Ò":142,"Ó":143,"Ô":144,"Õ":145,"Ö":146,"×":147,"Ø":148,"Ù":149,"Ú":150,"Û":151,"Ü":152,"Ý":153,"Þ":154,"ß":155,"à":156,"á":157,"â":158,"ã":159,"ä":160,"å":161,"æ":162,"ç":163,"è":164,"é":165,"ê":166,"ë":167,"ì":168,"í":169,"î":170,"ï":171,"ð":172,"ñ":173,"ò":174,"ó":175,"ô":176,"õ":177,"ö":178,"÷":179,"ø":180,"ù":181,"ú":182,"û":183,"ü":184,"ý":185,"þ":186,"ÿ":187,"Ā":188,"ā":189,"Ă":190,"ă":191,"Ą":192,"ą":193,"Ć":194,"ć":195,"Ĉ":196,"ĉ":197,"Ċ":198,"ċ":199,"Č":200,"č":201,"Ď":202,"ď":203,"Đ":204,"đ":205,"Ē":206,"ē":207,"Ĕ":208,"ĕ":209,"Ė":210,"ė":211,"Ę":212,"ę":213,"Ě":214,"ě":215,"Ĝ":216,"ĝ":217,"Ğ":218,"ğ":219,"Ġ":220,"ġ":221,"Ģ":222,"ģ":223,"Ĥ":224,"ĥ":225,"Ħ":226,"ħ":227,"Ĩ":228,"ĩ":229,"Ī":230,"ī":231,"Ĭ":232,"ĭ":233,"Į":234,"į":235,"İ":236,"ı":237,"Ĳ":238,"ĳ":239,"Ĵ":240,"ĵ":241,"Ķ":242,"ķ":243,"ĸ":244,"Ĺ":245,"ĺ":246,"Ļ":247,"ļ":248,"Ľ":249,"ľ":250,"Ŀ":251,"ŀ":252,"Ł":253,"ł":254,"Ń":255,"Ġt":256,"Ġa":257,"re":258,"<|":259,"|>":260,"in":261,"st":262,"er":263,"Ġ<|":264,"on":265,"ou":266,"Ġ,":267,"Ġth":268,"Ġi":269,"ra":270,"Ġ.":271,"el":272,"Ġh":273,"Ġp":274,"Ġc":275,"Ġw":276,"en":277,"Ġthe":278,"Ġy":279,"Ġn":280,"or":281,"Ġf":282,"at":283,"Ġb":284,"oo":285,"ser":286,"Ġre":287,"Ġyou":288,"Ġin":289,"Ġl":290,"ion":291,"of":292,"user":293,"sta":294,"Ġ?":295,"ing":296,"ot":297,"Ġd":298,"Ġto":299,"ri":300,"an":301,"ste":302,"ook":303,"Ġs":304,"ran":305,"Ġm":306,"yste":307,"ystem":308,"ve":309,"ct":310,"system":311,"end":312,"Ġan":313,"Ġhot":314,"Ġhotel":315,"ction":316,"endof":317,"le":318,"ay":319,"rant":320,"urant":321,"Ġresta":322,"Ġrestaurant":323,"ge":324,"se":325,"ce":326,"Ġtra":327,"Ġbook":328,"ex":329,"Ġare":330,"Ġfor":331,"Ġtrain":332,"Ġis":333,"Ġg":334,"ar":335,"ld":336,"ould":337,"ont":338,"ed":339,"am":340,"ie":341,"Ġand":342,"bel":343,"Ġat":344,"ext":345,"action":346,"ief":347,"ontext":348,"context":349,"belief":350,"Ġ1":351,"th":352,"ke":353,"ave":354,"Ġwould":355,"es":356,"est":357,"Ġthat":358,"Ġli":359,"for":360,"day":361,"Ġlike":362,"Ġwi":363,"form":364,"Ġinform":365,"Ġsta":366,"Ġof":367,"Ġarea":368,"ll":369,"om":370,"ent":371,"Ġpri":372,"Ġne":373,"Ġcan":374,"Ġthere":375,"op":376,"Ġhave":377,"Ġwh":378,"Ġneed":379,"Ġdo":380,"um":381,"one":382,"dge":383,"Ġit":384,"Ġam":385,"ation":386,"ere":387,"Ġme":388,"Ġatt":389,"Ġch":390,"Ġattra":391,"Ġattraction":392,"Ġle":393,"al":394,"ridge":395,"amb":396,"Ġcamb":397,"art":398,"Ġcambridge":399,"uest":400,"ood":401,"Ġon":402,"endofaction":403,"endofcontext":404,"endofbelief":405,"Ġday":406,"Ġyes":407,"ame":408,"Ġcent":409,"Ġpe":410,"od":411,"pe":412,"Ġprice":413,"Ġar":414,"Ġbe":415,"ber":416,"Ġnum":417,"Ġnumber":418,"ople":419,"Ġpeople":420,"Ġcentre":421,"Ġlook":422,"si":423,"ase":424,"Ġple":425,"Ġplease":426,"ouse":427,"Ġ-":428,"Ġname":429,"Ġany":430,"Ġfood":431,"Ġstar":432,"Ġti":433,"ree":434,"Ġde":435,"Ġwhat":436,"Ġty":437,"ter":438,"Ġlooking":439,"Ġtype":440,"la":441,"Ġdep":442,"Ġta":443,"Ġdepart":444,"ea":445,"ure":446,"fere":447,"feren":448,"king":449,"Ġhel":450,"ur":451,"Ġarri":452,"Ġwith":453,"ch":454,"Ġ2":455,"Ġleave":456,"Ġnone":457,"wn":458,"Ġ4":459,"Ġguest":460,"Ġyour":461,"me":462,"Ġpar":463,"Ġhelp":464,"it":465,"ow":466,"Ġreq":467,"Ġtime":468,"ss":469,"ference":470,"Ġstay":471,"Ġtown":472,"Ġwill":473,"ate":474,"Ġarrive":475,"Ġmod":476,"Ġmoder":477,"thing":478,"Ġex":479,"gh":480,"ind":481,"ry":482,"lace":483,"Ġplace":484,"un":485,"Ġfree":486,"ble":487,"Ġbooking":488,"Ġmoderate":489,"Ġnot":490,"rom":491,"Ġfrom":492,"Ġparking":493,"Ġal":494,"Ġexp":495,"house":496,"ange":497,"cer":498,"Ġthan":499,"Ġlo":500,"eral":501,"Ġby":502,"Ġdest":503,"sive":504,"ensive":505,"Ġran":506,"Ġ.<|":507,"Ġguesthouse":508,"Ġel":509,"Ġrange":510,"Ġpricer":511,"Ġpricerange":512,"Ġexpensive":513,"so":514,"Ġthank":515,"Ġad":516,"hone":517,"Ġno":518,"Ġ0":519,"xi":520,"ome":521,"Ġphone":522,"Ġtaxi":523,"Ġnor":524,"Ġ3":525,"Ġalso":526,"is":527,"Ġpo":528,"as":529,"fer":530,"Ġdeparture":531,"ination":532,"Ġdestination":533,"Ġfind":534,"ts":535,"Ġadd":536,"Ġreference":537,"Ġgen":538,"Ġgeneral":539,"out":540,"Ġ!":541,"ut":542,"Ġst":543,"ir":544,"et":545,"Ġanything":546,"ine":547,"ro":548,"esday":549,"Ġelse":550,"Ġgo":551,"eap":552,"Ġcheap":553,"Ġnorth":554,"Ġpre":555,"Ġsou":556,"Ġab":557,"Ġor":558,"Ġrequest":559,"omm":560,"Ġni":561,"ant":562,"ore":563,"00":564,"Ġloc":565,"comm":566,"Ġpost":567,"Ġwant":568,"Ġabout":569,"Ġ5":570,"ly":571,"Ġo":572,"fi":573,"commend":574,"Ġrecommend":575,"Ġstars":576,"Ġhow":577,"Ġmu":578,"Ġsome":579,"ress":580,"Ġas":581,"de":582,"30":583,"Ġhouse":584,"ol":585,"Ġreser":586,"all":587,"ode":588,"ving":589,"tern":590,"15":591,"Ġintern":592,"nd":593,"ice":594,"45":595,"Ġnigh":596,"Ġe":597,"ting":598,"Ġpart":599,"Ġaddress":600,"ul":601,"Ġsh":602,"ver":603,"ian":604,"Ġge":605,"Ġinternet":606,"ee":607,"Ġall":608,"Ġea":609,"Ġgre":610,"Ġwest":611,"ell":612,"Ġget":613,"Ġpostc":614,"Ġpostcode":615,"ated":616,"Ġeast":617,"Ġj":618,"Ġok":619,"Ġlocated":620,"oth":621,"Ġgreat":622,"reet":623,"Ġ?<|":624,"ain":625,"Ġcould":626,"Ġsure":627,"Ġsouth":628,"23":629,"ic":630,"Ġsu":631,"Ġinformation":632,"Ġwe":633,"Ġmuse":634,"vation":635,"Ġmuseum":636,"are":637,"Ġreservation":638,"Ġtr":639,"Ġbut":640,"ity":641,"Ġk":642,"Ġaf":643,"Ġwas":644,"12":645,"ai":646,"Ġcol":647,"Ġnights":648,"Ġcolle":649,"Ġcollege":650,"Ġfri":651,"Ġtable":652,"Ġwifi":653,"Ġtry":654,"Ġtrav":655,"Ġent":656,"Ġsun":657,"Ġsunday":658,"Ġser":659,"vi":660,"ad":661,"Ġstreet":662,"Ġfriday":663,"Ġlea":664,"Ġcho":665,"ish":666,"ton":667,"Ġchoice":668,"Ġleaving":669,"Ġtheir":670,"Ġwed":671,"Ġdoes":672,"other":673,"Ġwedn":674,"ich":675,"sday":676,"Ġwednesday":677,"Ġthur":678,"Ġsat":679,"Ġthursday":680,"urday":681,"Ġsaturday":682,"Ġtravel":683,"Ġtu":684,"Ġpriced":685,"more":686,"Ġprefer":687,"ust":688,"Ġreqmore":689,"Ġtuesday":690,"Ġman":691,"Ġcity":692,"Ġ7":693,"Ġsor":694,"Ġ15":695,"Ġdi":696,"Ġfee":697,"At":698,"ĠleaveAt":699,"nds":700,"Ġif":701,"Ġwhere":702,"Ġshould":703,"Ġmon":704,"Ġmonday":705,"cke":706,"Ġticke":707,"Ġafter":708,"Ġsorry":709,"1223":710,"Ġthanks":711,"Ġ01223":712,"Ġmany":713,"Ġma":714,"Ġoffer":715,"Ġ8":716,"Ġjust":717,"Ġserve":718,"By":719,"ĠarriveBy":720,"Ġ6":721,"Ġav":722,"sted":723,"Ġcb":724,"Ġpreference":725,"Ġlon":726,"Ġr":727,"lu":728,"Ġhas":729,"ast":730,"Ġind":731,"Ġse":732,"ia":733,"ool":734,"Ġdont":735,"oom":736,"Ġun":737,"Ġokay":738,"Ġthey":739,"ally":740,"Ġgood":741,"Ġop":742,"tion":743,"care":744,"Ġdontcare":745,"Ġro":746,"Ġindian":747,"Ġking":748,"ort":749,"Ġ11":750,"ect":751,"Ġ17":752,"aila":753,"don":754,"ert":755,"Ġra":756,"ertain":757,"Ġhi":758,"ful":759,"Ġavaila":760,"Ġmat":761,"Ġgi":762,"Ġ13":763,"Ġ12":764,"Ġtoday":765,"Ġint":766,"our":767,"Ġsomething":768,"Ġthis":769,"inese":770,"Ġchinese":771,"cess":772,"Ġgive":773,"Ġavailable":774,"Ġbye":775,"sit":776,"Ġoption":777,"ak":778,"Ġbooked":779,"Ġleaves":780,"Ġwhich":781,"Ġmake":782,"ci":783,"book":784,"ccess":785,"Ġstarting":786,"Ġdeparting":787,"Ġ16":788,"Ġwor":789,"Ġkings":790,"rance":791,"Ġentrance":792,"Ġgoing":793,"Ġserves":794,"Ġdif":795,"Ġtrains":796,"ferent":797,"Ġdifferent":798,"Ġso":799,"Ġsi":800,"clu":801,"Ġroom":802,"ment":803,"Ġper":804,"Ġ14":805,"Ġbed":806,"Ġlondon":807,"Ġoptions":808,"Ġmore":809,"Ġu":810,"Ġintere":811,"ccessful":812,"Ġpark":813,"Ġmy":814,"and":815,"ular":816,"'ll":817,"Ġkn":818,"ough":819,"ck":820,"Ġtell":821,"Ġ10":822,"Ġknow":823,"Ġmay":824,"Ġital":825,"Ġitalian":826,"Ġofferbook":827,"Ġsounds":828,"Ġ18":829,"Ġroad":830,"Ġsame":831,"Ġvi":832,"Ġ19":833,"Ġanother":834,"Ġside":835,"ose":836,"Ġbre":837,"Ġbreak":838,"Ġpartic":839,"fast":840,"Ġparticular":841,"Ġsuccessful":842,"Ġbreakfast":843,"Ġref":844,"Ġcri":845,"Ġwork":846,"Ġcriter":847,"ely":848,"Ġcriteria":849,"ean":850,"Ġarrives":851,"Ġrating":852,"Ġac":853,"Ġticket":854,"Ġid":855,"Ġspe":856,"Ġspeci":857,"Ġmi":858,"Ġ012233":859,"ard":860,"led":861,"ming":862,"Ġaddr":863,"Ġcal":864,"Ġcalled":865,"Ġguesthouses":866,"Ġ:":867,"Ġinterested":868,"fic":869,"orn":870,"Ġmin":871,"Ġreserve":872,"Ġother":873,"Ġv":874,"Ġminut":875,"Ġspecific":876,"tish":877,"Ġwel":878,"Ġnight":879,"ound":880,"Ġwell":881,"Ġcertain":882,"come":883,"Ġwelcome":884,"ap":885,"Ġbri":886,"Ġbritish":887,"Ġ21":888,"Ġcenter":889,"Ġvisit":890,"Ġinclu":891,"Ġtickets":892,"Ġminutes":893,"Ġeur":894,"opean":895,"Ġeuropean":896,"Ġcu":897,"ne":898,"Ġstation":899,"ght":900,"Ġmind":901,"Ġthem":902,"Ġmatch":903,"Ġ20":904,"Ġho":905,"Ġri":906,"gge":907,"Ġsugge":908,"Ġattractions":909,"very":910,"Ġact":911,"Ġsuggest":912,"Ġbar":913,"lo":914,"ther":915,"Ġreally":916,"Ġpro":917,"Ġthose":918,"Ġacorn":919,"iz":920,"Ġlodge":921,"ounds":922,"Ġmuch":923,"Ġpool":924,"Ġarch":925,"Ġactu":926,"Ġeat":927,"Ġnew":928,"Ġarriving":929,"Ġsev":930,"us":931,"Ġfine":932,"Ġseveral":933,"act":934,"Ġinclude":935,"Ġ9":936,"Ġcar":937,"Ġactually":938,"port":939,"21":940,"age":941,"Ġsee":942,"rip":943,"oat":944,"Ġcuis":945,"ven":946,"Ġsp":947,"Ġpounds":948,"Ġtraveling":949,"Ġcont":950,"ford":951,"Ġhello":952,"ĠĠ":953,"pool":954,"Ġcuisine":955,"Ġassi":956,"Ġlet":957,"Ġmatter":958,"Ġofferbooked":959,"ster":960,"Ġfound":961,"Ġsel":962,"ue":963,"ross":964,"Ġely":965,"ham":966,"yn":967,"Ġfit":968,"Ġlocation":969,"Ġtheat":970,"ite":971,"Ġcon":972,"Ġgall":973,"Ġgaller":974,"Ġleice":975,"Ġleicester":976,"Ġlyn":977,"Ġselect":978,"able":979,"Ġcross":980,"Ġnoo":981,"ffer":982,"Ġnooffer":983,"Ġliver":984,"Ġliverpool":985,"Ġste":986,"Ġentertain":987,"Ġpl":988,"Ġwhen":989,"urch":990,"Ġdown":991,"Ġche":992,"ourne":993,"Ġentertainment":994,"Ġup":995,"Ġsain":996,"ost":997,"Ġnorw":998,"Ġnorwich":999,"Ġbro":1000,"Ġ09":1001,"bor":1002,"Ġlynn":1003,"Ġcontact":1004,"izz":1005,"Ġpeter":1006,"borough":1007,"Ġtake":1008,"Ġchurch":1009,"xb":1010,"Ġneeds":1011,"Ġpeterborough":1012,"Ġair":1013,"Ġairport":1014,"xbourne":1015,"Ġtrip":1016,"lton":1017,"ops":1018,"Ġbroxbourne":1019,"Ġbish":1020,"Ġtheatre":1021,"Ġbishops":1022,"son":1023,"Ġstan":1024,"Ġmeet":1025,"ick":1026,"11":1027,"Ġcheck":1028,"Ġprovi":1029,"Ġdine":1030,"Ġstansted":1031,"Ġbir":1032,"Ġnow":1033,"ortford":1034,"Ġstortford":1035,"Ġsteven":1036,"Ġstevenage":1037,"Ġq":1038,"mingham":1039,"Ġbirmingham":1040,"Ġboth":1041,"Ġpizz":1042,"Ġdid":1043,"Ġcare":1044,"sity":1045,"Ġtot":1046,"sian":1047,"Ġmar":1048,"row":1049,"Ġmuseums":1050,"Ġable":1051,"Ġprovide":1052,"Ġtotal":1053,"ma":1054,"Ġ08":1055,"Ġnice":1056,"Ġnar":1057,"Ġnarrow":1058,"Ġthin":1059,"Ġfe":1060,"Ġassist":1061,"wi":1062,"ning":1063,"Ġ!<|":1064,"ately":1065,"ple":1066,"Ġout":1067,"Ġpick":1068,"Ġthen":1069,"fort":1070,"og":1071,"ens":1072,"Ġcine":1073,"Ġunfort":1074,"Ġunfortun":1075,"Ġunfortunately":1076,"ti":1077,"stead":1078,"by":1079,"Ġcode":1080,"Ġreserved":1081,"Ġale":1082,"Ġinstead":1083,"Ġalex":1084,"ander":1085,"Ġchoo":1086,"Ġboat":1087,"val":1088,"Ġalexander":1089,"ead":1090,"Ġarrival":1091,"Ġstaying":1092,"Ġ07":1093,"Ġlong":1094,"Ġchoose":1095,"bp":1096,"Ġtoo":1097,"sp":1098,"arch":1099,"58":1100,"iver":1101,"Ġgallery":1102,"Ġsearch":1103,"tw":1104,"Ġuniver":1105,"Ġswi":1106,"itect":1107,"Ġplan":1108,"Ġarchitect":1109,"ms":1110,"Ġuniversity":1111,"Ġthink":1112,"ill":1113,"Ġfir":1114,"Ġcur":1115,"Ġgbp":1116,"vil":1117,"Ġcl":1118,"ville":1119,"Ġfirst":1120,"elf":1121,"Ġgard":1122,"Ġpay":1123,"Ġgon":1124,"24":1125,"app":1126,"Ġvery":1127,"17":1128,"Ġsaint":1129,"fo":1130,"Ġgonville":1131,"Ġcost":1132,"ital":1133,"tt":1134,"olog":1135,"Ġhosp":1136,"Ġhospital":1137,"07":1138,"ither":1139,"club":1140,"Ġhapp":1141,"Ġswim":1142,"rist":1143,"Ġnightclub":1144,"ando":1145,"Ġarchitecture":1146,"ssi":1147,"ley":1148,"ane":1149,"Ġash":1150,"Ġcom":1151,"Ġcurry":1152,"Ġashley":1153,"Ġeither":1154,"fect":1155,"Ġinfo":1156,"Ġswimming":1157,"side":1158,"Ġhin":1159,"der":1160,"nt":1161,"Ġthing":1162,"be":1163,"Ġpizza":1164,"Ġperfect":1165,"Ġkind":1166,"ui":1167,"Ġasian":1168,"Ġcolleges":1169,"Ġcher":1170,"Ġcherry":1171,"Ġmodern":1172,"ab":1173,"Ġhinton":1174,"rop":1175,"Ġfinding":1176,"50":1177,"bye":1178,"Ġgoodbye":1179,"Ġcinema":1180,"ies":1181,"Ġmilton":1182,"Ġperson":1183,"Ġplanning":1184,"Ġhun":1185,"66":1186,"arl":1187,"Ġonly":1188,"Ġnear":1189,"Ġdeparts":1190,"29":1191,"08":1192,"bur":1193,"ican":1194,"ott":1195,"Ġpayable":1196,"ttle":1197,"Ġarms":1198,"af":1199,"Ġhappy":1200,"ient":1201,"Ġevery":1202,"Ġneeded":1203,"bury":1204,"Ġpossi":1205,"ha":1206,"Ġfun":1207,"Ġcertainly":1208,"Ġ23":1209,"Ġap":1210,"Ġhead":1211,"uire":1212,"een":1213,"35":1214,"Ġfew":1215,"Ġus":1216,"Ġchrist":1217,"Ġgarden":1218,"Ġrequire":1219,"40":1220,"10":1221,"lub":1222,"Ġclub":1223,"Ġallen":1224,"Ġ05":1225,"Ġpreferences":1226,"Ġorient":1227,"Ġoriental":1228,"ina":1229,"Ġexpress":1230,"Ġqu":1231,"Ġla":1232,"Ġcou":1233,"Ġallenbel":1234,"Ġallenbell":1235,"ub":1236,"Ġbelf":1237,"Ġhunting":1238,"Ġbelfry":1239,"sa":1240,"Ġbetw":1241,"Ġbetween":1242,"88":1243,"Ġconf":1244,"erton":1245,"Ġinterest":1246,"Ġthough":1247,"wh":1248,"Ġclose":1249,"Ġchest":1250,"Ġwere":1251,"oodle":1252,"Ġseat":1253,"Ġnoodle":1254,"60":1255,"Ġgast":1256,"Ġwhi":1257,"Ġserving":1258,"Ġchesterton":1259,"Ġbeen":1260,"Ġcour":1261,"54":1262,"Ġlens":1263,"Ġhe":1264,"eld":1265,"ted":1266,"field":1267,"Ġlensfield":1268,"Ġgreet":1269,"52":1270,"Ġright":1271,"way":1272,"Ġhuntingdon":1273,"Ġspor":1274,"where":1275,"hap":1276,"Ġperhap":1277,"Ġperhaps":1278,"Ġcourse":1279,"kw":1280,"Ġsch":1281,"Ġshall":1282,"Ġhere":1283,"Ġreg":1284,"Ġsports":1285,"can":1286,"mi":1287,"Ġart":1288,"room":1289,"Ġpossible":1290,"Ġlot":1291,"Ġthese":1292,"01":1293,"Ġcount":1294,"Ġoh":1295,"27":1296,"Ġmaybe":1297,"Ġmarri":1298,"ropub":1299,"39":1300,"Ġgastropub":1301,"Ġset":1302,"Ġmatching":1303,"ami":1304,"fore":1305,"Ġbefore":1306,"ology":1307,"46":1308,"Ġits":1309,"av":1310,"Ġcityroom":1311,"Ġsomewhere":1312,"Ġlov":1313,"Ġrequirement":1314,"59":1315,"Ġres":1316,"Ġcla":1317,"Ġway":1318,"uck":1319,"Ġdays":1320,"Ġlat":1321,"Ġcityroomz":1322,"ist":1323,"Ġpol":1324,"Ġreservations":1325,"Ġchoices":1326,"20":1327,"ions":1328,"mm":1329,"Ġbridge":1330,"Ġmarriott":1331,"ca":1332,"arlie":1333,"Ġlist":1334,"Ġparkside":1335,"Ġwhile":1336,"miss":1337,"32":1338,"Ġresul":1339,"yle":1340,"Ġriver":1341,"lti":1342,"Ġhour":1343,"Ġlittle":1344,"Ġadmiss":1345,"19":1346,"Ġport":1347,"Ġmulti":1348,"Ġadmission":1349,"Ġcaf":1350,"Ġgold":1351,"Ġmultiple":1352,"ok":1353,"Ġhall":1354,"Ġgot":1355,"Ġgolden":1356,"Ġresults":1357,"Ġquite":1358,"jo":1359,"Ġtando":1360,"Ġrecommendation":1361,"Ġshad":1362,"Ġwon":1363,"Ġshadd":1364,"anish":1365,"Ġtandoor":1366,"41":1367,"Ġbist":1368,"43":1369,"Ġtur":1370,"Ġwonder":1371,"Ġbistro":1372,"Ġparty":1373,"Ġoffers":1374,"kish":1375,"Ġturkish":1376,"Ġsound":1377,"Ġconfir":1378,"Ġlane":1379,"ational":1380,"Ġlove":1381,"Ġconfirm":1382,"sol":1383,"oli":1384,"ep":1385,"Ġtandoori":1386,"Ġinternational":1387,"Ġ0122333":1388,"Ġbest":1389,"Ġlocal":1390,"ets":1391,"Ġpa":1392,"Ġabsol":1393,"Ġabsolut":1394,"right":1395,"Ġhop":1396,"Ġholi":1397,"Ġholiday":1398,"Ġmeets":1399,"Ġabsolutely":1400,"Ġalright":1401,"Ġcall":1402,"Ġag":1403,"Ġfav":1404,"Ġportu":1405,"oh":1406,"Ġcafe":1407,"bra":1408,"inity":1409,"Ġmed":1410,"Ġinn":1411,"fton":1412,"Ġfavor":1413,"Ġtrinity":1414,"Ġexc":1415,"Ġz":1416,"rough":1417,"Ġgra":1418,"16":1419,"Ġfur":1420,"Ġagain":1421,"Ġhut":1422,"Ġfurther":1423,"Ġmatches":1424,"bray":1425,"Ġpools":1426,"Ġafri":1427,"90":1428,"Ġshow":1429,"Ġafrican":1430,"not":1431,"Ġcannot":1432,"Ġrated":1433,"Ġfavorite":1434,"ever":1435,"Ġcoming":1436,"Ġhami":1437,"Ġnobook":1438,"Ġhamilton":1439,"ince":1440,"09":1441,"itch":1442,"red":1443,"Ġcor":1444,"Ġinto":1445,"Ġmight":1446,"Ġstill":1447,"Ġ0122335":1448,"Ġdepartment":1449,"Ġconcer":1450,"Ġtrying":1451,"umn":1452,"Ġregent":1453,"sh":1454,"Ġaut":1455,"Ġhill":1456,"Ġheading":1457,"qu":1458,"Ġayle":1459,"Ġfen":1460,"Ġwar":1461,"Ġfin":1462,"Ġautumn":1463,"Ġspanish":1464,"Ġpolice":1465,"Ġayles":1466,"bson":1467,"Ġhobson":1468,"ks":1469,"itton":1470,"Ġwarkw":1471,"br":1472,"orth":1473,"Ġworth":1474,"id":1475,"Ġmedi":1476,"ren":1477,"Ġwarkworth":1478,"Ġtravell":1479,"Ġthai":1480,"ess":1481,"Ġ22":1482,"Ġsaints":1483,"Ġim":1484,"49":1485,"ranean":1486,"terranean":1487,"Ġaval":1488,"Ġcountry":1489,"Ġmediterranean":1490,"Ġavalon":1491,"Ġamer":1492,"Ġpr":1493,"Ġchange":1494,"Ġaylesbray":1495,"Ġmade":1496,"Ġnoth":1497,"Ġfren":1498,"Ġfrench":1499,"Ġyea":1500,"Ġlisted":1501,"Ġba":1502,"yal":1503,"Ġnothing":1504,"48":1505,"Ġroyal":1506,"anese":1507,"Ġwanting":1508,"ari":1509,"ling":1510,"brook":1511,"Ġnando":1512,"Ġlater":1513,"fin":1514,"Ġhome":1515,"Ġdefin":1516,"Ġsend":1517,"itely":1518,"Ġask":1519,"Ġlovell":1520,"Ġdefinitely":1521,"ging":1522,"06":1523,"Ġback":1524,"Ġeverything":1525,"Ġyeah":1526,"Ġaround":1527,"Ġhobsons":1528,"tn":1529,"Ġen":1530,"Ġour":1531,"Ġsuggestions":1532,"nce":1533,"Ġgr":1534,"oor":1535,"Ġah":1536,"Ġhoping":1537,"ip":1538,"Ġ33":1539,"Ġschool":1540,"ull":1541,"Ġhigh":1542,"Ġunable":1543,"Ġco":1544,"Ġdes":1545,"Ġnandos":1546,"Ġer":1547,"stance":1548,"Ġshaddai":1549,"57":1550,"ket":1551,"Ġover":1552,"Ġproble":1553,"ches":1554,"Ġproblem":1555,"Ġrest":1556,"Ġopen":1557,"Ġfinches":1558,"Ġluck":1559,"Ġven":1560,"Ġbrough":1561,"Ġarbury":1562,"Ġbroughton":1563,"su":1564,"Ġwonderful":1565,"Ġvie":1566,"ers":1567,"36":1568,"Ġbra":1569,"51":1570,"Ġsal":1571,"Ġdin":1572,"Ġmost":1573,"amese":1574,"tnamese":1575,"Ġvietnamese":1576,"Ġassistance":1577,"brookes":1578,"Ġamerican":1579,"Ġadden":1580,"42":1581,"commod":1582,"Ġneeding":1583,"Ġpreferred":1584,"Ġyet":1585,"Ġbedou":1586,"Ġaccommod":1587,"Ġhills":1588,"gue":1589,"55":1590,"Ġprince":1591,"38":1592,"Ġapolog":1593,"Ġke":1594,"ably":1595,"fy":1596,"Ġlisting":1597,"Ġbedouin":1598,"Ġaddenbrookes":1599,"guese":1600,"Ġchan":1601,"Ġditton":1602,"Ġsuit":1603,"77":1604,"Ġportuguese":1605,"eria":1606,"Ġvin":1607,"exican":1608,"Ġfits":1609,"Ġvisi":1610,"Ġpizzeria":1611,"Ġmexican":1612,"Ġarchway":1613,"Ġinteresting":1614,"Ġnightclubs":1615,"Ġahead":1616,"Ġthings":1617,"Ġvisiting":1618,"Ġclare":1619,"Ġclosest":1620,"gd":1621,"Ġsai":1622,"80":1623,"Ġcast":1624,"Ġcastle":1625,"orean":1626,"Ġsc":1627,"esus":1628,"Ġjesus":1629,"Ġalp":1630,"ang":1631,"Ġparks":1632,"sser":1633,"Ġbrasser":1634,"Ġwa":1635,"Ġold":1636,"Ġgreen":1637,"Ġwok":1638,"oon":1639,"ellent":1640,"Ġseats":1641,"Ġexcellent":1642,"Ġalpha":1643,"Ġcomple":1644,"Ġunsu":1645,"orks":1646,"Ġartw":1647,"Ġbrasserie":1648,"Ġartworks":1649,"ff":1650,"time":1651,"Ġend":1652,"int":1653,"gin":1654,"ong":1655,"ition":1656,"Ġlooks":1657,"Ġsuch":1658,"Ġunsuccessful":1659,"il":1660,"Ġrice":1661,"ute":1662,"Ġstart":1663,"44":1664,"Ġbegin":1665,"Ġvenue":1666,"ale":1667,"Ġearlie":1668,"Ġearliest":1669,"Ġarcha":1670,"Ġ0122336":1671,"orter":1672,"Ġshorter":1673,"Ġcarol":1674,"18":1675,"Ġpreferably":1676,"Ġkitch":1677,"Ġcarolina":1678,"Ġkitchen":1679,"Ġandre":1680,"13":1681,"78":1682,"Ġtel":1683,"Ġandrew":1684,"25":1685,"Ġchop":1686,"Ġrosa":1687,"ah":1688,"Ġ06":1689,"ize":1690,"verton":1691,"Ġrooms":1692,"Ġdowning":1693,"ene":1694,"ier":1695,"Ġleverton":1696,"Ġali":1697,"Ġkorean":1698,"Ġlod":1699,"stal":1700,"Ġ24":1701,"Ġmagd":1702,"Ġtravelling":1703,"Ġbet":1704,"Ġpostal":1705,"Ġcharlie":1706,"Ġda":1707,"Ġcli":1708,"ephone":1709,"Ġtelephone":1710,"Ġclifton":1711,"Ġgoes":1712,"Ġapologize":1713,"Ġlodging":1714,"ds":1715,"alene":1716,"Ġmagdalene":1717,"28":1718,"self":1719,"Ġinclud":1720,"56":1721,"Ġ0122330":1722,"Ġcomm":1723,"ities":1724,"ail":1725,"Ġfitz":1726,"ello":1727,"ern":1728,"Ġjello":1729,"Ġhist":1730,"Ġmary":1731,"mas":1732,"Ġearl":1733,"Ġearlier":1734,"rect":1735,"Ġleis":1736,"Ġleisure":1737,"Ġpun":1738,"Ġrd":1739,"oup":1740,"Ġdojo":1741,"Ġgroup":1742,"mes":1743,"34":1744,"po":1745,"Ġaust":1746,"ady":1747,"Ġdesc":1748,"da":1749,"Ġvinci":1750,"Ġbyard":1751,"joy":1752,"Ġenjoy":1753,"Ġmyself":1754,"Ġspice":1755,"na":1756,"Ġkettle":1757,"ription":1758,"Ġschools":1759,"Ġdescription":1760,"za":1761,"Ġgu":1762,"edu":1763,"Ġmill":1764,"Ġrea":1765,"ura":1766,"boat":1767,"ner":1768,"ger":1769,"Ġten":1770,"Ġvue":1771,"hi":1772,"ohn":1773,"79":1774,"Ġtimes":1775,"Ġjohn":1776,"Ġcosts":1777,"ka":1778,"Ġones":1779,"Ġschedu":1780,"Ġsystem":1781,"Ġriverboat":1782,"org":1783,"ully":1784,"Ġreach":1785,"Ġoak":1786,"Ġgeorg":1787,"olk":1788,"Ġworks":1789,"Ġgeorgina":1790,"usion":1791,"em":1792,"mar":1793,"Ġheaded":1794,"Ġbit":1795,"Ġtyp":1796,"ky":1797,"Ġyip":1798,"iti":1799,"market":1800,"33":1801,"Ġ012234":1802,"Ġnewmarket":1803,"Ġyippe":1804,"Ġgalleries":1805,"Ġride":1806,"Ġgardens":1807,"inh":1808,"Ġbinh":1809,"ffiti":1810,"Ġyippee":1811,"Ġcommute":1812,"Ġthanh":1813,"Ġ#":1814,"Ġchurchill":1815,"Ġgraffiti":1816,"Ġpara":1817,"Ġdining":1818,"oats":1819,"use":1820,"Ġbetter":1821,"Ġcamboats":1822,"raid":1823,"Ġafraid":1824,"Ġsalsa":1825,"Ġpass":1826,"Ġnus":1827,"Ġtypes":1828,"ace":1829,"Ġenter":1830,"bil":1831,"fully":1832,"Ġdate":1833,"Ġsuccess":1834,"Ġwanted":1835,"Ġshowing":1836,"olia":1837,"sca":1838,"rala":1839,"Ġsite":1840,"Ġhak":1841,"atolia":1842,"Ġanatolia":1843,"Ġlots":1844,"ama":1845,"Ġnusha":1846,"pin":1847,"Ġhakka":1848,"Ġschedule":1849,"26":1850,"Ġbeginning":1851,"ward":1852,"Ġadc":1853,"Ġcat":1854,"kok":1855,"inoor":1856,"Ġkoh":1857,"Ġmiss":1858,"Ġkohinoor":1859,"Ġyu":1860,"ations":1861,"zz":1862,"Ġwhite":1863,"Ġug":1864,"Ġtenpin":1865,"dy":1866,"Ġ79":1867,"andle":1868,"ous":1869,"te":1870,"cy":1871,"Ġbang":1872,"Ġrun":1873,"Ġlocate":1874,"Ġnam":1875,"ory":1876,"Ġbl":1877,"Ġbangkok":1878,"ention":1879,"Ġunit":1880,"Ġnearby":1881,"itional":1882,"Ġhowever":1883,"Ġwait":1884,"Ġgrafton":1885,"Ġbot":1886,"anic":1887,"Ġlets":1888,"ails":1889,"Ġugly":1890,"Ġbotanic":1891,"pensive":1892,"Ġheard":1893,"man":1894,"ary":1895,"thall":1896,"Ġfunky":1897,"Ġconcerthall":1898,"Ġguess":1899,"banese":1900,"Ġnext":1901,"Ġlebanese":1902,"Ġyard":1903,"Ġapp":1904,"Ġholy":1905,"Ġchi":1906,"Ġmoon":1907,"Ġpop":1908,"Ġduck":1909,"Ġ0122390":1910,"Ġpicked":1911,"Ġduckling":1912,"ries":1913,"mer":1914,"Ġhmm":1915,"Ġpal":1916,"22":1917,"Ġwandle":1918,"Ġinex":1919,"Ġpopular":1920,"Ġquest":1921,"hal":1922,"Ġcounty":1923,"oy":1924,"Ġinexpensive":1925,"Ġlistings":1926,"Ġguests":1927,"Ġmeeting":1928,"Ġparade":1929,"Ġwandlebury":1930,"Ġbloom":1931,"70":1932,"Ġlovely":1933,"Ġraza":1934,"53":1935,"ny":1936,"Ġfi":1937,"vera":1938,"mavera":1939,"Ġcorrect":1940,"Ġblooms":1941,"ita":1942,"Ġmention":1943,"Ġprimavera":1944,"Ġjap":1945,"ges":1946,"gher":1947,"Ġmargher":1948,"Ġjapanese":1949,"Ġx":1950,"Ġtou":1951,"enty":1952,"Ġuse":1953,"Ġfees":1954,"Ġpalace":1955,"Ġbloomsbury":1956,"Ġtheatres":1957,"Ġmargherita":1958,"ud":1959,"Ġnirala":1960,"Ġconsi":1961,"Ġlucky":1962,"Ġ44":1963,"iam":1964,"Ġwhale":1965,"Ġmegh":1966,"Ġdet":1967,"Ġgalleria":1968,"oul":1969,"qq":1970,"ence":1971,"Ġsea":1972,"966":1973,"bb":1974,"Ġte":1975,"Ġball":1976,"Ġplenty":1977,"Ġgardenia":1978,"Ġtourist":1979,"Ġballare":1980,"aina":1981,"Ġseoul":1982,"bey":1983,"Ġeraina":1984,"Ġabbey":1985,"Ġspecification":1986,"Ġjohns":1987,"pus":1988,"vice":1989,"Ġriverside":1990,"Ġwee":1991,"Ġconfirmation":1992,"Ġimport":1993,"Ġrecommendations":1994,"bill":1995,"ron":1996,"Ġlast":1997,"Ġjin":1998,"Ġentries":1999,"bility":2000,"gon":2001,"Ġlu":2002,"irkw":2003,"Ġkirkw":2004,"Ġkirkwood":2005,"Ġhouses":2006,"Ġsuccessfully":2007,"Ġimportant":2008,"wor":2009,"Ġavailability":2010,"eology":2011,"arian":2012,"Ġmeghna":2013,"mo":2014,"pt":2015,"per":2016,"Ġjinling":2017,"Ġ154":2018,"Ġaw":2019,"Ġha":2020,"Ġrather":2021,"Ġmissing":2022,"food":2023,"Ġseafood":2024,"Ġtree":2025,"Ġstand":2026,"ito":2027,"Ġleast":2028,"Ġvar":2029,"billies":2030,"Ġcinewor":2031,"Ġdetails":2032,"Ġcineworld":2033,"Ġ40":2034,"Ġvarsity":2035,"Ġsoul":2036,"quito":2037,"Ġfitzbillies":2038,"Ġfolk":2039,"Ġwish":2040,"Ġservice":2041,"Ġ0122324":2042,"empo":2043,"Ġchiquito":2044,"Ġbus":2045,"zzo":2046,"Ġprezzo":2047,"Ġeven":2048,"Ġky":2049,"Ġweek":2050,"li":2051,"rary":2052,"Ġsock":2053,"emporary":2054,"Ġidea":2055,"Ġsometime":2056,"Ġsaigon":2057,"Ġsit":2058,"urger":2059,"Ġpoint":2060,"Ġ01223358":2061,"enny":2062,"arly":2063,"Ġappe":2064,"Ġarchaeology":2065,"Ġboating":2066,"kie":2067,"Ġcontemporary":2068,"Ġfran":2069,"mmoy":2070,"Ġkymmoy":2071,"reci":2072,"Ġbenny":2073,"Ġchristi":2074,"Ġcorpus":2075,"Ġfrankie":2076,"Ġexact":2077,"64":2078,"cing":2079,"Ġsay":2080,"Ġaccommodations":2081,"Ġtech":2082,"Ġwhe":2083,"Ġmorn":2084,"Ġmorning":2085,"Ġearly":2086,"Ġnamed":2087,"Ġrus":2088,"Ġappreci":2089,"Ġquestions":2090,"iv":2091,"str":2092,"Ġmust":2093,"Ġ01223358966":2094,"andhi":2095,"Ġwondering":2096,"Ġtasca":2097,"Ġadditional":2098,"89":2099,"Ġhed":2100,"Ġbarn":2101,"Ġtechn":2102,"Ġpeking":2103,"Ġexcit":2104,"rian":2105,"Ġgandhi":2106,"Ġhad":2107,"Ġarts":2108,"Ġhey":2109,"Ġdura":2110,"Ġplay":2111,"Ġshaddia":2112,"Ġduration":2113,"Ġanth":2114,"ropology":2115,"Ġhedges":2116,"Ġanthropology":2117,"Ġonce":2118,"Ġawes":2119,"Ġbennys":2120,"gese":2121,"mentum":2122,"Ġsteak":2123,"Ġawesome":2124,"Ġthinking":2125,"place":2126,"Ġbel":2127,"urf":2128,"Ġpunter":2129,"Ġothers":2130,"Ġalimentum":2131,"Ġappreciate":2132,"68":2133,"Ġve":2134,"Ġcompleted":2135,"Ġstandard":2136,"Ġseems":2137,"Ġtechnology":2138,"door":2139,"Ġastr":2140,"Ġportugese":2141,"Ġastrot":2142,"jg":2143,"Ġcorn":2144,"14":2145,"Ġ&":2146,"Ġtw":2147,"Ġgour":2148,"met":2149,"Ġastroturf":2150,"Ġgourmet":2151,"oment":2152,"Ġoff":2153,"Ġque":2154,"Ġsteakhouse":2155,"Ġamen":2156,"Ġsort":2157,"Ġaustrian":2158,"245":2159,"ope":2160,"Ġsid":2161,"Ġoutdoor":2162,"Ġmoment":2163,"abas":2164,"Ġbarnabas":2165,"Ġburger":2166,"lish":2167,"Ġfami":2168,"ote":2169,"Ġboats":2170,"Ġpitch":2171,"yne":2172,"Ġjun":2173,"get":2174,"Ġlear":2175,"Ġhold":2176,"Ġsaid":2177,"llage":2178,"ummer":2179,"Ġconcert":2180,"Ġexcited":2181,"76":2182,"Ġlime":2183,"Ġchurches":2184,"Ġnope":2185,"Ġbu":2186,"Ġready":2187,"Ġton":2188,"Ġwhatever":2189,"Ġsoon":2190,"Ġcote":2191,"Ġgetting":2192,"Ġmimo":2193,"Ġmimosa":2194,"Ġfyne":2195,"Ġsomeplace":2196,"Ġuno":2197,"Ġtravellers":2198,"Ġlimehouse":2199,"73":2200,"Ġ01223353":2201,"Ġluca":2202,"sse":2203,"Ġvillage":2204,"Ġaccommodate":2205,"Ġcome":2206,"izzi":2207,"Ġzizzi":2208,"Ġamenities":2209,"ight":2210,"Ġsaf":2211,"Ġchar":2212,"lot":2213,"Ġ51":2214,"Ġef":2215,"Ġgets":2216,"Ġjunction":2217,"Ġwat":2218,"Ġlan":2219,"Ġincluding":2220,"'ve":2221,"cina":2222,"fe":2223,"pri":2224,"ouble":2225,"Ġpricing":2226,"Ġloch":2227,"Ġcucina":2228,"Ġpassage":2229,"esian":2230,"Ġbab":2231,"com":2232,"sas":2233,"iness":2234,"Ġmum":2235,"Ġshop":2236,"Ġsuggestion":2237,"Ġmumford":2238,"Ġfusion":2239,"Ġbla":2240,"Ġtwo":2241,"Ġdar":2242,"Ġthats":2243,"Ġmentioned":2244,"Ġclo":2245,"Ġslot":2246,"Ġwithin":2247,"Ġhelpful":2248,"ping":2249,"cum":2250,"Ġbusiness":2251,"Ġtaj":2252,"ira":2253,"street":2254,"Ġ01":2255,"Ġbackstreet":2256,"ze":2257,"Ġforward":2258,"Ġ30":2259,"Ġrosas":2260,"Ġpan":2261,"Ġeach":2262,"Ġclassi":2263,"Ġcocum":2264,"bly":2265,"own":2266,"Ġanytime":2267,"cking":2268,"uel":2269,"Ġhappen":2270,"zion":2271,"Ġstazion":2272,"Ġneare":2273,"Ġ28":2274,"Ġmarket":2275,"Ġstazione":2276,"Ġnearest":2277,"anuel":2278,"Ġemm":2279,"Ġrout":2280,"Ġvari":2281,"Ġemmanuel":2282,"fron":2283,"Ġcott":2284,"Ġred":2285,"Ġsaffron":2286,"Ġefes":2287,"Ġdone":2288,"Ġincluded":2289,"Ġconsider":2290,"bu":2291,"pp":2292,"Ġcow":2293,"Ġhear":2294,"Ġblack":2295,"69":2296,"Ġyell":2297,"Ġwater":2298,"Ġyellow":2299,"888":2300,"cal":2301,"Ġ75":2302,"Ġdis":2303,"Ġjama":2304,"Ġvol":2305,"Ġseeing":2306,"71":2307,"Ġfar":2308,"uring":2309,"Ġlearner":2310,"Ġshira":2311,"Ġgrey":2312,"Ġshiraz":2313,"cience":2314,"Ġseem":2315,"Ġsala":2316,"63":2317,"Ġnecess":2318,"Ġstyle":2319,"Ġcotto":2320,"Ġwhether":2321,"84":2322,"Ġthong":2323,"Ġcop":2324,"Ġjamaican":2325,"Ġcopper":2326,"100":2327,"change":2328,"Ġexchange":2329,"Ġstop":2330,"Ġhistory":2331,"Ġroute":2332,"az":2333,"Ġdat":2334,"Ġspecifically":2335,"prise":2336,"Ġclassical":2337,"Ġfez":2338,"ogy":2339,"151":2340,"elogy":2341,"Ġ37":2342,"lue":2343,"Ġchecking":2344,"Ġarchaelogy":2345,"Ġtonight":2346,"Ġnumbers":2347,"Ġcomplete":2348,"Ġblue":2349,"Ġfriend":2350,"Ġduring":2351,"gen":2352,"jma":2353,"Ġpm":2354,"4646":2355,"Ġgrounds":2356,"Ġdinner":2357,"jmahal":2358,"'t":2359,"ral":2360,"Ġgla":2361,"Ġ88":2362,"Ġrajmahal":2363,"Ġandrews":2364,"Ġnecessary":2365,"Ġrec":2366,"ney":2367,"Ġusing":2368,"Ġsidney":2369,"ln":2370,"Ġsur":2371,"Ġ70":2372,"Ġmid":2373,"Ġpossibly":2374,"Ġscience":2375,"fee":2376,"Ġspecify":2377,"240":2378,"Ġfant":2379,"astic":2380,"cid":2381,"Ġmids":2382,"Ġdarry":2383,"Ġfantastic":2384,"Ġmidsummer":2385,"Ġcool":2386,"98":2387,"Ġhung":2388,"Ġlatest":2389,"Ġ01223245":2390,"cept":2391,"ques":2392,"Ġentry":2393,"000":2394,"Ġbaba":2395,"Ġcof":2396,"Ġminute":2397,"Ġcoffee":2398,"tu":2399,"Ġnewn":2400,"Ġnorthern":2401,"Ġnewnham":2402,"Ġtold":2403,"67":2404,"Ġanti":2405,"Ġgree":2406,"Ġantiques":2407,"99":2408,"'d":2409,"94":2410,"umping":2411,"Ġhighly":2412,"Ġ01223245151":2413,"Ġhope":2414,"Ġ01223446":2415,"Ġhon":2416,"Ġwine":2417,"Ġregard":2418,"Ġsitar":2419,"ive":2420,"Ġcook":2421,"Ġ49":2422,"Ġ98":2423,"Ġveget":2424,"Ġcookhouse":2425,"Ġvegetarian":2426,"con":2427,"Ġhiston":2428,"Ġfamily":2429,"Ġglad":2430,"149":2431,"Ġthrough":2432,"Ġcharge":2433,"'re":2434,"ready":2435,"Ġalready":2436,"ambar":2437,"Ġ47":2438,"Ġkambar":2439,"Ġoffering":2440,"Ġappear":2441,"Ġmal":2442,"Ġforg":2443,"Ġ56":2444,"Ġfitting":2445,"Ġevening":2446,"87":2447,"ps":2448,"Ġ29":2449,"Ġmalay":2450,"Ġvict":2451,"Ġtheater":2452,"Ġcold":2453,"que":2454,"Ġca":2455,"Ġrequests":2456,"Ġclari":2457,"Ġcinemas":2458,"pot":2459,"Ġwilliam":2460,"Ġmalaysian":2461,"Ġhotpot":2462,"lly":2463,"tty":2464,"ero":2465,"ical":2466,"bj":2467,"Ġwilliams":2468,"86":2469,"Ġmeze":2470,"Ġmo":2471,"Ġpretty":2472,"Ġ60":2473,"ror":2474,"erman":2475,"Ġcre":2476,"eng":2477,"Ġsle":2478,"Ġsince":2479,"Ġgerman":2480,"Ġreached":2481,"Ġsleep":2482,"Ġmone":2483,"Ġwilling":2484,"Ġcoldham":2485,"Ġmoney":2486,"65":2487,"oc":2488,"Ġarran":2489,"Ġ01223353888":2490,"Ġ38":2491,"Ġzero":2492,"Ġerror":2493,"Ġ50":2494,"Ġforgot":2495,"47":2496,"ety":2497,"Ġdanish":2498,"Ġdarrys":2499,"Ġunder":2500,"Ġwithout":2501,"ternoon":2502,"Ġafternoon":2503,"Ġconfusion":2504,"blish":2505,"stablish":2506,"Ġestablish":2507,"Ġpicky":2508,"pple":2509,"oria":2510,"Ġdouble":2511,"Ġreque":2512,"Ġ012235":2513,"Ġexactly":2514,"Ġvictoria":2515,"Ġrequested":2516,"Ġcase":2517,"Ġ087":2518,"Ġswimmingpool":2519,"37":2520,"Ġscud":2521,"ahar":2522,"Ġpanahar":2523,"Ġclarify":2524,"sj":2525,"Ġsw":2526,"Ġmood":2527,"amore":2528,"uti":2529,"Ġwhipple":2530,"Ġqueens":2531,"Ġ02":2532,"Ġestablishment":2533,"Ġscudamore":2534,"91":2535,"Ġpunting":2536,"Ġvariety":2537,"Ġ04":2538,"Ġshort":2539,"Ġbelie":2540,"Ġarrange":2541,"Ġfull":2542,"Ġsk":2543,"Ġ100":2544,"Ġbea":2545,"Ġstro":2546,"Ġ163":2547,"Ġfend":2548,"gam":2549,"ery":2550,"Ġpip":2551,"Ġdu":2552,"ered":2553,"asha":2554,"Ġrunning":2555,"Ġpipasha":2556,"ban":2557,"Ġbudge":2558,"Ġscudamores":2559,"mb":2560,"Ġaccess":2561,"dp":2562,"Ġcouple":2563,"Ġcuban":2564,"Ġspot":2565,"mw":2566,"Ġbudget":2567,"Ġcate":2568,"Ġwhy":2569,"Ġranging":2570,"Ġaccept":2571,"Ġactiv":2572,"Ġcomp":2573,"Ġwagam":2574,"utiful":2575,"Ġbeautiful":2576,"Ġfenditton":2577,"Ġcateg":2578,"ify":2579,"rent":2580,"Ġrose":2581,"Ġstrover":2582,"Ġsection":2583,"Ġspecial":2584,"Ġlynne":2585,"Ġarchitectura":2586,"Ġwagamama":2587,"72":2588,"Ġtang":2589,"Ġindia":2590,"vie":2591,"Ġtrumping":2592,"Ġtrumpington":2593,"Ġwhichever":2594,"Ġcurrent":2595,"Ġkeep":2596,"Ġsurprise":2597,"ative":2598,"Ġcant":2599,"Ġhonda":2600,"jah":2601,"ual":2602,"rajah":2603,"Ġmaha":2604,"Ġswiss":2605,"Ġmaharajah":2606,"Ġfa":2607,"Ġinde":2608,"Ġsecon":2609,"Ġbelieve":2610,"Ġsecond":2611,"74":2612,"Ġlex":2613,"Ġnever":2614,"Ġunti":2615,"Ġcause":2616,"Ġuntil":2617,"aq":2618,"Ġtes":2619,"Ġgreens":2620,"bs":2621,"Ġ01223446100":2622,"Ġregarding":2623,"Ġinj":2624,"Ġland":2625,"Ġdon":2626,"ctions":2627,"lliam":2628,"Ġ0122321":2629,"william":2630,"Ġsearching":2631,"Ġ012239021":2632,"Ġpic":2633,"Ġmean":2634,"Ġorder":2635,"Ġshee":2636,"Ġ0122357":2637,"Ġcatch":2638,"Ġlexus":2639,"Ġtesla":2640,"ws":2641,"Ġ52":2642,"Ġfitzwilliam":2643,"Ġcauseway":2644,"96":2645,"over":2646,"oda":2647,"Ġskoda":2648,"82":2649,"onesian":2650,"Ġgri":2651,"lug":2652,"Ġindonesian":2653,"Ġconcern":2654,"wa":2655,"yot":2656,"Ġhu":2657,"Ġmaking":2658,"Ġtoyot":2659,"Ġinterests":2660,"bbean":2661,"Ġtoyota":2662,"Ġrecommended":2663,"Ġrussian":2664,"Ġclown":2665,"Ġrecor":2666,"Ġko":2667,"Ġ105":2668,"Ġgrill":2669,"kin":2670,"ines":2671,"Ġses":2672,"Ġmor":2673,"Ġcrossover":2674,"Ġruskin":2675,"Ġarchitectural":2676,"Ġsesame":2677,"ured":2678,"Ġsupp":2679,"Ġhelping":2680,"4900":2681,"258":2682,"Ġ82":2683,"Ġupcom":2684,"Ġprovid":2685,"sher":2686,"Ġkosher":2687,"Ġupcoming":2688,"31":2689,"Ġslug":2690,"Ġlettu":2691,"Ġtakes":2692,"Ġdesi":2693,"Ġindeed":2694,"Ġpicking":2695,"Ġlettuce":2696,"Ġcari":2697,"Ġcaribbean":2698,"away":2699,"pm":2700,"sue":2701,"vo":2702,"Ġiri":2703,"ammas":2704,"Ġ35":2705,"Ġlodgings":2706,"Ġpas":2707,"Ġfact":2708,"Ġleng":2709,"Ġlength":2710,"Ġmeant":2711,"Ġdire":2712,"Ġhong":2713,"Ġbeing":2714,"Ġmahal":2715,"Ġgreek":2716,"ef":2717,"Ġunus":2718,"Ġchristmas":2719,"quale":2720,"Ġerit":2721,"Ġaustral":2722,"Ġchurchills":2723,"Ġclowns":2724,"Ġpasquale":2725,"Ġunusual":2726,"Ġaustralian":2727,"04":2728,"Ġhk":2729,"Ġford":2730,"Ġeastern":2731,"Ġunav":2732,"ailable":2733,"Ġaccid":2734,"Ġinjured":2735,"Ġrecords":2736,"Ġunavailable":2737,"Ġaccident":2738,"Ġum":2739,"Ġtran":2740,"Ġ32":2741,"Ġpersian":2742,"Ġconfirmed":2743,"Ġ01223334900":2744,"Ġcategory":2745,"Ġirish":2746,"Ġrel":2747,"Ġlammas":2748,"Ġhaving":2749,"Ġdri":2750,"Ġtakeaway":2751,"Ġmarys":2752,"14960":2753,"Ġcurrently":2754,"gl":2755,"Ġbmw":2756,"Ġsri":2757,"Ġmich":2758,"unch":2759,"Ġ03":2760,"Ġlank":2761,"up":2762,"pect":2763,"Ġspend":2764,"ile":2765,"Ġver":2766,"Ġexhi":2767,"Ġexhib":2768,"Ġfan":2769,"etian":2770,"Ġ01223312":2771,"Ġvenetian":2772,"Ġ01223902":2773,"ax":2774,"lf":2775,"Ġgir":2776,"Ġcatal":2777,"angh":2778,"Ġshangh":2779,"Ġ01223314960":2780,"Ġ202":2781,"Ġthought":2782,"Ġpolish":2783,"Ġrestate":2784,"Ġshanghai":2785,"02":2786,"623":2787,"Ġapologies":2788,"Ġsuppose":2789,"Ġmicha":2790,"ft":2791,"Ġcab":2792,"Ġrevie":2793,"Ġaddre":2794,"Ġpolar":2795,"Ġscott":2796,"Ġdirections":2797,"05":2798,"62":2799,"ount":2800,"Ġlankan":2801,"its":2802,"lber":2803,"ating":2804,"Ġ0122345":2805,"Ġgilber":2806,"Ġ01223366":2807,"Ġsleeper":2808,"Ġmichael":2809,"Ġgilbert":2810,"93":2811,"lh":2812,"rh":2813,"Ġhungarian":2814,"Ġcatalan":2815,"Ġsleeperz":2816,"75":2817,"scan":2818,"ottish":2819,"lexi":2820,"Ġtuscan":2821,"ways":2822,"Ġscottish":2823,"lexible":2824,"dq":2825,"Ġ01223323":2826,"Ġaud":2827,"Ġissue":2828,"Ġappears":2829,"Ġverify":2830,"Ġaudi":2831,"Ġter":2832,"Ġdepend":2833,"Ġtaking":2834,"Ġ74":2835,"sses":2836,"occan":2837,"Ġmoroccan":2838,"92":2839,"Ġpound":2840,"kswa":2841,"Ġvolkswa":2842,"Ġreviews":2843,"Ġcai":2844,"Ġ012233323":2845,"Ġacceptable":2846,"Ġcaius":2847,"rean":2848,"Ġflexible":2849,"edish":2850,"Ġamount":2851,"Ġchose":2852,"Ġtheaters":2853,"Ġswedish":2854,"js":2855,"Ġcorsi":2856,"2587":2857,"Ġgirton":2858,"Ġ01223452587":2859,"eg":2860,"Ġcr":2861,"Ġsusse":2862,"Ġlatin":2863,"Ġeritrean":2864,"Ġsussex":2865,"folk":2866,"ua":2867,"Ġnorfolk":2868,"roke":2869,"Ġvolkswagen":2870,"Ġaddresses":2871,"Ġpurch":2872,"Ġ019":2873,"Ġ01223350":2874,"Ġpurchase":2875,"Ġafford":2876,"Ġupsca":2877,"Ġupscale":2878,"cent":2879,"onese":2880,"Ġpemb":2881,"Ġpress":2882,"Ġ133":2883,"Ġeating":2884,"Ġdates":2885,"Ġcantonese":2886,"Ġdesired":2887,"Ġpembroke":2888,"enue":2889,"Ġheld":2890,"Ġavenue":2891,"Ġrobb":2892,"Ġrobbed":2893,"most":2894,"Ġet":2895,"Ġsing":2896,"Ġalmost":2897,"Ġbarbe":2898,"03":2899,"Ġbeca":2900,"Ġtables":2901,"357":2902,"Ġ01223304":2903,"Ġ01954":2904,"Ġbecause":2905,"dw":2906,"rame":2907,"ried":2908,"Ġalways":2909,"Ġqual":2910,"97":2911,"gx":2912,"rs":2913,"Ġstations":2914,"Ġcath":2915,"Ġhaven":2916,"fl":2917,"gw":2918,"tz":2919,"Ġcra":2920,"Ġbill":2921,"Ġmista":2922,"Ġenough":2923,"85":2924,"my":2925,"Ġhal":2926,"Ġchecked":2927,"Ġ01223355":2928,"Ġexhibition":2929,"ig":2930,"enger":2931,"Ġfall":2932,"orey":2933,"124":2934,"Ġ012234646":2935,"Ġpassenger":2936,"Ġvolvo":2937,"Ġportra":2938,"Ġjub":2939,"Ġameric":2940,"ilee":2941,"Ġjubilee":2942,"bd":2943,"ious":2944,"Ġadress":2945,"Ġtrainid":2946,"Ġstorey":2947,"hill":2948,"ghes":2949,"Ġ53":2950,"Ġhuntington":2951,"Ġshorten":2952,"Ġtrans":2953,"Ġcorsica":2954,"Ġcathar":2955,"lyn":2956,"Ġ01223324":2957,"Ġportraits":2958,"dz":2959,"Ġlate":2960,"Ġmer":2961,"ghan":2962,"Ġafghan":2963,"5725":2964,"Ġappeal":2965,"Ġcrui":2966,"Ġamericas":2967,"hx":2968,"sw":2969,"Ġwestside":2970,"Ġparticularly":2971,"Ġsheep":2972,"Ġmichaelhouse":2973,"Ġtransport":2974,"Ġ0122350":2975,"Ġcreative":2976,"Ġhughes":2977,"Ġnarrows":2978,"600":2979,"jb":2980,"Ġ31":2981,"Ġdirect":2982,"Ġrow":2983,"Ġ01223311":2984,"Ġconfuse":2985,"Ġcaffe":2986,"Ġprint":2987,"Ġcraving":2988,"kn":2989,"qf":2990,"Ġput":2991,"Ġfare":2992,"Ġamaz":2993,"Ġ517":2994,"abase":2995,"Ġdatabase":2996,"Ġamazing":2997,"Ġemer":2998,"Ġ0122327":2999,"353":3000,"4200":3001,"Ġqueen":3002,"gency":3003,"Ġemergency":3004,"95":3005,"Ġbate":3006,"Ġgran":3007,"Ġpolyn":3008,"158":3009,"Ġscand":3010,"Ġmercer":3011,"Ġbateman":3012,"Ġpolynesian":3013,"bw":3014,"Ġext":3015,"Ġ012238":3016,"Ġ69":3017,"Ġfeel":3018,"Ġetc":3019,"dle":3020,"Ġwow":3021,"Ġreas":3022,"Ġless":3023,"Ġpersonally":3024,"Ġquery":3025,"ively":3026,"83":3027,"eri":3028,"Ġframe":3029,"Ġbase":3030,"Ġexpect":3031,"Ġstick":3032,"Ġasked":3033,"Ġchance":3034,"Ġreason":3035,"ru":3036,"vian":3037,"stand":3038,"inavian":3039,"Ġeng":3040,"Ġscandinavian":3041,"Ġmercers":3042,"town":3043,"sers":3044,"amp":3045,"Ġobj":3046,"Ġdowntown":3047,"Ġbroad":3048,"Ġcruisers":3049,"Ġobject":3050,"sr":3051,"Ġsuitable":3052,"Ġactivity":3053,"Ġfancy":3054,"Ġattend":3055,"Ġalong":3056,"279":3057,"Ġkettles":3058,"cc":3059,"ditional":3060,"Ġtraditional":3061,"Ġjo":3062,"Ġnews":3063,"Ġopening":3064,"Ġenglish":3065,"ae":3066,"ag":3067,"Ġarca":3068,"Ġalone":3069,"Ġaltern":3070,"Ġexperi":3071,"Ġcheapest":3072,"Ġhalls":3073,"Ġ012233348":3074,"Ġbelg":3075,"Ġarcade":3076,"cular":3077,"pj":3078,"qy":3079,"Ġ64":3080,"Ġconcerned":3081,"Ġbased":3082,"223":3083,"dered":3084,"im":3085,"Ġlunch":3086,"Ġwhitehill":3087,"Ġhalal":3088,"Ġtransportation":3089,"ix":3090,"xh":3091,"Ġmis":3092,"Ġ078":3093,"Ġ01223566":3094,"Ġbroaden":3095,"Ġactual":3096,"Ġnames":3097,"Ġconsidered":3098,"Ġideas":3099,"611":3100,"uf":3101,"wy":3102,"Ġill":3103,"ency":3104,"Ġwife":3105,"Ġcambourne":3106,"odes":3107,"Ġcloser":3108,"Ġ01223464646":3109,"Ġbelgian":3110,"0353":3111,"ken":3112,"Ġever":3113,"741":3114,"gn":3115,"Ġmut":3116,"Ġneither":3117,"Ġ012233279":3118,"jx":3119,"nf":3120,"ty":3121,"Ġret":3122,"omy":3123,"Ġ0122352":3124,"Ġ63":3125,"Ġ68":3126,"Ġconven":3127,"Ġ01223525725":3128,"hy":3129,"os":3130,"zy":3131,"ature":3132,"Ġlow":3133,"Ġ5357":3134,"Ġspecifics":3135,"Ġaffordable":3136,"vol":3137,"Ġtour":3138,"Ġdeal":3139,"880":3140,"Ġmiddle":3141,"Ġ01223210353":3142,"Ġmistake":3143,"Ġgrande":3144,"ey":3145,"kv":3146,"Ġreme":3147,"Ġpricey":3148,"Ġdepartures":3149,"Ġsomeone":3150,"12240":3151,"Ġwelsh":3152,"660":3153,"Ġbites":3154,"Ġ08712240":3155,"Ġ08712240240":3156,"Ġbo":3157,"Ġcomes":3158,"Ġpossibil":3159,"liple":3160,"Ġconfused":3161,"Ġmutliple":3162,"Ġpossibilities":3163,"gbp":3164,"Ġ076":3165,"Ġquick":3166,"gy":3167,"Ġmain":3168,"Ġ152":3169,"Ġ191":3170,"Ġ01223300":3171,"Ġ012234741":3172,"Ġ01223474144":3173,"lecular":3174,"Ġwide":3175,"088":3176,"Ġgastron":3177,"2091":3178,"Ġ01223902091":3179,"705":3180,"Ġfig":3181,"Ġmolecular":3182,"Ġgastronomy":3183,"vent":3184,"zc":3185,"Ġbas":3186,"Ġec":3187,"668":3188,"Ġservices":3189,"jf":3190,"pq":3191,"tl":3192,"ance":3193,"Ġlight":3194,"Ġwho":3195,"Ġdoing":3196,"236":3197,"Ġ151":3198,"Ġideally":3199,"Ġsingap":3200,"Ġbasque":3201,"pa":3202,"Ġ01223335":3203,"4050":3204,"Ġbarbeque":3205,"566":3206,"cr":3207,"jy":3208,"sx":3209,"vd":3210,"Ġpleas":3211,"Ġ106":3212,"Ġunderstand":3213,"Ġroseford":3214,"uarant":3215,"Ġquality":3216,"sing":3217,"Ġstaring":3218,"Ġsouthern":3219,"Ġtrouble":3220,"Ġ0122351":3221,"Ġoper":3222,"Ġdisp":3223,"Ġthroughout":3224,"Ġide":3225,"raun":3226,"154":3227,"Ġ01223354":3228,"085":3229,"397":3230,"Ġhungry":3231,"Ġ01223334860":3232,"Ġsingaporean":3233,"Ġideal":3234,"Ġass":3235,"Ġbr":3236,"Ġinvol":3237,"Ġsir":3238,"Ġanymore":3239,"chel":3240,"Ġpostcodes":3241,"Ġplough":3242,"Ġchanged":3243,"erschel":3244,"Ġ01223307":3245,"Ġdispute":3246,"112":3247,"px":3248,"rd":3249,"uy":3250,"Ġbad":3251,"Ġ01223304050":3252,"Ġsites":3253,"Ġdisc":3254,"Ġconvenient":3255,"bg":3256,"Ġrom":3257,"Ġangl":3258,"Ġwouldn":3259,"1550":3260,"Ġanglia":3261,"nz":3262,"rt":3263,"Ġ41":3264,"lar":3265,"oll":3266,"pd":3267,"eler":3268,"Ġdue":3269,"Ġsqu":3270,"fied":3271,"Ġsimi":3272,"Ġwheeler":3273,"Ġ0871550":3274,"Ġ01223332320":3275,"Ġsimilar":3276,"Ġ087155010":3277,"bt":3278,"bably":3279,"ej":3280,"fish":3281,"hg":3282,"pb":3283,"Ġes":3284,"ors":3285,"Ġexpl":3286,"Ġkingfish":3287,"Ġ124":3288,"Ġprobably":3289,"Ġ077":3290,"Ġkinds":3291,"Ġgastropubs":3292,"Ġkingfisher":3293,"ample":3294,"ters":3295,"Ġparts":3296,"Ġjourne":3297,"Ġsuper":3298,"Ġkid":3299,"Ġ079":3300,"265":3301,"liar":3302,"Ġfamiliar":3303,"Ġ01223902088":3304,"Ġjourney":3305,"je":3306,"rq":3307,"Ġwr":3308,"Ġyo":3309,"anian":3310,"lect":3311,"Ġnorman":3312,"Ġ1517":3313,"cil":3314,"Ġperi":3315,"Ġhinch":3316,"Ġschedules":3317,"Ġbuy":3318,"Ġfriends":3319,"Ġdriver":3320,"Ġromanian":3321,"asian":3322,"ew":3323,"qa":3324,"sy":3325,"inbrook":3326,"Ġherschel":3327,"Ġpull":3328,"Ġcentra":3329,"Ġpersonal":3330,"Ġfacil":3331,"Ġ01223304705":3332,"Ġhinchinbrook":3333,"718":3334,"ding":3335,"lj":3336,"Ġmow":3337,"Ġfoods":3338,"Ġaccommodation":3339,"7708":3340,"Ġ01223902168":3341,"Ġ01223366611":3342,"Ġeclect":3343,"Ġmowbray":3344,"Ġeclectic":3345,"nl":3346,"Ġest":3347,"Ġye":3348,"atively":3349,"Ġ012234200":3350,"Ġworking":3351,"087":3352,"Ġ404":3353,"6233":3354,"Ġ01223420060":3355,"uw":3356,"Ġneur":3357,"Ġ2124":3358,"Ġhowdy":3359,"Ġworld":3360,"270":3361,"Ġ01223336233":3362,"906":3363,"Ġpanasian":3364,"Ġ01223902112":3365,"Ġ01223312112":3366,"427":3367,"Ġnah":3368,"Ġresp":3369,"Ġ36":3370,"159":3371,"vious":3372,"Ġmarriot":3373,"wards":3374,"Ġweekend":3375,"Ġcoldhams":3376,"Ġfigure":3377,"Ġ08715501010":3378,"81":3379,"qb":3380,"xa":3381,"rat":3382,"Ġprop":3383,"ath":3384,"Ġexample":3385,"Ġnarrowed":3386,"Ġplans":3387,"hu":3388,"Ġdecid":3389,"Ġ57":3390,"Ġ80":3391,"Ġ01223352":3392,"Ġ96":3393,"Ġfeature":3394,"Ġcalling":3395,"Ġactivities":3396,"Ġprovides":3397,"Ġrelatively":3398,"Ġ01223300085":3399,"ht":3400,"Ġwent":3401,"meters":3402,"Ġnorthamp":3403,"Ġasking":3404,"Ġ156":3405,"Ġworry":3406,"Ġcuisines":3407,"Ġhourly":3408,"Ġ01223357708":3409,"428":3410,"Ġ01223355397":3411,"known":3412,"Ġextra":3413,"Ġnorthampton":3414,"ac":3415,"tings":3416,"Ġregency":3417,"Ġgreetings":3418,"code":3419,"fd":3420,"gm":3421,"jv":3422,"lx":3423,"Ġtal":3424,"Ġthir":3425,"Ġdrop":3426,"ranta":3427,"Ġgranta":3428,"Ġ34":3429,"Ġ01223315":3430,"210":3431,"Ġsele":3432,"Ġze":3433,"Ġ01223902158":3434,"aw":3435,"db":3436,"kc":3437,"nk":3438,"qc":3439,"Ġcle":3440,"sed":3441,"Ġcanc":3442,"Ġ42":3443,"Ġ451":3444,"vers":3445,"aid":3446,"Ġ710":3447,"Ġ83":3448,"Ġ62":3449,"Ġgiven":3450,"Ġkindly":3451,"1018":3452,"781018":3453,"6412":3454,"Ġfair":3455,"Ġ01954781018":3456,"Ġcentrally":3457,"tq":3458,"ces":3459,"aland":3460,"402":3461,"Ġrelated":3462,"Ġ012238668":3463,"Ġpleasure":3464,"Ġwrong":3465,"Ġzealand":3466,"Ġ01223866800":3467,"61":3468,"914":3469,"fn":3470,"mber":3471,"scent":3472,"zk":3473,"Ġbart":3474,"Ġdel":3475,"eshouse":3476,"Ġmeal":3477,"Ġanyway":3478,"Ġ110":3479,"Ġviking":3480,"Ġrestuarant":3481,"Ġgueshouse":3482,"Ġquestion":3483,"Ġcrescent":3484,"Ġ01223576412":3485,"Ġyear":3486,"Ġcancel":3487,"Ġbarton":3488,"ph":3489,"Ġed":3490,"Ġwan":3491,"Ġfails":3492,"Ġlion":3493,"Ġansw":3494,"Ġform":3495,"Ġstarts":3496,"fered":3497,"Ġem":3498,"Ġacross":3499,"3516":3500,"Ġ01223333516":3501,"Ġremember":3502,"info":3503,"star":3504,"Ġforget":3505,"Ġtowninfo":3506,"Ġ0087":3507,"Ġ39":3508,"153":3509,"Ġ012237":3510,"08000":3511,"Ġenterprise":3512,"2208000":3513,"Ġcatharine":3514,"Ġsquare":3515,"Ġ00872208000":3516,"lver":3517,"uj":3518,"owing":3519,"ison":3520,"Ġfinders":3521,"Ġprevious":3522,"Ġring":3523,"Ġsilver":3524,"Ġuh":3525,"Ġtenison":3526,"702":3527,"Ġ40428":3528,"Ġcorner":3529,"Ġexplore":3530,"388":3531,"vh":3532,"vy":3533,"Ġtried":3534,"Ġhm":3535,"Ġreal":3536,"Ġdoz":3537,"Ġelsewhere":3538,"Ġown":3539,"Ġworked":3540,"Ġaccom":3541,"Ġperfectly":3542,"Ġsidgw":3543,"Ġcompan":3544,"Ġ01223307402":3545,"gg":3546,"mf":3547,"Ġpaid":3548,"less":3549,"4519":3550,"Ġevent":3551,"Ġ0122329":3552,"Ġ66":3553,"Ġresturant":3554,"Ġaustrala":3555,"Ġattending":3556,"Ġaustralasian":3557,"bq":3558,"tle":3559,"Ġtre":3560,"edi":3561,"Ġpeas":3562,"Ġknown":3563,"Ġ084519":3564,"62320":3565,"Ġ08451962320":3566,"jz":3567,"elix":3568,"Ġwal":3569,"Ġfelix":3570,"Ġgave":3571,"icine":3572,"Ġsuf":3573,"Ġ71":3574,"Ġunknown":3575,"Ġrate":3576,"ments":3577,"194":3578,"Ġmedicine":3579,"Ġ012233550":3580,"782":3581,"Ġmillers":3582,"Ġwhitehouse":3583,"Ġlux":3584,"Ġ01223350914":3585,"ather":3586,"511":3587,"6265":3588,"bz":3589,"eh":3590,"lm":3591,"ni":3592,"elber":3593,"Ġpub":3594,"Ġmet":3595,"sic":3596,"Ġtaken":3597,"Ġchoosing":3598,"Ġheid":3599,"Ġ01223336265":3600,"Ġ0122336566":3601,"Ġexpecting":3602,"raunt":3603,"Ġperiod":3604,"Ġedward":3605,"elberg":3606,"Ġheidelberg":3607,"Ġ01223365664":3608,"hc":3609,"sure":3610,"ux":3611,"race":3612,"Ġrefer":3613,"Ġpreferable":3614,"Ġunsure":3615,"Ġworried":3616,"170":3617,"296":3618,"4600":3619,"Ġ012233377":3620,"Ġmedical":3621,"382":3622,"Ġhistor":3623,"Ġexperience":3624,"Ġassum":3625,"Ġrespon":3626,"Ġsidgwick":3627,"Ġsuffi":3628,"Ġ01223337766":3629,"though":3630,"Ġcanap":3631,"Ġalthough":3632,"Ġnoon":3633,"icious":3634,"Ġindust":3635,"Ġgiving":3636,"Ġoptional":3637,"202":3638,"Ġprovided":3639,"Ġdelicious":3640,"Ġcanapes":3641,"jm":3642,"rx":3643,"Ġoo":3644,"Ġbummer":3645,"Ġcambri":3646,"Ġdoesnt":3647,"Ġ144":3648,"Ġconcerthalls":3649,"Ġchild":3650,"5314":3651,"737":3652,"Ġestablishments":3653,"Ġ01223575314":3654,"257":3655,"fs":3656,"rf":3657,"sd":3658,"sv":3659,"Ġinq":3660,"Ġgather":3661,"Ġcentral":3662,"Ġ0122346":3663,"Ġfinish":3664,"222":3665,"Ġsheeps":3666,"Ġ01223323737":3667,"Ġcompany":3668,"500":3669,"bi":3670,"band":3671,"do":3672,"hl":3673,"hn":3674,"oi":3675,"xs":3676,"Ġhus":3677,"Ġcro":3678,"ites":3679,"Ġexist":3680,"Ġreserving":3681,"Ġ7880":3682,"Ġ138":3683,"Ġgives":3684,"Ġspecified":3685,"Ġspace":3686,"299":3687,"Ġappo":3688,"3830":3689,"Ġvarious":3690,"Ġalternative":3691,"Ġestate":3692,"Ġselection":3693,"Ġindustri":3694,"Ġhusband":3695,"Ġappoint":3696,"bal":3697,"gq":3698,"km":3699,"nj":3700,"nx":3701,"vc":3702,"vm":3703,"ww":3704,"Ġlie":3705,"Ġtop":3706,"Ġglo":3707,"ury":3708,"Ġcolville":3709,"Ġ205":3710,"Ġ074":3711,"Ġcourt":3712,"Ġhopefully":3713,"Ġarrangements":3714,"Ġterrace":3715,"Ġ01223566388":3716,"Ġfeatures":3717,"Ġglobal":3718,"ial":3719,"lq":3720,"vv":3721,"xy":3722,"zil":3723,"Ġfoll":3724,"peci":3725,"Ġpeoples":3726,"Ġwhats":3727,"Ġ200":3728,"Ġbookings":3729,"Ġaddition":3730,"Ġwestern":3731,"Ġtrips":3732,"Ġbrazil":3733,"Ġ01223332360":3734,"Ġespeci":3735,"Ġbrazilian":3736,"Ġespecially":3737,"688":3738,"jj":3739,"Ġhom":3740,"Ġpast":3741,"Ġ365":3742,"Ġ108":3743,"248":3744,"Ġparameters":3745,"Ġ01223324600":3746,"Ġ01223327908":3747,"Ġappointment":3748,"Ġhomerton":3749,"188":3750,"410":3751,"lic":3752,"pk":3753,"qe":3754,"sq":3755,"ret":3756,"Ġhand":3757,"Ġpla":3758,"Ġlocating":3759,"Ġperne":3760,"Ġseeking":3761,"596":3762,"Ġhmmm":3763,"714600":3764,"Ġ01954714600":3765,"Ġreasonable":3766,"bn":3767,"Ġow":3768,"Ġfr":3769,"atology":3770,"edbur":3771,"Ġexpand":3772,"Ġ328":3773,"Ġjedbur":3774,"Ġ89":3775,"Ġ99":3776,"1707":3777,"9448":3778,"Ġdepending":3779,"Ġ01223350688":3780,"Ġinvolve":3781,"Ġpublic":3782,"oin":3783,"qg":3784,"ta":3785,"vt":3786,"ye":3787,"Ġsm":3788,"Ġstated":3789,"233":3790,"238":3791,"Ġcontacting":3792,"Ġ01223351707":3793,"Ġscheduled":3794,"Ġappro":3795,"Ġ40210":3796,"Ġ01223243830":3797,"Ġ01223355159":3798,"224":3799,"gog":3800,"jc":3801,"Ġtea":3802,"Ġthorn":3803,"ars":3804,"Ġ017":3805,"booking":3806,"Ġvary":3807,"111":3808,"Ġ070":3809,"104":3810,"4222":3811,"387":3812,"786":3813,"0446":3814,"Ġterri":3815,"Ġcatharines":3816,"Ġjedburgh":3817,"Ġthornton":3818,"843":3819,"aa":3820,"igh":3821,"rl":3822,"tb":3823,"xd":3824,"zl":3825,"Ġod":3826,"raham":3827,"Ġgog":3828,"Ġabo":3829,"Ġ54":3830,"Ġmagog":3831,"Ġsight":3832,"Ġ01223359":3833,"Ġclubs":3834,"Ġsettle":3835,"Ġ01223338":3836,"Ġ01223356":3837,"Ġbabraham":3838,"Ġspots":3839,"Ġ01223324222":3840,"Ġ01223354382":3841,"Ġindustrial":3842,"dt":3843,"wd":3844,"Ġaway":3845,"Ġexcept":3846,"Ġ012232":3847,"Ġ1416":3848,"5015":3849,"Ġhaem":3850,"Ġ40270":3851,"Ġcharges":3852,"Ġdisapp":3853,"Ġ01223304906":3854,"Ġtalk":3855,"Ġresponse":3856,"521":3857,"bf":3858,"bl":3859,"mn":3860,"oe":3861,"rg":3862,"rk":3863,"Ġhur":3864,"rious":3865,"1511":3866,"Ġeatery":3867,"otten":3868,"8842":3869,"494":3870,"361":3871,"Ġ01223446104":3872,"Ġ012235033":3873,"Ġ01223335511":3874,"cu":3875,"ih":3876,"kf":3877,"oz":3878,"teen":3879,"vf":3880,"vl":3881,"vn":3882,"stra":3883,"Ġdeci":3884,"ghts":3885,"Ġ529":3886,"Ġeastside":3887,"Ġ01223364222":3888,"Ġswimmingpools":3889,"Ġretail":3890,"Ġdozens":3891,"Ġgathering":3892,"Ġdecide":3893,"828":3894,"911":3895,"qw":3896,"rb":3897,"rj":3898,"vk":3899,"xc":3900,"zm":3901,"zw":3902,"Ġsad":3903,"Ġdecent":3904,"urton":3905,"Ġsturton":3906,"599":3907,"Ġfavorites":3908,"480446":3909,"Ġsuits":3910,"comend":3911,"Ġ01480446":3912,"Ġopenings":3913,"Ġbring":3914,"Ġaccomod":3915,"Ġ01480446000":3916,"7660":3917,"bh":3918,"ki":3919,"vb":3920,"xq":3921,"eries":3922,"Ġbunch":3923,"Ġ290":3924,"Ġ251":3925,"Ġguestroom":3926,"Ġadj":3927,"Ġimp":3928,"Ġ01223367660":3929,"7977":3930,"Ġpasseng":3931,"urgery":3932,"Ġ01223217":3933,"Ġlower":3934,"Ġpassengers":3935,"8111":3936,"8786":3937,"dh":3938,"gu":3939,"ij":3940,"ience":3941,"mp":3942,"mit":3943,"nn":3944,"pr":3945,"Ġdr":3946,"Ġlive":3947,"xim":3948,"Ġocc":3949,"Ġ73":3950,"2187":3951,"Ġentertaining":3952,"Ġ07782":3953,"Ġfift":3954,"Ġ01223353248":3955,"8882":3956,"Ġ152154":3957,"Ġ01223518111":3958,"Ġneurology":3959,"Ġ01223355017":3960,"218745":3961,"Ġ07782218745":3962,"330":3963,"mor":3964,"we":3965,"wl":3966,"zf":3967,"Ġot":3968,"Ġpul":3969,"Ġfam":3970,"Ġread":3971,"Ġsport":3972,"Ġstu":3973,"2330":3974,"Ġ1519":3975,"Ġhilton":3976,"Ġ169":3977,"Ġ01223360":3978,"2138":3979,"Ġstev":3980,"083":3981,"19224":3982,"Ġ01223302330":3983,"poke":3984,"Ġvere":3985,"2456":3986,"Ġ01223519224":3987,"Ġfacilities":3988,"Ġclear":3989,"Ġdisappoin":3990,"Ġpulled":3991,"Ġfamous":3992,"if":3993,"kq":3994,"rn":3995,"vx":3996,"xed":3997,"zt":3998,"Ġbig":3999,"Ġtowards":4000,"Ġ59":4001,"1241":4002,"Ġeateries":4003,"2725":4004,"27410":4005,"Ġhonest":4006,"Ġdepends":4007,"Ġ01223277977":4008,"Ġ01223566188":4009,"Ġcrown":4010,"Ġplaza":4011,"Ġapproxim":4012,"Ġadjust":4013,"cis":4014,"gc":4015,"mg":4016,"ob":4017,"oj":4018,"pn":4019,"atri":4020,"Ġtomor":4021,"Ġ172":4022,"Ġmath":4023,"3200":4024,"Ġhigher":4025,"Ġdarn":4026,"Ġdirectly":4027,"Ġhaematology":4028,"Ġtomorrow":4029,"552":4030,"607":4031,"750":4032,"900":4033,"df":4034,"vq":4035,"vr":4036,"wf":4037,"zn":4038,"Ġ$":4039,"anage":4040,"Ġ0122384":4041,"178":4042,"5264":4043,"Ġmisspoke":4044,"Ġshopping":4045,"Ġ01223312843":4046,"Ġfalls":4047,"Ġ01223327978":4048,"Ġdecided":4049,"Ġ01223842725":4050,"dred":4051,"wj":4052,"edd":4053,"the":4054,"lls":4055,"Ġattem":4056,"ssy":4057,"12596":4058,"using":4059,"074":4060,"Ġhundred":4061,"Ġconfusing":4062,"7966":4063,"Ġshortly":4064,"Ġ01223315702":4065,"Ġ01223295264":4066,"Ġfifteen":4067,"cue":4068,"hq":4069,"jp":4070,"lt":4071,"oq":4072,"wc":4073,"zs":4074,"res":4075,"Ġpumping":4076,"Ġchedd":4077,"Ġthanky":4078,"12660":4079,"Ġserved":4080,"Ġotherwi":4081,"Ġvisitors":4082,"598":4083,"Ġresult":4084,"Ġ01223362456":4085,"Ġ0122330257":4086,"Ġbarbecue":4087,"Ġappealing":4088,"Ġ01223812660":4089,"Ġjoin":4090,"Ġ01223511511":4091,"Ġoperation":4092,"Ġwants":4093,"Ġluxury":4094,"Ġfollowing":4095,"Ġ01223338000":4096,"Ġcheddars":4097,"Ġotherwise":4098,"cm":4099,"den":4100,"gs":4101,"jq":4102,"read":4103,"Ġgl":4104,"Ġshe":4105,"Ġworries":4106,"Ġrequired":4107,"Ġ01223333200":4108,"Ġ01223351241":4109,"802":4110,"Ġ01223368786":4111,"Ġsingle":4112,"Ġalternate":4113,"Ġemail":4114,"Ġtreat":4115,"Ġodd":4116,"5219":4117,"Ġcrowne":4118,"Ġthankyou":4119,"01223":4120,"625":4121,"cb":4122,"cology":4123,"dg":4124,"fc":4125,"kd":4126,"ked":4127,"ng":4128,"nect":4129,"pl":4130,"tree":4131,"uh":4132,"uter":4133,"yy":4134,"Ġsave":4135,"Ġanyone":4136,"Ġ25":4137,"0089":4138,"Ġtrust":4139,"Ġ72":4140,"Ġ139":4141,"118":4142,"Ġ073":4143,"Ġregion":4144,"Ġregret":4145,"77900":4146,"331":4147,"Ġ01223477900":4148,"Ġ01223248882":4149,"Ġmove":4150,"Ġcomputer":4151,"Ġdrive":4152,"Ġpulling":4153,"Ġfairly":4154,"Ġ01223503333":4155,"aj":4156,"au":4157,"bc":4158,"lc":4159,"lk":4160,"mind":4161,"pv":4162,"pz":4163,"zp":4164,"Ġcard":4165,"Ġrep":4166,"Ġprior":4167,"Ġdecis":4168,"Ġtaste":4169,"Ġ46":4170,"Ġhelps":4171,"456":4172,"ult":4173,"Ġeasy":4174,"Ġsights":4175,"Ġtelling":4176,"Ġeveryone":4177,"Ġ01223240089":4178,"liment":4179,"Ġdoubletree":4180,"Ġcompliment":4181,"Ġsupposed":4182,"4277":4183,"Ġpropert":4184,"Ġthirteen":4185,"Ġstevanage":4186,"Ġapproximately":4187,"jk":4188,"mr":4189,"qn":4190,"vel":4191,"wb":4192,"Ġtook":4193,"Ġfro":4194,"Ġbui":4195,"Ġrese":4196,"Ġinc":4197,"Ġlar":4198,"Ġsell":4199,"lding":4200,"Ġoffered":4201,"Ġstayed":4202,"Ġarrived":4203,"under":4204,"12299":4205,"sons":4206,"Ġclin":4207,"2400":4208,"Ġ01223332138":4209,"Ġ01223412299":4210,"Ġ01223244277":4211,"Ġlearn":4212,"Ġreasonably":4213,"Ġmisunder":4214,"Ġ01223352607":4215,"ediatri":4216,"Ġhurt":4217,"Ġstuff":4218,"Ġcomplimentary":4219,"Ġbuilding":4220,"Ġlarge":4221,"ediatric":4222,"bour":4223,"gf":4224,"ped":4225,"qh":4226,"san":4227,"tr":4228,"zb":4229,"Ġbore":4230,"Ġinsan":4231,"Ġlookup":4232,"Ġyourself":4233,"Ġ86":4234,"Ġ196":4235,"Ġacute":4236,"Ġriding":4237,"Ġconstra":4238,"Ġconnect":4239,"Ġnarrowing":4240,"Ġchester":4241,"5212":4242,"591":4243,"Ġrespect":4244,"Ġfinal":4245,"Ġ012234124":4246,"Ġsaying":4247,"8650":4248,"Ġ01223512596":4249,"Ġwalking":4250,"Ġhistorical":4251,"Ġsadly":4252,"Ġ01223360966":4253,"Ġbored":4254,"Ġinsanely":4255,"Ġ01223412430":4256,"dn":4257,"ov":4258,"Ġcam":4259,"Ġcame":4260,"Ġmont":4261,"Ġstate":4262,"005":4263,"232":4264,"07718":4265,"2734":4266,"2010":4267,"7877":4268,"Ġ4753":4269,"Ġ07807718":4270,"Ġ01223335153":4271,"rdi":4272,"7187":4273,"Ġproper":4274,"Ġ01223352500":4275,"Ġ01223727410":4276,"Ġpreviously":4277,"Ġdrin":4278,"Ġ732734":4279,"Ġdisappointing":4280,"Ġ01223302579":4281,"Ġmonth":4282,"Ġ07807718591":4283,"512":4284,"ba":4285,"cl":4286,"dx":4287,"hh":4288,"mu":4289,"tp":4290,"wk":4291,"zv":4292,"Ġur":4293,"inion":4294,"Ġhard":4295,"Ġcet":4296,"Ġful":4297,"Ġdish":4298,"Ġsurgery":4299,"Ġadv":4300,"Ġsatis":4301,"Ġopinion":4302,"Ġhost":4303,"1763":4304,"662":4305,"6055":4306,"5767":4307,"Ġ012233634":4308,"Ġ01223368650":4309,"Ġ01223361763":4310,"Ġ01223302010":4311,"Ġstandsted":4312,"Ġboard":4313,"Ġassume":4314,"Ġ01223359750":4315,"Ġregretfully":4316,"Ġ01223363471":4317,"ire":4318,"iology":4319,"mc":4320,"qs":4321,"qz":4322,"sen":4323,"wr":4324,"xx":4325,"yk":4326,"ys":4327,"encing":4328,"ates":4329,"Ġlimit":4330,"Ġdear":4331,"2372":4332,"Ġtru":4333,"Ġchosen":4334,"Ġ619":4335,"Ġcurious":4336,"Ġcong":4337,"Ġclosed":4338,"525":4339,"390":4340,"Ġ01223334200":4341,"Ġ3334":4342,"Ġdesk":4343,"555":4344,"Ġ01223362372":4345,"Ġspecializ":4346,"Ġ01223311911":4347,"Ġjob":4348,"Ġexperiencing":4349,"Ġanswer":4350,"Ġsuffice":4351,"Ġcambride":4352,"Ġfront":4353,"Ġcardiology":4354,"Ġresearch":4355,"1387":4356,"212":4357,"958":4358,"co":4359,"iu":4360,"ique":4361,"round":4362,"vw":4363,"zx":4364,"rate":4365,"Ġplu":4366,"Ġbur":4367,"rite":4368,"Ġgotten":4369,"ential":4370,"Ġattention":4371,"Ġcambrdi":4372,"Ġmodify":4373,"Ġelder":4374,"Ġdestinations":4375,"Ġstrat":4376,"Ġ58":4377,"Ġunless":4378,"Ġ132":4379,"cient":4380,"Ġsize":4381,"Ġ183":4382,"Ġmins":4383,"6653":4384,"355":4385,"Ġheart":4386,"167":4387,"Ġ01223306":4388,"Ġ01223247877":4389,"Ġ01223366202":4390,"Ġ01223276653":4391,"Ġfacility":4392,"Ġchesteron":4393,"Ġcampus":4394,"Ġcambrdige":4395,"Ġelderly":4396,"Ġstratford":4397,"2083":4398,"5154":4399,"dl":4400,"ii":4401,"iy":4402,"nh":4403,"psons":4404,"wery":4405,"xf":4406,"xw":4407,"stood":4408,"Ġthom":4409,"Ġcut":4410,"Ġinter":4411,"Ġdale":4412,"Ġoncology":4413,"Ġsilly":4414,"Ġbrewery":4415,"Ġstanford":4416,"110":4417,"414":4418,"Ġaylesbury":4419,"493":4420,"Ġcomplex":4421,"Ġreachable":4422,"7015":4423,"Ġ01223241387":4424,"765":4425,"Ġtons":4426,"Ġmovie":4427,"Ġswe":4428,"Ġappeals":4429,"Ġwhole":4430,"Ġevents":4431,"Ġconstraint":4432,"Ġrespectively":4433,"Ġplus":4434,"Ġthompsons":4435,"1880":4436,"fh":4437,"hb":4438,"ific":4439,"tely":4440,"Ġhate":4441,"Ġwou":4442,"Ġfully":4443,"Ġinfect":4444,"Ġrestaraunt":4445,"sease":4446,"Ġliking":4447,"Ġneat":4448,"Ġmusic":4449,"306":4450,"Ġsouthend":4451,"Ġdistance":4452,"Ġdisease":4453,"Ġ84":4454,"Ġavo":4455,"Ġunique":4456,"Ġintend":4457,"294":4458,"Ġgastro":4459,"Ġzip":4460,"Ġgrab":4461,"16074":4462,"903":4463,"0927":4464,"Ġ01223351880":4465,"Ġcompletely":4466,"Ġlasting":4467,"Ġterms":4468,"Ġ01223506055":4469,"Ġ01223311625":4470,"Ġinvolving":4471,"Ġ01799":4472,"Ġabove":4473,"Ġadvance":4474,"Ġinfectious":4475,"Ġdiseases":4476,"868":4477,"dir":4478,"ji":4479,"lv":4480,"mz":4481,"tes":4482,"wm":4483,"wx":4484,"yf":4485,"zq":4486,"Ġian":4487,"Ġyum":4488,"Ġfoo":4489,"Ġbout":4490,"Ġrent":4491,"Ġmine":4492,"Ġgwy":4493,"Ġamong":4494,"Ġleft":4495,"00170":4496,"4550":4497,"Ġegg":4498,"Ġeye":4499,"Ġmanage":4500,"aster":4501,"Ġ075":4502,"404":4503,"Ġ012233384":4504,"Ġ01223332400":4505,"Ġpaediatric":4506,"48100":4507,"7786":4508,"Ġ01223400170":4509,"9859":4510,"Ġregardless":4511,"4748":4512,"Ġproviding":4513,"Ġ01223323361":4514,"Ġmistaken":4515,"8300":4516,"Ġdeciding":4517,"Ġ01223748100":4518,"Ġexists":4519,"Ġyummy":4520,"Ġgwydir":4521,"Ġ01223338400":4522,"cg":4523,"cz":4524,"sl":4525,"ten":4526,"ints":4527,"Ġfut":4528,"Ġgh":4529,"Ġnumer":4530,"Ġstarving":4531,"Ġplaced":4532,"Ġalot":4533,"Ġpoints":4534,"Ġ116":4535,"Ġmakes":4536,"cks":4537,"Ġmatters":4538,"354":4539,"4149":4540,"Ġshows":4541,"486":4542,"Ġrestraunt":4543,"2515":4544,"7942":4545,"6838":4546,"Ġsoonest":4547,"Ġcategor":4548,"Ġnevermind":4549,"Ġneuros":4550,"Ġinqui":4551,"Ġowe":4552,"Ġ01223217118":4553,"Ġhonestly":4554,"Ġdecisions":4555,"ifications":4556,"Ġavoid":4557,"Ġfuture":4558,"407":4559,"807":4560,"bk":4561,"ku":4562,"ned":4563,"sn":4564,"vg":4565,"vj":4566,"vies":4567,"yh":4568,"Ġut":4569,"Ġthru":4570,"Ġprici":4571,"Ġhelped":4572,"0059":4573,"Ġprocess":4574,"ussed":4575,"214":4576,"Ġoutside":4577,"291":4578,"293":4579,"istic":4580,"uses":4581,"263":4582,"Ġruns":4583,"Ġlasts":4584,"Ġsitu":4585,"Ġsteakhouses":4586,"Ġ0122357512":4587,"Ġhuh":4588,"Ġdriving":4589,"0254":4590,"Ġqualifications":4591,"Ġ01223505015":4592,"Ġdiscussed":4593,"Ġ01223315232":4594,"Ġbuildings":4595,"Ġpricier":4596,"Ġ01223575122":4597,"817":4598,"ebra":4599,"go":4600,"qp":4601,"rp":4602,"xp":4603,"iner":4604,"elebra":4605,"Ġcelebra":4606,"Ġfill":4607,"Ġban":4608,"Ġdai":4609,"riate":4610,"vered":4611,"Ġhotsp":4612,"Ġitiner":4613,"Ġlevel":4614,"Ġlooked":4615,"Ġ45":4616,"Ġprefered":4617,"Ġallow":4618,"2354":4619,"Ġ78":4620,"Ġintensive":4621,"Ġspeak":4622,"Ġclient":4623,"Ġpaying":4624,"ropriate":4625,"2987":4626,"464":4627,"467":4628,"286":4629,"Ġappropriate":4630,"Ġ01223244149":4631,"Ġ01223247942":4632,"Ġ01223353110":4633,"Ġreccomend":4634,"Ġanswered":4635,"tball":4636,"Ġimpress":4637,"Ġfootball":4638,"Ġnumerous":4639,"Ġinquiry":4640,"Ġdaily":4641,"Ġhotspot":4642,"Ġitinerary":4643,"cw":4644,"uq":4645,"xe":4646,"yx":4647,"ined":4648,"Ġtoward":4649,"Ġtight":4650,"ulations":4651,"Ġkill":4652,"Ġdig":4653,"Ġhappens":4654,"661":4655,"016":4656,"209":4657,"Ġmostly":4658,"Ġchanging":4659,"5348":4660,"Ġoperating":4661,"ratulations":4662,"Ġsmall":4663,"Ġterrific":4664,"521260":4665,"Ġdrinks":4666,"Ġcetre":4667,"Ġdishes":4668,"Ġcongratulations":4669,"Ġ01799521260":4670,"053":4671,"657":4672,"755":4673,"8464":4674,"bridge":4675,"cq":4676,"fg":4677,"ik":4678,"lz":4679,"rz":4680,"ugh":4681,"xg":4682,"Ġhandle":4683,"Ġcas":4684,"enu":4685,"Ġrepe":4686,"Ġsn":4687,"ayside":4688,"Ġstarted":4689,"Ġtax":4690,"Ġ26":4691,"Ġguesth":4692,"asion":4693,"uting":4694,"iring":4695,"Ġlondons":4696,"Ġ012233240":4697,"Ġcontin":4698,"Ġwhenever":4699,"Ġlonger":4700,"Ġquayside":4701,"604":4702,"413":4703,"Ġ01223338300":4704,"771":4705,"Ġcommuting":4706,"7047":4707,"Ġsooner":4708,"Ġfriendly":4709,"mbered":4710,"Ġremembered":4711,"Ġsufficient":4712,"Ġoccasion":4713,"Ġsweet":4714,"Ġ01223324033":4715,"200":4716,"250":4717,"2525":4718,"8494":4719,"di":4720,"here":4721,"ime":4722,"kk":4723,"nts":4724,"pw":4725,"sborough":4726,"tj":4727,"wv":4728,"onary":4729,"Ġpat":4730,"Ġpot":4731,"Ġcities":4732,"Ġwo":4733,"Ġwoll":4734,"Ġfoc":4735,"Ġmall":4736,"cester":4737,"Ġwise":4738,"ently":4739,"Ġneigh":4740,"bery":4741,"Ġadvent":4742,"3071":4743,"aston":4744,"Ġuk":4745,"Ġspread":4746,"Ġpetersborough":4747,"2433":4748,"ological":4749,"6666":4750,"602":4751,"2715":4752,"Ġcoronary":4753,"Ġ012233551":4754,"Ġ012233578":4755,"Ġhighest":4756,"Ġ01223362525":4757,"Ġ01223362433":4758,"131":4759,"Ġ012234486":4760,"Ġtourists":4761,"8988":4762,"Ġexciting":4763,"8600":4764,"Ġmovies":4765,"6524":4766,"Ġcompare":4767,"Ġmainly":4768,"Ġ01223462354":4769,"Ġ01223356555":4770,"Ġcategories":4771,"Ġrepeat":4772,"Ġwollaston":4773,"Ġ01223355166":4774,"Ġ01223357851":4775,"Ġ01223448620":4776,"146":4777,"639":4778,"709":4779,"879":4780,"ls":4781,"min":4782,"ns":4783,"nw":4784,"rr":4785,"to":4786,"Ġinf":4787,"Ġmess":4788,"Ġmenu":4789,"leigh":4790,"Ġneces":4791,"Ġaly":4792,"Ġadul":4793,"utation":4794,"237":4795,"Ġsec":4796,"Ġrates":4797,"Ġ12233":4798,"Ġmatched":4799,"Ġrider":4800,"Ġ90":4801,"211":4802,"1163":4803,"Ġpickup":4804,"27330":4805,"595":4806,"Ġ01223350059":4807,"Ġ01223353071":4808,"Ġ225":4809,"Ġcover":4810,"Ġ01223365":4811,"561":4812,"568988":4813,"Ġconsist":4814,"6742":4815,"Ġ01223312598":4816,"Ġdependency":4817,"Ġ01223464630":4818,"6003":4819,"6009":4820,"Ġquickly":4821,"Ġdropped":4822,"Ġoops":4823,"Ġinquire":4824,"Ġ01223356354":4825,"Ġ01223227330":4826,"59988":4827,"Ġreputation":4828,"Ġburleigh":4829,"Ġnecessity":4830,"Ġadults":4831,"Ġriders":4832,"754":4833,"8903":4834,"cj":4835,"eck":4836,"hf":4837,"kl":4838,"ko":4839,"kx":4840,"mv":4841,"mely":4842,"nr":4843,"uc":4844,"ug":4845,"Ġau":4846,"remely":4847,"Ġfly":4848,"Ġbell":4849,"Ġrech":4850,"sess":4851,"Ġnee":4852,"arts":4853,"Ġnil":4854,"Ġassess":4855,"Ġwherever":4856,"Ġdifference":4857,"andi":4858,"Ġacc":4859,"Ġhogw":4860,"Ġentertainments":4861,"Ġbishop":4862,"Ġ0788":4863,"247":4864,"504":4865,"Ġpersons":4866,"082":4867,"after":4868,"8860":4869,"2054":4870,"Ġpasta":4871,"163":4872,"495":4873,"5729":4874,"Ġpostalcode":4875,"1499":4876,"Ġ087194":4877,"Ġ01223311053":4878,"Ġextremely":4879,"Ġfeeling":4880,"raunts":4881,"Ġhistoric":4882,"Ġ01223259988":4883,"Ġtruly":4884,"Ġcutting":4885,"Ġmanaged":4886,"Ġghandi":4887,"29180":4888,"Ġpotential":4889,"Ġrecheck":4890,"Ġassessment":4891,"Ġhogwarts":4892,"Ġ08719429180":4893,"400":4894,"829":4895,"938":4896,"9561":4897,"bo":4898,"jh":4899,"ju":4900,"mx":4901,"tx":4902,"usday":4903,"wo":4904,"wt":4905,"yr":4906,"Ġher":4907,"oring":4908,"Ġfore":4909,"Ġrece":4910,"Ġann":4911,"Ġant":4912,"Ġchines":4913,"Ġ018":4914,"Ġsometi":4915,"Ġtrue":4916,"Ġ0122342":4917,"Ġavai":4918,"cise":4919,"cial":4920,"Ġ141":4921,"Ġ012233294":4922,"Ġva":4923,"Ġthemed":4924,"8800":4925,"5478":4926,"Ġhep":4927,"5225":4928,"2045":4929,"2094":4930,"3225":4931,"193":4932,"4319":4933,"Ġ01223357187":4934,"4917":4935,"7733":4936,"Ġ01223364319":4937,"Ġenjoyed":4938,"53771":4939,"Ġwished":4940,"prising":4941,"Ġconsidering":4942,"Ġsurprising":4943,"9937":4944,"1492":4945,"Ġcreate":4946,"7423":4947,"Ġhalf":4948,"1581":4949,"42753771":4950,"Ġliek":4951,"Ġaccomodations":4952,"Ġflying":4953,"Ġ01842753771":4954,"Ġsometimes":4955,"Ġ01223425478":4956,"Ġ01223329432":4957,"Ġsurprisingly":4958,"107":4959,"cin":4960,"clo":4961,"cces":4962,"eon":4963,"idge":4964,"jn":4965,"kh":4966,"line":4967,"sc":4968,"sary":4969,"tc":4970,"uss":4971,"ually":4972,"vs":4973,"zo":4974,"Ġtri":4975,"Ġih":4976,"Ġfas":4977,"ves":4978,"Ġcambidge":4979,"Ġtowns":4980,"Ġmoderat":4981,"Ġ012":4982,"Ġnicer":4983,"Ġ55":4984,"1502":4985,"Ġgoodn":4986,"Ġrolls":4987,"Ġhiking":4988,"Ġmixed":4989,"Ġ94":4990,"Ġconvers":4991,"1100":4992,"Ġtotally":4993,"Ġ0730":4994,"iversary":4995,"2420":4996,"6688":4997,"Ġ231":4998,"351":4999,"while":5000,"276":5001,"Ġcovers":5002,"3682":5003,"Ġ01223364917":5004,"Ġdaugh":5005,"Ġcommon":5006,"Ġ01223247015":5007,"687":5008,"Ġsurround":5009,"Ġspending":5010,"Ġ01223323639":5011,"Ġjoint":5012,"Ġluncheon":5013,"Ġboast":5014,"Ġgueshouses":5015,"Ġassuming":5016,"Ġooh":5017,"Ġinvolved":5018,"Ġterribly":5019,"Ġjoining":5020,"Ġsells":5021,"Ġneighbor":5022,"Ġanniversary":5023,"cinating":5024,"ccesful":5025,"Ġtrick":5026,"Ġfascinating":5027,"Ġdaughter":5028,"Ġsurrounding":5029,"557":5030,"679":5031,"7802":5032,"bm":5033,"ball":5034,"hv":5035,"jd":5036,"jl":5037,"py":5038,"rv":5039,"tk":5040,"xt":5041,"Ġteen":5042,"Ġave":5043,"ourite":5044,"Ġthree":5045,"Ġyt":5046,"Ġnap":5047,"Ġtraum":5048,"iere":5049,"Ġcancer":5050,"Ġthereafter":5051,"Ġonline":5052,"cht":5053,"Ġ43":5054,"ssiere":5055,"unic":5056,"Ġeleg":5057,"Ġprecise":5058,"Ġallowing":5059,"235":5060,"ics":5061,"Ġtravels":5062,"Ġsorts":5063,"Ġ01223568988":5064,"Ġ113":5065,"sitive":5066,"Ġsimp":5067,"Ġvia":5068,"2166":5069,"Ġpeterbour":5070,"5921":5071,"2025":5072,"Ġ01223338800":5073,"Ġ01223331100":5074,"Ġago":5075,"Ġfavourite":5076,"1681":5077,"Ġ01223356666":5078,"Ġbrassiere":5079,"4264":5080,"Ġ0122330258":5081,"Ġwaiting":5082,"Ġslots":5083,"Ġspecifying":5084,"3112":5085,"Ġcabridge":5086,"Ġ01223292094":5087,"Ġattemp":5088,"Ġclinic":5089,"Ġconversation":5090,"Ġteenage":5091,"Ġnapier":5092,"Ġtrauma":5093,"Ġelegant":5094,"Ġsimply":5095,"Ġ01223302580":5096,"3270":5097,"466":5098,"8331":5099,"989":5100,"bv":5101,"cp":5102,"cs":5103,"dk":5104,"fford":5105,"hs":5106,"mt":5107,"nb":5108,"nc":5109,"qj":5110,"sf":5111,"wg":5112,"xv":5113,"yc":5114,"yq":5115,"erology":5116,"oubt":5117,"Ġia":5118,"Ġib":5119,"Ġfo":5120,"Ġfer":5121,"Ġbite":5122,"Ġtoge":5123,"Ġsoli":5124,"Ġmn":5125,"ceed":5126,"Ġstafford":5127,"Ġleic":5128,"Ġtaxis":5129,"Ġnorthside":5130,"Ġmusue":5131,"Ġecon":5132,"Ġserver":5133,"Ġknew":5134,"Ġ01223316074":5135,"Ġvj":5136,"Ġsuggested":5137,"Ġproceed":5138,"216":5139,"0788":5140,"Ġusually":5141,"Ġchrists":5142,"Ġ012233365":5143,"Ġ01223338600":5144,"Ġbasic":5145,"Ġending":5146,"Ġ01223363270":5147,"Ġ0122330868":5148,"7931":5149,"7040":5150,"Ġwatch":5151,"8207":5152,"0552":5153,"Ġvarying":5154,"Ġguestrooms":5155,"Ġmisunderstood":5156,"Ġsituated":5157,"Ġtogether":5158,"Ġsolid":5159,"Ġleicaster":5160,"Ġ01223336540":5161,"Ġ01223308681":5162,"2153":5163,"319":5164,"3702":5165,"719":5166,"808":5167,"839":5168,"dd":5169,"hp":5170,"hr":5171,"hic":5172,"lb":5173,"nq":5174,"oci":5175,"wq":5176,"xj":5177,"xz":5178,"zh":5179,"zi":5180,"Ġtens":5181,"ream":5182,"Ġpain":5183,"Ġcamp":5184,"orrect":5185,"Ġrela":5186,"ans":5187,"Ġsli":5188,"Ġgpb":5189,"Ġlikes":5190,"Ġleaveat":5191,"Ġ48":5192,"Ġarriveby":5193,"Ġaddens":5194,"Ġsouthside":5195,"fication":5196,"Ġarcheology":5197,"Ġcrossing":5198,"581":5199,"075":5200,"Ġallenball":5201,"whel":5202,"Ġitself":5203,"4955":5204,"0635":5205,"Ġdesper":5206,"Ġoverwhel":5207,"770":5208,"803":5209,"4466":5210,"Ġ01223363682":5211,"565":5212,"Ġlastly":5213,"Ġ01223244955":5214,"899":5215,"Ġvehic":5216,"ssed":5217,"Ġfarman":5218,"Ġ01223323178":5219,"Ġ01223311687":5220,"standing":5221,"Ġassoci":5222,"Ġ01223307581":5223,"Ġthirty":5224,"Ġresturants":5225,"Ġcambrige":5226,"Ġ0173":5227,"Ġaccomodate":5228,"Ġattempt":5229,"Ġproperties":5230,"Ġincorrect":5231,"Ġrental":5232,"Ġneuroscience":5233,"Ġclients":5234,"Ġcontinue":5235,"Ġmessage":5236,"Ġsecure":5237,"Ġ01223365599":5238,"Ġtension":5239,"Ġrelax":5240,"Ġaddensbrookes":5241,"Ġvehicle":5242,"Ġassociated":5243,"1661":5244,"529":5245,"5170":5246,"658":5247,"978":5248,"bbery":5249,"frame":5250,"gan":5251,"iq":5252,"lr":5253,"pite":5254,"qd":5255,"sg":5256,"sz":5257,"scode":5258,"tf":5259,"yw":5260,"zd":5261,"Ġaid":5262,"ond":5263,"Ġpy":5264,"Ġna":5265,"ord":5266,"Ġfl":5267,"Ġfab":5268,"Ġline":5269,"Ġlines":5270,"rive":5271,"riend":5272,"ancy":5273,"Ġwild":5274,"formation":5275,"Ġoffi":5276,"enterology":5277,"erean":5278,"Ġdeter":5279,"Ġtimeframe":5280,"Ġalter":5281,"Ġposcode":5282,"309":5283,"ulous":5284,"Ġ0122369":5285,"Ġ01223413":5286,"Ġunli":5287,"Ġrobbery":5288,"Ġuq":5289,"ized":5290,"Ġeats":5291,"Ġ072":5292,"Ġ0779":5293,"292":5294,"8813":5295,"393":5296,"3942":5297,"Ġclassy":5298,"4187":5299,"9063":5300,"Ġ01223353942":5301,"arily":5302,"Ġcovered":5303,"Ġdespite":5304,"Ġ01223362054":5305,"Ġfix":5306,"Ġxm":5307,"Ġtouch":5308,"Ġweeks":5309,"like":5310,"Ġswitch":5311,"Ġ01223902116":5312,"Ġeriterean":5313,"Ġ01223366552":5314,"Ġtalking":5315,"Ġrefernce":5316,"Ġchildren":5317,"Ġaboard":5318,"Ġsightse":5319,"Ġsatisfy":5320,"Ġresearching":5321,"Ġgastroenterology":5322,"Ġreccomendation":5323,"Ġ01245":5324,"Ġfabulous":5325,"Ġdeterm":5326,"Ġ01223694264":5327,"Ġ01223413000":5328,"2286":5329,"4765":5330,"945":5331,"aed":5332,"dom":5333,"ez":5334,"gb":5335,"gz":5336,"ja":5337,"vz":5338,"xo":5339,"Ġcw":5340,"Ġwast":5341,"staurant":5342,"Ġdoubt":5343,"Ġatmo":5344,"thop":5345,"Ġ450":5346,"itions":5347,"Ġrandom":5348,"Ġorthop":5349,"450":5350,"Ġjord":5351,"Ġgreatly":5352,"121":5353,"Ġentire":5354,"Ġserious":5355,"Ġindoor":5356,"Ġintri":5357,"Ġspl":5358,"117":5359,"Ġ071":5360,"Ġ0758":5361,"Ġ0746":5362,"sphere":5363,"Ġplanned":5364,"3553":5365,"8871":5366,"277":5367,"4651":5368,"1997":5369,"Ġzb":5370,"Ġmedium":5371,"368":5372,"447":5373,"7850":5374,"2800":5375,"Ġ01223308871":5376,"2694":5377,"Ġdetail":5378,"1006":5379,"Ġtransp":5380,"2232":5381,"Ġretur":5382,"Ġtours":5383,"Ġ01223354755":5384,"Ġproperty":5385,"Ġurology":5386,"Ġ01223306306":5387,"8070":5388,"Ġcampuses":5389,"Ġ01733553":5390,"Ġdetermine":5391,"aedics":5392,"Ġatmosphere":5393,"Ġorthopaedics":5394,"Ġjordans":5395,"Ġ01733553355":5396,"317":5397,"3456":5398,"cely":5399,"dated":5400,"hj":5401,"hk":5402,"ise":5403,"jt":5404,"kp":5405,"mand":5406,"medi":5407,"nu":5408,"well":5409,"yp":5410,"reg":5411,"Ġprom":5412,"Ġya":5413,"Ġfu":5414,"Ġfour":5415,"Ġbi":5416,"Ġboo":5417,"Ġren":5418,"Ġreport":5419,"Ġresol":5420,"otic":5421,"Ġdj":5422,"Ġmq":5423,"Ġliked":5424,"Ġarr":5425,"Ġtill":5426,"Ġdemand":5427,"Ġpardon":5428,"Ġexotic":5429,"Ġlol":5430,"Ġadvice":5431,"Ġpositive":5432,"Ġgosh":5433,"Ġnorthend":5434,"Ġnicely":5435,"1537":5436,"458":5437,"Ġjn":5438,"Ġjz":5439,"Ġweds":5440,"Ġrage":5441,"Ġrail":5442,"Ġvac":5443,"nection":5444,"Ġconnection":5445,"Ġ0769":5446,"2900":5447,"102":5448,"105":5449,"5949":5450,"Ġ012233389":5451,"Ġ01223332900":5452,"283":5453,"2826":5454,"Ġteusday":5455,"Ġaww":5456,"7610":5457,"9900":5458,"Ġvictim":5459,"Ġarchitecturally":5460,"Ġmeantime":5461,"Ġcorsican":5462,"Ġ01223334898":5463,"Ġdiscuss":5464,"Ġperimeters":5465,"Ġuhm":5466,"Ġ01223464550":5467,"Ġglitch":5468,"Ġfulfi":5469,"Ġspecializing":5470,"8176":5471,"Ġcasual":5472,"Ġpatience":5473,"Ġadventure":5474,"Ġreceive":5475,"9781":5476,"mediate":5477,"Ġvacation":5478,"Ġ01223338901":5479,"108":5480,"2000":5481,"4235":5482,"4216":5483,"6163":5484,"9016":5485,"ded":5486,"fq":5487,"he":5488,"hood":5489,"kt":5490,"mod":5491,"nv":5492,"pc":5493,"pf":5494,"ring":5495,"xu":5496,"yz":5497,"Ġawhile":5498,"ston":5499,"Ġthre":5500,"Ġcust":5501,"Ġyep":5502,"Ġfil":5503,"ato":5504,"Ġbes":5505,"Ġrecomend":5506,"Ġinp":5507,"Ġinqu":5508,"Ġincon":5509,"les":5510,"Ġgone":5511,"Ġgod":5512,"Ġ123":5513,"esbray":5514,"Ġlife":5515,"omer":5516,"alble":5517,"Ġnote":5518,"Ġranked":5519,"0060":5520,"communic":5521,"30906":5522,"Ġsush":5523,"1213":5524,"Ġ76":5525,"Ġ77":5526,"Ġshouldn":5527,"Ġ188":5528,"Ġ01223330906":5529,"Ġupdated":5530,"Ġchurchhill":5531,"Ġnicest":5532,"Ġ0777":5533,"Ġ0756":5534,"5859":5535,"2432":5536,"0718":5537,"Ġfunk":5538,"5484":5539,"Ġcityrooms":5540,"481":5541,"7755":5542,"7846":5543,"2534":5544,"Ġguys":5545,"Ġbotanical":5546,"Ġ012232499":5547,"Ġ01223358899":5548,"Ġbarnwell":5549,"761":5550,"6971":5551,"Ġdislike":5552,"Ġdisreg":5553,"Ġglaston":5554,"Ġmiscommunic":5555,"Ġlowest":5556,"Ġ01223354679":5557,"Ġ3435":5558,"Ġwanna":5559,"Ġdozen":5560,"Ġ01223355012":5561,"Ġmisunderstanding":5562,"Ġspecializes":5563,"Ġintended":5564,"Ġcelebrating":5565,"Ġavaialble":5566,"1079":5567,"clock":5568,"Ġgoodness":5569,"Ġboasts":5570,"Ġoffice":5571,"Ġcustomer":5572,"Ġinquiring":5573,"Ġinconven":5574,"Ġsushi":5575,"Ġ01223249955":5576,"Ġdisregard":5577,"Ġglastonbury":5578,"3005":5579,"3211":5580,"6595":5581,"8495":5582,"ao":5583,"bx":5584,"des":5585,"fj":5586,"jwe":5587,"kg":5588,"kr":5589,"lw":5590,"lant":5591,"md":5592,"ojg":5593,"pi":5594,"qv":5595,"sk":5596,"sine":5597,"uo":5598,"uz":5599,"vely":5600,"yj":5601,"Ġtj":5602,"Ġay":5603,"Ġaz":5604,"Ġages":5605,"Ġig":5606,"Ġhj":5607,"Ġph":5608,"Ġcit":5609,"Ġwet":5610,"Ġinthe":5611,"Ġsent":5612,"Ġrestaru":5613,"Ġisnt":5614,"Ġgoo":5615,"Ġoften":5616,"Ġcentere":5617,"Ġadvi":5618,"Ġ00":5619,"Ġ300":5620,"iroom":5621,"roy":5622,"Ġlocale":5623,"ically":5624,"Ġsuey":5625,"ailed":5626,"Ġsundays":5627,"Ġ150":5628,"Ġsister":5629,"Ġ143":5630,"Ġval":5631,"Ġcusine":5632,"Ġstanstead":5633,"Ġqa":5634,"Ġqk":5635,"fortable":5636,"246":5637,"1750":5638,"Ġcomfortable":5639,"Ġkinda":5640,"506":5641,"Ġfewer":5642,"106":5643,"Ġsporting":5644,"0188":5645,"3948":5646,"462432":5647,"5979":5648,"Ġclass":5649,"2061":5650,"199":5651,"1612":5652,"ides":5653,"Ġ226":5654,"4969":5655,"Ġbackwards":5656,"Ġview":5657,"Ġunsuccesful":5658,"Ġ01223302800":5659,"3412":5660,"Ġappreciated":5661,"Ġvegan":5662,"Ġ01462432":5663,"Ġhearing":5664,"Ġforgotten":5665,"Ġspecials":5666,"Ġinjury":5667,"Ġmeans":5668,"Ġdesire":5669,"Ġgrand":5670,"Ġmissed":5671,"Ġwhoa":5672,"Ġwalk":5673,"5009":5674,"Ġhundreds":5675,"Ġclinical":5676,"Ġhostel":5677,"9589":5678,"Ġbank":5679,"Ġalyesbray":5680,"5570":5681,"Ġpeterbourough":5682,"Ġunlisted":5683,"Ġtransplant":5684,"Ġfulfill":5685,"Ġbesides":5686,"Ġinconvenience":5687,"Ġcitiroom":5688,"Ġ01462432565":5689,"Ġcitiroomz":5690,"259":5691,"358":5692,"629":5693,"618":5694,"6357":5695,"827":5696,"988":5697,"cd":5698,"du":5699,"fx":5700,"ga":5701,"gical":5702,"ily":5703,"ql":5704,"qm":5705,"urious":5706,"wre":5707,"zu":5708,"Ġ,<|":5709,"Ġht":5710,"Ġpd":5711,"Ġpz":5712,"Ġpare":5713,"Ġws":5714,"Ġyiu":5715,"Ġfre":5716,"Ġfond":5717,"Ġbon":5718,"Ġresa":5719,"Ġinsi":5720,"Ġdan":5721,"Ġsg":5722,"Ġsq":5723,"cted":5724,"Ġrestaraunts":5725,"Ġgott":5726,"thday":5727,"Ġchip":5728,"Ġpeace":5729,"Ġplese":5730,"Ġanyplace":5731,"Ġtypo":5732,"unning":5733,"Ġlost":5734,"utc":5735,"Ġstunning":5736,"rocan":5737,"Ġob":5738,"Ġoe":5739,"303":5740,"1518":5741,"454":5742,"Ġpartial":5743,"239":5744,"Ġ0122325":5745,"Ġ600":5746,"Ġrad":5747,"lov":5748,"2145":5749,"Ġbirthday":5750,"Ġcineme":5751,"Ġunfortunate":5752,"Ġ0707":5753,"Ġ0739":5754,"Ġashely":5755,"6053":5756,"522":5757,"0189":5758,"2775":5759,"4698":5760,"5941":5761,"Ġfinally":5762,"Ġcozy":5763,"363":5764,"389":5765,"3844":5766,"7713":5767,"Ġ01223367755":5768,"7030":5769,"Ġxy":5770,"Ġmeghan":5771,"7349":5772,"Ġsafe":5773,"Ġblast":5774,"Ġvaries":5775,"6334":5776,"Ġsurgical":5777,"1493":5778,"sjz":5779,"Ġ012232173":5780,"Ġcatching":5781,"Ġmorrocan":5782,"Ġummm":5783,"Ġexhibits":5784,"0523":5785,"0532":5786,"6110":5787,"Ġexploring":5788,"Ġclearly":5789,"Ġrealistic":5790,"Ġrealized":5791,"Ġluxurious":5792,"Ġfollow":5793,"Ġhandful":5794,"Ġhandling":5795,"Ġimpres":5796,"Ġincre":5797,"2125":5798,"Ġ01223306283":5799,"Ġwoudl":5800,"Ġthrusday":5801,"Ġcompared":5802,"Ġeconom":5803,"8080":5804,"Ġrelaxing":5805,"Ġchildrens":5806,"Ġresolving":5807,"Ġparents":5808,"Ġresaurant":5809,"Ġdancing":5810,"Ġgotta":5811,"Ġpeaceful":5812,"Ġimpressive":5813,"115":5814,"377":5815,"420":5816,"5390":5817,"706":5818,"7803":5819,"8662":5820,"8167":5821,"cx":5822,"eing":5823,"fz":5824,"gv":5825,"hd":5826,"jr":5827,"mk":5828,"orate":5829,"rc":5830,"sely":5831,"td":5832,"tun":5833,"tory":5834,"zr":5835,"inal":5836,"els":5837,"Ġhq":5838,"Ġhook":5839,"Ġhes":5840,"Ġhang":5841,"Ġpie":5842,"Ġphy":5843,"Ġcy":5844,"Ġcen":5845,"Ġcodes":5846,"Ġnod":5847,"Ġnature":5848,"orford":5849,"ording":5850,"Ġfish":5851,"atin":5852,"oot":5853,"otu":5854,"Ġdb":5855,"rib":5856,"Ġsd":5857,"Ġsv":5858,"Ġson":5859,"Ġrestau":5860,"Ġrestaur":5861,"Ġrestaurants":5862,"Ġforty":5863,"Ġfortun":5864,"Ġgw":5865,"Ġhavea":5866,"Ġdoable":5867,"Ġpet":5868,"Ġanyth":5869,"Ġanyways":5870,"Ġelab":5871,"Ġstri":5872,"Ġstorford":5873,"Ġos":5874,"Ġshops":5875,"Ġshoot":5876,"Ġjm":5877,"2379":5878,"126":5879,"Ġ87":5880,"Ġ65":5881,"Ġavailabe":5882,"Ġ1330":5883,"Ġmix":5884,"Ġ0735":5885,"Ġ0799":5886,"5874":5887,"241":5888,"Ġcostly":5889,"2941":5890,"409":5891,"603":5892,"2730":5893,"Ġsetting":5894,"Ġlatter":5895,"196":5896,"1672":5897,"Ġtraveller":5898,"4859":5899,"365":5900,"383":5901,"3839":5902,"8017":5903,"5677":5904,"Ġ01223307030":5905,"7928":5906,"5358":5907,"6488":5908,"stru":5909,"Ġamenity":5910,"Ġclosely":5911,"iratory":5912,"Ġnecessarily":5913,"Ġgladly":5914,"Ġcharged":5915,"Ġarranging":5916,"Ġbelieving":5917,"Ġumm":5918,"Ġaddres":5919,"Ġ01223366668":5920,"8533":5921,"9533":5922,"5662":5923,"Ġrespiratory":5924,"Ġformal":5925,"Ġliecester":5926,"Ġinvolves":5927,"Ġreader":5928,"Ġtastes":5929,"6578":5930,"Ġwold":5931,"Ġfocus":5932,"Ġinfusion":5933,"Ġaccording":5934,"Ġvacan":5935,"7195":5936,"Ġsightseeing":5937,"Ġfussy":5938,"Ġnoddle":5939,"Ġelaborate":5940,"540":5941,"6247":5942,"6193":5943,"9493":5944,"9102":5945,"aking":5946,"ager":5947,"cap":5948,"fv":5949,"fre":5950,"kz":5951,"med":5952,"pg":5953,"pu":5954,"pounds":5955,"tit":5956,"tical":5957,"ude":5958,"yo":5959,"Ġtat":5960,"Ġao":5961,"rey":5962,"outh":5963,"Ġive":5964,"Ġhf":5965,"Ġhit":5966,"Ġhis":5967,"Ġwd":5968,"ense":5969,"ensi":5970,"Ġnt":5971,"Ġned":5972,"Ġbound":5973,"Ġbbq":5974,"Ġree":5975,"Ġsop":5976,"ark":5977,"amg":5978,"aves":5979,"Ġdoct":5980,"Ġ241":5981,"Ġaddmiss":5982,"0031":5983,"Ġoy":5984,"Ġjc":5985,"Ġgreater":5986,"231":5987,"Ġentered":5988,"Ġsatru":5989,"Ġmanager":5990,"Ġ61":5991,"Ġround":5992,"Ġ120":5993,"Ġcritical":5994,"Ġvic":5995,"Ġ214":5996,"Ġ97":5997,"Ġselected":5998,"Ġ0760":5999,"Ġ0754":6000,"1755":6001,"Ġhospitals":6002,"0797":6003,"666":6004,"2929":6005,"406":6006,"Ġquie":6007,"Ġbelfrey":6008,"6060":6009,"Ġrighty":6010,"4679":6011,"3257":6012,"Ġlocals":6013,"Ġzj":6014,"904":6015,"0919":6016,"rence":6017,"386":6018,"7734":6019,"8042":6020,"1819":6021,"1828":6022,"2512":6023,"5686":6024,"Ġ#:":6025,"Ġyup":6026,"7057":6027,"Ġtouristy":6028,"762":6029,"Ġ0122335388":6030,"Ġroutes":6031,"Ġreccommend":6032,"9933":6033,"Ġofferings":6034,"Ġclarification":6035,"4724":6036,"Ġfax":6037,"7430":6038,"Ġ01223577786":6039,"Ġsupply":6040,"Ġdirection":6041,"9557":6042,"Ġideals":6043,"Ġexamples":6044,"Ġselections":6045,"Ġreferral":6046,"zlr":6047,"Ġlimited":6048,"Ġintermediate":6049,"493131":6050,"Ġmoderatly":6051,"Ġneighborhood":6052,"Ġferret":6053,"Ġoverwhelmed":6054,"Ġneurosciences":6055,"5298":6056,"Ġ01245493131":6057,"Ġsplur":6058,"Ġadvise":6059,"Ġsatruday":6060,"0467":6061,"0209":6062,"3782":6063,"3404":6064,"488":6065,"5331":6066,"677":6067,"6105":6068,"809":6069,"8265":6070,"cv":6071,"ccer":6072,"ei":6073,"fp":6074,"fit":6075,"hle":6076,"igin":6077,"iww":6078,"kb":6079,"mq":6080,"nic":6081,"qi":6082,"qui":6083,"sm":6084,"sli":6085,"ught":6086,"wad":6087,"xm":6088,"xn":6089,"yt":6090,"zuy":6091,"Ġtd":6092,"Ġtp":6093,"Ġtrian":6094,"raint":6095,"Ġhea":6096,"aturant":6097,"Ġbum":6098,"Ġln":6099,"Ġdit":6100,"rie":6101,"ania":6102,"lev":6103,"Ġbooks":6104,"Ġiscb":6105,"Ġgz":6106,"Ġgui":6107,"Ġ112":6108,"omes":6109,"Ġ41518":6110,"iting":6111,"Ġpocke":6112,"Ġstra":6113,"Ġstran":6114,"Ġorigin":6115,"Ġmusli":6116,"Ġsomewh":6117,"234":6118,"Ġsuite":6119,"125":6120,"Ġseen":6121,"Ġrock":6122,"Ġrave":6123,"Ġdiffic":6124,"Ġsoccer":6125,"Ġ102":6126,"Ġident":6127,"Ġacting":6128,"Ġarchite":6129,"Ġ92":6130,"213":6131,"1108":6132,"Ġ0715":6133,"Ġ0712":6134,"Ġ0727":6135,"Ġ0749":6136,"Ġ0757":6137,"Ġsearches":6138,"Ġplaning":6139,"0774":6140,"2965":6141,"Ġfunds":6142,"0192":6143,"2771":6144,"395":6145,"4625":6146,"4626":6147,"Ġresaturant":6148,"322":6149,"4329":6150,"Ġ01223356060":6151,"0686":6152,"Ġerania":6153,"572":6154,"5713":6155,"Ġrestraint":6156,"Ġscream":6157,"4447":6158,"1830":6159,"1873":6160,"2530":6161,"2840":6162,"Ġfitzroy":6163,"Ġtypical":6164,"Ġblow":6165,"Ġcorrectly":6166,"Ġuseful":6167,"Ġbelfast":6168,"1472":6169,"Ġ302":6170,"Ġcottage":6171,"6939":6172,"9445":6173,"Ġregards":6174,"Ġcaught":6175,"Ġmorden":6176,"Ġdesign":6177,"Ġfactor":6178,"8530":6179,"ign":6180,"Ġ0122327618":6181,"8314":6182,"Ġconvenience":6183,"Ġdeals":6184,"Ġ01223300552":6185,"Ġoperate":6186,"Ġkidding":6187,"Ġpulls":6188,"Ġ01223461661":6189,"Ġhandy":6190,"guing":6191,"Ġfills":6192,"Ġallows":6193,"Ġguesthomes":6194,"7092":6195,"Ġforever":6196,"chture":6197,"9892":6198,"Ġslight":6199,"Ġdesperately":6200,"Ġintriguing":6201,"5401":6202,"quisit":6203,"Ġpocket":6204,"Ġmuslim":6205,"Ġsomewhat":6206,"Ġarchitechture":6207,"Ġscreaming":6208,"Ġdesignation":6209,"Ġ01223276182":6210,"0357":6211,"3240":6212,"3158":6213,"5504":6214,"7299":6215,"977":6216,"970":6217,"9263":6218,"ara":6219,"acial":6220,"bster":6221,"eq":6222,"fk":6223,"fod":6224,"fly":6225,"fact":6226,"fzc":6227,"ho":6228,"have":6229,"hrs":6230,"io":6231,"iw":6232,"ior":6233,"jw":6234,"net":6235,"nus":6236,"night":6237,"pgq":6238,"sin":6239,"tance":6240,"uvd":6241,"vu":6242,"vis":6243,"yb":6244,"Ġarive":6245,"Ġthor":6246,"Ġil":6247,"Ġpath":6248,"Ġwont":6249,"Ġwrite":6250,"Ġyh":6251,"Ġfg":6252,"Ġrecomm":6253,"Ġlq":6254,"ofacial":6255,"Ġdh":6256,"Ġdk":6257,"Ġmc":6258,"lest":6259,"Ġrestauarant":6260,"Ġtraining":6261,"Ġissu":6262,"iest":6263,"belled":6264,"esp":6265,"ester":6266,"estinal":6267,"Ġliar":6268,"Ġliter":6269,"llofacial":6270,"Ġchat":6271,"Ġleich":6272,"Ġlecester":6273,"Ġbee":6274,"urs":6275,"itate":6276,"indian":6277,"Ġlobster":6278,"Ġadmit":6279,"xillofacial":6280,"utes":6281,"Ġrequesting":6282,"Ġoral":6283,"3087":6284,"Ġeight":6285,"Ġshare":6286,"verse":6287,"Ġeas":6288,"Ġpostcard":6289,"Ġkz":6290,"ailing":6291,"Ġservers":6292,"Ġ0122359":6293,"Ġmaxillofacial":6294,"Ġopitions":6295,"Ġ118":6296,"Ġ1223":6297,"sities":6298,"Ġdiffer":6299,"Ġ140":6300,"Ġinterenet":6301,"Ġ189":6302,"Ġ0122333948":6303,"Ġvr":6304,"Ġ206":6305,"Ġ2017":6306,"Ġconference":6307,"Ġ0709":6308,"Ġuniversities":6309,"Ġplane":6310,"Ġgonna":6311,"249":6312,"1709":6313,"0743":6314,"0755":6315,"0776":6316,"ssible":6317,"667":6318,"6628":6319,"Ġnearly":6320,"2939":6321,"2974":6322,"afe":6323,"Ġapreci":6324,"Ġlabelled":6325,"Ġbelfy":6326,"8824":6327,"Ġcloset":6328,"5413":6329,"5953":6330,"328":6331,"Ġexcurs":6332,"Ġzm":6333,"Ġzn":6334,"Ġimpo":6335,"4977":6336,"4975":6337,"483":6338,"Ġopened":6339,"3600":6340,"5558":6341,"fyq":6342,"Ġvisits":6343,"intestinal":6344,"1342":6345,"562":6346,"7935":6347,"Ġparace":6348,"billary":6349,"6834":6350,"Ġtwice":6351,"Ġtwenty":6352,"7360":6353,"owned":6354,"6954":6355,"6982":6356,"674":6357,"8636":6358,"Ġunderstood":6359,"3720":6360,"3736":6361,"Ġhuge":6362,"fta":6363,"6226":6364,"Ġ01223350106":6365,"Ġetrance":6366,"flx":6367,"Ġ01223324351":6368,"agg":6369,"Ġmisread":6370,"Ġrestuarants":6371,"Ġtreating":6372,"Ġreferring":6373,"Ġfinished":6374,"Ġcrossed":6375,"Ġ01223359506":6376,"Ġhurry":6377,"Ġregional":6378,"Ġpriority":6379,"bourn":6380,"Ġfulbourn":6381,"Ġintersted":6382,"Ġgastrointestinal":6383,"Ġcelebrate":6384,"8792":6385,"Ġhepato":6386,"Ġattempted":6387,"8399":6388,"9452":6389,"Ġrenowned":6390,"Ġdemands":6391,"8272":6392,"Ġinsist":6393,"Ġincrease":6394,"Ġhesitate":6395,"Ġrestaurnt":6396,"Ġdoctors":6397,"Ġslightly":6398,"Ġpathological":6399,"Ġissues":6400,"Ġliterally":6401,"Ġleichester":6402,"Ġadmittance":6403,"Ġeighteen":6404,"Ġ01223339485":6405,"Ġapreciate":6406,"Ġimpossible":6407,"Ġhepatobillary":6408,"1159":6409,"338":6410,"412":6411,"4494":6412,"4604":6413,"654":6414,"7309":6415,"857":6416,"826":6417,"863":6418,"8202":6419,"9083":6420,"bod":6421,"dm":6422,"did":6423,"eo":6424,"fr":6425,"fgd":6426,"ground":6427,"hz":6428,"ib":6429,"jmy":6430,"kely":6431,"lp":6432,"mh":6433,"mj":6434,"mtl":6435,"qt":6436,"uk":6437,"vth":6438,"Ġou":6439,"Ġtamp":6440,"Ġik":6441,"Ġir":6442,"Ġhz":6443,"Ġpf":6444,"Ġpn":6445,"Ġpu":6446,"Ġwj":6447,"Ġwv":6448,"Ġnd":6449,"Ġfast":6450,"Ġfff":6451,"atal":6452,"Ġbs":6453,"Ġbt":6454,"Ġbz":6455,"Ġbay":6456,"Ġreside":6457,"Ġrelev":6458,"Ġlg":6459,"Ġlk":6460,"Ġll":6461,"Ġlx":6462,"stars":6463,"Ġsb":6464,"Ġsy":6465,"Ġsca":6466,"Ġmt":6467,"Ġgj":6468,"Ġgdp":6469,"Ġgxq":6470,"Ġ115":6471,"Ġlied":6472,"Ġwil":6473,"Ġstages":6474,"llars":6475,"Ġtheres":6476,"Ġdollars":6477,"ume":6478,"Ġleg":6479,"alour":6480,"Ġarti":6481,"Ġ400":6482,"und":6483,"univer":6484,"bled":6485,"Ġnorm":6486,"00085":6487,"00005":6488,"Ġlock":6489,"lyl":6490,"3043":6491,"Ġeve":6492,"elling":6493,"Ġjig":6494,"Ġmusems":6495,"Ġkp":6496,"120":6497,"Ġfrills":6498,"Ġtravelers":6499,"Ġtues":6500,"Ġafterwards":6501,"Ġgift":6502,"Ġvc":6503,"Ġvk":6504,"Ġvice":6505,"iza":6506,"Ġ91":6507,"Ġcheers":6508,"Ġcontacted":6509,"Ġairpl":6510,"Ġqg":6511,"Ġ0717":6512,"Ġ0708":6513,"Ġ0706":6514,"Ġ0774":6515,"clubs":6516,"6692":6517,"2950":6518,"2969":6519,"Ġeverybod":6520,"3544":6521,"109":6522,"1039":6523,"5465":6524,"0141":6525,"cae":6526,"4161":6527,"Ġagree":6528,"ohu":6529,"Ġzu":6530,"909":6531,"9020":6532,"Ġcountryside":6533,"4849":6534,"0680":6535,"0637":6536,"3685":6537,"Ġsuites":6538,"2863":6539,"Ġcommun":6540,"Ġdescri":6541,"269":6542,"5343":6543,"Ġfixed":6544,"Ġmentioning":6545,"8913":6546,"Ġtechnical":6547,"147":6548,"1412":6549,"763":6550,"Ġbuff":6551,"Ġcharming":6552,"Ġ2800":6553,"Ġdata":6554,"464646":6555,"6745":6556,"8610":6557,"Ġerrors":6558,"Ġ01223500005":6559,"Ġclarifying":6560,"9611":6561,"8224":6562,"waoz":6563,"Ġrecord":6564,"Ġversa":6565,"lfriend":6566,"Ġgirlfriend":6567,"Ġdependancy":6568,"0315":6569,"Ġqualities":6570,"Ġmisin":6571,"Ġfiguring":6572,"zcbl":6573,"Ġconveniently":6574,"Ġsqualour":6575,"Ġsupervis":6576,"kcvth":6577,"Ġaccomid":6578,"bifd":6579,"Ġlives":6580,"Ġoccup":6581,"vrv":6582,"Ġoddly":6583,"Ġsatisfied":6584,"1465":6585,"Ġ1223316074":6586,"Ġibiza":6587,"Ġmusuem":6588,"lovell":6589,"Ġ01223217314":6590,"7062":6591,"Ġsplurge":6592,"fgdre":6593,"Ġtampa":6594,"Ġfffw":6595,"Ġrelevant":6596,"Ġscale":6597,"Ġgxqzcbl":6598,"university":6599,"Ġairplane":6600,"Ġeverybody":6601,"kcvthj":6602,"311":6603,"3194":6604,"3602":6605,"439":6606,"5365":6607,"6167":6608,"717":6609,"7276":6610,"7447":6611,"858":6612,"841":6613,"8705":6614,"8361":6615,"8199":6616,"8762":6617,"9082":6618,"ade":6619,"cn":6620,"ebg":6621,"fbu":6622,"gac":6623,"histic":6624,"ild":6625,"kj":6626,"lst":6627,"nvl":6628,"pwj":6629,"qr":6630,"qx":6631,"qam":6632,"quire":6633,"rm":6634,"sb":6635,"sce":6636,"sume":6637,"ucr":6638,"uiring":6639,"vgm":6640,"wz":6641,"xah":6642,"yu":6643,"ztn":6644,"Ġul":6645,"Ġtb":6646,"Ġtep":6647,"rel":6648,"Ġther":6649,"Ġthier":6650,"elled":6651,"Ġhan":6652,"Ġct":6653,"Ġcert":6654,"Ġcult":6655,"Ġthee":6656,"Ġyop":6657,"Ġfaster":6658,"atter":6659,"Ġbother":6660,"Ġboom":6661,"Ġbott":6662,"Ġls":6663,"Ġlco":6664,"ria":6665,"Ġsna":6666,"let":6667,"ses":6668,"Ġforth":6669,"Ġgain":6670,"Ġlively":6671,"Ġwhose":6672,"ument":6673,"Ġamb":6674,"Ġlookout":6675,"Ġpleased":6676,"Ġtasce":6677,"Ġ264":6678,"Ġrequiring":6679,"ssl":6680,"Ġlovers":6681,"Ġbyart":6682,"Ġstr":6683,"Ġstuck":6684,"Ġgoon":6685,"Ġpresume":6686,"Ġabd":6687,"0032":6688,"fid":6689,"1584":6690,"459":6691,"4549":6692,"Ġeth":6693,"Ġshortford":6694,"Ġsurely":6695,"129":6696,"vided":6697,"Ġleaver":6698,"Ġdivided":6699,"Ġrq":6700,"Ġhasn":6701,"booked":6702,"Ġperfre":6703,"Ġue":6704,"Ġuj":6705,"Ġcritera":6706,"Ġacquire":6707,"Ġrides":6708,"gged":6709,"Ġbarrel":6710,"2164":6711,"Ġbroxb":6712,"1144":6713,"Ġqq":6714,"Ġqji":6715,"Ġ0700":6716,"Ġ0745":6717,"Ġ0724":6718,"Ġ0750":6719,"Ġ0759":6720,"Ġ0719":6721,"Ġ0778":6722,"Ġ0726":6723,"Ġ0789":6724,"splt":6725,"1791":6726,"0721":6727,"5042":6728,"5056":6729,"665":6730,"089":6731,"3596":6732,"Ġcloseby":6733,"Ġwhilst":6734,"2755":6735,"2704":6736,"468":6737,"2052":6738,"1923":6739,"438":6740,"4334":6741,"Ġturns":6742,"168":6743,"1688":6744,"0945":6745,"0996":6746,"498":6747,"Ġprotu":6748,"Ġ334":6749,"578":6750,"5720":6751,"Ġluckily":6752,"suq":6753,"Ġdiner":6754,"Ġaddenbrook":6755,"4212":6756,"380":6757,"776":6758,"Ġscatter":6759,"Ġbrasseri":6760,"Ġ012233650":6761,"1898":6762,"1892":6763,"253":6764,"Ġreastaurant":6765,"792":6766,"3330":6767,"3371":6768,"Ġpalce":6769,"Ġpalance":6770,"Ġdetailed":6771,"Ġbusy":6772,"8932":6773,"6310":6774,"9835":6775,"9956":6776,"Ġcaridge":6777,"4757":6778,"3745":6779,"3732":6780,"Ġshortest":6781,"Ġskim":6782,"Ġdude":6783,"Ġkeeps":6784,"7420":6785,"Ġhuts":6786,"3138":6787,"0427":6788,"Ġumber":6789,"jsr":6790,"8519":6791,"Ġcruises":6792,"swx":6793,"Ġputting":6794,"Ġretain":6795,"Ġboss":6796,"Ġboxbourne":6797,"crn":6798,"Ġpleasant":6799,"Ġesm":6800,"Ġclean":6801,"mfr":6802,"Ġwallet":6803,"Ġrateing":6804,"nights":6805,"hcw":6806,"Ġplast":6807,"Ġ01223338100":6808,"Ġtalked":6809,"Ġ0122350333":6810,"vfa":6811,"Ġboarding":6812,"Ġcomplexes":6813,"8685":6814,"Ġneurosurgery":6815,"2503":6816,"Ġconsistent":6817,"7542":6818,"4003":6819,"Ġhepatology":6820,"Ġattempting":6821,"Ġmusuems":6822,"Ġfourteen":6823,"Ġinput":6824,"Ġmiscommunication":6825,"Ġlocales":6826,"9886":6827,"Ġstrike":6828,"Ġvacancy":6829,"Ġsophistic":6830,"Ġaddmission":6831,"Ġquieter":6832,"Ġdittion":6833,"Ġstrange":6834,"Ġoriginal":6835,"undant":6836,"Ġkpfta":6837,"xahu":6838,"Ġtepin":6839,"Ġculture":6840,"Ġyopu":6841,"Ġbottom":6842,"Ġsophisticated":6843,"0363":6844,"318":6845,"7245":6846,"800":6847,"848":6848,"836":6849,"8151":6850,"9904":6851,"cf":6852,"cul":6853,"eb":6854,"gj":6855,"gun":6856,"hat":6857,"hich":6858,"iat":6859,"ios":6860,"lose":6861,"lhi":6862,"mof":6863,"mps":6864,"nook":6865,"namg":6866,"overed":6867,"qk":6868,"sll":6869,"sult":6870,"tis":6871,"usted":6872,"vjp":6873,"wp":6874,"xr":6875,"zvm":6876,"Ġxi":6877,"Ġxb":6878,"Ġens":6879,"Ġts":6880,"Ġtz":6881,"Ġtar":6882,"Ġtmo":6883,"Ġai":6884,"Ġaction":6885,"erate":6886,"ersp":6887,"eratin":6888,"Ġthak":6889,"rably":6890,"Ġhdt":6891,"Ġpg":6892,"Ġpage":6893,"Ġpsy":6894,"Ġcq":6895,"Ġceratin":6896,"Ġyv":6897,"Ġyor":6898,"Ġfd":6899,"Ġflu":6900,"Ġfid":6901,"atform":6902,"Ġbnook":6903,"start":6904,"Ġsum":6905,"Ġsmi":6906,"Ġmot":6907,"Ġmother":6908,"Ġmailing":6909,"veg":6910,"ended":6911,"leu":6912,"Ġgk":6913,"Ġatra":6914,"Ġ1000":6915,"thur":6916,"Ġstamps":6917,"Ġwhee":6918,"Ġdoe":6919,"Ġleas":6920,"Ġonward":6921,"Ġcente":6922,"petit":6923,"sis":6924,"Ġtiger":6925,"lac":6926,"Ġwithersp":6927,"chiat":6928,"Ġmodrate":6929,"Ġalert":6930,"Ġ011":6931,"utt":6932,"utish":6933,"fil":6934,"Ġasain":6935,"301":6936,"3055":6937,"1549":6938,"1534":6939,"1575":6940,"Ġep":6941,"ulance":6942,"Ġshab":6943,"Ġshown":6944,"icy":6945,"Ġwehave":6946,"Ġtraveler":6947,"Ġpreferrably":6948,"Ġdistra":6949,"Ġdiverse":6950,"Ġ81":6951,"Ġ623":6952,"Ġrg":6953,"Ġavailabi":6954,"cisive":6955,"Ġperform":6956,"Ġmini":6957,"Ġminim":6958,"Ġvf":6959,"Ġpoolway":6960,"2130":6961,"2182":6962,"Ġspelling":6963,"Ġspicy":6964,"Ġconsult":6965,"Ġstep":6966,"Ġplatform":6967,"Ġnorwhich":6968,"Ġcontacts":6969,"Ġqh":6970,"vals":6971,"Ġ0736":6972,"Ġ0755":6973,"Ġ0744":6974,"Ġ0763":6975,"Ġ0796":6976,"Ġ0703":6977,"Ġlongs":6978,"Ġfirm":6979,"2471":6980,"077":6981,"Ġcompetit":6982,"abet":6983,"6607":6984,"6697":6985,"aft":6986,"Ġheads":6987,"Ġseating":6988,"5266":6989,"3212":6990,"ltiy":6991,"1958":6992,"4134":6993,"Ġzl":6994,"Ġzoo":6995,"9062":6996,"0953":6997,"497":6998,"4813":6999,"4861":7000,"0638":7001,"Ġours":7002,"5711":7003,"5797":7004,"Ġrestraunts":7005,"514":7006,"7727":7007,"8026":7008,"Ġscrat":7009,"2823":7010,"5694":7011,"Ġgroupon":7012,"3343":7013,"7020":7014,"Ġxn":7015,"Ġxr":7016,"uddo":7017,"ivity":7018,"Ġplayground":7019,"Ġoffensive":7020,"7656":7021,"Ġeffi":7022,"Ġ375":7023,"6741":7024,"9969":7025,"8714":7026,"3735":7027,"Ġskip":7028,"Ġducking":7029,"Ġsurprised":7030,"Ġindecisive":7031,"voq":7032,"glc":7033,"Ġcabs":7034,"Ġreview":7035,"centre":7036,"myl":7037,"Ġbox":7038,"gyc":7039,"Ġbrutish":7040,"Ġdiscount":7041,"Ġdisclose":7042,"Ġdiscovered":7043,"pdt":7044,"Ġcancelled":7045,"jmt":7046,"xcd":7047,"Ġbringing":7048,"Ġdisappointed":7049,"wcf":7050,"Ġconnectivity":7051,"2129":7052,"entials":7053,"8177":7054,"Ġbankok":7055,"Ġcash":7056,"8799":7057,"7548":7058,"8290":7059,"9383":7060,"4669":7061,"3190":7062,"Ġpaint":7063,"6583":7064,"Ġseriously":7065,"Ġreturn":7066,"Ġreturned":7067,"moderate":7068,"Ġvalu":7069,"Ġhtels":7070,"Ġbonus":7071,"Ġobvious":7072,"Ġphysic":7073,"Ġcenre":7074,"Ġanythign":7075,"Ġreese":7076,"Ġguide":7077,"Ġidentify":7078,"Ġpocketbook":7079,"Ġdiffernt":7080,"Ġzuleu":7081,"Ġmisinformation":7082,"Ġlcoated":7083,"Ġambulance":7084,"tisux":7085,"Ġensure":7086,"Ġtarget":7087,"Ġtmov":7088,"Ġthaks":7089,"Ġpsychiat":7090,"thursday":7091,"Ġwitherspoon":7092,"Ġshabby":7093,"Ġdistracted":7094,"Ġavailabiltiy":7095,"Ġminimum":7096,"Ġcompetitors":7097,"Ġscratch":7098,"uddov":7099,"Ġpsychiatry":7100,"''":7101,"024":7102,"0121":7103,"2292":7104,"3390":7105,"3765":7106,"4170":7107,"4351":7108,"517":7109,"5159":7110,"6368":7111,"6386":7112,"758":7113,"7213":7114,"7578":7115,"813":7116,"8241":7117,"980":7118,"9178":7119,"9276":7120,"cian":7121,"city":7122,"cqw":7123,"cvk":7124,"dj":7125,"dv":7126,"down":7127,"friend":7128,"gt":7129,"gne":7130,"hm":7131,"hwc":7132,"jww":7133,"khouse":7134,"ml":7135,"mic":7136,"no":7137,"nrt":7138,"oil":7139,"plug":7140,"soo":7141,"tm":7142,"toy":7143,"wch":7144,"wah":7145,"wka":7146,"wfn":7147,"ym":7148,"yln":7149,"yrx":7150,"yzl":7151,"Ġom":7152,"Ġough":7153,"Ġtc":7154,"Ġtg":7155,"Ġaen":7156,"rection":7157,"erine":7158,"ondoor":7159,"oux":7160,"Ġij":7161,"Ġimm":7162,"Ġiron":7163,"elp":7164,"elves":7165,"Ġhh":7166,"Ġhl":7167,"Ġcp":7168,"Ġcz":7169,"Ġwti":7170,"Ġyrip":7171,"Ġyelp":7172,"Ġns":7173,"Ġnad":7174,"Ġnyp":7175,"Ġft":7176,"Ġblo":7177,"Ġboy":7178,"Ġbzx":7179,"Ġinstru":7180,"Ġlp":7181,"Ġlw":7182,"Ġdd":7183,"Ġtoay":7184,"ants":7185,"Ġsom":7186,"Ġsia":7187,"Ġsaw":7188,"Ġmd":7189,"Ġmp":7190,"Ġmuti":7191,"Ġhote":7192,"Ġrestarant":7193,"sey":7194,"cep":7195,"Ġbookm":7196,"Ġgc":7197,"Ġgar":7198,"Ġggo":7199,"ldq":7200,"thu":7201,"Ġcandid":7202,"Ġdoor":7203,"Ġatta":7204,"Ġlease":7205,"Ġcentr":7206,"Ġtips":7207,"Ġdepature":7208,"Ġtaondoor":7209,"urous":7210,"chine":7211,"wnx":7212,"Ġ480":7213,"ghn":7214,"ung":7215,"Ġnotch":7216,"Ġexpens":7217,"Ġranged":7218,"utf":7219,"utton":7220,"Ġstb":7221,"rolls":7222,"Ġabundant":7223,"0094":7224,"Ġassit":7225,"Ġasap":7226,"307":7227,"3076":7228,"1542":7229,"Ġinterned":7230,"451":7231,"4506":7232,"Ġew":7233,"Ġez":7234,"Ġgem":7235,"Ġjd":7236,"Ġju":7237,"Ġjjwe":7238,"icke":7239,"Ġkl":7240,"Ġksh":7241,"Ġkhb":7242,"vily":7243,"Ġthurday":7244,"Ġthursdays":7245,"Ġ1500":7246,"Ġ1545":7247,"Ġwhereas":7248,"Ġmachine":7249,"Ġ67":7250,"Ġrrn":7251,"luar":7252,"Ġsever":7253,"iav":7254,"Ġunplug":7255,"Ġrain":7256,"Ġperfer":7257,"Ġ1414":7258,"Ġbeds":7259,"Ġbedroom":7260,"Ġuc":7261,"Ġuz":7262,"Ġ107":7263,"Ġparticluar":7264,"Ġrefrence":7265,"Ġacade":7266,"Ġspeaking":7267,"Ġ0122334900":7268,"Ġvzf":7269,"Ġcars":7270,"217":7271,"218":7272,"219":7273,"Ġspoil":7274,"uese":7275,"Ġplcae":7276,"Ġupon":7277,"Ġnorway":7278,"Ġqx":7279,"Ġmarvel":7280,"made":7281,"Ġpicks":7282,"Ġcineman":7283,"Ġ0740":7284,"Ġ0752":7285,"Ġ0798":7286,"Ġ0772":7287,"Ġ0793":7288,"Ġ0797":7289,"Ġsearched":7290,"ttr":7291,"071":7292,"076":7293,"Ġpizzaria":7294,"6645":7295,"6698":7296,"297":7297,"356":7298,"3577":7299,"605":7300,"5433":7301,"5476":7302,"Ġhebf":7303,"013":7304,"0123":7305,"Ġsett":7306,"469":7307,"4680":7308,"ucks":7309,"1978":7310,"Ġconfirming":7311,"Ġpacking":7312,"Ġzk":7313,"Ġzz":7314,"Ġzsd":7315,"Ġgrabb":7316,"169":7317,"1656":7318,"0922":7319,"Ġcorkhouse":7320,"Ġcorrection":7321,"Ġautom":7322,"Ġwarkwoth":7323,"Ġchanges":7324,"4824":7325,"Ġhomemade":7326,"Ġsending":7327,"Ġcollage":7328,"5108":7329,"3847":7330,"8054":7331,"1854":7332,"1827":7333,"1879":7334,"1316":7335,"2521":7336,"569":7337,"Ġpunti":7338,"347":7339,"Ġtimeslot":7340,"Ġtyping":7341,"337":7342,"3342":7343,"used":7344,"268":7345,"2621":7346,"zzi":7347,"2257":7348,"531":7349,"Ġxxx":7350,"person":7351,"6477":7352,"7678":7353,"Ġjamacian":7354,"6312":7355,"9823":7356,"9460":7357,"8659":7358,"3730":7359,"Ġarranged":7360,"9629":7361,"9644":7362,"3130":7363,"upu":7364,"0201":7365,"9345":7366,"Ġcatherine":7367,"Ġcrazy":7368,"8510":7369,"igs":7370,"Ġexperiment":7371,"wyiu":7372,"Ġretrie":7373,"zcf":7374,"5669":7375,"Ġbrother":7376,"ljghn":7377,"Ġthird":7378,"Ġyears":7379,"vhw":7380,"ediately":7381,"Ġsmart":7382,"8431":7383,"mnu":7384,"oeik":7385,"Ġ01223360409":7386,"rnm":7387,"jqm":7388,"01223358":7389,"01223464646":7390,"Ġdecision":7391,"ova":7392,"Ġdrink":7393,"Ġeggrolls":7394,"Ġsituation":7395,"Ġfocused":7396,"Ġadventurous":7397,"23727410":7398,"Ġcovering":7399,"Ġbasically":7400,"6585":7401,"Ġxmcht":7402,"Ġprompt":7403,"Ġgoden":7404,"Ġsentence":7405,"Ġrestaruants":7406,"Ġfortunately":7407,"Ġvicinity":7408,"Ġheavily":7409,"9775":7410,"flywy":7411,"Ġputs":7412,"Ġbziav":7413,"Ġlxmfr":7414,"Ġcommunity":7415,"7177":7416,"Ġ01123727410":7417,"Ġourselves":7418,"gneb":7419,"soopr":7420,"toyzuy":7421,"wahk":7422,"Ġought":7423,"Ġimmediately":7424,"Ġwtih":7425,"Ġnados":7426,"Ġblocks":7427,"Ġboyfriend":7428,"Ġinstructions":7429,"Ġsiagon":7430,"Ġmutiple":7431,"Ġgarbled":7432,"Ġcandidates":7433,"Ġtaondoori":7434,"Ġexpensve":7435,"Ġjjweo":7436,"Ġkhbljghn":7437,"Ġrrnttr":7438,"Ġacademic":7439,"Ġmarvelous":7440,"Ġhebfpw":7441,"Ġgrabbing":7442,"Ġretrieve":7443,"01223358966":7444,"Ġlxmfrzlr":7445,"0277":7446,"1662":7447,"1395":7448,"207":7449,"312":7450,"3293":7451,"3450":7452,"4194":7453,"4202":7454,"519":7455,"5389":7456,"655":7457,"6210":7458,"6387":7459,"6763":7460,"7293":7461,"7604":7462,"7075":7463,"845":7464,"8604":7465,"9202":7466,"9802":7467,"9404":7468,"aav":7469,"bcode":7470,"csa":7471,"cln":7472,"duf":7473,"ems":7474,"eological":7475,"fb":7476,"fu":7477,"gp":7478,"gth":7479,"gob":7480,"iwl":7481,"jna":7482,"kso":7483,"kcy":7484,"kvo":7485,"kbz":7486,"lbs":7487,"mend":7488,"mwi":7489,"oxq":7490,"pax":7491,"park":7492,"ruarant":7493,"rwf":7494,"sbs":7495,"sfs":7496,"test":7497,"tered":7498,"tvt":7499,"vir":7500,"vpa":7501,"vsd":7502,"wkv":7503,"wbn":7504,"xl":7505,"xfy":7506,"xtu":7507,"yd":7508,"yi":7509,"zaft":7510,"Ġould":7511,"Ġtf":7512,"Ġtemporary":7513,"Ġacommod":7514,"Ġaim":7515,"inet":7516,"sty":7517,"onment":7518,"oumg":7519,"Ġiam":7520,"Ġhc":7521,"Ġhect":7522,"Ġpq":7523,"Ġpv":7524,"Ġpur":7525,"Ġpap":7526,"Ġwand":7527,"Ġwgu":7528,"Ġnz":7529,"Ġnome":7530,"Ġninet":7531,"orge":7532,"Ġfh":7533,"Ġfk":7534,"Ġfbz":7535,"Ġbrow":7536,"Ġbvd":7537,"Ġbuses":7538,"Ġrever":7539,"Ġyoud":7540,"Ġlj":7541,"Ġlap":7542,"Ġldy":7543,"Ġdg":7544,"Ġdx":7545,"Ġdie":7546,"Ġdance":7547,"Ġdream":7548,"Ġtodo":7549,"ooking":7550,"Ġsick":7551,"Ġmh":7552,"Ġmr":7553,"Ġhottest":7554,"Ġgs":7555,"Ġgam":7556,"Ġgorge":7557,"edxfy":7558,"thent":7559,"Ġlikely":7560,"Ġwipp":7561,"Ġstaurday":7562,"ents":7563,"Ġcanbridge":7564,"opok":7565,"Ġitems":7566,"Ġattrib":7567,"oden":7568,"Ġfoodie":7569,"Ġtyoe":7570,"tery":7571,"Ġtasty":7572,"Ġ21223":7573,"Ġ266":7574,"Ġ414":7575,"itude":7576,"Ġmodest":7577,"Ġexpensi":7578,"Ġload":7579,"Ġrang":7580,"Ġadult":7581,"xiw":7582,"ision":7583,"Ġposh":7584,"Ġadded":7585,"Ġstress":7586,"Ġstud":7587,"irg":7588,"irdo":7589,"Ġlocally":7590,"Ġpostbcode":7591,"Ġ525":7592,"fii":7593,"157":7594,"1596":7595,"4594":7596,"Ġepensive":7597,"Ġeup":7598,"Ġegy":7599,"Ġeqn":7600,"Ġeopok":7601,"Ġgetaway":7602,"Ġjq":7603,"2357":7604,"2334":7605,"Ġweirdo":7606,"Ġkf":7607,"Ġkci":7608,"Ġkvv":7609,"Ġkigs":7610,"adoux":7611,"Ġdoesn":7612,"Ġcbagg":7613,"Ġcbooking":7614,"Ġlonely":7615,"Ġrvsd":7616,"Ġindic":7617,"Ġsepa":7618,"tions":7619,"Ġroles":7620,"Ġrater":7621,"Ġraise":7622,"akfzc":7623,"Ġ168":7624,"Ġub":7625,"Ġmyster":7626,"Ġitalain":7627,"Ġratinge":7628,"Ġspeed":7629,"Ġcalcul":7630,"Ġminton":7631,"Ġvo":7632,"Ġvision":7633,"Ġeurology":7634,"Ġacorns":7635,"Ġarcheological":7636,"Ġnewest":7637,"Ġseventy":7638,"Ġcondo":7639,"Ġsteep":7640,"114":7641,"1180":7642,"Ġbird":7643,"Ġbirmin":7644,"Ġnowhere":7645,"Ġqb":7646,"Ġdidnt":7647,"Ġassisting":7648,"Ġunfortunat":7649,"tik":7650,"Ġ0723":7651,"Ġ0721":7652,"Ġ0710":7653,"Ġ0748":7654,"Ġ0742":7655,"Ġ0718":7656,"Ġ0737":7657,"5867":7658,"twa":7659,"Ġuniverist":7660,"Ġplants":7661,"Ġfirstly":7662,"1756":7663,"1765":7664,"1704":7665,"0734":7666,"Ġswimmin":7667,"ntu":7668,"6626":7669,"6675":7670,"2952":7671,"2919":7672,"084":7673,"Ġapart":7674,"359":7675,"3515":7676,"Ġusqh":7677,"4068":7678,"Ġcousin":7679,"8873":7680,"6066":7681,"6016":7682,"Ġlottery":7683,"0146":7684,"0168":7685,"275":7686,"mmv":7687,"433":7688,"Ġloves":7689,"brained":7690,"Ġgrafit":7691,"905":7692,"9039":7693,"0995":7694,"quu":7695,"Ġnothern":7696,"4828":7697,"063":7698,"Ġenvir":7699,"Ġahve":7700,"5754":7701,"5747":7702,"5737":7703,"Ġrestruarant":7704,"3677":7705,"Ġbrah":7706,"Ġbraoden":7707,"511511":7708,"4266":7709,"5507":7710,"5567":7711,"3810":7712,"7759":7713,"7706":7714,"gdb":7715,"Ġolder":7716,"1817":7717,"Ġandres":7718,"1339":7719,"789":7720,"2519":7721,"ahm":7722,"Ġalign":7723,"2860":7724,"2854":7725,"5691":7726,"Ġsystems":7727,"Ġpasscode":7728,"262":7729,"dying":7730,"Ġ797":7731,"Ġxl":7732,"Ġxp":7733,"Ġxfd":7734,"lied":7735,"8935":7736,"Ġstandards":7737,"Ġjunior":7738,"769":7739,"Ġhappening":7740,"Ġ2828":7741,"Ġconsideration":7742,"pped":7743,"6998":7744,"8466":7745,"8420":7746,"cidcsa":7747,"9839":7748,"9876":7749,"8730":7750,"bjb":7751,"sjy":7752,"Ġstroll":7753,"7223":7754,"Ġpicnic":7755,"9635":7756,"9641":7757,"0415":7758,"Ġlanken":7759,"Ġexhibit":7760,"0212":7761,"0559":7762,"Ġ01223454550":7763,"9732":7764,"myg":7765,"Ġ012232742":7766,"Ġ01223274680":7767,"Ġextended":7768,"qyoumg":7769,"crp":7770,"ewq":7771,"fdbjb":7772,"vyr":7773,"Ġtremend":7774,"hno":7775,"kmu":7776,"vmx":7777,"sqo":7778,"ihat":7779,"vnh":7780,"vkt":7781,"zwvkt":7782,"3304":7783,"Ġstudying":7784,"znbw":7785,"jqt":7786,"uhjqt":7787,"back":7788,"Ġburden":7789,"fhhno":7790,"wmd":7791,"wxesp":7792,"8078":7793,"6572":7794,"Ġuktvt":7795,"Ġauthent":7796,"Ġneeed":7797,"Ġmoderatley":7798,"4664":7799,"dktik":7800,"ncv":7801,"3197":7802,"ddte":7803,"Ġslide":7804,"Ġdesperate":7805,"szj":7806,"Ġwildest":7807,"Ġarrrive":7808,"Ġfiltered":7809,"Ġrestaruant":7810,"Ġfrees":7811,"Ġmeghana":7812,"Ġeconomical":7813,"Ġeconomically":7814,"1152":7815,"Ġrestauant":7816,"Ġhfqyoumg":7817,"4887":7818,"8095":7819,"Ġstrapped":7820,"Ġdhdb":7821,"Ġvrzwvkt":7822,"8631":7823,"Ġdescribe":7824,"Ġaccomidate":7825,"Ġscatterbrained":7826,"Ġstrikes":7827,"Ġyork":7828,"Ġmotel":7829,"Ġspellingcity":7830,"Ġobviously":7831,"Ġaenedxfy":7832,"Ġsomwhere":7833,"parkside":7834,"rwfgm":7835,"Ġacommodate":7836,"Ġhectic":7837,"Ġpapadoux":7838,"Ġwandered":7839,"Ġnineteen":7840,"Ġbrowse":7841,"Ġreversed":7842,"Ġdieting":7843,"Ġdreams":7844,"Ġtodoay":7845,"Ġgames":7846,"Ġgorgeous":7847,"Ġwippgg":7848,"Ġattributes":7849,"Ġ21223511511":7850,"Ġstudents":7851,"Ġeupopean":7852,"Ġegyy":7853,"Ġeqnky":7854,"Ġeopokff":7855,"Ġkciwxesp":7856,"Ġcalculates":7857,"Ġbirminham":7858,"Ġuniveristy":7859,"Ġusqhznbw":7860,"Ġgrafitti":7861,"Ġenvironment":7862,"Ġaligns":7863,"Ġtremendous":7864,"Ġauthentic":7865,"'m":7866,"029":7867,"032":7868,"2211":7869,"3246":7870,"440":7871,"4294":7872,"4322":7873,"558":7874,"5234":7875,"5077":7876,"728":7877,"7355":7878,"818":7879,"869":7880,"8387":7881,"8306":7882,"8522":7883,"8406":7884,"8674":7885,"917":7886,"926":7887,"9209":7888,"9246":7889,"9219":7890,"aurant":7891,"bnk":7892,"dvil":7893,"dzz":7894,"djx":7895,"dhn":7896,"dden":7897,"eed":7898,"ebn":7899,"fpq":7900,"gmingham":7901,"gff":7902,"gcy":7903,"gpa":7904,"hw":7905,"hist":7906,"hua":7907,"herschel":7908,"iming":7909,"ikv":7910,"ivals":7911,"jor":7912,"jir":7913,"jful":7914,"koq":7915,"kpv":7916,"mon":7917,"mgy":7918,"np":7919,"nvq":7920,"oa":7921,"ove":7922,"ole":7923,"old":7924,"oas":7925,"pend":7926,"qit":7927,"qis":7928,"rnd":7929,"rfl":7930,"rces":7931,"rgdb":7932,"slf":7933,"szc":7934,"tsi":7935,"tain":7936,"tcode":7937,"tvyr":7938,"uu":7939,"uv":7940,"uing":7941,"uic":7942,"va":7943,"vma":7944,"vft":7945,"vsr":7946,"wla":7947,"xwh":7948,"xlc":7949,"xrz":7950,"yl":7951,"yway":7952,"zjf":7953,"Ġ`":7954,"Ġtend":7955,"Ġast":7956,"Ġafer":7957,"Ġakf":7958,"requisit":7959,"stish":7960,"stcu":7961,"Ġthous":7962,"Ġiv":7963,"Ġixe":7964,"Ġicqw":7965,"elene":7966,"Ġhb":7967,"Ġhs":7968,"Ġhum":7969,"Ġhits":7970,"Ġhhq":7971,"Ġpops":7972,"Ġpediatric":7973,"Ġce":7974,"Ġck":7975,"Ġcx":7976,"Ġcct":7977,"Ġcap":7978,"Ġcage":7979,"Ġckl":7980,"Ġwp":7981,"Ġwy":7982,"Ġwai":7983,"Ġtheme":7984,"Ġyp":7985,"Ġyy":7986,"Ġyay":7987,"Ġyvh":7988,"Ġycg":7989,"Ġnbor":7990,"Ġnzp":7991,"Ġnmt":7992,"orical":7993,"orious":7994,"Ġfz":7995,"Ġfest":7996,"Ġfli":7997,"Ġfvn":7998,"Ġfaves":7999,"atient":8000,"atological":8001,"Ġbm":8002,"Ġbq":8003,"Ġbw":8004,"Ġbpe":8005,"oop":8006,"Ġresi":8007,"Ġreun":8008,"Ġlf":8009,"Ġlr":8010,"Ġlies":8011,"Ġlbs":8012,"Ġlnk":8013,"Ġlvt":8014,"stala":8015,"Ġdl":8016,"Ġdp":8017,"Ġdw":8018,"Ġdci":8019,"Ġdkv":8020,"ribbean":8021,"ooked":8022,"ooksh":8023,"Ġanten":8024,"leaves":8025,"ged":8026,"Ġisherschel":8027,"Ġga":8028,"Ġgf":8029,"Ġgq":8030,"Ġgdh":8031,"Ġgdzz":8032,"arnt":8033,"thy":8034,"kei":8035,"esq":8036,"Ġliving":8037,"Ġwiki":8038,"Ġwiden":8039,"llw":8040,"oman":8041,"enture":8042,"Ġprise":8043,"Ġpricy":8044,"Ġwhch":8045,"Ġdock":8046,"Ġattaction":8047,"althy":8048,"arter":8049,"Ġonoc":8050,"pepn":8051,"Ġarcon":8052,"Ġbevm":8053,"Ġlookng":8054,"reement":8055,"Ġlookingfor":8056,"laj":8057,"lagcy":8058,"Ġtag":8059,"eaet":8060,"cha":8061,"ched":8062,"church":8063,"Ġ229":8064,"Ġ256":8065,"Ġ2662":8066,"Ġleavees":8067,"Ġ452":8068,"meg":8069,"itd":8070,"itlz":8071,"owr":8072,"Ġwilll":8073,"Ġexha":8074,"certain":8075,"Ġloal":8076,"Ġranger":8077,"Ġnorfo":8078,"Ġposr":8079,"ascular":8080,"Ġstort":8081,"Ġstrip":8082,"rogd":8083,"Ġgoint":8084,"Ġgojir":8085,"Ġprerequisit":8086,"Ġsources":8087,"Ġlocates":8088,"Ġ500":8089,"Ġ566":8090,"Ġojful":8091,"five":8092,"ressing":8093,"3057":8094,"3085":8095,"alling":8096,"4543":8097,"ulr":8098,"ulty":8099,"Ġshot":8100,"Ġwesties":8101,"Ġjx":8102,"Ġjot":8103,"Ġjum":8104,"Ġjgn":8105,"Ġcouldnt":8106,"2311":8107,"2392":8108,"Ġsucks":8109,"Ġsuccesful":8110,"Ġwealthy":8111,"Ġkj":8112,"Ġkoo":8113,"Ġcollection":8114,"Ġfrist":8115,"Ġentree":8116,"Ġthurs":8117,"Ġ1515":8118,"Ġdilton":8119,"Ġmajor":8120,"Ġrf":8121,"Ġrh":8122,"Ġrx":8123,"Ġrz":8124,"Ġseve":8125,"Ġseated":8126,"iable":8127,"oomend":8128,"Ġunite":8129,"Ġuncertain":8130,"Ġ117":8131,"Ġ1793":8132,"Ġhidden":8133,"Ġ122":8134,"cessful":8135,"Ġ1600":8136,"Ġsocial":8137,"Ġ146":8138,"Ġux":8139,"Ġuof":8140,"ckls":8141,"ckqx":8142,"Ġknows":8143,"Ġviv":8144,"Ġ195":8145,"Ġrefs":8146,"Ġspect":8147,"Ġspecifc":8148,"Ġmile":8149,"Ġmiles":8150,"Ġminor":8151,"Ġventure":8152,"Ġvascular":8153,"Ġnightli":8154,"apy":8155,"Ġbristish":8156,"Ġcuri":8157,"neh":8158,"Ġhovw":8159,"Ġarchyway":8160,"Ġnewer":8161,"Ġ93":8162,"Ġcarrib":8163,"Ġcarribbean":8164,"2118":8165,"Ġletting":8166,"ynw":8167,"itement":8168,"Ġsteet":8169,"Ġ0959":8170,"119":8171,"1160":8172,"1149":8173,"Ġcheckin":8174,"Ġbirgmingham":8175,"Ġqmy":8176,"Ġ0800":8177,"Ġboaters":8178,"Ġ0729":8179,"Ġ0701":8180,"Ġ0732":8181,"Ġ0716":8182,"Ġ0713":8183,"Ġ0776":8184,"Ġ0767":8185,"Ġ0786":8186,"Ġ0765":8187,"Ġ0747":8188,"Ġ07263":8189,"589":8190,"5806":8191,"5863":8192,"2473":8193,"2475":8194,"176":8195,"1761":8196,"foesq":8197,"ttlk":8198,"Ġswimiming":8199,"beib":8200,"086":8201,"afsw":8202,"aflv":8203,"Ġquarter":8204,"Ġhuntingdown":8205,"882":8206,"8805":8207,"542":8208,"5473":8209,"Ġheck":8210,"Ġpossibles":8211,"278":8212,"2788":8213,"392":8214,"3976":8215,"5901":8216,"5972":8217,"5902":8218,"203":8219,"2021":8220,"mmpi":8221,"Ġadmissions":8222,"Ġadmissoin":8223,"Ġcaffee":8224,"Ġloved":8225,"Ġhopital":8226,"Ġexcuse":8227,"Ġexcitement":8228,"Ġzg":8229,"Ġzi":8230,"Ġzp":8231,"Ġzht":8232,"Ġzvft":8233,"Ġgrate":8234,"1610":8235,"9030":8236,"9025":8237,"9033":8238,"0925":8239,"Ġconcerning":8240,"shk":8241,"shy":8242,"Ġaylebray":8243,"brm":8244,"Ġimformation":8245,"4990":8246,"4992":8247,"4840":8248,"0684":8249,"5770":8250,"5793":8251,"Ġoverall":8252,"Ġovernight":8253,"Ġoverbooked":8254,"Ġrestating":8255,"Ġbray":8256,"5517":8257,"3828":8258,"7743":8259,"7763":8260,"7747":8261,"Ġinterestingly":8262,"8044":8263,"Ġscra":8264,"Ġwau":8265,"Ġoldest":8266,"1863":8267,"2557":8268,"Ġlodon":8269,"Ġmagdelene":8270,"282":8271,"Ġ01223301761":8272,"Ġcommit":8273,"3470":8274,"urate":8275,"Ġnushua":8276,"261":8277,"2617":8278,"2634":8279,"zzny":8280,"Ġugpe":8281,"Ġwandlebery":8282,"oyoas":8283,"Ġxt":8284,"Ġxz":8285,"Ġxden":8286,"qqkf":8287,"bbn":8288,"Ġawv":8289,"Ġsitting":8290,"Ġappealling":8291,"6833":8292,"Ġjune":8293,"7648":8294,"7324":8295,"Ġeffort":8296,"Ġclassification":8297,"693":8298,"Ġdisag":8299,"Ġrecoomend":8300,"2402":8301,"Ġ0122324515":8302,"9427":8303,"psulr":8304,"Ġ2929":8305,"8632":8306,"8676":8307,"Ġmovt":8308,"6517":8309,"Ġbeach":8310,"dpn":8311,"Ġactivites":8312,"Ġcompara":8313,"Ġindepend":8314,"9678":8315,"8225":8316,"pmq":8317,"Ġfactors":8318,"0440":8319,"Ġums":8320,"Ġmaryschurch":8321,"upl":8322,"Ġ0122331241":8323,"axu":8324,"Ġcatalam":8325,"0545":8326,"0516":8327,"9310":8328,"9360":8329,"9226":8330,"jsq":8331,"Ġpurchased":8332,"0378":8333,"dwv":8334,"bdj":8335,"bdneh":8336,"hxgl":8337,"9517":8338,"ruxd":8339,"qyc":8340,"img":8341,"jxk":8342,"jxn":8343,"jxp":8344,"Ġretaurant":8345,"zym":8346,"zcq":8347,"jfxlc":8348,"Ġbrooksh":8349,"pxr":8350,"rtb":8351,"pdl":8352,"Ġ0871550101":8353,"syt":8354,"huv":8355,"fdt":8356,"gmntu":8357,"kcz":8358,"nkz":8359,"nkgs":8360,"Ġaccomad":8361,"ggr":8362,"Ġluxorious":8363,"hcupl":8364,"Ġrespond":8365,"rfjq":8366,"sdpsulr":8367,"Ġfinishing":8368,"Ġindustrical":8369,"kmvo":8370,"Ġ07479":8371,"Ġhaematological":8372,"mnbdneh":8373,"vfv":8374,"Ġdecently":8375,"ijiww":8376,"Ġoccur":8377,"Ġstevange":8378,"vxl":8379,"obile":8380,"dfjfxlc":8381,"vql":8382,"Ġglbnk":8383,"dga":8384,"bcckqx":8385,"pzgff":8386,"Ġpriorities":8387,"mrshk":8388,"hhs":8389,"wkab":8390,"Ġtrusday":8391,"Ġcongra":8392,"Ġwouold":8393,"lvha":8394,"Ġdigressing":8395,"Ġcontinuing":8396,"2001":8397,"2006":8398,"Ġaustala":8399,"Ġaccurate":8400,"tkj":8401,"sfjm":8402,"Ġibtn":8403,"ddc":8404,"zioman":8405,"Ġoverwhelming":8406,"Ġcwruxd":8407,"3177":8408,"Ġmqrgdb":8409,"Ġjzxs":8410,"Ġrailway":8411,"Ġinpatient":8412,"Ġmiscommunicated":8413,"mdbeib":8414,"Ġazsyt":8415,"Ġphdx":8416,"1156":8417,"Ġpieces":8418,"Ġrestauarnt":8419,"Ġ079989":8420,"Ġaoxh":8421,"Ġ9725":8422,"Ġbump":8423,"Ġdifficulty":8424,"facts":8425,"Ġthorton":8426,"Ġyhou":8427,"Ġrecommrnd":8428,"Ġrestauarants":8429,"Ġeasiest":8430,"Ġ01223596066":8431,"8575":8432,"Ġllammas":8433,"Ġartifacts":8434,"Ġnormal":8435,"Ġvkkm":8436,"Ġoccupational":8437,"8585":8438,"Ġtherapy":8439,"Ġsnagged":8440,"Ġgoona":8441,"Ġaddenbrooks":8442,"Ġ01223365068":8443,"Ġskimp":8444,"swxat":8445,"Ġplastic":8446,"Ġaiport":8447,"Ġefficient":8448,"Ġvalued":8449,"9805":8450,"Ġirony":8451,"Ġrestarants":8452,"Ġklpepn":8453,"Ġautomobile":8454,"3128":8455,"8185":8456,"8699":8457,"dvilhuv":8458,"ebnqr":8459,"historical":8460,"ikvz":8461,"mgyyh":8462,"nvqd":8463,"zjfz":8464,"Ġastropub":8465,"stcuza":8466,"Ġthousand":8467,"Ġixezzny":8468,"Ġicqwvql":8469,"Ġhumble":8470,"Ġhhqdga":8471,"Ġcklfoesq":8472,"Ġyvhr":8473,"Ġycgv":8474,"Ġnborth":8475,"Ġfestivals":8476,"Ġflight":8477,"Ġresiding":8478,"Ġreunion":8479,"Ġantenatal":8480,"Ġonoccl":8481,"Ġexhausted":8482,"Ġnorfold":8483,"Ġposrtcode":8484,"Ġstortfod":8485,"Ġgojirrq":8486,"Ġprerequisites":8487,"Ġmajority":8488,"cklslaj":8489,"Ġspecifcally":8490,"Ġnightlife":8491,"Ġcarribean":8492,"aflva":8493,"Ġzvftq":8494,"Ġgrateful":8495,"Ġxdenso":8496,"Ġdisagreement":8497,"Ġcomparable":8498,"Ġindependently":8499,"Ġbrookshite":8500,"nkgsn":8501,"ijiwwq":8502,"pzgfft":8503,"Ġaustalasian":8504,"Ġmqrgdbza":8505,"Ġrecommrndation":8506,"Ġklpepned":8507,"Ġixezznyl":8508,"030":8509,"039":8510,"057":8511,"033":8512,"0117":8513,"142":8514,"1428":8515,"2602":8516,"3237":8517,"3347":8518,"4082":8519,"4117":8520,"524":8521,"560":8522,"539":8523,"645":8524,"651":8525,"671":8526,"759":8527,"7239":8528,"850":8529,"8131":8530,"8239":8531,"918":8532,"9382":8533,"9286":8534,"9522":8535,"9792":8536,"aue":8537,"aully":8538,"ajsr":8539,"bro":8540,"biz":8541,"boh":8542,"cou":8543,"cion":8544,"cfic":8545,"cds":8546,"cjz":8547,"dander":8548,"dtz":8549,"dxh":8550,"dgy":8551,"djl":8552,"ece":8553,"eum":8554,"epe":8555,"ezt":8556,"eoj":8557,"fa":8558,"fm":8559,"ffic":8560,"fence":8561,"gst":8562,"gate":8563,"gment":8564,"gah":8565,"gurf":8566,"gfl":8567,"gfn":8568,"gbq":8569,"gjj":8570,"gih":8571,"gently":8572,"hbg":8573,"iop":8574,"iant":8575,"ijx":8576,"iqg":8577,"jky":8578,"juf":8579,"jlm":8580,"jdf":8581,"jhq":8582,"ker":8583,"kjk":8584,"lin":8585,"mky":8586,"mqq":8587,"mlj":8588,"nre":8589,"nter":8590,"nwk":8591,"ozc":8592,"pare":8593,"puw":8594,"pensi":8595,"qat":8596,"qot":8597,"qvg":8598,"rum":8599,"rry":8600,"rni":8601,"rcm":8602,"same":8603,"sly":8604,"szk":8605,"smf":8606,"tsted":8607,"tiz":8608,"table":8609,"uct":8610,"ues":8611,"uate":8612,"ucu":8613,"vso":8614,"vince":8615,"vbdj":8616,"wave":8617,"wxs":8618,"wki":8619,"xli":8620,"xta":8621,"xob":8622,"yg":8623,"yac":8624,"yjm":8625,"yki":8626,"yvg":8627,"zte":8628,"zqn":8629,"Ġry":8630,"Ġtgf":8631,"Ġaj":8632,"Ġaver":8633,"Ġavi":8634,"inx":8635,"inks":8636,"stn":8637,"erts":8638,"erue":8639,"onone":8640,"oug":8641,"Ġthusday":8642,"Ġiu":8643,"Ġiil":8644,"Ġikc":8645,"Ġiohu":8646,"ray":8647,"rating":8648,"rated":8649,"elor":8650,"Ġpenny":8651,"Ġpatri":8652,"Ġpcrn":8653,"Ġcv":8654,"Ġcem":8655,"Ġcpri":8656,"Ġcvw":8657,"Ġcxf":8658,"Ġcnus":8659,"Ġww":8660,"Ġwz":8661,"Ġwen":8662,"Ġwall":8663,"Ġwoul":8664,"enrl":8665,"Ġyg":8666,"Ġyq":8667,"Ġyur":8668,"Ġywn":8669,"Ġyah":8670,"Ġysv":8671,"Ġnl":8672,"Ġnn":8673,"Ġnuw":8674,"orp":8675,"Ġfp":8676,"Ġfot":8677,"Ġfkv":8678,"Ġfuh":8679,"atc":8680,"aturing":8681,"atwave":8682,"Ġbv":8683,"Ġbend":8684,"Ġbly":8685,"ooth":8686,"Ġreferen":8687,"Ġinside":8688,"Ġlz":8689,"Ġljo":8690,"Ġlaid":8691,"Ġlzl":8692,"otford":8693,"Ġdn":8694,"Ġdy":8695,"Ġdom":8696,"Ġdjf":8697,"Ġdvd":8698,"Ġdztn":8699,"Ġsly":8700,"Ġslyn":8701,"Ġsample":8702,"Ġsense":8703,"Ġmam":8704,"Ġmbg":8705,"vest":8706,"vepj":8707,"ctuate":8708,"endar":8709,"endors":8710,"Ġane":8711,"Ġanh":8712,"Ġhotal":8713,"Ġhotelex":8714,"ayfn":8715,"aylk":8716,"seo":8717,"cedes":8718,"Ġtraffic":8719,"Ġbookn":8720,"Ġgm":8721,"Ġgn":8722,"Ġgv":8723,"Ġgal":8724,"Ġgas":8725,"Ġgvq":8726,"Ġgfil":8727,"arlest":8728,"ldn":8729,"edback":8730,"iester":8731,"Ġatb":8732,"esa":8733,"Ġthatwor":8734,"Ġthatres":8735,"Ġlif":8736,"Ġinformant":8737,"enta":8738,"Ġwht":8739,"Ġdodgy":8740,"Ġchain":8741,"Ġattracion":8742,"Ġleiester":8743,"alf":8744,"alable":8745,"Ġpeme":8746,"Ġbegun":8747,"Ġpleases":8748,"Ġanythe":8749,"Ġstarters":8750,"Ġtitle":8751,"Ġtyhat":8752,"lain":8753,"Ġdeperts":8754,"Ġtall":8755,"eair":8756,"Ġwithouth":8757,"chs":8758,"chedu":8759,"Ġ463":8760,"Ġyours":8761,"Ġhelpp":8762,"Ġtimetable":8763,"Ġmodel":8764,"Ġexquisit":8765,"Ġplaces":8766,"Ġnotable":8767,"Ġalley":8768,"houses":8769,"Ġlose":8770,"Ġdestined":8771,"Ġ345":8772,"Ġpoe":8773,"Ġpoor":8774,"asg":8775,"Ġreferences":8776,"Ġstree":8777,"Ġstates":8778,"Ġstinks":8779,"roam":8780,"Ġgoig":8781,"Ġcheapish":8782,"Ġprefence":8783,"Ġprepare":8784,"Ġabou":8785,"Ġnigth":8786,"0017":8787,"0033":8788,"0085":8789,"Ġ593":8790,"Ġoi":8791,"Ġost":8792,"Ġosa":8793,"Ġrecommending":8794,"Ġmult":8795,"Ġaspect":8796,"3052":8797,"156":8798,"1567":8799,"1562":8800,"ndca":8801,"ndtr":8802,"455":8803,"Ġeg":8804,"Ġeo":8805,"Ġebl":8806,"Ġearlest":8807,"Ġaddresss":8808,"eefi":8809,"Ġeawi":8810,"Ġja":8811,"Ġjw":8812,"Ġjud":8813,"Ġjumping":8814,"Ġjpk":8815,"Ġjeefi":8816,"2382":8817,"Ġsuprise":8818,"Ġtrqq":8819,"Ġaffect":8820,"Ġcollegeare":8821,"vigate":8822,"ustrating":8823,"Ġ718":8824,"Ġsorrry":8825,"Ġdial":8826,"Ġmonument":8827,"Ġrj":8828,"Ġru":8829,"Ġrude":8830,"Ġindif":8831,"Ġsems":8832,"Ġsept":8833,"Ġunrated":8834,"Ġ1350":8835,"akcn":8836,"Ġ1610":8837,"Ġsold":8838,"Ġuuct":8839,"Ġknowing":8840,"Ġ194":8841,"Ġ1997":8842,"Ġrefine":8843,"Ġrefuse":8844,"Ġspecfic":8845,"Ġ012233481":8846,"Ġ012233483":8847,"Ġcalendar":8848,"Ġvrn":8849,"Ġvyr":8850,"Ġvorp":8851,"Ġvendors":8852,"Ġspecifications":8853,"Ġ210":8854,"Ġeurope":8855,"Ġcuts":8856,"Ġhole":8857,"Ġhogurf":8858,"Ġactaully":8859,"lox":8860,"izvma":8861,"Ġeaten":8862,"Ġnewcom":8863,"Ġ925":8864,"Ġ973":8865,"2178":8866,"Ġspark":8867,"ynz":8868,"Ġcond":8869,"Ġconcent":8870,"Ġconstru":8871,"Ġconvince":8872,"Ġselecting":8873,"Ġsteve":8874,"Ġsteam":8875,"Ġentertainent":8876,"Ġchef":8877,"Ġbroke":8878,"Ġ0930":8879,"boroq":8880,"xbf":8881,"xby":8882,"Ġstantsted":8883,"1188":8884,"Ġqd":8885,"Ġqlc":8886,"Ġqewq":8887,"Ġfeaturing":8888,"Ġfeedback":8889,"wik":8890,"ogur":8891,"Ġalexdander":8892,"Ġarrivals":8893,"Ġ0711":8894,"Ġ0766":8895,"Ġ0743":8896,"Ġ0773":8897,"Ġ0775":8898,"Ġ0795":8899,"Ġclso":8900,"2436":8901,"174":8902,"foyj":8903,"072":8904,"0793":8905,"2912":8906,"2985":8907,"0813":8908,"afp":8909,"Ġfunction":8910,"Ġusb":8911,"4015":8912,"1058":8913,"1090":8914,"1044":8915,"Ġcoud":8916,"884":8917,"8893":8918,"Ġthoughts":8919,"Ġcloses":8920,"Ġchestert":8921,"oodles":8922,"6034":8923,"5408":8924,"5496":8925,"Ġheatwave":8926,"0184":8927,"3922":8928,"4638":8929,"Ġrequirements":8930,"5965":8931,"5985":8932,"Ġreschedu":8933,"Ġclaire":8934,"Ġpolenta":8935,"206":8936,"2058":8937,"Ġriverbo":8938,"Ġtandoon":8939,"418":8940,"4115":8941,"4180":8942,"Ġbistros":8943,"Ġpaces":8944,"ohz":8945,"Ġzw":8946,"Ġzwn":8947,"Ġzdt":8948,"Ġzcrp":8949,"164":8950,"Ġcorss":8951,"Ġconcerts":8952,"shtwa":8953,"qujhq":8954,"Ġwarn":8955,"brl":8956,"Ġworthwhile":8957,"4987":8958,"49131":8959,"4863":8960,"Ġdefinite":8961,"0678":8962,"0672":8963,"Ġencou":8964,"ipt":8965,"ippy":8966,"Ġcoin":8967,"Ġoverly":8968,"3634":8969,"368786":8970,"4250":8971,"4226":8972,"Ġaccommodating":8973,"385":8974,"3858":8975,"3854":8976,"3843":8977,"7721":8978,"8011":8979,"ffa":8980,"4440":8981,"1862":8982,"785":8983,"7878":8984,"7864":8985,"256":8986,"izeyl":8987,"5688":8988,"Ġgroups":8989,"3466":8990,"34356":8991,"Ġenjoys":8992,"798":8993,"7917":8994,"7940":8995,"ember":8996,"kycw":8997,"3370":8998,"2635":8999,"2656":9000,"2673":9001,"zzahm":9002,"dyt":9003,"cyx":9004,"Ġguessing":9005,"Ġinexpensi":9006,"oyk":9007,"Ġguestshouses":9008,"7012":9009,"Ġfight":9010,"Ġxh":9011,"Ġxj":9012,"Ġxchs":9013,"Ġseason":9014,"Ġseasame":9015,"Ġteh":9016,"Ġjinlin":9017,"Ġawful":9018,"Ġstandby":9019,"Ġappetiz":9020,"Ġsays":9021,"8920":9022,"8944":9023,"Ġplaying":9024,"placed":9025,"jgoxq":9026,"1478":9027,"ightful":9028,"Ġsafety":9029,"Ġ01233":9030,"Ġclassified":9031,"6930":9032,"Ġseemed":9033,"Ġrecall":9034,"Ġmidst":9035,"Ġmidday":9036,"981":9037,"tula":9038,"6723":9039,"8724":9040,"psd":9041,"bjgh":9042,"6560":9043,"Ġdoubled":9044,"9188":9045,"Ġfender":9046,"Ġduy":9047,"dpb":9048,"dpaue":9049,"Ġcomplain":9050,"Ġsections":9051,"Ġfaxed":9052,"Ġfault":9053,"Ġconcerns":9054,"Ġiric":9055,"0466":9056,"0471":9057,"Ġtranfer":9058,"uproam":9059,"9366":9060,"9320":9061,"Ġcrlj":9062,"tzh":9063,"mywh":9064,"Ġportrait":9065,"Ġamerica":9066,"Ġshortening":9067,"Ġmercedes":9068,"hxg":9069,"knf":9070,"Ġjoke":9071,"imated":9072,"xhm":9073,"Ġmisplaced":9074,"ufxta":9075,"Ġeverday":9076,"zyc":9077,"Ġdealing":9078,"kvsmf":9079,"Ġ012233000085":9080,"crclo":9081,"sxgd":9082,"Ġoperates":9083,"bgiww":9084,"ejz":9085,"pbza":9086,"Ġescap":9087,"Ġ07727":9088,"Ġ0791862":9089,"ewg":9090,"Ġestimated":9091,"4274":9092,"Ġ3654":9093,"jvt":9094,"lxvbdj":9095,"awx":9096,"qcl":9097,"qcs":9098,"qcdt":9099,"qcba":9100,"tqwl":9101,"fnet":9102,"zkd":9103,"Ġdelightful":9104,"phv":9105,"Ġemailed":9106,"ujkd":9107,"vytsi":9108,"fsn":9109,"oise":9110,"oiwki":9111,"vcx":9112,"vvpv":9113,"vvzyc":9114,"xyh":9115,"xydz":9116,"4106":9117,"pkhc":9118,"sql":9119,"squs":9120,"Ġowa":9121,"Ġowln":9122,"Ġfrustrating":9123,"Ġsmooth":9124,"rga":9125,"vlit":9126,"Ġbrings":9127,"Ġ01223217231":9128,"Ġsporty":9129,"ifex":9130,"Ġapproximate":9131,"ojrd":9132,"pnc":9133,"ssyp":9134,"cmogur":9135,"01223368786":9136,"fcd":9137,"aja":9138,"bcai":9139,"ulties":9140,"mrw":9141,"qhd":9142,"zbffa":9143,"ovti":9144,"Ġstatement":9145,"Ġurgently":9146,"Ġcetnre":9147,"Ġfullest":9148,"9582":9149,"Ġheartbro":9150,"nhojrd":9151,"Ġwoud":9152,"wxmky":9153,"Ġmanagement":9154,"cgynw":9155,"slgy":9156,"vga":9157,"Ġutufxta":9158,"yxz":9159,"Ġkilling":9160,"ikohz":9161,"rzr":9162,"Ġsnapp":9163,"Ġsnippy":9164,"Ġguesthoise":9165,"diw":9166,"ntsyb":9167,"7094":9168,"Ġinflexible":9169,"Ġ1223300085":9170,"Ġconsistently":9171,"cjt":9172,"nrc":9173,"Ġauumn":9174,"Ġreceipt":9175,"jnxhm":9176,"Ġgoodnight":9177,"Ġboasting":9178,"Ġneighboring":9179,"Ġpeterbourgh":9180,"9891":9181,"wgayfn":9182,"Ġfora":9183,"Ġeconomy":9184,"Ġnavigate":9185,"Ġflip":9186,"Ġ0124549131":9187,"Ġintrigue":9188,"Ġrenting":9189,"Ġreported":9190,"Ġreceived":9191,"Ġrecomendations":9192,"Ġchips":9193,"Ġfortunate":9194,"126194":9195,"Ġoyg":9196,"ytgb":9197,"Ġdifficulties":9198,"Ġcottages":9199,"iovi":9200,"nusha":9201,"Ġfgom":9202,"Ġexcursion":9203,"Ġexcursions":9204,"fyqha":9205,"Ġinsists":9206,"33823":9207,"6549":9208,"mtlqcba":9209,"Ġwjboroq":9210,"Ġjiggy":9211,"Ġsupervisor":9212,"Ġctv":9213,"Ġstrotford":9214,"Ġethiop":9215,"Ġprotugese":9216,"Ġinputting":9217,"Ġtsounds":9218,"Ġtzphv":9219,"Ġfluctuate":9220,"xcdmw":9221,"Ġphysician":9222,"7583":9223,"wkawi":9224,"yzlgjj":9225,"Ġddizeyl":9226,"2078":9227,"Ġexpensiove":9228,"Ġ01223274284":9229,"Ġtremendously":9230,"Ġwaill":9231,"Ġdpfnet":9232,"Ġattactions":9233,"megfyqha":9234,"Ġviviting":9235,"Ġspectrum":9236,"Ġ07479126194":9237,"Ġ07998934356":9238,"bizr":9239,"dxhdjl":9240,"gstqc":9241,"gahv":9242,"giho":9243,"iqgaylk":9244,"jkymx":9245,"jufq":9246,"jlmp":9247,"mqqfcd":9248,"ntering":9249,"qvgt":9250,"rnii":9251,"xlio":9252,"xobm":9253,"ykihn":9254,"Ġtgfjkymx":9255,"Ġaverage":9256,"Ġavialable":9257,"Ġiohuvga":9258,"elorqb":9259,"Ġpatricks":9260,"Ġcembridge":9261,"Ġcprio":9262,"Ġcvwakcn":9263,"Ġcxfenrl":9264,"Ġyahbizr":9265,"Ġysvsly":9266,"Ġfuhpbza":9267,"Ġbender":9268,"Ġreferenece":9269,"Ġljoey":9270,"Ġlzlsjz":9271,"Ġdomain":9272,"Ġdvdlh":9273,"Ġslynf":9274,"Ġmbgjnxhm":9275,"Ġhotelexpensive":9276,"Ġthatwork":9277,"Ġanytheing":9278,"Ġexquisite":9279,"Ġprefences":9280,"Ġnigthclubs":9281,"Ġosagfn":9282,"Ġaspects":9283,"Ġeawiq":9284,"Ġjudgment":9285,"Ġtrqqxobm":9286,"Ġindifferent":9287,"Ġsemsyf":9288,"Ġseptember":9289,"Ġuuctfoyj":9290,"Ġ01223348144":9291,"Ġhogurfvc":9292,"Ġnewcomers":9293,"Ġconcentrate":9294,"Ġconstructed":9295,"Ġconvinced":9296,"Ġreschedule":9297,"Ġriverboar":9298,"Ġzcrpolk":9299,"qujhqimg":9300,"Ġencountering":9301,"Ġinexpensively":9302,"Ġappetizing":9303,"jgoxqpx":9304,"Ġcrljawx":9305,"bgiwwz":9306,"Ġescaping":9307,"Ġ07918620184":9308,"vytsij":9309,"Ġsmoothly":9310,"Ġheartbroken":9311,"wxmkya":9312,"Ġwjboroqr":9313,"Ġethiopian":9314,"yzlgjjl":9315,"Ġcxfenrlz":9316,"015":9317,"066":9318,"060":9319,"0393":9320,"0269":9321,"0217":9322,"1309":9323,"2016":9324,"2089":9325,"2514":9326,"339":9327,"3353":9328,"408":9329,"446":9330,"479":9331,"4210":9332,"4404":9333,"4249":9334,"545":9335,"559":9336,"624":9337,"616":9338,"689":9339,"745":9340,"738":9341,"7151":9342,"7222":9343,"7667":9344,"7468":9345,"7438":9346,"7169":9347,"821":9348,"844":9349,"8966":9350,"8149":9351,"8598":9352,"8504":9353,"8121":9354,"9494":9355,"9331":9356,"9303":9357,"9693":9358,":#":9359,"aut":9360,"aurday":9361,"aok":9362,"bat":9363,"bet":9364,"bne":9365,"bvr":9366,"bxw":9367,"bucks":9368,"cation":9369,"cla":9370,"cad":9371,"cos":9372,"cuj":9373,"cvy":9374,"cwcf":9375,"dgh":9376,"dode":9377,"dul":9378,"dsday":9379,"dws":9380,"dcc":9381,"dohu":9382,"ek":9383,"eave":9384,"ehouse":9385,"eander":9386,"eub":9387,"ecc":9388,"eki":9389,"eves":9390,"fst":9391,"fan":9392,"fir":9393,"gor":9394,"gran":9395,"gde":9396,"gxb":9397,"gbu":9398,"guw":9399,"gzk":9400,"gjp":9401,"giest":9402,"how":9403,"hsh":9404,"hqy":9405,"habet":9406,"irant":9407,"ide":9408,"iian":9409,"iks":9410,"iky":9411,"iques":9412,"ihc":9413,"ifdt":9414,"jen":9415,"jed":9416,"jee":9417,"jour":9418,"jci":9419,"jyn":9420,"jua":9421,"jvd":9422,"jqg":9423,"kle":9424,"kic":9425,"lg":9426,"lum":9427,"lcy":9428,"lpm":9429,"lru":9430,"lzx":9431,"lmyl":9432,"looked":9433,"mia":9434,"mexican":9435,"mtz":9436,"mnl":9437,"mjc":9438,"mvl":9439,"mvx":9440,"mqh":9441,"mxx":9442,"mveg":9443,"nm":9444,"nsp":9445,"ness":9446,"npd":9447,"oes":9448,"oint":9449,"oah":9450,"oalf":9451,"psp":9452,"plly":9453,"prt":9454,"puq":9455,"pelled":9456,"qee":9457,"qgd":9458,"rting":9459,"rvation":9460,"rby":9461,"rjx":9462,"rvh":9463,"rvy":9464,"rmr":9465,"rmv":9466,"sry":9467,"sbray":9468,"south":9469,"top":9470,"tthing":9471,"try":9472,"trip":9473,"tjo":9474,"taq":9475,"tvv":9476,"uesday":9477,"uul":9478,"ufo":9479,"uvol":9480,"uzzi":9481,"vp":9482,"vate":9483,"vlu":9484,"vjo":9485,"vxd":9486,"vzn":9487,"wai":9488,"wfo":9489,"ween":9490,"wli":9491,"wdw":9492,"wcr":9493,"wkmu":9494,"wknf":9495,"xk":9496,"xct":9497,"xol":9498,"xha":9499,"xfl":9500,"xmy":9501,"xxh":9502,"xgy":9503,"xni":9504,"xpk":9505,"xov":9506,"xkh":9507,"ya":9508,"yay":9509,"yem":9510,"yru":9511,"ygn":9512,"ydo":9513,"ylk":9514,"ydx":9515,"ymc":9516,"yzx":9517,"yuc":9518,"yzo":9519,"yglc":9520,"zle":9521,"zar":9522,"zed":9523,"zod":9524,"zft":9525,"zcc":9526,"zpd":9527,"zsy":9528,"zdb":9529,"zjm":9530,"Ġ*":9531,"Ġoom":9532,"Ġess":9533,"Ġedu":9534,"Ġoodles":9535,"Ġtx":9536,"Ġtll":9537,"Ġtvf":9538,"Ġax":9539,"Ġaat":9540,"Ġaside":9541,"Ġaoy":9542,"Ġayq":9543,"Ġajsq":9544,"reen":9545,"resh":9546,"revf":9547,"inb":9548,"inent":9549,"sti":9550,"sting":9551,"erl":9552,"oua":9553,"ounts":9554,"Ġths":9555,"Ġthich":9556,"Ġthuesday":9557,"Ġiin":9558,"Ġikie":9559,"Ġigc":9560,"rase":9561,"raxkh":9562,"Ġhy":9563,"Ġhar":9564,"Ġhating":9565,"Ġhvy":9566,"Ġps":9567,"Ġpsi":9568,"Ġpit":9569,"Ġpqa":9570,"Ġpiks":9571,"Ġcod":9572,"Ġcic":9573,"Ġcops":9574,"Ġcma":9575,"Ġcqb":9576,"Ġckk":9577,"Ġwk":9578,"Ġwq":9579,"Ġwlu":9580,"Ġwzy":9581,"Ġwfii":9582,"Ġwcvy":9583,"enbd":9584,"enwm":9585,"Ġyb":9586,"Ġyyx":9587,"Ġnh":9588,"Ġnk":9589,"Ġnr":9590,"Ġnay":9591,"Ġngh":9592,"Ġnast":9593,"Ġnaw":9594,"Ġnmc":9595,"Ġnvzn":9596,"orow":9597,"orid":9598,"Ġff":9599,"Ġfog":9600,"Ġfpq":9601,"Ġfjv":9602,"Ġfcz":9603,"Ġfcq":9604,"Ġfmtz":9605,"ater":9606,"atjee":9607,"Ġbb":9608,"Ġbd":9609,"Ġbx":9610,"Ġbct":9611,"Ġbood":9612,"Ġbck":9613,"Ġbuck":9614,"Ġbok":9615,"Ġbud":9616,"Ġbbg":9617,"Ġbnn":9618,"ooag":9619,"Ġrez":9620,"Ġrebook":9621,"Ġremo":9622,"Ġreph":9623,"Ġreinb":9624,"Ġinsp":9625,"Ġinbet":9626,"Ġlv":9627,"Ġlay":9628,"Ġlso":9629,"Ġlyln":9630,"Ġloop":9631,"ington":9632,"ingpool":9633,"Ġdm":9634,"Ġdir":9635,"Ġdad":9636,"Ġdang":9637,"Ġdyy":9638,"Ġdhs":9639,"Ġdxz":9640,"Ġtomm":9641,"rity":9642,"annc":9643,"Ġsfor":9644,"Ġsut":9645,"Ġsol":9646,"Ġslac":9647,"Ġsaurday":9648,"Ġslum":9649,"Ġmf":9650,"Ġmtz":9651,"Ġmnf":9652,"Ġmkv":9653,"Ġmtl":9654,"Ġmrq":9655,"Ġmwd":9656,"Ġmpl":9657,"Ġmmind":9658,"Ġmxg":9659,"veboat":9660,"vezk":9661,"ctiy":9662,"endid":9663,"ledge":9664,"lepn":9665,"ayfr":9666,"ayraxkh":9667,"Ġrestairant":9668,"sebray":9669,"cew":9670,"Ġtrashy":9671,"Ġbookin":9672,"Ġgfor":9673,"Ġgut":9674,"Ġguese":9675,"Ġgpmq":9676,"Ġgwik":9677,"aru":9678,"arole":9679,"ldpgq":9680,"ontu":9681,"ontime":9682,"amsd":9683,"Ġandd":9684,"Ġatzt":9685,"Ġatmxx":9686,"thouse":9687,"kev":9688,"Ġliw":9689,"Ġliketo":9690,"Ġinformatin":9691,"omation":9692,"omrc":9693,"Ġprivate":9694,"opl":9695,"opo":9696,"umj":9697,"Ġmeed":9698,"Ġattitude":9699,"Ġchbh":9700,"Ġchxfl":9701,"Ġlehr":9702,"Ġleeave":9703,"ambridge":9704,"Ġcambridgesh":9705,"Ġyessi":9706,"Ġpea":9707,"Ġpeopl":9708,"peq":9709,"people":9710,"pemvx":9711,"Ġarthu":9712,"Ġarray":9713,"bers":9714,"Ġcentrem":9715,"sical":9716,"sipb":9717,"Ġanyhow":9718,"Ġstarbucks":9719,"Ġtick":9720,"Ġtired":9721,"Ġdeap":9722,"Ġdecad":9723,"terly":9724,"Ġtacos":9725,"Ġdepartung":9726,"urk":9727,"urne":9728,"Ġ252":9729,"Ġ278":9730,"Ġ439":9731,"Ġ420":9732,"Ġparing":9733,"itlhi":9734,"owlti":9735,"owfl":9736,"ssgx":9737,"ghj":9738,"ghk":9739,"ghxn":9740,"Ġfroms":9741,"Ġthankl":9742,"Ġ360":9743,"Ġ3802":9744,"Ġ3293":9745,"Ġpoast":9746,"Ġstating":9747,"Ġstvhw":9748,"Ġanythings":9749,"Ġprecis":9750,"Ġabound":9751,"Ġabnpd":9752,"0013":9753,"Ġlocked":9754,"commed":9755,"Ġwanta":9756,"Ġ543":9757,"Ġoou":9758,"Ġole":9759,"Ġodge":9760,"fib":9761,"Ġsometthing":9762,"devy":9763,"dega":9764,"3093":9765,"1590":9766,"1555":9767,"1570":9768,"Ġnighclubs":9769,"Ġey":9770,"Ġevd":9771,"Ġeqc":9772,"Ġeooag":9773,"Ġparties":9774,"Ġallright":9775,"Ġeafy":9776,"Ġpostcod":9777,"Ġpostcdode":9778,"Ġpostcodee":9779,"Ġjv":9780,"Ġjci":9781,"Ġjac":9782,"Ġjpn":9783,"Ġjbv":9784,"ains":9785,"icking":9786,"Ġweel":9787,"Ġkc":9788,"Ġku":9789,"Ġkcc":9790,"Ġkhh":9791,"Ġksfs":9792,"Ġkldpgq":9793,"Ġkicking":9794,"Ġcolto":9795,"Ġfridy":9796,"Ġsundaymon":9797,"vill":9798,"Ġthurdsday":9799,"Ġ1527":9800,"Ġifxp":9801,"Ġafterall":9802,"Ġ01223257":9803,"Ġ0122300085":9804,"Ġ859":9805,"Ġavail":9806,"Ġrc":9807,"Ġrp":9808,"Ġrr":9809,"Ġrjv":9810,"Ġrlt":9811,"Ġrcommed":9812,"Ġindiian":9813,"Ġsecu":9814,"Ġseuss":9815,"Ġunne":9816,"Ġunaw":9817,"Ġ1130":9818,"Ġ174":9819,"Ġraiting":9820,"Ġ125":9821,"Ġ12235":9822,"ourbe":9823,"cessarily":9824,"Ġ164":9825,"Ġdiffid":9826,"Ġsized":9827,"Ġperim":9828,"Ġuv":9829,"Ġuoe":9830,"Ġuzf":9831,"Ġudg":9832,"Ġvig":9833,"Ġvisting":9834,"Ġ198":9835,"Ġ1900":9836,"Ġbreaking":9837,"Ġcrime":9838,"Ġcriti":9839,"Ġcristi":9840,"Ġticketsis":9841,"Ġmigran":9842,"Ġvh":9843,"Ġvy":9844,"Ġvan":9845,"Ġvmf":9846,"Ġvrx":9847,"Ġbright":9848,"Ġinclusive":9849,"neq":9850,"Ġ204":9851,"Ġhosv":9852,"Ġhosons":9853,"Ġrich":9854,"Ġrigam":9855,"Ġriveboat":9856,"Ġbarbers":9857,"loqw":9858,"izi":9859,"usq":9860,"usac":9861,"2148":9862,"2106":9863,"2176":9864,"2175":9865,"Ġspelled":9866,"Ġassign":9867,"Ġself":9868,"Ġelypax":9869,"Ġfitted":9870,"Ġconfid":9871,"opsy":9872,"1110":9873,"1165":9874,"Ġbirmi":9875,"Ġqca":9876,"Ġqcla":9877,"Ġqyglc":9878,"Ġpizzeri":9879,"Ġmarger":9880,"mac":9881,"ogue":9882,"byqu":9883,"Ġalesbray":9884,"Ġalexeander":9885,"Ġ0738":9886,"Ġ0780":9887,"Ġ0728":9888,"Ġ0733":9889,"Ġ0764":9890,"Ġ07330":9891,"Ġ07389":9892,"Ġlongon":9893,"spfc":9894,"580":9895,"5816":9896,"5831":9897,"Ġclbj":9898,"Ġgonvill":9899,"2494":9900,"1764":9901,"foaja":9902,"Ġcosting":9903,"0757":9904,"0798":9905,"Ġhappily":9906,"Ġswimmo":9907,"abx":9908,"501":9909,"5050":9910,"5089":9911,"5091":9912,"669":9913,"6673":9914,"6691":9915,"2958":9916,"0823":9917,"0822":9918,"0864":9919,"0862":9920,"afs":9921,"afy":9922,"Ġeverywhere":9923,"Ġfunny":9924,"Ġ2330":9925,"Ġapdcc":9926,"4016":9927,"Ġquicke":9928,"Ġlaeves":9929,"sajv":9930,"8806":9931,"whg":9932,"6045":9933,"547":9934,"5412":9935,"Ġhejf":9936,"5245":9937,"5282":9938,"5285":9939,"kwt":9940,"0115":9941,"0196":9942,"271":9943,"274":9944,"2759":9945,"2776":9946,"3912":9947,"3929":9948,"3934":9949,"3953":9950,"592":9951,"5909":9952,"5928":9953,"5971":9954,"Ġresrvation":9955,"2048":9956,"mmfd":9957,"cari":9958,"caoa":9959,"Ġlisten":9960,"3262":9961,"198":9962,"1911":9963,"1931":9964,"Ġshaddi":9965,"416":9966,"4344":9967,"etsl":9968,"Ġagent":9969,"Ġzf":9970,"Ġzh":9971,"Ġzx":9972,"Ġzza":9973,"Ġznn":9974,"Ġzizi":9975,"Ġgray":9976,"Ġgraded":9977,"9024":9978,"0998":9979,"0992":9980,"Ġ01223355909":9981,"Ġdepartments":9982,"Ġauto":9983,"Ġfins":9984,"kszqn":9985,"4943":9986,"4928":9987,"Ġprtu":9988,"Ġprxy":9989,"yalfst":9990,"480":9991,"487":9992,"4898":9993,"4803":9994,"Ġdefinately":9995,"0625":9996,"0674":9997,"tnq":9998,"Ġenoalf":9999,"Ġoverlooked":10000,"sugzk":10001,"3659":10002,"4230":10003,"4256":10004,"4283":10005,"Ġbedouis":10006,"5511":10007,"5538":10008,"778":10009,"7768":10010,"7769":10011,"gdjz":10012,"gdto":10013,"Ġscreen":10014,"Ġalphabet":10015,"ffg":10016,"ffkm":10017,"ilv":10018,"7852":10019,"7879":10020,"7822":10021,"Ġchophouse":10022,"ahjv":10023,"Ġalike":10024,"2815":10025,"2850":10026,"5648":10027,"5693":10028,"5695":10029,"Ġ0122330914":10030,"Ġcommunic":10031,"daj":10032,"naopsy":10033,"Ġdescriptions":10034,"zao":10035,"hih":10036,"7956":10037,"7979":10038,"marks":10039,"kysn":10040,"2636":10041,"2625":10042,"2696":10043,"Ġmisspelled":10044,"Ġ791":10045,"cyj":10046,"Ġpoppin":10047,"Ġhmmmm":10048,"2250":10049,"oyghk":10050,"nyhs":10051,"Ġfiday":10052,"Ġfibne":10053,"Ġxv":10054,"Ġxpe":10055,"Ġxxa":10056,"Ġxpk":10057,"Ġxeo":10058,"Ġxgbq":10059,"Ġxamsd":10060,"Ġxusq":10061,"Ġused":10062,"Ġmegha":10063,"qqc":10064,"qqs":10065,"bbaj":10066,"Ġimportance":10067,"gonville":10068,"Ġluch":10069,"ptmtl":10070,"Ġawa":10071,"Ġaware":10072,"Ġhag":10073,"Ġ0122324882":10074,"lix":10075,"6473":10076,"ivx":10077,"8925":10078,"8928":10079,"8933":10080,"Ġheya":10081,"Ġbelt":10082,"684":10083,"Ġastroturk":10084,"jggjp":10085,"7310":10086,"Ġcharging":10087,"Ġ011223":10088,"Ġclassic":10089,"6989":10090,"8885":10091,"6319":10092,"8476":10093,"Ġpmhz":10094,"Ġrecap":10095,"Ġ701570":10096,"9831":10097,"tujxn":10098,"6715":10099,"6759":10100,"9417":10101,"9407":10102,"bjt":10103,"Ġsleeps":10104,"4758":10105,"Ġestablished":10106,"3734":10107,"mbws":10108,"mwj":10109,"mwguw":10110,"7411":10111,"aqja":10112,"bsbw":10113,"Ġlandmarks":10114,"Ġ0122321629":10115,"9688":10116,"overing":10117,"Ġdriing":10118,"glmu":10119,"gljed":10120,"Ġmichehouse":10121,"axdyt":10122,"lfb":10123,"lfvd":10124,"0521":10125,"lhqc":10126,"9225":10127,"egi":10128,"Ġ01223350420":10129,"9751":10130,"9756":10131,"gxpl":10132,"gwjc":10133,"gwvj":10134,"tzum":10135,"tzjq":10136,"Ġbilling":10137,"myc":10138,"myx":10139,"mywn":10140,"swc":10141,"Ġ0122350655":10142,"jbn":10143,"jbqs":10144,"jbzo":10145,"Ġdirectory":10146,"qfhx":10147,"ccs":10148,"agmlj":10149,"pjjbzo":10150,"2236":10151,"ufn":10152,"wytnq":10153,"gnham":10154,"jxx":10155,"nfkvo":10156,"zyq":10157,"zyccs":10158,"Ġ07621":10159,"Ġfigured":10160,"zcl":10161,"zcfv":10162,"tlw":10163,"tlkh":10164,"vdd":10165,"vdabx":10166,"Ġbrunch":10167,"pxc":10168,"Ġdiscounts":10169,"Ġdiscovering":10170,"rtree":10171,"btg":10172,"btp":10173,"btgc":10174,"btbjt":10175,"hgsjz":10176,"Ġespensive":10177,"jev":10178,"Ġwrote":10179,"uwf":10180,"8143":10181,"gmv":10182,"qcxni":10183,"zkz":10184,"zkdn":10185,"Ġcanceled":10186,"php":10187,"Ġanswers":10188,"Ġsquared":10189,"vytx":10190,"Ġrealm":10191,"mfg":10192,"mfon":10193,"bqt":10194,"jzu":10195,"jzwai":10196,"ehd":10197,"lmex":10198,"Ġreferrence":10199,"jmg":10200,"rxn":10201,"rxkq":10202,"Ġcambrigde":10203,"2575401":10204,"fsfj":10205,"rfa":10206,"svu":10207,"vcad":10208,"vcak":10209,"lqhd":10210,"vvx":10211,"1887":10212,"pku":10213,"bno":10214,"Ġfrm":10215,"vtpj":10216,"Ġsmh":10217,"Ġapprove":10218,"jcsvu":10219,"Ġodb":10220,"Ġdisappoint":10221,"Ġresponses":10222,"bfup":10223,"rgoi":10224,"rkj":10225,"ihpemvx":10226,"ozv":10227,"vfzt":10228,"vlgu":10229,"9110":10230,"9114":10231,"zmcr":10232,"zwxd":10233,"vbm":10234,"ijp":10235,"ifp":10236,"gcl":10237,"vrpp":10238,"wjl":10239,"theat":10240,"jpu":10241,"oqsq":10242,"oqkev":10243,"zsm":10244,"01223355":10245,"lcnfkvo":10246,"wbmyc":10247,"gfw":10248,"dnb":10249,"Ġsatisfact":10250,"ykji":10251,"Ġlimitations":10252,"9580":10253,"iyannc":10254,"Ġswear":10255,"Ġadvanced":10256,"zqv":10257,"Ġboutiques":10258,"4078":10259,"bkfic":10260,"Ġutterly":10261,"2633912":10262,"cql":10263,"fgi":10264,"xgplly":10265,"Ġsnoring":10266,"2508":10267,"kkafp":10268,"Ġpatient":10269,"Ġwoes":10270,"Ġwoah":10271,"mins":10272,"Ġinfomation":10273,"Ġalysebray":10274,"Ġ1223314960":10275,"Ġ01223365454":10276,"klra":10277,"9384":10278,"9386":10279,"Ġ5535":10280,"Ġytou":10281,"ycmi":10282,"yqdy":10283,"Ġmnkwt":10284,"nqi":10285,"Ġflorid":10286,"Ġ07229":10287,"Ġswitching":10288,"Ġsightseers":10289,"Ġsplendid":10290,"Ġ07462575401":10291,"3173":10292,"Ġprominent":10293,"Ġbiking":10294,"Ġbibtgc":10295,"Ġdemanding":10296,"Ġfilled":10297,"atoions":10298,"aoctiy":10299,"uoivx":10300,"Ġayels":10301,"Ġvalue":10302,"Ġhtel":10303,"Ġbonjour":10304,"Ġsgssgx":10305,"Ġobfyq":10306,"Ġxyaoctiy":10307,"4205":10308,"Ġpieh":10309,"Ġphysical":10310,"Ġcenrtree":10311,"Ġsdrn":10312,"Ġsveral":10313,"Ġtatse":10314,"Ġwdvi":10315,"Ġntkq":10316,"Ġroundtrip":10317,"Ġviczdb":10318,"Ġlnrxn":10319,"Ġstraight":10320,"9704":10321,"Ġthorough":10322,"Ġrecommen":10323,"Ġmcitlhi":10324,"flxpt":10325,"Ġndsugzk":10326,"Ġbtts":10327,"Ġsbdevy":10328,"Ġjiggiest":10329,"Ġqgi":10330,"Ġagreeable":10331,"Ġsupervisors":10332,"ebgt":10333,"Ġhanging":10334,"Ġcertre":10335,"Ġcertian":10336,"Ġbroxburne":10337,"Ġbroxbourbe":10338,"iosf":10339,"Ġxipjjbzo":10340,"Ġsmidge":10341,"Ġatrain":10342,"Ġrgowfl":10343,"Ġvfux":10344,"Ġqhkc":10345,"Ġxnqn":10346,"voqphp":10347,"jmtai":10348,"8134":10349,"cvklm":10350,"wchymc":10351,"Ġtclmex":10352,"Ġftvoqphp":10353,"Ġgcghxn":10354,"Ġattached":10355,"Ġucspfc":10356,"Ġ07722633912":10357,"012325":10358,"Ġsettled":10359,"8453":10360,"aava":10361,"wbnrp":10362,"Ġlaptop":10363,"Ġdgghj":10364,"Ġmystery":10365,"Ġunfortunatley":10366,"Ġxpcari":10367,"7285":10368,"Ġ``":10369,"Ġypou":10370,"Ġgaaqja":10371,"Ġjgnhu":10372,"Ġkjbb":10373,"Ġcongradul":10374,"8509":10375,"9187":10376,"kjkzod":10377,"Ġajte":10378,"Ġyqxgplly":10379,"Ġnnyalfst":10380,"Ġpoeple":10381,"Ġdialogue":10382,"Ġsnappiness":10383,"545456":10384,"autumn":10385,"batdn":10386,"bvrlm":10387,"bxwkv":10388,"cujq":10389,"dghac":10390,"dwsqn":10391,"eubhwc":10392,"ecccs":10393,"ekiufo":10394,"fanwj":10395,"gbuzf":10396,"ihczv":10397,"juaa":10398,"lpmkm":10399,"lrugfw":10400,"lzxjr":10401,"mnlc":10402,"nspk":10403,"prtqhd":10404,"rjxc":10405,"rvhje":10406,"uulb":10407,"uvolvxd":10408,"vjobno":10409,"wdwlv":10410,"xolra":10411,"xovbbaj":10412,"yemrmr":10413,"ydoa":10414,"yzxfd":10415,"zlefo":10416,"zpdm":10417,"zsyzs":10418,"Ġoomoe":10419,"Ġessentials":10420,"Ġtvfex":10421,"Ġaoyflxpt":10422,"Ġayqo":10423,"Ġajsqzy":10424,"revfj":10425,"Ġikieezt":10426,"Ġharvest":10427,"Ġpsidghac":10428,"Ġpitc":10429,"Ġpiksvfzt":10430,"Ġcicina":10431,"Ġcmabridge":10432,"Ġwluoqkev":10433,"Ġwzycql":10434,"enbdth":10435,"Ġyyxr":10436,"Ġnghd":10437,"Ġnasty":10438,"Ġnvznjx":10439,"Ġfoggy":10440,"Ġfpqjqm":10441,"Ġfjvatjee":10442,"Ġfczjmtai":10443,"Ġfcqzw":10444,"Ġfmtzqot":10445,"Ġbckqcxni":10446,"Ġbnnzyccs":10447,"Ġremove":10448,"Ġrephrase":10449,"Ġinspire":10450,"Ġinbetween":10451,"Ġdirty":10452,"Ġdyyute":10453,"Ġdxzbh":10454,"Ġtommorow":10455,"Ġsutxd":10456,"Ġmtzoyghk":10457,"Ġmnfwdwlv":10458,"Ġmkvvdabx":10459,"Ġmwdlzxjr":10460,"lepncc":10461,"Ġguten":10462,"Ġguesethouse":10463,"Ġatztdm":10464,"Ġatmxxnqi":10465,"Ġchbhzpdm":10466,"Ġcambridgeshire":10467,"Ġyessiree":10468,"Ġarthurian":10469,"sipbf":10470,"Ġtickle":10471,"Ġdeaprting":10472,"Ġdecadent":10473,"Ġprecisely":10474,"Ġabounding":10475,"Ġabnpdu":10476,"Ġevdo":10477,"Ġeqclfb":10478,"Ġeooagzcf":10479,"Ġeafyz":10480,"Ġjacuzzi":10481,"Ġjpnlh":10482,"Ġjbvumn":10483,"Ġkhhjbqs":10484,"Ġksfskic":10485,"Ġfridya":10486,"Ġsundaymonday":10487,"Ġifxpnyhs":10488,"Ġrjvne":10489,"Ġrltot":10490,"Ġsecurity":10491,"Ġunnecessarily":10492,"Ġunaware":10493,"Ġ1223512596":10494,"Ġdiffidently":10495,"Ġperimater":10496,"Ġuzfw":10497,"Ġudgbvrlm":10498,"Ġcritieria":10499,"Ġmigranes":10500,"Ġvmfxyh":10501,"Ġhosvdega":10502,"Ġrigamarole":10503,"loqwxpk":10504,"Ġassigned":10505,"Ġelypaxqz":10506,"Ġconfidence":10507,"Ġbirmignham":10508,"Ġqclab":10509,"Ġqyglcine":10510,"Ġpizzerias":10511,"Ġmargerita":10512,"Ġ07330545456":10513,"Ġ07389012325":10514,"Ġswimmoingpool":10515,"Ġquickest":10516,"Ġhejfvrpp":10517,"kszqnwl":10518,"Ġprtuguese":10519,"Ġprxymnlc":10520,"Ġenoalfav":10521,"gdjzq":10522,"Ġalphabetically":10523,"Ġ01223309147":10524,"Ġcommunication":10525,"kysnb":10526,"Ġxpkrjxc":10527,"Ġxgbqhc":10528,"Ġxamsdtry":10529,"Ġ01223216297":10530,"gljedpz":10531,"gwjcj":10532,"agmljm":10533,"zkdnrmv":10534,"vytxwh":10535,"01223355397":10536,"Ġsatisfactory":10537,"Ġflorida":10538,"Ġbibtgcna":10539,"Ġayelsbray":10540,"Ġobfyqjzu":10541,"Ġsbdevyh":10542,"Ġgcghxnvn":10543,"Ġucspfcvi":10544,"Ġgaaqjaqq":10545,"Ġcongradulatoions":10546,"Ġkhhjbqsz":10547,"058":10548,"055":10549,"0236":10550,"0662":10551,"0481":10552,"0328":10553,"0469":10554,"138":10555,"1088":10556,"14600":10557,"1233":10558,"1393":10559,"288":10560,"280":10561,"2013":10562,"329":10563,"3279":10564,"3111":10565,"3661":10566,"3292":10567,"4454":10568,"4905":10569,"5124":10570,"5167":10571,"5293":10572,"640":10573,"610":10574,"649":10575,"644":10576,"62456":10577,"6456":10578,"6125":10579,"700":10580,"790":10581,"7458":10582,"7409":10583,"7483":10584,"7278":10585,"823":10586,"834":10587,"870":10588,"831":10589,"8233":10590,"8531":10591,"8542":10592,"8385":10593,"9100":10594,"9299":10595,"9495":10596,"arant":10597,"afast":10598,"agd":10599,"aua":10600,"bry":10601,"btu":10602,"bvl":10603,"bkd":10604,"bllw":10605,"cies":10606,"cws":10607,"crh":10608,"czk":10609,"czf":10610,"cqz":10611,"cutc":10612,"dc":10613,"dra":10614,"dha":10615,"dka":10616,"dze":10617,"dim":10618,"dlx":10619,"dnn":10620,"ees":10621,"eha":10622,"eky":10623,"eif":10624,"evw":10625,"ekt":10626,"fw":10627,"fri":10628,"fxb":10629,"fwh":10630,"fda":10631,"fli":10632,"fuw":10633,"frx":10634,"fau":10635,"fwx":10636,"fbo":10637,"fafy":10638,"gouse":10639,"gzz":10640,"grd":10641,"gbi":10642,"gvm":10643,"gjc":10644,"grl":10645,"gij":10646,"gvr":10647,"grc":10648,"gument":10649,"hri":10650,"han":10651,"har":10652,"hould":10653,"hensive":10654,"hut":10655,"hand":10656,"hub":10657,"hzz":10658,"iate":10659,"ilo":10660,"ijz":10661,"ioz":10662,"ires":10663,"jme":10664,"jad":10665,"jny":10666,"jnf":10667,"jrt":10668,"jrb":10669,"jnn":10670,"jau":10671,"kar":10672,"klu":10673,"kbe":10674,"kff":10675,"kmb":10676,"khx":10677,"ktq":10678,"kxx":10679,"kjsr":10680,"lit":10681,"lclub":10682,"lies":10683,"lpl":10684,"men":10685,"mri":10686,"mtw":10687,"mgx":10688,"mxa":10689,"mzl":10690,"mqw":10691,"nth":10692,"nia":10693,"nito":10694,"nbu":10695,"nsw":10696,"nxa":10697,"nph":10698,"nesa":10699,"oend":10700,"ojb":10701,"oqa":10702,"oxc":10703,"ovx":10704,"pen":10705,"par":10706,"pss":10707,"pital":10708,"pha":10709,"pial":10710,"pcu":10711,"qts":10712,"qah":10713,"qli":10714,"qbu":10715,"qlh":10716,"qxs":10717,"rin":10718,"rte":10719,"rgy":10720,"rlm":10721,"rmg":10722,"sat":10723,"sct":10724,"sal":10725,"swhg":10726,"tg":10727,"tar":10728,"taction":10729,"tca":10730,"tem":10731,"tqq":10732,"tfe":10733,"tfl":10734,"ufi":10735,"uaz":10736,"uhu":10737,"uvy":10738,"ukm":10739,"uvz":10740,"vha":10741,"vbb":10742,"vze":10743,"vzv":10744,"wu":10745,"went":10746,"wol":10747,"wjy":10748,"wrd":10749,"wkc":10750,"wqh":10751,"wzq":10752,"xen":10753,"xum":10754,"xoc":10755,"xdq":10756,"xvm":10757,"xji":10758,"xxby":10759,"yat":10760,"yce":10761,"yir":10762,"yled":10763,"yka":10764,"ydy":10765,"yhu":10766,"yww":10767,"ykf":10768,"ysuq":10769,"zer":10770,"zll":10771,"zps":10772,"zfs":10773,"zgq":10774,"zqe":10775,"zuc":10776,"Ġtn":10777,"Ġtge":10778,"Ġtie":10779,"Ġtgd":10780,"Ġtcy":10781,"Ġtjs":10782,"Ġtqa":10783,"Ġtqd":10784,"Ġain":10785,"Ġari":10786,"Ġakn":10787,"Ġaoj":10788,"reo":10789,"req":10790,"reom":10791,"rely":10792,"resses":10793,"rehensive":10794,"inc":10795,"innn":10796,"sts":10797,"stig":10798,"stqb":10799,"erol":10800,"eristic":10801,"ermediate":10802,"oni":10803,"onatal":10804,"ousity":10805,"Ġthus":10806,"Ġiun":10807,"Ġiir":10808,"Ġireq":10809,"rained":10810,"eling":10811,"eljf":10812,"elvha":10813,"Ġhv":10814,"Ġhx":10815,"Ġhat":10816,"Ġhld":10817,"Ġhsi":10818,"Ġhni":10819,"Ġhsv":10820,"Ġhng":10821,"Ġhjh":10822,"Ġhreom":10823,"Ġpest":10824,"Ġpertain":10825,"Ġplub":10826,"Ġpint":10827,"Ġpfl":10828,"Ġpuw":10829,"Ġpxs":10830,"Ġpdl":10831,"Ġplox":10832,"Ġcc":10833,"Ġcd":10834,"Ġcm":10835,"Ġcul":10836,"Ġcred":10837,"Ġcej":10838,"Ġwb":10839,"Ġwf":10840,"Ġwx":10841,"Ġwfo":10842,"Ġwjc":10843,"Ġwbh":10844,"Ġwtj":10845,"Ġwql":10846,"Ġwreo":10847,"ensitive":10848,"Ġyi":10849,"Ġyfi":10850,"Ġyff":10851,"Ġybt":10852,"Ġyfn":10853,"Ġnf":10854,"Ġnu":10855,"Ġnal":10856,"Ġnthe":10857,"Ġntp":10858,"Ġncz":10859,"Ġnsl":10860,"orq":10861,"orwe":10862,"orfz":10863,"Ġfc":10864,"Ġfry":10865,"Ġflo":10866,"Ġftz":10867,"Ġfgm":10868,"Ġfxd":10869,"Ġfneq":10870,"atch":10871,"atjmy":10872,"Ġbk":10873,"Ġbran":10874,"Ġbse":10875,"Ġbple":10876,"Ġbnf":10877,"Ġbvc":10878,"Ġbvt":10879,"Ġbbo":10880,"Ġbvu":10881,"oople":10882,"oops":10883,"Ġrema":10884,"Ġremod":10885,"Ġinxji":10886,"Ġlm":10887,"Ġlce":10888,"Ġlak":10889,"Ġlne":10890,"Ġlhy":10891,"Ġlgm":10892,"Ġltq":10893,"Ġlwe":10894,"Ġllt":10895,"Ġlyy":10896,"Ġlpz":10897,"Ġlqs":10898,"Ġdq":10899,"Ġdke":10900,"Ġdgm":10901,"Ġdki":10902,"Ġdtx":10903,"Ġdldq":10904,"Ġdutton":10905,"Ġdfsn":10906,"Ġtod":10907,"rig":10908,"ano":10909,"anp":10910,"anxm":10911,"Ġsan":10912,"Ġsens":10913,"Ġsyx":10914,"Ġsssl":10915,"Ġszgq":10916,"Ġsensitive":10917,"Ġml":10918,"Ġmes":10919,"Ġmgy":10920,"Ġmnl":10921,"Ġmxj":10922,"Ġmfp":10923,"Ġmwjy":10924,"vec":10925,"ctpe":10926,"ctly":10927,"cteristic":10928,"Ġankle":10929,"lege":10930,"least":10931,"leted":10932,"gedh":10933,"sec":10934,"sewy":10935,"Ġtrack":10936,"Ġareat":10937,"Ġforu":10938,"Ġgun":10939,"Ġgyne":10940,"Ġgkd":10941,"Ġgxt":10942,"Ġgpg":10943,"Ġgpu":10944,"Ġggjc":10945,"arpt":10946,"arzr":10947,"arcqz":10948,"edl":10949,"amican":10950,"iej":10951,"Ġatleast":10952,"through":10953,"thdk":10954,"Ġthatnk":10955,"Ġwiil":10956,"Ġwires":10957,"llly":10958,"enteen":10959,"entative":10960,"Ġnetf":10961,"Ġneonatal":10962,"Ġwhould":10963,"Ġwhic":10964,"Ġwhoops":10965,"Ġitermediate":10966,"Ġamd":10967,"Ġamf":10968,"Ġample":10969,"Ġammen":10970,"Ġmea":10971,"Ġmeh":10972,"Ġmeat":10973,"Ġatttaction":10974,"Ġchara":10975,"Ġattract":10976,"Ġlekn":10977,"als":10978,"aljt":10979,"alyd":10980,"Ġcambir":10981,"Ġyesm":10982,"Ġcentry":10983,"Ġpez":10984,"Ġpeple":10985,"Ġpeoople":10986,"odal":10987,"pefs":10988,"Ġargument":10989,"Ġbeast":10990,"Ġbejrb":10991,"Ġnumbe":10992,"Ġpeopleat":10993,"sible":10994,"sition":10995,"Ġtiye":10996,"Ġdeoend":10997,"Ġtyde":10998,"terborough":10999,"urc":11000,"Ġwithing":11001,"chza":11002,"chance":11003,"Ġ259":11004,"Ġ244":11005,"wnh":11006,"Ġ468":11007,"Ġ4668":11008,"Ġguestgouse":11009,"mef":11010,"Ġmoderite":11011,"Ġexlp":11012,"inder":11013,"ryk":11014,"ryfc":11015,"ryhj":11016,"unl":11017,"Ġnotes":11018,"Ġnotice":11019,"Ġals":11020,"Ġalkk":11021,"Ġalkso":11022,"Ġexpense":11023,"Ġexpresses":11024,"Ġ010":11025,"Ġ0277":11026,"Ġ358":11027,"Ġ325":11028,"isness":11029,"asa":11030,"utm":11031,"uttle":11032,"Ġstone":11033,"Ġstol":11034,"Ġstyled":11035,"etdx":11036,"Ġpreder":11037,"Ġprestig":11038,"Ġabotu":11039,"Ġabkff":11040,"antic":11041,"0035":11042,"0088":11043,"Ġ544":11044,"Ġ581":11045,"Ġog":11046,"Ġoq":11047,"Ġoz":11048,"Ġoic":11049,"Ġozz":11050,"Ġoae":11051,"Ġoyy":11052,"Ġobk":11053,"fili":11054,"fidq":11055,"Ġmuwl":11056,"Ġmubtu":11057,"308":11058,"3021":11059,"3066":11060,"3062":11061,"olw":11062,"olon":11063,"155":11064,"1577":11065,"1526":11066,"nda":11067,"iced":11068,"4515":11069,"4546":11070,"Ġeference":11071,"Ġeww":11072,"Ġepn":11073,"Ġewf":11074,"Ġehh":11075,"Ġeebg":11076,"Ġpartner":11077,"Ġshound":11078,"Ġshoul":11079,"Ġshoes":11080,"Ġshuttle":11081,"Ġgetme":11082,"Ġpostcodein":11083,"Ġjb":11084,"Ġjp":11085,"Ġjwi":11086,"Ġjff":11087,"Ġjhi":11088,"Ġjix":11089,"Ġjwd":11090,"Ġjhq":11091,"Ġjqp":11092,"Ġjuz":11093,"Ġjquu":11094,"Ġjctpe":11095,"Ġjarzr":11096,"Ġjamican":11097,"Ġokv":11098,"icmm":11099,"icide":11100,"Ġsucessful":11101,"Ġweather":11102,"arent":11103,"Ġtrin":11104,"Ġkh":11105,"Ġkvj":11106,"Ġkxe":11107,"Ġkcd":11108,"Ġkgmv":11109,"Ġaffili":11110,"aio":11111,"aiment":11112,"Ġcolleag":11113,"Ġwifii":11114,"Ġentert":11115,"Ġentrace":11116,"Ġentires":11117,"Ġleav":11118,"ishment":11119,"Ġleavinga":11120,"Ġwednsday":11121,"Ġsatiate":11122,"Ġmanufi":11123,"Ġcitycentre":11124,"Ġsory":11125,"Ġ1524":11126,"Ġdiabet":11127,"Ġ0122344":11128,"Ġ0122362456":11129,"Ġ815":11130,"Ġserveal":11131,"Ġ676":11132,"Ġ6383":11133,"Ġavpk":11134,"Ġavolon":11135,"Ġcbm":11136,"Ġcbr":11137,"Ġcbfd":11138,"Ġrl":11139,"Ġrt":11140,"Ġrood":11141,"Ġrmg":11142,"Ġrlc":11143,"Ġrtp":11144,"Ġrzd":11145,"Ġrvoq":11146,"Ġsemi":11147,"Ġsestaurant":11148,"Ġoppss":11149,"Ġindiana":11150,"Ġ111":11151,"Ġ114":11152,"Ġ1145":11153,"Ġrarte":11154,"Ġ1300":11155,"Ġ121":11156,"Ġ12263":11157,"Ġsillly":11158,"Ġperchance":11159,"Ġuber":11160,"Ġuft":11161,"Ġuorey":11162,"Ġuxy":11163,"Ġuyww":11164,"cka":11165,"ckcc":11166,"Ġtells":11167,"Ġ104":11168,"Ġ1064":11169,"Ġ1836":11170,"Ġ1955":11171,"Ġbreafast":11172,"Ġbreaker":11173,"Ġreff":11174,"Ġacw":11175,"Ġminist":11176,"Ġvx":11177,"Ġvross":11178,"Ġvkw":11179,"Ġvsj":11180,"Ġvjs":11181,"Ġvxq":11182,"Ġvhb":11183,"Ġvmz":11184,"Ġvmwi":11185,"Ġvwcr":11186,"Ġvurc":11187,"Ġnightlclub":11188,"Ġ211":11189,"Ġeuro":11190,"Ġcuy":11191,"lozqv":11192,"izs":11193,"izgbi":11194,"Ġnewham":11195,"Ġseventeen":11196,"Ġ901":11197,"Ġ991":11198,"Ġcarpool":11199,"2141":11200,"Ġseek":11201,"Ġseeuniversity":11202,"Ġspare":11203,"Ġsprained":11204,"Ġplft":11205,"Ġplbf":11206,"Ġplrlm":11207,"Ġchear":11208,"Ġupjb":11209,"1193":11210,"Ġbirdw":11211,"Ġstevens":11212,"Ġqit":11213,"Ġqah":11214,"Ġqrd":11215,"Ġqhg":11216,"Ġqvc":11217,"Ġqbv":11218,"Ġqqv":11219,"Ġqowr":11220,"Ġqoqa":11221,"Ġpizzas":11222,"maedl":11223,"Ġfeet":11224,"ogbr":11225,"ogzjm":11226,"tii":11227,"tistqb":11228,"Ġ0720":11229,"Ġ0770":11230,"Ġ0753":11231,"Ġ0768":11232,"Ġ0784":11233,"Ġ0704":11234,"Ġ07623":11235,"Ġ0762":11236,"Ġ0792":11237,"Ġ0785":11238,"Ġ07598":11239,"bpmp":11240,"bpdka":11241,"5870":11242,"twwh":11243,"244":11244,"2442":11245,"2478":11246,"171":11247,"1744":11248,"1772":11249,"1731":11250,"foyc":11251,"070":11252,"Ġcomleted":11253,"nty":11254,"abnrt":11255,"508":11256,"5017":11257,"6655":11258,"2925":11259,"0843":11260,"haen":11261,"Ġ236":11262,"Ġ2320":11263,"Ġ23926":11264,"1027":11265,"Ġ0500":11266,"sajf":11267,"8830":11268,"606":11269,"6037":11270,"5488":11271,"5428":11272,"5431":11273,"5497":11274,"Ġlensfe":11275,"Ġlensdi":11276,"Ġhemp":11277,"5267":11278,"miq":11279,"0112":11280,"Ġohn":11281,"399":11282,"3940":11283,"Ġbeforehand":11284,"463":11285,"4655":11286,"4689":11287,"4673":11288,"Ġitshould":11289,"avoo":11290,"5910":11291,"5906":11292,"5998":11293,"Ġclassed":11294,"Ġcityroomzs":11295,"205":11296,"2029":11297,"mmo":11298,"mmy":11299,"3207":11300,"Ġresulting":11301,"1955":11302,"okt":11303,"431":11304,"4379":11305,"4382":11306,"Ġtursday":11307,"epi":11308,"epk":11309,"Ġabsolute":11310,"Ġzt":11311,"Ġzy":11312,"Ġzxi":11313,"Ġzbj":11314,"Ġzpd":11315,"Ġzkt":11316,"Ġzwcf":11317,"1699":11318,"1674":11319,"902":11320,"9098":11321,"098":11322,"Ġ01223355711":11323,"shc":11324,"quqa":11325,"Ġfinest":11326,"brc":11327,"brht":11328,"brtc":11329,"499":11330,"Ġavaliable":11331,"Ġyeas":11332,"Ġbacking":11333,"4800":11334,"4848":11335,"4877":11336,"0677":11337,"tnhq":11338,"Ġgrj":11339,"ipf":11340,"ulll":11341,"Ġcolege":11342,"Ġerm":11343,"570":11344,"Ġrestrant":11345,"sukp":11346,"362":11347,"369":11348,"Ġdiners":11349,"422":11350,"Ġbedouln":11351,"381":11352,"3873":11353,"3891":11354,"Ġapologise":11355,"7738":11356,"7771":11357,"gdf":11358,"Ġscene":11359,"Ġwaqs":11360,"Ġolds":11361,"fftty":11362,"Ġendoc":11363,"ilple":11364,"444":11365,"Ġ0122336233":11366,"Ġ01223369299":11367,"Ġcaroline":11368,"184":11369,"1835":11370,"1832":11371,"1871":11372,"7834":11373,"ahh":11374,"ahtb":11375,"ahco":11376,"Ġ0632":11377,"dsrh":11378,"287":11379,"2819":11380,"2831":11381,"5678":11382,"5626":11383,"Ġpunch":11384,"Ġpunds":11385,"Ġpunishment":11386,"3415":11387,"3420":11388,"3476":11389,"naoo":11390,"Ġguarant":11391,"796":11392,"797":11393,"7994":11394,"26151":11395,"kokg":11396,"zzkq":11397,"zzwo":11398,"cyirg":11399,"cypcu":11400,"Ġblond":11401,"Ġapplies":11402,"Ġapparent":11403,"70330":11404,"703476":11405,"Ġfives":11406,"Ġcorrected":11407,"Ġxsq":11408,"Ġxlk":11409,"Ġxdwv":11410,"udkc":11411,"qqr":11412,"Ġteel":11413,"mobv":11414,"Ġhaha":11415,"liwo":11416,"Ġ01223358399":11417,"Ġfranky":11418,"6471":11419,"8918":11420,"683":11421,"6806":11422,"6844":11423,"6870":11424,"jgrh":11425,"jgcm":11426,"7634":11427,"7696":11428,"Ġbuisness":11429,"7329":11430,"7372":11431,"fehf":11432,"Ġ0140":11433,"buqli":11434,"6925":11435,"6336":11436,"Ġstyles":11437,"Ġreco":11438,"Ġrecent":11439,"lnf":11440,"Ġmidnight":11441,"tuesday":11442,"6725":11443,"9424":11444,"9420":11445,"Ġregarded":11446,"Ġ4734":11447,"psc":11448,"psgf":11449,"Ġcoldhar":11450,"Ġcawrd":11451,"Ġclarified":11452,"bjmq":11453,"bjho":11454,"8627":11455,"Ġ3800":11456,"Ġ3854":11457,"Ġ38589":11458,"475":11459,"Ġunderwent":11460,"Ġ0122351241":11461,"Ġswfuw":11462,"Ġduh":11463,"mba":11464,"dpl":11465,"dpm":11466,"mwr":11467,"Ġcomprehensive":11468,"Ġspecialize":11469,"ualfe":11470,"Ġ012232177":11471,"Ġ0122357168":11472,"9616":11473,"8260":11474,"8252":11475,"Ġgriffiti":11476,"Ġsupplied":11477,"Ġdesires":11478,"vox":11479,"Ġ3515":11480,"efs":11481,"efx":11482,"Ġeritean":11483,"0449":11484,"Ġtransition":11485,"Ġrelation":11486,"Ġrelating":11487,"glg":11488,"upai":11489,"upcw":11490,"Ġexhibitions":11491,"axd":11492,"Ġmichae":11493,"0554":11494,"6223":11495,"lho":11496,"lhzu":11497,"7519":11498,"Ġ01223323555":11499,"Ġvolkswagon":11500,"Ġcrj":11501,"Ġcru":11502,"uajna":11503,"Ġ0196":11504,"Ġetih":11505,"Ġ0195414600":11506,"9724":11507,"9714":11508,"gxd":11509,"gxw":11510,"flmf":11511,"gwk":11512,"myzll":11513,"swd":11514,"swq":11515,"jbg":11516,"jbih":11517,"Ġ3112":11518,"qfq":11519,"9545":11520,"bwkg":11521,"agst":11522,"Ġbelgry":11523,"pjeh":11524,"qyjh":11525,"qypsgf":11526,"imx":11527,"xhuaz":11528,"Ġ07851":11529,"ufxj":11530,"wym":11531,"gnb":11532,"Ġmutilple":11533,"nfd":11534,"tybj":11535,"osmvl":11536,"zyj":11537,"eywv":11538,"eytd":11539,"kvhn":11540,"Ġbobt":11541,"Ġ07629":11542,"Ġ07657":11543,"Ġecbrm":11544,"pqpv":11545,"tlbk":11546,"crco":11547,"jyt":11548,"vdxy":11549,"Ġassbu":11550,"Ġbrqc":11551,"1120":11552,"rddl":11553,"bgv":11554,"Ġromantic":11555,"nzbg":11556,"Ġsqucln":11557,"btti":11558,"ejqj":11559,"Ġesle":11560,"Ġ07715":11561,"ewwr":11562,"syc":11563,"ljfidq":11564,"uwxxby":11565,"qbzuy":11566,"acg":11567,"gmpa":11568,"jvlz":11569,"lxm":11570,"Ġthirsday":11571,"kcboh":11572,"nkti":11573,"nkjm":11574,"qcnph":11575,"zkjyt":11576,"phr":11577,"phir":11578,"Ġempha":11579,"3882":11580,"vhk":11581,"vhbc":11582,"Ġsidgwich":11583,"bqh":11584,"bqs":11585,"bqmf":11586,"bqkh":11587,"jzi":11588,"jzqe":11589,"jzmv":11590,"5110":11591,"hcn":11592,"hcmyx":11593,"uxg":11594,"uxrg":11595,"uxxum":11596,"uxalyd":11597,"Ġresponsible":11598,"rxz":11599,"rfm":11600,"svp":11601,"svx":11602,"biolw":11603,"dozkz":11604,"Ġspaces":11605,"njh":11606,"njp":11607,"vvf":11608,"xyr":11609,"xyt":11610,"xyzb":11611,"qeu":11612,"qecrh":11613,"sqr":11614,"Ġowxj":11615,"Ġodvze":11616,"Ġ0122335942":11617,"5216":11618,"52160":11619,"blt":11620,"blcs":11621,"mnp":11622,"mns":11623,"oeiv":11624,"vfh":11625,"8285":11626,"qwfwx":11627,"zmc":11628,"zmuk":11629,"kiwfn":11630,"xqj":11631,"nnr":11632,"Ġfifty":11633,"weqk":11634,"wlr":11635,"wlsp":11636,"Ġoter":11637,"kqdp":11638,"rnchza":11639,"xedgdf":11640,"ztfda":11641,"mgrf":11642,"Ġmaths":11643,"6072":11644,"dfw":11645,"hqd":11646,"resentative":11647,"Ġjoints":11648,"gslhi":11649,"Ġglby":11650,"Ġglutton":11651,"Ġglodal":11652,"0122321":11653,"ngvlit":11654,"augq":11655,"bco":11656,"Ġrepresentative":11657,"Ġsupposedly":11658,"Ġselling":11659,"Ġlargest":11660,"trut":11661,"Ġconstrained":11662,"Ġrespective":11663,"dnv":11664,"clw":11665,"hhpj":11666,"wkj":11667,"zvp":11668,"ykxc":11669,"zxo":11670,"xfzm":11671,"xfmk":11672,"xwzar":11673,"Ġinterist":11674,"fhjvd":11675,"Ġzipcode":11676,"Ġ0179952160":11677,"mzqy":11678,"wxpz":11679,"Ġ07558":11680,"Ġghandhi":11681,"Ġcategorized":11682,"kuvl":11683,"vjze":11684,"yhrk":11685,"7556":11686,"ughq":11687,"8793":11688,"minutes":11689,"Ġalydozkz":11690,"cjpo":11691,"hfqts":11692,"8292":11693,"jhos":11694,"wtaljt":11695,"Ġihphir":11696,"hvte":11697,"jlp":11698,"pyok":11699,"rvtnhq":11700,"cpi":11701,"mtg":11702,"yqnnr":11703,"Ġiauxalyd":11704,"hrcy":11705,"sgim":11706,"szjzmv":11707,"Ġpygl":11708,"Ġpydlx":11709,"Ġflg":11710,"gboni":11711,"gbagst":11712,"ypss":11713,"Ġarrving":11714,"Ġglitched":11715,"nvnf":11716,"xujb":11717,"yzby":11718,"skorq":11719,"Ġayilo":11720,"Ġhjkokg":11721,"Ġhjcyirg":11722,"Ġphsey":11723,"Ġgooh":11724,"Ġstansteadthrough":11725,"Ġqaod":11726,"9883":11727,"Ġoev":11728,"Ġ01223256645":11729,"Ġxyiq":11730,"Ġxygxd":11731,"Ġhqosmvl":11732,"Ġcybpdka":11733,"Ġpetterborough":11734,"Ġstrictly":11735,"Ġvacancies":11736,"Ġwdetdx":11737,"Ġnedeed":11738,"Ġbbqxvm":11739,"Ġreestaurant":11740,"Ġjczkjyt":11741,"8092":11742,"Ġtdpeq":11743,"Ġbumped":11744,"fzcvec":11745,"iwmr":11746,"Ġdkhcmyx":11747,"Ġmcswq":11748,"Ġznro":11749,"flxsj":11750,"jmyoi":11751,"Ġouf":11752,"Ġwjch":11753,"Ġlkle":11754,"Ġartists":11755,"Ġvcupcw":11756,"Ġqgabnrt":11757,"Ġoccupancy":11758,"qamughq":11759,"ztnk":11760,"Ġulz":11761,"Ġulswhg":11762,"Ġstrpxc":11763,"Ġethnic":11764,"Ġrqljfidq":11765,"Ġujwym":11766,"Ġprotuguese":11767,"hcwce":11768,"3183":11769,"8364":11770,"Ġsmile":11771,"Ġatractions":11772,"Ġ07632382":11773,"glcvb":11774,"0244":11775,"nrtv":11776,"yrxr":11777,"Ġtgkx":11778,"Ġlpnkz":11779,"Ġkshhcwce":11780,"Ġrainid":11781,"Ġzkogbr":11782,"Ġzsdxs":11783,"Ġzsdflxsj":11784,"Ġxxxx":11785,"kbzum":11786,"sbsnjp":11787,"Ġtfup":11788,"Ġfhzmuk":11789,"Ġmherl":11790,"Ġindicate":11791,"Ġseparate":11792,"qitl":11793,"qisg":11794,"xrzd":11795,"Ġakfp":11796,"Ġcctlxm":11797,"Ġcapable":11798,"itdrh":11799,"Ġjxkuvl":11800,"Ġjumped":11801,"Ġkooj":11802,"Ġseverely":11803,"Ġuxglg":11804,"Ġcuriousity":11805,"Ġ0726370330":11806,"Ġscrape":11807,"Ġaccomadation":11808,"wxsl":11809,"Ġryed":11810,"stnzy":11811,"Ġwzrj":11812,"Ġygmyzll":11813,"Ġbvdpm":11814,"Ġdyamg":11815,"Ġgalley":11816,"Ġjwerol":11817,"Ġ01223348313":11818,"Ġsteveanage":11819,"Ġchestertom":11820,"44610":11821,"6895":11822,"puqpr":11823,"xgyl":11824,"ygnka":11825,"Ġbuddha":11826,"Ġlvrg":11827,"Ġsolo":11828,"Ġjvgyc":11829,"Ġ07621703476":11830,"agdqcl":11831,"bkdr":11832,"czfpqpv":11833,"cutcph":11834,"dzeg":11835,"ekyi":11836,"eifxn":11837,"friday":11838,"fxbr":11839,"grdrb":11840,"hubdz":11841,"jrtr":11842,"kbev":11843,"khxr":11844,"ktqseo":11845,"kxxpr":11846,"kjsrrga":11847,"nthk":11848,"niaa":11849,"nswk":11850,"nxaor":11851,"ojbnt":11852,"ovxx":11853,"pialjo":11854,"qbuv":11855,"rinology":11856,"rmgsh":11857,"saljyn":11858,"tqqg":11859,"ukmliwo":11860,"wqhv":11861,"xenh":11862,"ykfj":11863,"ysuqo":11864,"zpsl":11865,"Ġtgdye":11866,"Ġtcyavoo":11867,"Ġtjsxo":11868,"Ġtqdmtw":11869,"Ġaknpf":11870,"Ġaojgd":11871,"Ġiunu":11872,"Ġiirb":11873,"Ġhsiinnn":11874,"Ġhsvg":11875,"Ġhjhe":11876,"Ġpesticide":11877,"Ġpertaining":11878,"Ġplubryfc":11879,"Ġpinto":11880,"Ġpflvz":11881,"Ġpuwpi":11882,"Ġpdlpm":11883,"Ġcredentials":11884,"Ġcejp":11885,"Ġwfoqfq":11886,"Ġwjcua":11887,"Ġwbhzzwo":11888,"Ġwtjer":11889,"Ġyfiorwe":11890,"Ġyffshc":11891,"Ġyfnh":11892,"Ġnalgedh":11893,"Ġntpyzby":11894,"Ġnczqbzuy":11895,"Ġnslkei":11896,"orfzpb":11897,"Ġfloor":11898,"Ġftzqcnph":11899,"Ġfxdnf":11900,"atching":11901,"Ġbrand":11902,"Ġbsejzqe":11903,"Ġbplease":11904,"Ġbvtk":11905,"Ġremainder":11906,"Ġremodeling":11907,"Ġlcexhuaz":11908,"Ġlakqv":11909,"Ġlhylov":11910,"Ġltqhut":11911,"Ġlweogzjm":11912,"Ġlyymc":11913,"Ġdgmg":11914,"Ġdldqir":11915,"anxmea":11916,"Ġsensational":11917,"Ġssslfoyc":11918,"Ġszgqo":11919,"Ġmessed":11920,"Ġmgyr":11921,"Ġmxjrf":11922,"Ġmwjyc":11923,"cteristics":11924,"Ġgynecology":11925,"Ġgkddpl":11926,"Ġgxtxw":11927,"Ġgpgcypcu":11928,"Ġggjcv":11929,"arptz":11930,"arcqzh":11931,"Ġnetflix":11932,"Ġammenities":11933,"Ġcharacteristics":11934,"Ġlekni":11935,"Ġcambirdge":11936,"Ġbejrbnda":11937,"Ġdeoendancy":11938,"Ġtydeg":11939,"Ġexlpress":11940,"ryhjtp":11941,"Ġ3587":11942,"Ġstolen":11943,"Ġprestigous":11944,"Ġoicbjmq":11945,"Ġozzglcvb":11946,"Ġoaejmyoi":11947,"Ġoyyuxxum":11948,"Ġmuwlbllw":11949,"Ġmubtuutm":11950,"Ġepnsy":11951,"Ġewfxujb":11952,"Ġehhsin":11953,"Ġeebgs":11954,"Ġjixsct":11955,"Ġjhqjlp":11956,"Ġjqpiej":11957,"Ġjctpezt":11958,"Ġkvjnzbg":11959,"Ġkxequqa":11960,"Ġkgmvnkjm":11961,"Ġaffiliations":11962,"Ġcolleagues":11963,"Ġentertaiment":11964,"Ġmanufique":11965,"Ġdiabetes":11966,"Ġavpktybj":11967,"Ġcbfdx":11968,"Ġrvoqbwkg":11969,"Ġuywwvhk":11970,"ckccu":11971,"Ġministry":11972,"Ġvkwmnp":11973,"Ġvjsd":11974,"Ġvxqs":11975,"Ġvmwivzv":11976,"Ġplftp":11977,"Ġplbfmns":11978,"Ġupjbmq":11979,"Ġbirdwatching":11980,"Ġqahkt":11981,"Ġqrdn":11982,"Ġqhgualfe":11983,"Ġqvcsajf":11984,"Ġqbvp":11985,"Ġqqvpn":11986,"bpmpu":11987,"Ġlensfeild":11988,"Ġlensdield":11989,"Ġzpdxc":11990,"brhtv":11991,"Ġendocrinology":11992,"dsrhj":11993,"Ġguarantees":11994,"26151603":11995,"Ġapparently":11996,"Ġxsqhk":11997,"Ġxlkz":11998,"udkcnbu":11999,"buqlik":12000,"Ġcoldharms":12001,"Ġtransitional":12002,"Ġetiher":12003,"flmfk":12004,"jbihkc":12005,"pjehzw":12006,"qypsgfh":12007,"Ġecbrmjs":12008,"vdxyhih":12009,"Ġsquclnla":12010,"ejqjws":12011,"kcbohzb":12012,"Ġemphasis":12013,"vhbcg":12014,"Ġodvzeu":12015,"blcsb":12016,"kiwfnou":12017,"hfqtsau":12018,"Ġpydlxtii":12019,"Ġcybpdkaz":12020,"Ġbbqxvmzk":12021,"Ġvcupcwda":12022,"Ġqgabnrtx":12023,"Ġulswhgvk":12024,"Ġstrpxcft":12025,"Ġ07632382262":12026,"Ġzkogbrmr":12027,"Ġfhzmukmo":12028,"Ġmherlswd":12029,"Ġ07263703306":12030,"Ġyfiorwek":12031,"Ġqvcsajfu":12032,"023":12033,"0292":12034,"0497":12035,"0176":12036,"1382":12037,"1238":12038,"1082":12039,"1328":12040,"260":12041,"251":12042,"225":12043,"228":12044,"300":12045,"360":12046,"3504":12047,"3498":12048,"3433":12049,"3798":12050,"4005":12051,"4414":12052,"47769":12053,"530":12054,"550":12055,"5291":12056,"641":12057,"636":12058,"6413":12059,"6459":12060,"711":12061,"749":12062,"7178":12063,"7277":12064,"7307":12065,"7013":12066,"7156":12067,"8238":12068,"8118":12069,"8126":12070,"8337":12071,"930":12072,"915":12073,"952":12074,"939":12075,"964":12076,"9765":12077,"9803":12078,"9605":12079,"aion":12080,"aar":12081,"aow":12082,"aun":12083,"ague":12084,"bge":12085,"bination":12086,"bnce":12087,"bale":12088,"bae":12089,"bzk":12090,"bkq":12091,"birg":12092,"cch":12093,"cwn":12094,"cine":12095,"cyn":12096,"cwh":12097,"cnx":12098,"cgc":12099,"cfq":12100,"cambridge":12101,"doo":12102,"dod":12103,"dress":12104,"dft":12105,"ddz":12106,"dance":12107,"dnk":12108,"dvq":12109,"ddfw":12110,"eel":12111,"eve":12112,"ebq":12113,"eoyk":12114,"fts":12115,"fog":12116,"frent":12117,"fua":12118,"fux":12119,"fvv":12120,"fmn":12121,"futf":12122,"fmiq":12123,"gr":12124,"gnd":12125,"gul":12126,"gci":12127,"gpd":12128,"grq":12129,"gjv":12130,"gsq":12131,"hir":12132,"hks":12133,"hqq":12134,"huy":12135,"hrq":12136,"hlm":12137,"hwo":12138,"ith":12139,"ium":12140,"ias":12141,"iir":12142,"iog":12143,"ibr":12144,"istal":12145,"ibility":12146,"iits":12147,"ified":12148,"iqn":12149,"iung":12150,"jsu":12151,"jmb":12152,"jjv":12153,"jnk":12154,"jjm":12155,"jwt":12156,"kel":12157,"kend":12158,"kex":12159,"kut":12160,"kir":12161,"kol":12162,"kds":12163,"kig":12164,"kty":12165,"lon":12166,"loo":12167,"lun":12168,"ltw":12169,"lks":12170,"lbj":12171,"lrs":12172,"ljxx":12173,"mal":12174,"mate":12175,"mir":12176,"mks":12177,"mtn":12178,"mpo":12179,"mda":12180,"muse":12181,"mcy":12182,"mbb":12183,"mrq":12184,"mrk":12185,"mko":12186,"nwn":12187,"nks":12188,"nnf":12189,"nsd":12190,"nsv":12191,"nnx":12192,"nrb":12193,"nov":12194,"ober":12195,"ogh":12196,"oet":12197,"oad":12198,"ozz":12199,"oag":12200,"ovk":12201,"pis":12202,"pas":12203,"pton":12204,"pose":12205,"qay":12206,"qci":12207,"qck":12208,"qdy":12209,"qwa":12210,"qcc":12211,"qim":12212,"qlx":12213,"qgg":12214,"qkm":12215,"qxf":12216,"qlv":12217,"rly":12218,"rinese":12219,"rps":12220,"rfd":12221,"rwd":12222,"rmyg":12223,"sle":12224,"sow":12225,"sfl":12226,"smz":12227,"tad":12228,"ttish":12229,"tyn":12230,"tbw":12231,"tdb":12232,"tjz":12233,"txc":12234,"tvb":12235,"tcm":12236,"tdx":12237,"uof":12238,"uld":12239,"uke":12240,"uoh":12241,"uhi":12242,"uqf":12243,"ukd":12244,"uuo":12245,"uvxl":12246,"vav":12247,"vmo":12248,"vtz":12249,"vnl":12250,"vbz":12251,"vgnb":12252,"wood":12253,"wss":12254,"wind":12255,"wun":12256,"wly":12257,"wick":12258,"wtq":12259,"wxy":12260,"wgf":12261,"xla":12262,"xne":12263,"xfo":12264,"xtn":12265,"xda":12266,"xza":12267,"xcum":12268,"xag":12269,"xej":12270,"xfc":12271,"xesp":12272,"yey":12273,"ypx":12274,"yfn":12275,"yxd":12276,"ymg":12277,"ycm":12278,"yzb":12279,"yjn":12280,"yquu":12281,"zsi":12282,"zut":12283,"znt":12284,"zpq":12285,"zpb":12286,"zjv":12287,"zmf":12288,"zoi":12289,"zww":12290,"zbn":12291,"zih":12292,"Ġ+":12293,"Ġridge":12294,"Ġoth":12295,"Ġuti":12296,"Ġontime":12297,"Ġtjz":12298,"Ġtxe":12299,"Ġtjl":12300,"Ġae":12301,"Ġage":12302,"Ġasi":12303,"Ġach":12304,"Ġaward":12305,"Ġayk":12306,"Ġaqim":12307,"rets":12308,"revation":12309,"rezc":12310,"refn":12311,"ining":12312,"inking":12313,"sthouse":12314,"stqi":12315,"erac":12316,"onur":12317,"Ġthhe":12318,"Ġthnks":12319,"Ġii":12320,"Ġiq":12321,"Ġix":12322,"Ġigm":12323,"Ġiqc":12324,"Ġioj":12325,"Ġigf":12326,"raus":12327,"rabnce":12328,"Ġhol":12329,"Ġhic":12330,"Ġhia":12331,"Ġhkw":12332,"Ġhrs":12333,"Ġhvt":12334,"Ġhyp":12335,"Ġpw":12336,"Ġpor":12337,"Ġpran":12338,"Ġpqq":12339,"Ġphx":12340,"Ġpwf":12341,"Ġpdi":12342,"Ġpvfa":12343,"Ġcere":12344,"Ġcouse":12345,"Ġcde":12346,"Ġcrow":12347,"Ġcjs":12348,"Ġcpb":12349,"Ġcxc":12350,"Ġcwl":12351,"Ġczq":12352,"Ġcfr":12353,"Ġcfpq":12354,"Ġwood":12355,"Ġwxi":12356,"Ġwff":12357,"Ġwbd":12358,"Ġwvs":12359,"Ġwlb":12360,"Ġwgv":12361,"Ġwpgq":12362,"Ġyont":12363,"Ġyiz":12364,"Ġybg":12365,"Ġynz":12366,"Ġyhn":12367,"Ġytb":12368,"Ġywe":12369,"Ġybc":12370,"Ġyys":12371,"Ġykx":12372,"Ġyonur":12373,"Ġnm":12374,"Ġnon":12375,"Ġnqf":12376,"Ġnqc":12377,"Ġntq":12378,"Ġnba":12379,"Ġnzx":12380,"ormc":12381,"Ġfw":12382,"Ġfat":12383,"Ġfing":12384,"Ġfrs":12385,"Ġfzl":12386,"Ġfkd":12387,"Ġfco":12388,"Ġftf":12389,"Ġfzr":12390,"atvb":12391,"Ġben":12392,"Ġbia":12393,"Ġbix":12394,"Ġbmz":12395,"Ġboring":12396,"Ġbfod":12397,"Ġbdj":12398,"Ġbcyn":12399,"oovy":12400,"oowm":12401,"Ġreth":12402,"Ġrester":12403,"Ġreplace":12404,"Ġremind":12405,"Ġrebooked":12406,"Ġini":12407,"Ġiniti":12408,"Ġlwi":12409,"Ġlny":12410,"Ġlfe":12411,"Ġlpv":12412,"Ġlmj":12413,"otkf":12414,"otyz":12415,"Ġdf":12416,"Ġdv":12417,"Ġdse":12418,"Ġdood":12419,"Ġdak":12420,"Ġdarl":12421,"Ġdxd":12422,"Ġdzn":12423,"Ġdgo":12424,"ritish":12425,"riott":12426,"rictions":12427,"anav":12428,"ookes":12429,"Ġsr":12430,"Ġsx":12431,"Ġsge":12432,"Ġsould":12433,"Ġsed":12434,"Ġsis":12435,"Ġsummer":12436,"Ġsrs":12437,"Ġslw":12438,"Ġms":12439,"Ġmth":12440,"Ġmere":12441,"Ġmouse":12442,"Ġmlq":12443,"Ġmjj":12444,"Ġmgc":12445,"Ġmlk":12446,"Ġmrr":12447,"Ġmtx":12448,"Ġmwt":12449,"Ġmrv":12450,"Ġmxm":12451,"Ġmmh":12452,"Ġmicke":12453,"ved":12454,"vefog":12455,"veerac":12456,"ctf":12457,"ctober":12458,"Ġanf":12459,"Ġanim":12460,"Ġhotels":12461,"letn":12462,"leverton":12463,"levh":12464,"ayoet":12465,"geuese":12466,"sexh":12467,"ceby":12468,"cekg":12469,"Ġtraid":12470,"Ġtrail":12471,"Ġbookit":12472,"Ġfortr":12473,"Ġisv":12474,"Ġgge":12475,"Ġgur":12476,"Ġgds":12477,"Ġgvd":12478,"Ġgsd":12479,"Ġgvn":12480,"Ġgqs":12481,"Ġgja":12482,"ldf":12483,"ldz":12484,"ldda":12485,"eda":12486,"edady":12487,"amxi":12488,"amna":12489,"ampt":12490,"iepe":12491,"Ġatyka":12492,"keyj":12493,"esthwo":12494,"Ġwich":12495,"Ġwipple":12496,"Ġwiqe":12497,"Ġwiukd":12498,"Ġinformtion":12499,"Ġstaud":12500,"Ġofter":12501,"llh":12502,"lliant":12503,"omb":12504,"omv":12505,"Ġtherea":12506,"option":12507,"opping":12508,"Ġwhhat":12509,"Ġwhopping":12510,"Ġdox":12511,"Ġdoers":12512,"ums":12513,"umsy":12514,"dgewick":12515,"Ġitail":12516,"Ġambridge":12517,"Ġcharl":12518,"Ġchrinese":12519,"Ġlegn":12520,"Ġlemrq":12521,"artial":12522,"odns":12523,"pey":12524,"pevy":12525,"Ġbehal":12526,"sicr":12527,"Ġanyting":12528,"Ġtiyzb":12529,"Ġdeep":12530,"Ġdeem":12531,"terfly":12532,"lash":12533,"Ġtapas":12534,"Ġdepartiung":12535,"eafs":12536,"uros":12537,"urje":12538,"chwd":12539,"Ġ240":12540,"Ġ2761":12541,"wnu":12542,"Ġ4269":12543,"Ġ4455":12544,"itti":12545,"itjjm":12546,"Ġrequre":12547,"ssah":12548,"Ġexcep":12549,"ghg":12550,"ghnz":12551,"inds":12552,"unesian":12553,"unzjv":12554,"Ġfreee":12555,"Ġalsexh":12556,"Ġdestroy":12557,"Ġrance":12558,"Ġelaa":12559,"sox":12560,"sozl":12561,"Ġadam":12562,"Ġadjo":12563,"Ġ356":12564,"Ġ353":12565,"ising":12566,"Ġposey":12567,"Ġpoinds":12568,"asq":12569,"Ġfindme":12570,"tsc":12571,"tsnq":12572,"tsormc":12573,"Ġadddress":12574,"utlu":12575,"utical":12576,"Ġstore":12577,"Ġstops":12578,"Ġstup":12579,"ircwh":12580,"irnsv":12581,"etvs":12582,"etnnf":12583,"Ġcheapmoderate":12584,"Ġnorthe":12585,"Ġnorthham":12586,"Ġnigo":12587,"Ġnifutf":12588,"0044":12589,"0014":12590,"Ġpostoc":12591,"Ġ554":12592,"Ġ546":12593,"Ġ536":12594,"lyp":12595,"lyjq":12596,"Ġobl":12597,"Ġoxw":12598,"Ġoasa":12599,"Ġoaow":12600,"Ġoctober":12601,"Ġoesthwo":12602,"fika":12603,"Ġmud":12604,"Ġmucy":12605,"Ġmuei":12606,"depi":12607,"304":12608,"30209":12609,"olqy":12610,"150":12611,"ndd":12612,"ndraus":12613,"4558":12614,"4509":12615,"4564":12616,"Ġnighclub":12617,"Ġev":12618,"Ġeza":12619,"Ġeka":12620,"Ġebq":12621,"uli":12622,"ulsp":12623,"ulfl":12624,"uluc":12625,"Ġshucks":12626,"verside":12627,"Ġgest":12628,"ellg":12629,"Ġjg":12630,"Ġjt":12631,"Ġjy":12632,"Ġjra":12633,"Ġjak":12634,"Ġjoy":12635,"Ġjvc":12636,"Ġjzm":12637,"icsa":12638,"Ġsue":12639,"Ġweill":12640,"Ġmusem":12641,"Ġbutterfly":12642,"Ġkwn":12643,"Ġkad":12644,"Ġkpo":12645,"Ġkix":12646,"Ġkkv":12647,"Ġkvk":12648,"Ġkdft":12649,"Ġwasnt":12650,"127":12651,"Ġnightsstar":12652,"Ġcollect":12653,"Ġcolleague":12654,"Ġentrabnce":12655,"Ġsercr":12656,"viqay":12657,"adj":12658,"Ġleavers":12659,"Ġwedding":12660,"Ġwednedady":12661,"Ġmanny":12662,"Ġcityr":12663,"Ġ732":12664,"Ġ738":12665,"Ġ7562":12666,"Ġ7089":12667,"Ġsorting":12668,"Ġ1532":12669,"Ġmonder":12670,"Ġ01223596":12671,"Ġmap":12672,"Ġmariott":12673,"Ġ819":12674,"Ġ853":12675,"Ġ8665":12676,"Ġ653":12677,"Ġavvx":12678,"Ġavaion":12679,"Ġrw":12680,"Ġrfd":12681,"Ġrbq":12682,"Ġrrk":12683,"Ġrjq":12684,"Ġsejbn":12685,"Ġunwind":12686,"Ġopaf":12687,"Ġopgq":12688,"Ġrocks":12689,"Ġroez":12690,"Ġroverside":12691,"Ġ1700":12692,"Ġraving":12693,"Ġraeg":12694,"Ġhiding":12695,"Ġhiya":12696,"Ġgibf":12697,"Ġ134":12698,"aka":12699,"akdvq":12700,"Ġ165":12701,"Ġ1645":12702,"Ġdiffrent":12703,"Ġsidgewick":12704,"Ġ1430":12705,"Ġuow":12706,"Ġuaz":12707,"Ġuknown":12708,"Ġuuh":12709,"Ġuwr":12710,"Ġparkign":12711,"Ġknrf":12712,"cked":12713,"Ġ1830":12714,"Ġrefresh":12715,"Ġworkers":12716,"Ġids":12717,"Ġ01223348":12718,"minghan":12719,"Ġvq":12720,"Ġvwi":12721,"Ġvbp":12722,"Ġvca":12723,"Ġvoon":12724,"Ġvhn":12725,"Ġvzp":12726,"Ġvzb":12727,"Ġvvbm":12728,"Ġvakdvq":12729,"apvb":12730,"Ġbrittish":12731,"Ġbrilliant":12732,"Ġ2100":12733,"Ġcenters":12734,"Ġcuza":12735,"Ġ2030":12736,"Ġ2058":12737,"Ġhoild":12738,"Ġsuggetions":12739,"izqt":12740,"Ġ95":12741,"Ġ918":12742,"Ġ989":12743,"2144":12744,"2102":12745,"2162":12746,"Ġsplash":12747,"Ġcontains":12748,"sterton":12749,"uek":12750,"uemwr":12751,"yno":12752,"Ġconformation":12753,"Ġcondu":12754,"Ġstansed":12755,"1162":12756,"11625":12757,"Ġbirminghan":12758,"Ġqf":12759,"Ġqsas":12760,"Ġqgl":12761,"Ġqbq":12762,"Ġqzp":12763,"Ġqsn":12764,"Ġqlyjq":12765,"Ġpizze":12766,"mavy":12767,"wid":12768,"Ġoutstanding":12769,"Ġ0734":12770,"Ġ07245":12771,"Ġ0794":12772,"Ġ0782":12773,"Ġ07906":12774,"Ġ070552":12775,"bpcy":12776,"bpqwa":12777,"5869":12778,"Ġswiming":12779,"itecture":12780,"msav":12781,"msvt":12782,"msuuo":12783,"Ġclumsy":12784,"2417":12785,"2408":12786,"24600":12787,"173":12788,"179":12789,"1766":12790,"1770":12791,"1773":12792,"0767":12793,"0762":12794,"Ġcombination":12795,"Ġhinto":12796,"ntvhw":12797,"beww":12798,"Ġchery":12799,"Ġchersterton":12800,"abu":12801,"abqg":12802,"abctf":12803,"ropod":12804,"5032":12805,"5018":12806,"5034":12807,"6650":12808,"6678":12809,"6668":12810,"66552":12811,"290":12812,"298":12813,"2970":12814,"2998":12815,"0890":12816,"0899":12817,"burg":12818,"aff":12819,"Ġapha":12820,"3543":12821,"3564":12822,"3547":12823,"4045":12824,"4017":12825,"4067":12826,"4031":12827,"1047":12828,"1062":12829,"Ġcouny":12830,"ubq":12831,"887":12832,"whwl":12833,"whfpq":12834,"Ġgastropod":12835,"543":12836,"544":12837,"Ġhev":12838,"5207":12839,"5256":12840,"kwg":12841,"kwma":12842,"Ġregular":12843,"mip":12844,"2764":12845,"398":12846,"462":12847,"4629":12848,"463830":12849,"avu":12850,"avnb":12851,"594":12852,"5975":12853,"5903":12854,"Ġpolitely":12855,"Ġpolunesian":12856,"2026":12857,"mmd":12858,"cazn":12859,"3245":12860,"3259":12861,"3267":12862,"1952":12863,"1975":12864,"okb":12865,"4136":12866,"437":12867,"4300":12868,"4373":12869,"Ġturn":12870,"Ġhopistal":12871,"Ġportugeuese":12872,"ohew":12873,"ohhp":12874,"ohdj":12875,"Ġzs":12876,"Ġzuf":12877,"Ġzif":12878,"Ġzjp":12879,"Ġzmz":12880,"Ġznv":12881,"Ġzfre":12882,"Ġzcjz":12883,"Ġzetnnf":12884,"Ġgraff":12885,"165":12886,"Ġfurthu":12887,"Ġhutington":12888,"Ġafrian":12889,"09887":12890,"Ġ0122335124":12891,"shu":12892,"shv":12893,"ksx":12894,"brx":12895,"brmy":12896,"492":12897,"4971":12898,"494679":12899,"Ġbahv":12900,"482":12901,"485":12902,"489":12903,"4890":12904,"4875":12905,"0615":12906,"0627":12907,"0613":12908,"tnz":12909,"Ġengl":12910,"Ġenxxh":12911,"Ġgroovy":12912,"ipcz":12913,"ipime":12914,"Ġdesination":12915,"573":12916,"5790":12917,"5773":12918,"Ġproblems":12919,"Ġrestrictions":12920,"suxc":12921,"suagg":12922,"36297":12923,"5146":12924,"Ġsalsas":12925,"4288":12926,"4259":12927,"3842":12928,"3805":12929,"Ġkept":12930,"fyo":12931,"Ġsuited":12932,"774":12933,"7744":12934,"7703":12935,"gdp":12936,"gdz":12937,"8040":12938,"Ġalpah":12939,"Ġ012233626":12940,"Ġ0122336265":12941,"1869":12942,"18407":12943,"137":12944,"7808":12945,"7855":12946,"7853":12947,"ahe":12948,"ahds":12949,"ahuy":12950,"ahhb":12951,"Ġdaa":12952,"Ġdaey":12953,"564":12954,"pos":12955,"pozmf":12956,"najf":12957,"Ġreaches":12958,"7964":12959,"kyw":12960,"kyz":12961,"itimate":12962,"332400":12963,"Ġparage":12964,"Ġhakks":12965,"2613":12966,"2687":12967,"zzc":12968,"zzvv":12969,"Ġugu":12970,"Ġblowing":12971,"Ġchiense":12972,"Ġ0122390268":12973,"Ġbloombury":12974,"7043":12975,"5349":12976,"5344":12977,"nyc":12978,"nyh":12979,"Ġbloomsburg":12980,"Ġmargherit":12981,"Ġxx":12982,"Ġxal":12983,"Ġxell":12984,"Ġxoy":12985,"Ġxrr":12986,"Ġxldda":12987,"Ġxgdp":12988,"udn":12989,"udv":12990,"Ġtehcn":12991,"Ġhaw":12992,"Ġhaaka":12993,"Ġkywf":12994,"6419":12995,"Ġheding":12996,"urftu":12997,"681":12998,"6811":12999,"Ġveg":13000,"Ġvedx":13001,"jgkv":13002,"Ġamenites":13003,"7692":13004,"7630209":13005,"Ġbupk":13006,"Ġefgw":13007,"Ġclassify":13008,"Ġvaried":13009,"bua":13010,"buc":13011,"buqp":13012,"ppdy":13013,"697":13014,"6908":13015,"6946":13016,"8410":13017,"1008":13018,"azc":13019,"azn":13020,"Ġrecoment":13021,"Ġhungting":13022,"tugn":13023,"tuyx":13024,"6788":13025,"9926":13026,"9984":13027,"9931":13028,"9992":13029,"Ġ47559":13030,"Ġ5636":13031,"474":13032,"4723":13033,"etyf":13034,"Ġ0122355017":13035,"372":13036,"sjsp":13037,"sjwc":13038,"sjqkm":13039,"Ġ02233":13040,"7212":13041,"Ġfae":13042,"7460":13043,"Ġlexux":13044,"Ġtesiir":13045,"bsy":13046,"Ġ01223216811":13047,"Ġ0122390216":13048,"wsg":13049,"Ġ5257":13050,"962":13051,"9680":13052,"3108":13053,"pmzk":13054,"pmnb":13055,"pmucr":13056,"Ġhkmr":13057,"glx":13058,"uphir":13059,"Ġgirl":13060,"ftk":13061,"0558":13062,"9312":13063,"9346":13064,"9332":13065,"lhx":13066,"Ġ0122332361":13067,"jsx":13068,"egc":13069,"Ġcrlm":13070,"rokes":13071,"0339":13072,"9733":13073,"gxhks":13074,"tzff":13075,"Ġcrash":13076,"bdl":13077,"bdbf":13078,"dzw":13079,"hxf":13080,"swfb":13081,"Ġ0122331162":13082,"knm":13083,"knzyj":13084,"Ġ01223274222":13085,"Ġscandanav":13086,"8335":13087,"ruwch":13088,"Ġengine":13089,"srqi":13090,"ccgz":13091,"aeksx":13092,"Ġalternatively":13093,"qyupu":13094,"ixj":13095,"ixr":13096,"ixgge":13097,"wyuf":13098,"wycw":13099,"wysle":13100,"gnq":13101,"gnzk":13102,"jxa":13103,"nfsrqi":13104,"tyb":13105,"tyl":13106,"osfm":13107,"zyv":13108,"zyru":13109,"volr":13110,"eysd":13111,"Ġ07608":13112,"Ġ07625":13113,"Ġ07636297":13114,"gywss":13115,"pqmz":13116,"2361":13117,"Ġsingapore":13118,"Ġ0122333516":13119,"jyol":13120,"jytw":13121,"sxt":13122,"vdh":13123,"rdabu":13124,"uyin":13125,"uygs":13126,"uyqck":13127,"nzd":13128,"btdt":13129,"hgvolr":13130,"Ġ07739":13131,"Ġ0773854":13132,"Ġ07726151603":13133,"jebz":13134,"jezp":13135,"ljq":13136,"ljrt":13137,"uwgdz":13138,"4279931":13139,"8135":13140,"qbm":13141,"qbzy":13142,"rately":13143,"hughes":13144,"htb":13145,"jvpx":13146,"lxw":13147,"lxx":13148,"lxz":13149,"awbi":13150,"kcu":13151,"nkqu":13152,"nkty":13153,"nkkol":13154,"qcqdy":13155,"6166":13156,"fnc":13157,"zkx":13158,"phzut":13159,"vhm":13160,"vyo":13161,"Ġhmn":13162,"Ġhmuh":13163,"Ġrealize":13164,"Ġcompanion":13165,"Ġcompanies":13166,"mfa":13167,"mfm":13168,"jzee":13169,"lmk":13170,"lmxs":13171,"lmlr":13172,"nimy":13173,"hcu":13174,"uxkir":13175,"Ġooamxi":13176,"Ġooghnz":13177,"sdoh":13178,"svq":13179,"Ġinquest":13180,"hls":13181,"hljo":13182,"hnmj":13183,"hnvgm":13184,"oimm":13185,"oiuy":13186,"gqj":13187,"gqtnz":13188,"kmzer":13189,"Ġtopic":13190,"Ġ07411":13191,"Ġ074218":13192,"lqra":13193,"lqbdl":13194,"jjn":13195,"sqsc":13196,"bnbr":13197,"qgj":13198,"2333057":13199,"Ġapprox":13200,"Ġ07039":13201,"Ġ07048":13202,"Ġ0704379":13203,"wdnd":13204,"wdkf":13205,"wdnm":13206,"wdokb":13207,"bfw":13208,"bfxw":13209,"rkt":13210,"rkxu":13211,"ozr":13212,"ozak":13213,"zmvox":13214,"zmbuc":13215,"zwp":13216,"Ġaccomodation":13217,"vbkj":13218,"xqvc":13219,"Ġimpartial":13220,"Ġ01223217450":13221,"Ġ01223217261":13222,"dhipime":13223,"ijn":13224,"iju":13225,"prfe":13226,"ifk":13227,"vxvb":13228,"vxazn":13229,"gcsqr":13230,"Ġmathcing":13231,"7509":13232,"dfpo":13233,"wfhnvgm":13234,"wja":13235,"hqfy":13236,"hqvd":13237,"zsf":13238,"Ġglvbz":13239,"01223332400":13240,"ngavnb":13241,"yygy":13242,"yydoo":13243,"yyijn":13244,"ajh":13245,"bcji":13246,"pvzd":13247,"pzhljo":13248,"Ġreplied":13249,"Ġ4673":13250,"wbx":13251,"wbud":13252,"Ġreserevation":13253,"bourhood":13254,"Ġchesterson":13255,"dno":13256,"005105":13257,"hhood":13258,"Ġadvic":13259,"qsfk":13260,"wrv":13261,"Ġtruama":13262,"iikbz":13263,"nhso":13264,"fhz":13265,"Ġamongst":13266,"tenpin":13267,"4076":13268,"bko":13269,"snr":13270,"rphxf":13271,"46740":13272,"uqim":13273,"yxaff":13274,"rzrh":13275,"Ġguesthous":13276,"tjse":13277,"wvu":13278,"Ġpatch":13279,"Ġfocuses":13280,"Ġneighbourhood":13281,"7095":13282,"rrjvpx":13283,"Ġmessing":13284,"Ġsecrets":13285,"Ġ1223311625":13286,"Ġinquired":13287,"75434":13288,"hfucr":13289,"klg":13290,"kxrkt":13291,"Ġauhgvolr":13292,"Ġ07887630209":13293,"2472408":13294,"8297":13295,"juvw":13296,"Ġantolia":13297,"Ġavaible":13298,"Ġavaibale":13299,"jnuy":13300,"Ġ0730836":13301,"Ġneighborhhood":13302,"jdar":13303,"tkid":13304,"Ġytoiuy":13305,"qjphzut":13306,"qjdno":13307,"sfko":13308,"Ġibfe":13309,"8089":13310,"lbcu":13311,"Ġnautical":13312,"Ġflick":13313,"Ġunlikely":13314,"Ġxml":13315,"ezldf":13316,"hjsu":13317,"nuco":13318,"Ġpromising":13319,"Ġbibj":13320,"1086":13321,"Ġ07562472408":13322,"bxl":13323,"bxnrb":13324,"lwvq":13325,"lwlxz":13326,"mdv":13327,"uzfnc":13328,"Ġpho":13329,"82719":13330,"Ġpdms":13331,"Ġinsisted":13332,"Ġoebh":13333,"Ġ01223256459":13334,"Ġ01223256650":13335,"Ġ01223256166":13336,"Ġradically":13337,"Ġincrements":13338,"Ġhqka":13339,"Ġhqgn":13340,"Ġhqsozl":13341,"Ġcyjdar":13342,"Ġsdmc":13343,"Ġgwz":13344,"Ġgwme":13345,"19630":13346,"Ġaddmisson":13347,"Ġrounding":13348,"Ġ076099":13349,"Ġquiet":13350,"ytamna":13351,"Ġguidance":13352,"Ġidentical":13353,"Ġ07121756":13354,"Ġ0757463830":13355,"fkixr":13356,"iwuzfnc":13357,"pgqmfm":13358,"Ġ1223568988":13359,"Ġzmgywss":13360,"hzqe":13361,"Ġikoi":13362,"Ġirde":13363,"Ġpnpgqmfm":13364,"Ġgjpmzk":13365,"Ġlegitimate":13366,"lylsh":13367,"Ġdescrioption":13368,"Ġaccomidations":13369,"rmlz":13370,"Ġtbicsa":13371,"Ġhanker":13372,"Ġctetvs":13373,"Ġsnacks":13374,"Ġgoonville":13375,"Ġueklg":13376,"Ġujumj":13377,"Ġaddenbrooke":13378,"38056":13379,"Ġ01223365098":13380,"Ġskimping":13381,"swxej":13382,"Ġretained":13383,"Ġplastics":13384,"gunh":13385,"Ġtsrefn":13386,"Ġpages":13387,"Ġgkjebz":13388,"Ġrgbb":13389,"Ġ07444279931":13390,"Ġ0703494679":13391,"Ġxrwycw":13392,"Ġphysically":13393,"5173":13394,"cvkz":13395,"Ġhhbz":13396,"Ġcpndraus":13397,"Ġattacked":13398,"Ġjuapvb":13399,"Ġ6742":13400,"Ġseverail":13401,"Ġrains":13402,"Ġsettling":13403,"Ġzzpp":13404,"jnac":13405,"sbsl":13406,"wkvk":13407,"Ġpqpb":13408,"Ġpurpose":13409,"Ġmrtsnq":13410,"Ġloaded":13411,"Ġkfhqfy":13412,"Ġindication":13413,"Ġseparately":13414,"Ġ074818407":13415,"9179":13416,"djxlt":13417,"djxazc":13418,"rflpz":13419,"vsrvh":13420,"vsrrz":13421,"Ġwpkwg":13422,"Ġwyixgge":13423,"Ġyyppdy":13424,"Ġfvnmsuuo":13425,"Ġlfbb":13426,"Ġlfqbm":13427,"Ġrzkwma":13428,"Ġ07862333057":13429,"afswe":13430,"afswla":13431,"Ġxzhnmj":13432,"kczqa":13433,"hhslxw":13434,"1426":13435,"yvgz":13436,"Ġwwzs":13437,"Ġwenesday":13438,"Ġsamples":13439,"Ġgnbko":13440,"ldnjzee":13441,"Ġmulto":13442,"Ġegrkxu":13443,"Ġrjoua":13444,"Ġcondition":13445,"Ġclsoer":13446,"Ġzdtm":13447,"Ġxhrx":13448,"Ġ0123366552":13449,"Ġ07727005105":13450,"zkdit":13451,"nrcwj":13452,"0601":13453,"6242":13454,"6162":13455,"miavh":13456,"srytu":13457,"vluxu":13458,"xmyy":13459,"Ġpsnfsrqi":13460,"Ġnhcrn":13461,"Ġboko":13462,"Ġdmiepe":13463,"Ġmrqellg":13464,"Ġolezkdit":13465,"Ġeyegc":13466,"Ġweelkend":13467,"Ġavailibility":13468,"Ġvhwyuf":13469,"Ġzzaa":13470,"Ġawaepk":13471,"theatres":13472,"xocsa":13473,"Ġhvgcsqr":13474,"Ġnfkr":13475,"Ġfcgnzk":13476,"Ġbnfzmvox":13477,"Ġlmap":13478,"Ġdqrt":13479,"rigty":13480,"Ġsany":13481,"Ġjbbpqwa":13482,"Ġzyohew":13483,"Ġzxibge":13484,"acgot":13485,"svpom":13486,"01223210353":13487,"cpifs":13488,"6364":13489,"aunt":13490,"bzkav":13491,"cchv":13492,"cinemas":13493,"ddzb":13494,"ddfwph":13495,"eelpu":13496,"evew":13497,"ebqsqsc":13498,"ftsp":13499,"fmnhc":13500,"gndz":13501,"gulpv":13502,"gpdoy":13503,"grqwbx":13504,"gjvz":13505,"gsqvs":13506,"hqqulfl":13507,"huyuygs":13508,"ithcs":13509,"iitsnd":13510,"iqnsl":13511,"jsuf":13512,"jnkdod":13513,"kelm":13514,"kexq":13515,"kutua":13516,"kdsff":13517,"kigns":13518,"ltwhg":13519,"lksu":13520,"lrsl":13521,"mirfir":13522,"mksm":13523,"mpoew":13524,"museums":13525,"nwndb":13526,"nnxw":13527,"novfd":13528,"oghua":13529,"oadqcc":13530,"ozzgl":13531,"oagc":13532,"piswdkf":13533,"qciiz":13534,"qggj":13535,"rlyzkx":13536,"rpsy":13537,"rfdcgc":13538,"sflv":13539,"tadit":13540,"tynuq":13541,"tdbiju":13542,"tjznf":13543,"ukeyo":13544,"uhiuu":13545,"wgfk":13546,"xlaq":13547,"xfobdbf":13548,"xfcshu":13549,"yeyutc":13550,"yxdk":13551,"ycmlxx":13552,"zsihls":13553,"zpqn":13554,"zpbnfd":13555,"zwwqn":13556,"zihsz":13557,"Ġridgewood":13558,"Ġothe":13559,"Ġtjzmy":13560,"Ġtxeb":13561,"Ġtjlzzc":13562,"Ġasia":13563,"Ġachitecture":13564,"Ġawarded":13565,"Ġaqimz":13566,"Ġigmrvy":13567,"Ġiojtyl":13568,"Ġholel":13569,"Ġhicmiavh":13570,"Ġhiassah":13571,"Ġhvtafs":13572,"Ġhyppozmf":13573,"Ġportions":13574,"Ġprank":13575,"Ġpqqvsrvh":13576,"Ġpwfvg":13577,"Ġpdiwvu":13578,"Ġcerep":13579,"Ġcjsen":13580,"Ġcpbuemwr":13581,"Ġcwlkmzer":13582,"Ġwoodbridge":13583,"Ġwxiaok":13584,"Ġwffljrt":13585,"Ġwvsmpoew":13586,"Ġyontchwd":13587,"Ġybgswxej":13588,"Ġyhns":13589,"Ġywekso":13590,"Ġybcvluxu":13591,"Ġyonurjsx":13592,"Ġntqsjsp":13593,"Ġnbaudv":13594,"Ġnzxpp":13595,"Ġfingered":13596,"Ġfrsz":13597,"Ġfzlk":13598,"Ġfkdue":13599,"Ġftfrigty":13600,"Ġbiazmbuc":13601,"Ġbixl":13602,"Ġbfodsbsl":13603,"Ġbdjacgot":13604,"Ġbcynhp":13605,"oowmjen":13606,"Ġrethinking":13607,"Ġresteraunt":13608,"Ġreplacement":13609,"Ġreminded":13610,"Ġinitially":13611,"Ġlwixne":13612,"Ġlnygvm":13613,"Ġlpvgjvz":13614,"otkfh":13615,"Ġdakq":13616,"Ġdarling":13617,"Ġsgezxo":13618,"Ġsrsotyz":13619,"Ġmthf":13620,"Ġmlqzyru":13621,"Ġmgcsvpom":13622,"Ġmrrv":13623,"Ġmtxch":13624,"Ġmrvafswe":13625,"Ġmxmohdj":13626,"Ġmmhron":13627,"Ġmickey":13628,"Ġanimals":13629,"cebyu":13630,"Ġgursthouse":13631,"Ġgqsot":13632,"amptj":13633,"Ġwiqebn":13634,"Ġstaudct":13635,"Ġitailian":13636,"Ġcharlin":13637,"Ġlegnth":13638,"odnsbf":13639,"pevyv":13640,"Ġbehalf":13641,"sicrd":13642,"Ġdeeply":13643,"eafsm":13644,"urosy":13645,"itjjmjc":13646,"Ġexception":13647,"Ġalsexhly":13648,"Ġadjoining":13649,"Ġstupid":13650,"Ġnorthhampton":13651,"Ġnifutfqf":13652,"Ġpostocode":13653,"Ġoxwo":13654,"Ġoasaahhb":13655,"Ġoaowj":13656,"Ġmueiryk":13657,"olqyp":13658,"Ġezawt":13659,"Ġebqn":13660,"Ġjoygndz":13661,"Ġkadpmucr":13662,"Ġkixyygy":13663,"Ġkvkizqt":13664,"Ġkdftbeww":13665,"Ġnightsstarting":13666,"Ġsercrcln":13667,"Ġ75625428":13668,"Ġmondern":13669,"Ġavvxfl":13670,"Ġrbqlun":13671,"Ġrrkzoi":13672,"Ġrjqo":13673,"Ġraegfil":13674,"Ġgibfwdnm":13675,"Ġuazuxkir":13676,"Ġuwrmv":13677,"Ġknrffo":13678,"Ġrefreshed":13679,"Ġvbpwad":13680,"Ġvcaw":13681,"Ġvoons":13682,"Ġvhnbpcy":13683,"Ġvzpwhwl":13684,"Ġvakdvqnb":13685,"Ġhoilday":13686,"Ġ9892":13687,"Ġsplashing":13688,"Ġconduct":13689,"Ġqzpcebyu":13690,"Ġqsnsuagg":13691,"Ġqlyjqkty":13692,"mavyrq":13693,"msvtp":13694,"whfpqt":13695,"Ġzufsd":13696,"Ġzmzlmlr":13697,"Ġznvpvzd":13698,"Ġzfrek":13699,"Ġzetnnfn":13700,"Ġgraffitti":13701,"Ġfurthuer":13702,"brmyhp":13703,"Ġbahva":13704,"Ġengland":13705,"ipczjp":13706,"Ġ01223362682":13707,"ahdsd":13708,"ahuyb":13709,"zzvvl":13710,"Ġxlddagqj":13711,"Ġtehcnology":13712,"Ġkywfgunh":13713,"urftuc":13714,"Ġbupkjytw":13715,"Ġefgwy":13716,"tuyxww":13717,"sjwcxza":13718,"Ġ0223324600":13719,"Ġtesiirj":13720,"Ġhkmrsi":13721,"uphirt":13722,"Ġcrlmatvb":13723,"Ġscandanavian":13724,"ruwchn":13725,"wysleg":13726,"Ġ07636297454":13727,"btdtol":13728,"Ġ07738544250":13729,"jezpdw":13730,"nkkolwnu":13731,"qcqdyfq":13732,"Ġooghnzgw":13733,"Ġ07043795737":13734,"bfxwtp":13735,"vbkjft":13736,"Ġglvbzvyo":13737,"qsfkbm":13738,"iikbzbl":13739,"Ġ07308367931":13740,"Ġhqsozlwh":13741,"ytamnaao":13742,"Ġ07121756826":13743,"Ġ07574638307":13744,"Ġzmgywsso":13745,"Ġhankering":13746,"Ġtsrefnqw":13747,"Ġgkjebzn":13748,"Ġ07034946796":13749,"Ġxrwycwbt":13750,"Ġpurposes":13751,"Ġmrtsnqmu":13752,"Ġ07481840729":13753,"Ġxzhnmjrs":13754,"Ġdmiepety":13755,"Ġawaepkrt":13756,"Ġfcgnzkow":13757,"Ġzxibgevs":13758,"Ġvhnbpcyy":13759,"Ġvzpwhwlv":13760,"0279":13761,"0106":13762,"0904":13763,"0605":13764,"0275":13765,"166":13766,"1480":13767,"252":13768,"315":13769,"366":13770,"346":13771,"341":13772,"371":13773,"3000":13774,"3387":13775,"3447":13776,"3769":13777,"4909":13778,"4902":13779,"533":13780,"5164":13781,"678":13782,"6270":13783,"707":13784,"734":13785,"7147":13786,"7514":13787,"801":13788,"806":13789,"853":13790,"8782":13791,"8390":13792,"8363":13793,"935":13794,"919":13795,"941":13796,"953":13797,"9236":13798,"9531":13799,"9084":13800,"ape":13801,"afi":13802,"acy":13803,"acks":13804,"bre":13805,"bing":13806,"bere":13807,"bpe":13808,"bit":13809,"bsit":13810,"bqy":13811,"bqqs":13812,"cen":13813,"came":13814,"cur":13815,"cso":13816,"cational":13817,"cwor":13818,"cnl":13819,"cjv":13820,"cxj":13821,"cncv":13822,"dr":13823,"din":13824,"dat":13825,"dts":13826,"dose":13827,"dfy":13828,"dcj":13829,"eu":13830,"ese":13831,"eops":13832,"ebe":13833,"ebrookes":13834,"ebb":13835,"eive":13836,"egl":13837,"eqw":13838,"eku":13839,"fry":13840,"ftt":13841,"fui":13842,"fza":13843,"fud":13844,"fze":13845,"fhg":13846,"fpb":13847,"frf":13848,"fku":13849,"fmx":13850,"gas":13851,"gine":13852,"gose":13853,"gies":13854,"gari":13855,"gging":13856,"gama":13857,"goi":13858,"gzp":13859,"gtr":13860,"gtj":13861,"gcae":13862,"hil":13863,"hsy":13864,"hrl":13865,"hzf":13866,"hkq":13867,"hzr":13868,"ict":13869,"ixi":13870,"ibp":13871,"iil":13872,"iht":13873,"ioq":13874,"iwb":13875,"jsp":13876,"jds":13877,"jqy":13878,"jrd":13879,"jlt":13880,"kod":13881,"karl":13882,"kgy":13883,"kje":13884,"kbl":13885,"krn":13886,"land":13887,"lha":13888,"lqf":13889,"lrf":13890,"lbi":13891,"lzn":13892,"mits":13893,"mht":13894,"mdb":13895,"mjz":13896,"mjk":13897,"mqz":13898,"mqd":13899,"mouth":13900,"nat":13901,"nge":13902,"nam":13903,"nke":13904,"now":13905,"ox":13906,"oyn":13907,"osity":13908,"osa":13909,"oje":13910,"obz":13911,"ojc":13912,"pum":13913,"ppe":13914,"pby":13915,"pnf":13916,"pcl":13917,"qo":13918,"qsh":13919,"qka":13920,"qef":13921,"qvl":13922,"qzn":13923,"qmu":13924,"rw":13925,"rday":13926,"rme":13927,"rms":13928,"rinity":13929,"rnx":13930,"rzn":13931,"rcp":13932,"sof":13933,"sot":13934,"some":13935,"sally":13936,"szt":13937,"skx":13938,"saru":13939,"tv":13940,"tra":13941,"tie":13942,"tately":13943,"tpr":13944,"tvx":13945,"tftk":13946,"uve":13947,"uguese":13948,"uds":13949,"uda":13950,"uries":13951,"ufe":13952,"uzk":13953,"uzp":13954,"uug":13955,"ucessful":13956,"vay":13957,"vqu":13958,"vna":13959,"vqf":13960,"vxh":13961,"vuy":13962,"vlj":13963,"vjm":13964,"wat":13965,"wce":13966,"waf":13967,"wdz":13968,"wrt":13969,"weda":13970,"xts":13971,"xad":13972,"xens":13973,"xander":13974,"xui":13975,"xds":13976,"xwy":13977,"xoe":13978,"xoj":13979,"xpz":13980,"xkl":13981,"ywn":13982,"yhg":13983,"yxa":13984,"ymf":13985,"yzf":13986,"yhh":13987,"yto":13988,"yqqs":13989,"yghg":13990,"yhtb":13991,"zj":13992,"zam":13993,"zla":13994,"zwilliam":13995,"zbh":13996,"zudn":13997,"Ġode":13998,"Ġtext":13999,"Ġtth":14000,"Ġtss":14001,"Ġtxi":14002,"Ġtand":14003,"Ġtqq":14004,"Ġtjf":14005,"Ġtcr":14006,"Ġttr":14007,"Ġtxx":14008,"Ġtnu":14009,"Ġaed":14010,"Ġaain":14011,"Ġack":14012,"Ġaab":14013,"Ġastra":14014,"Ġaqm":14015,"Ġaqr":14016,"Ġaeb":14017,"Ġaxl":14018,"Ġauli":14019,"rema":14020,"recomend":14021,"ressed":14022,"ins":14023,"inyn":14024,"state":14025,"erss":14026,"erling":14027,"ergies":14028,"ouxbourne":14029,"Ġtha":14030,"Ġthyat":14031,"Ġie":14032,"Ġima":14033,"Ġipo":14034,"Ġign":14035,"Ġivu":14036,"raa":14037,"elu":14038,"Ġhcy":14039,"Ġhbb":14040,"Ġhrt":14041,"Ġhxs":14042,"Ġhxy":14043,"Ġhjp":14044,"Ġhbx":14045,"Ġpc":14046,"Ġpity":14047,"Ġpad":14048,"Ġpgy":14049,"Ġpbg":14050,"Ġpbz":14051,"Ġpgq":14052,"Ġpkei":14053,"Ġpbnbr":14054,"Ġcf":14055,"Ġcj":14056,"Ġcn":14057,"Ġcoo":14058,"Ġcore":14059,"Ġcince":14060,"Ġcoor":14061,"Ġcmb":14062,"Ġcig":14063,"Ġcdh":14064,"Ġcxz":14065,"Ġwt":14066,"Ġwoo":14067,"Ġwri":14068,"Ġwol":14069,"Ġwsp":14070,"Ġwama":14071,"Ġwcr":14072,"Ġwku":14073,"Ġwwq":14074,"Ġwucr":14075,"ensday":14076,"Ġtheie":14077,"Ġyj":14078,"Ġyn":14079,"Ġype":14080,"Ġyuck":14081,"Ġyello":14082,"Ġybd":14083,"Ġyhc":14084,"Ġydg":14085,"Ġyyk":14086,"Ġyku":14087,"Ġyrr":14088,"Ġyxv":14089,"Ġynu":14090,"Ġnx":14091,"Ġny":14092,"Ġnsta":14093,"Ġnom":14094,"Ġnch":14095,"Ġnue":14096,"Ġnbw":14097,"Ġnvl":14098,"Ġnsg":14099,"Ġnuv":14100,"oro":14101,"orri":14102,"orting":14103,"orzp":14104,"Ġfj":14105,"Ġfn":14106,"Ġfss":14107,"Ġfror":14108,"Ġfdp":14109,"Ġfcr":14110,"Ġfzk":14111,"Ġfoe":14112,"Ġfrfm":14113,"atus":14114,"atpj":14115,"atgu":14116,"Ġbry":14117,"Ġbust":14118,"Ġbast":14119,"Ġbourne":14120,"Ġbcu":14121,"Ġbcm":14122,"Ġbnh":14123,"Ġbwx":14124,"Ġbxr":14125,"ooq":14126,"ootz":14127,"oogy":14128,"Ġreread":14129,"Ġreverse":14130,"Ġyoulike":14131,"Ġinmarket":14132,"Ġineed":14133,"Ġlt":14134,"Ġlma":14135,"Ġlbu":14136,"Ġlzy":14137,"Ġlfn":14138,"Ġlbh":14139,"Ġlxv":14140,"off":14141,"ofk":14142,"ofz":14143,"ingy":14144,"Ġdc":14145,"Ġdt":14146,"Ġdsi":14147,"Ġdour":14148,"Ġdough":14149,"Ġdope":14150,"Ġdtu":14151,"Ġdpj":14152,"Ġdql":14153,"Ġdmk":14154,"Ġtow":14155,"Ġtome":14156,"ricular":14157,"aner":14158,"ooki":14159,"Ġss":14160,"Ġsof":14161,"Ġsarch":14162,"Ġsket":14163,"Ġsrt":14164,"Ġsaa":14165,"Ġsbh":14166,"Ġsrc":14167,"Ġmb":14168,"Ġmj":14169,"Ġmm":14170,"Ġmz":14171,"Ġmla":14172,"Ġmun":14173,"Ġmvi":14174,"Ġmht":14175,"Ġmqg":14176,"vezi":14177,"ctt":14178,"Ġano":14179,"Ġanq":14180,"Ġhotell":14181,"ays":14182,"ayles":14183,"gej":14184,"gevp":14185,"cefrf":14186,"Ġtray":14187,"Ġarent":14188,"Ġtraindid":14189,"Ġisor":14190,"Ġgb":14191,"Ġgue":14192,"Ġgyn":14193,"Ġgdy":14194,"Ġgbb":14195,"Ġgbz":14196,"Ġgfg":14197,"arp":14198,"lde":14199,"ldo":14200,"edon":14201,"amli":14202,"iegtj":14203,"iepcl":14204,"thh":14205,"kefy":14206,"esu":14207,"Ġthatk":14208,"Ġlimits":14209,"Ġstands":14210,"Ġstaff":14211,"llas":14212,"omk":14213,"Ġpriiced":14214,"Ġtherefore":14215,"Ġthereban":14216,"umae":14217,"dgeon":14218,"Ġchick":14219,"Ġlezo":14220,"Ġleva":14221,"Ġleaner":14222,"ala":14223,"ali":14224,"alv":14225,"alian":14226,"Ġpets":14227,"Ġpepp":14228,"ods":14229,"odle":14230,"oddn":14231,"odsg":14232,"odkg":14233,"odhqy":14234,"Ġbeg":14235,"Ġbecame":14236,"berry":14237,"Ġnumbere":14238,"ouses":14239,"Ġtip":14240,"Ġdebit":14241,"Ġwhata":14242,"laat":14243,"Ġtai":14244,"eaa":14245,"eas":14246,"urso":14247,"urxq":14248,"Ġarrivi":14249,"chy":14250,"chway":14251,"Ġ27":14252,"Ġguestouses":14253,"itol":14254,"owa":14255,"oww":14256,"owrr":14257,"ssf":14258,"Ġwillrecomend":14259,"Ġmodified":14260,"ghna":14261,"ghzv":14262,"ryc":14263,"rylh":14264,"Ġplacem":14265,"uno":14266,"unrh":14267,"unker":14268,"Ġfreeway":14269,"Ġalmentum":14270,"Ġalfli":14271,"Ġbyts":14272,"Ġdestiant":14273,"Ġelese":14274,"soj":14275,"sovu":14276,"Ġadz":14277,"Ġadios":14278,"Ġ324":14279,"Ġ327":14280,"Ġ318":14281,"Ġ3245":14282,"Ġpocc":14283,"asbz":14284,"tsoubt":14285,"Ġaddebrookes":14286,"Ġadderss":14287,"Ġstressed":14288,"Ġsterling":14289,"Ġstatus":14290,"Ġstingy":14291,"irsf":14292,"irhqy":14293,"roza":14294,"roqg":14295,"Ġcheapt":14296,"Ġorig":14297,"Ġorvr":14298,"003":14299,"009":14300,"0007":14301,"0077":14302,"0025":14303,"0071":14304,"004877":14305,"Ġ5797":14306,"Ġ5150":14307,"Ġogx":14308,"Ġovn":14309,"Ġogb":14310,"Ġocf":14311,"fio":14312,"fiph":14313,"Ġmuf":14314,"Ġmugged":14315,"Ġmucncv":14316,"305":14317,"3023":14318,"3078":14319,"1524":14320,"ndtvx":14321,"457":14322,"4537":14323,"4531":14324,"456838":14325,"Ġeh":14326,"Ġeq":14327,"Ġehn":14328,"Ġeqg":14329,"Ġeki":14330,"Ġeoj":14331,"Ġeoq":14332,"Ġeuz":14333,"Ġeuoh":14334,"Ġpartricular":14335,"ulcke":14336,"ulpr":14337,"ulkb":14338,"Ġshore":14339,"Ġshell":14340,"Ġsharp":14341,"Ġalll":14342,"Ġallergies":14343,"Ġeager":14344,"Ġpostcodecb":14345,"Ġji":14346,"Ġjck":14347,"Ġjumn":14348,"Ġjjk":14349,"Ġokhx":14350,"2324":14351,"2319":14352,"2325":14353,"2398":14354,"Ġsup":14355,"Ġsus":14356,"Ġsuucessful":14357,"Ġwets":14358,"Ġwebsit":14359,"Ġtrqit":14360,"Ġbutthe":14361,"Ġkis":14362,"Ġkross":14363,"Ġkuq":14364,"Ġkqlh":14365,"1215":14366,"1242":14367,"aijm":14368,"Ġchoise":14369,"Ġwedensday":14370,"Ġsatrday":14371,"mores":14372,"Ġ735":14373,"Ġ739":14374,"Ġ751":14375,"Ġ714":14376,"Ġ1536":14377,"Ġifhsy":14378,"Ġmonopo":14379,"Ġmaghna":14380,"Ġ800":14381,"Ġ630":14382,"Ġrk":14383,"Ġrby":14384,"Ġrsd":14385,"Ġrqw":14386,"Ġrcj":14387,"Ġrhf":14388,"Ġrga":14389,"Ġrnge":14390,"Ġrkefy":14391,"iagd":14392,"Ġunv":14393,"Ġunnam":14394,"Ġraves":14395,"Ġhim":14396,"Ġ1345":14397,"Ġ1329":14398,"Ġ1200":14399,"Ġ1245":14400,"Ġintrinity":14401,"Ġintalian":14402,"ourz":14403,"aker":14404,"akwb":14405,"ciency":14406,"ciwl":14407,"bookes":14408,"Ġ1601":14409,"Ġpercep":14410,"Ġ149":14411,"Ġ1412":14412,"Ġuf":14413,"Ġuuj":14414,"Ġuqg":14415,"Ġuau":14416,"Ġuov":14417,"Ġugej":14418,"Ġparkin":14419,"Ġparkland":14420,"Ġknick":14421,"Ġknhd":14422,"Ġknacks":14423,"Ġ1029":14424,"Ġknowledge":14425,"Ġ180":14426,"Ġ184":14427,"Ġ1815":14428,"Ġ1845":14429,"Ġbread":14430,"Ġbreakfastin":14431,"Ġbreakfastritish":14432,"Ġacron":14433,"Ġaccu":14434,"Ġaccep":14435,"Ġacllas":14436,"Ġticketss":14437,"Ġidf":14438,"Ġmifn":14439,"Ġ:<|":14440,"Ġmintu":14441,"Ġminosa":14442,"Ġvm":14443,"Ġvs":14444,"Ġvu":14445,"Ġvde":14446,"Ġvince":14447,"Ġvrh":14448,"Ġvxh":14449,"Ġvkv":14450,"Ġvwf":14451,"Ġvvj":14452,"Ġvjqm":14453,"Ġvvso":14454,"Ġ2145":14455,"Ġvisited":14456,"Ġcups":14457,"nec":14458,"nej":14459,"Ġsuggestfor":14460,"izm":14461,"izlj":14462,"Ġ900":14463,"Ġcaring":14464,"portuguese":14465,"2192":14466,"Ġspacy":14467,"Ġspskx":14468,"Ġfitbillies":14469,"ables":14470,"Ġnoolde":14471,"Ġnooodle":14472,"Ġsteer":14473,"Ġchekc":14474,"Ġupper":14475,"Ġ090":14476,"Ġ096":14477,"xbd":14478,"Ġbisheops":14479,"113":14480,"1111":14481,"Ġbirds":14482,"Ġqj":14483,"Ġql":14484,"Ġqm":14485,"Ġqt":14486,"Ġqw":14487,"Ġqol":14488,"Ġqqf":14489,"Ġqey":14490,"Ġqfn":14491,"Ġqbh":14492,"Ġqgz":14493,"Ġqwz":14494,"Ġmargari":14495,"wign":14496,"wigas":14497,"ogbn":14498,"Ġunfortuntately":14499,"tive":14500,"byv":14501,"Ġ0790":14502,"Ġ0722":14503,"Ġ0787":14504,"Ġ0783":14505,"Ġ07611":14506,"Ġ07511":14507,"Ġ07413":14508,"Ġ07146":14509,"Ġ07504":14510,"Ġ072054":14511,"Ġ07193":14512,"Ġ0719630":14513,"spt":14514,"sppp":14515,"583":14516,"5866":14517,"5825":14518,"5853":14519,"58552":14520,"Ġsearchby":14521,"twfu":14522,"Ġuniversally":14523,"msf":14524,"msmb":14525,"msrk":14526,"msurso":14527,"Ġfirday":14528,"Ġcurmu":14529,"Ġclunker":14530,"2435":14531,"2440":14532,"2409":14533,"242400":14534,"175":14535,"1729":14536,"1719":14537,"1784":14538,"tten":14539,"073":14540,"079":14541,"0749":14542,"0713":14543,"0726":14544,"0768":14545,"0763":14546,"Ġashbury":14547,"Ġashitd":14548,"abs":14549,"abil":14550,"abowrr":14551,"503":14552,"505":14553,"5060":14554,"50129":14555,"6633":14556,"6662":14557,"2943":14558,"2913":14559,"2999":14560,"2982":14561,"29188":14562,"080":14563,"0826":14564,"08880":14565,"haa":14566,"hax":14567,"Ġfunhouse":14568,"Ġ2312":14569,"Ġ2379":14570,"Ġaplha":14571,"3566":14572,"3560":14573,"3537":14574,"357708":14575,"354679":14576,"4052":14577,"40318":14578,"101":14579,"1012":14580,"1036":14581,"1037":14582,"10981":14583,"Ġclubbing":14584,"Ġquote":14585,"Ġqueries":14586,"Ġlaw":14587,"Ġlack":14588,"Ġlagging":14589,"Ġcoulc":14590,"Ġallenbelle":14591,"Ġhuntingon":14592,"Ġhuntingdo":14593,"6011":14594,"6027":14595,"6056":14596,"60248":14597,"546":14598,"5492":14599,"527":14600,"528":14601,"Ġartchway":14602,"0162":14603,"273":14604,"2713":14605,"2762":14606,"276037":14607,"3932":14608,"3999":14609,"Ġgastropubed":14610,"4615":14611,"4608":14612,"ava":14613,"avz":14614,"Ġlovel":14615,"590":14616,"5936":14617,"5918":14618,"5996":14619,"Ġclair":14620,"caor":14621,"cazm":14622,"325":14623,"3266":14624,"3255":14625,"3283":14626,"192":14627,"1906":14628,"1951":14629,"1903":14630,"Ġcafedon":14631,"jos":14632,"Ġbistoro":14633,"434":14634,"4346":14635,"4364":14636,"4376":14637,"4387":14638,"Ġsounding":14639,"Ġzc":14640,"Ġzr":14641,"Ġzone":14642,"Ġzua":14643,"Ġzuw":14644,"Ġzcm":14645,"Ġziy":14646,"Ġzug":14647,"Ġgrat":14648,"1691":14649,"16276037":14650,"Ġafrica":14651,"Ġhamilit":14652,"redi":14653,"shall":14654,"ksk":14655,"brp":14656,"4967":14657,"484":14658,"4831":14659,"485866":14660,"Ġlaters":14661,"0607":14662,"Ġenozr":14663,"Ġahley":14664,"Ġ3330":14665,"Ġdesint":14666,"Ġercazm":14667,"576":14668,"577":14669,"367":14670,"3624":14671,"3689":14672,"3637":14673,"363682":14674,"Ġbrain":14675,"Ġbrained":14676,"518":14677,"513560":14678,"Ġsalon":14679,"Ġamericans":14680,"Ġamericanindian":14681,"Ġaddenbookes":14682,"556":14683,"5556":14684,"fyr":14685,"fyyw":14686,"7728":14687,"7779":14688,"7776":14689,"7785":14690,"8036":14691,"8029188":14692,"ilx":14693,"ille":14694,"alexander":14695,"1800":14696,"1347":14697,"784":14698,"7827":14699,"7843":14700,"7847":14701,"782800":14702,"Ġtele":14703,"ahej":14704,"ahwe":14705,"dsxpz":14706,"2835":14707,"2855":14708,"2833":14709,"2895":14710,"28719":14711,"5600":14712,"5611":14713,"5649":14714,"daldo":14715,"Ġtenpen":14716,"793":14717,"795":14718,"7900":14719,"Ġyipppe":14720,"Ġ#<|":14721,"2630":14722,"2616":14723,"2631":14724,"Ġugroza":14725,"dyjm":14726,"cyzt":14727,"22802":14728,"22303":14729,"halmqd":14730,"53603":14731,"nyaw":14732,"Ġcorrecting":14733,"Ġbloomsberry":14734,"Ġxln":14735,"Ġxokt":14736,"Ġxooq":14737,"Ġxabowrr":14738,"Ġxdyjm":14739,"bbd":14740,"bbwce":14741,"perative":14742,"Ġawsome":14743,"Ġwishing":14744,"Ġ0122324600":14745,"897":14746,"8954":14747,"8991":14748,"Ġbelow":14749,"Ġbeleive":14750,"685":14751,"686":14752,"6823":14753,"6866":14754,"6809":14755,"Ġvekf":14756,"jgwfn":14757,"jgoogy":14758,"1419":14759,"1477":14760,"Ġoutdoors":14761,"Ġmoments":14762,"Ġlearning":14763,"Ġholding":14764,"7621":14765,"Ġbuzz":14766,"7318":14767,"feq":14768,"fegx":14769,"primavera":14770,"Ġ2815":14771,"Ġredo":14772,"ppd":14773,"ppqg":14774,"ppsg":14775,"6958":14776,"6913":14777,"Ġdiscon":14778,"7144":14779,"637":14780,"6366":14781,"6313":14782,"8488":14783,"84706":14784,"Ġrecently":14785,"Ġmidbi":14786,"9854":14787,"tudsxpz":14788,"991":14789,
[...]
