#version: 0.2 - Trained by `huggingface/tokenizers`
Ġ t
Ġ a
r e
Ġ i
< |
| >
s t
e r
o u
Ġ <|
Ġt h
i n
Ġ ,
Ġ .
n t
e l
r a
Ġ c
Ġ w
Ġ p
Ġth e
Ġ h
Ġ y
Ġ f
n d
a t
s er
Ġ n
Ġy ou
Ġ b
o o
o r
Ġ l
u ser
o n
Ġ ?
Ġt o
st a
in g
Ġ d
r i
st e
Ġ re
o t
Ġ s
Ġ m
y ste
yste m
s ystem
v e
o f
a n
oo k
l e
a y
g e
s e
Ġh ot
Ġhot el
Ġi n
e x
c o
Ġf or
c e
Ġi s
u ra
ura nt
Ġre sta
Ġresta urant
Ġa re
l d
ou ld
a r
Ġb ook
e nd
Ġt ra
e d
i e
i on
Ġa nd
b el
ex t
ie f
nt ext
co ntext
end of
bel ief
Ġ 1
Ġtra in
t h
Ġ g
m b
k e
Ġw ould
e s
a ve
m e
Ġa t
Ġth at
Ġl i
Ġli ke
Ġw i
e st
Ġ sta
l l
p e
Ġn e
Ġc an
Ġd o
Ġ of
ri d
Ġc a
Ġthe re
Ġp ri
Ġh ave
Ġw h
Ġne ed
Ġare a
Ġa n
e nt
Ġi t
Ġa m
at ion
o p
e re
Ġm e
rid ge
Ġca mb
r o
Ġcamb ridge
Ġ on
c t
endof context
endof belief
Ġl e
ar t
d ay
Ġy es
Ġc ent
oo d
Ġc h
Ġp e
Ġm o
Ġb e
Ġn u
Ġd ay
mb er
Ġnu mber
Ġcent re
Ġl ook
s i
Ġp le
a se
Ġple ase
ou se
op le
Ġpe ople
Ġa r
Ġ -
Ġan y
Ġwh at
re e
Ġlook ing
Ġsta r
Ġpri ce
l a
ct ion
n ce
e a
Ġat t
u re
Ġd e
Ġatt ra
Ġattra ction
Ġt i
Ġf ood
f ere
Ġh el
a me
Ġde p
Ġwi th
Ġdep art
u est
d e
k ing
c h
Ġ 2
Ġt a
Ġt y
w n
Ġty pe
Ġ 4
Ġg uest
Ġyou r
i t
Ġhel p
Ġ ra
Ġar ri
Ġl o
u r
Ġp ar
s s
Ġw a
fere nce
Ġto wn
Ġwi ll
Ġle ave
at e
d er
Ġsta y
Ġti me
Ġn ame
Ġmo der
th ing
Ġ ex
la ce
g h
in d
r y
o w
Ġa l
Ġp lace
Ġf ree
b le
Ġmoder ate
Ġn ot
a l
ro m
Ġf rom
Ġarri ve
h ouse
pe n
an ge
c er
Ġth an
Ġpar king
on e
si ve
Ġ. <|
Ġguest house
Ġra n
Ġ el
pen sive
Ġran ge
Ġpri cer
Ġpricer ange
Ġex pensive
s o
Ġthan k
Ġ 0
Ġs o
Ġc o
Ġs u
t er
Ġn o
Ġn or
Ġ 3
Ġal so
i s
Ġdepart ure
est in
Ġd estin
Ġdestin ation
Ġf ind
Ġi nt
Ġre ference
t s
ou t
Ġ !
Ġ st
u t
i r
nd ay
Ġany thing
in e
es day
Ġel se
Ġp o
Ġg o
ea p
Ġch eap
Ġnor th
Ġp re
Ġs ou
h one
Ġa b
n e
Ġ or
Ġa d
Ġn i
Ġp hone
v er
0 0
Ġb y
x i
Ġ o
Ġlo c
l le
Ġta xi
f or
Ġwa nt
Ġab out
Ġ 5
l y
Ġm u
f i
Ġh ow
Ġso me
re ss
Ġa s
3 0
Ġh ouse
Ġ e
Ġre ser
v ing
Ġad d
1 5
m m
Ġpo st
4 5
Ġni gh
Ġp art
Ġadd ress
Ġstar s
a ll
u l
Ġs h
Ġ ge
i an
e e
Ġ u
Ġint er
t ing
Ġ ea
Ġw est
Ġge t
u m
Ġpost co
Ġpostco de
at ed
Ġea st
Ġ j
Ġo k
ne t
Ġloc ated
f er
Ġinter net
el l
Ġg re
ot h
Ġh a
Ġgre at
Ġ? <|
m ation
a in
Ġa ll
Ġc ould
Ġs ure
Ġsou th
2 3
i c
Ġin for
Ġbook ing
Ġinfor mation
Ġw e
Ġmu se
v ation
Ġmuse um
Ġreser vation
Ġt r
Ġb ut
it y
Ġ k
Ġa f
Ġwa s
v i
1 2
ree t
a i
co mm
Ġnigh ts
Ġco lle
Ġcolle ge
Ġta ble
Ġwi fi
Ġt ry
Ġtra v
Ġ ent
Ġsu nday
Ġ ser
Ġst reet
Ġf rid
Ġfrid ay
Ġle a
is h
t on
a d
Ġlea ving
comm end
Ġre commend
Ġthe ir
Ġw ed
Ġdo es
oth er
Ġwed n
i ch
s day
Ġwedn esday
Ġth ur
Ġs at
Ġthur sday
ur day
Ġsat urday
Ġtrav el
Ġt u
Ġprice d
Ġpre fer
u st
Ġtu esday
Ġs e
Ġm an
Ġc ity
Ġ 7
Ġs or
Ġ1 5
Ġd i
A t
Ġleave At
nd s
Ġaf ter
Ġi f
Ġwh ere
c a
Ġsh ould
Ġmo nday
Ġsor ry
12 23
Ġthank s
Ġ0 1223
Ġman y
Ġm a
Ġ 8
Ġj ust
Ġser ve
B y
Ġarrive By
Ġ 6
i a
ste d
Ġc b
Ġpre ference
Ġi nd
e n
l u
Ġa v
Ġha s
Ġ r
oo l
Ġdo nt
oo m
Ġok ay
Ġthe y
Ġ ro
all y
Ġg ood
Ġf ee
t ion
ca re
Ġdont care
Ġind ian
Ġ king
or t
Ġ1 1
er t
a st
Ġu n
Ġ1 7
ai la
l o
c ke
Ġti cke
ert ain
Ġh i
f ul
Ġav aila
Ġm at
i ve
Ġ1 3
Ġ1 2
Ġto day
ou r
Ġsome thing
Ġth is
Ġ op
Ġg ive
ine se
Ġch inese
ce ss
Ġavaila ble
si t
Ġop tion
i ce
Ġbook ed
Ġleave s
Ġwh ich
Ġma ke
c cess
Ġstar ting
Ġdepart ing
Ġ1 6
me nt
Ġw or
c i
Ġking s
ra nce
Ġent rance
Ġgo ing
h a
Ġh o
Ġserve s
a k
Ġdi f
Ġtrain s
fere nt
Ġdif ferent
Ġs i
c lu
Ġr oom
Ġp er
Ġ1 4
Ġb ed
nd on
Ġlo ndon
Ġoption s
Ġmo re
Ġint ere
ccess ful
Ġpar k
Ġm y
ul ar
' ll
ou gh
Ġk n
c k
Ġt ell
Ġ1 0
Ġkn ow
Ġm ay
al ian
Ġit alian
Ġsou nds
Ġ1 8
Ġro ad
Ġs ame
Ġ vi
Ġ1 9
Ġan other
u n
Ġsi de
it e
Ġb re
Ġbre ak
Ġpart ic
f ast
Ġpartic ular
Ġsu ccessful
Ġbreak fast
Ġc ri
Ġwor k
Ġcri ter
el y
Ġcriter ia
Ġarrive s
Ġra ting
Ġa c
q u
Ġs pe
Ġspe ci
Ġm i
Ġ01223 3
lle d
Ġca lled
Ġguesthouse s
Ġ :
fi c
Ġintere sted
Ġm in
Ġreser ve
Ġ other
or n
Ġmin ut
Ġspeci fic
t ish
Ġnigh t
ou nd
Ġlo d
Ġw ell
Ġc ertain
Ġn one
Ġb ri
u ro
Ġbri tish
Ġ2 1
Ġcent er
Ġvi sit
Ġin clu
Ġticke ts
Ġminut es
Ġe uro
pe an
o se
Ġeuro pean
Ġc u
Ġst ation
gh t
ve n
Ġm ind
a nd
m ing
Ġthe m
Ġmat ch
Ġ2 0
Ġme e
g ge
Ġsu gge
Ġattraction s
ver y
Ġa ct
Ġsugge st
Ġb ar
th er
Ġre ally
Ġp ro
Ġth ose
Ġac orn
i z
Ġlod ge
m a
ou nds
Ġmu ch
Ġp ool
Ġar ch
a ge
Ġact u
Ġne w
Ġe at
Ġarri ving
f o
Ġse ver
Ġf ine
Ġsever al
Ġ v
a ct
Ġinclu de
Ġ 9
Ġactu ally
p ort
2 1
Ġs ee
ri p
o at
Ġcu is
n n
Ġs p
Ġp ounds
Ġtravel ing
Ġco nt
f e
for d
Ġhel lo
p ool
Ġcuis ine
Ġticke t
Ġas si
Ġle t
Ġmat ter
st er
Ġ ri
Ġof fer
Ġf ound
ro ss
Ġel y
ha m
Ġf it
Ġloc ation
Ġthe at
Ġg all
Ġgall er
Ġle ice
Ġc on
Ġleice ster
Ġl y
Ġc ross
a ble
Ġli ver
Ġliver pool
Ġ ste
Ġent ertain
de n
ur ch
Ġch e
our ne
Ġentertain ment
Ġwh en
u s
Ġu p
Ġs ain
Ġnor w
Ġta ke
Ġb ro
on g
Ġnorw ich
Ġ0 9
b or
Ġly nn
Ġcont act
iz z
Ġpe ter
Ġdo wn
bor ough
Ġch urch
x b
s on
Ġneed s
Ġpeter borough
Ġa ir
Ġair port
xb ourne
Ġt rip
l ton
op s
Ġbro xbourne
Ġb ish
Ġtheat re
Ġbish ops
p p
Ġsta n
1 1
ic k
Ġche ck
Ġpro vi
Ġd ine
Ġstan sted
Ġb ir
Ġn ow
ort ford
Ġst ortford
Ġp l
Ġste ven
m i
Ġsteven age
ming ham
Ġbir mingham
Ġb oth
ar d
Ġp izz
Ġdi d
l i
Ġca re
sit y
Ġto t
si an
Ġm ar
Ġmuseum s
ro w
Ġa ble
Ġprovi de
Ġtot al
Ġ0 8
Ġni ce
Ġn ar
Ġnar row
Ġth in
Ġf e
Ġassi st
w i
Ġi d
n ing
Ġ! <|
at ely
Ġ out
Ġp ick
Ġthe n
for t
u e
n s
m s
Ġc ine
Ġun fort
Ġunfort un
le x
Ġunfortun ately
ste ad
b y
Ġco de
Ġreserve d
Ġin stead
Ġa lex
and er
Ġch oo
Ġb oat
v al
Ġalex ander
ea d
Ġarri val
Ġstay ing
Ġmee t
Ġ0 7
Ġl ong
Ġchoo se
b p
Ġt oo
ar ch
5 8
s p
i ver
Ġgaller y
t w
Ġse arch
p le
Ġarch ite
Ġun iver
Ġs wi
Ġarchite ct
Ġpl an
Ġuniver sity
Ġc ar
Ġthin k
i ll
Ġf ir
Ġc ur
Ġg bp
u nt
vi lle
t t
el f
Ġg ar
Ġfir st
Ġp ay
Ġgar den
b e
Ġg on
2 4
Ġ very
1 7
Ġsain t
Ġch o
Ġcho ice
Ġgon ville
it al
Ġco st
lo g
q uest
Ġho sp
Ġhosp ital
0 7
i ther
Ġcine ma
clu b
Ġf a
ri st
Ġnight club
Ġarchitect ure
s si
le y
an e
a s
Ġas h
Ġcur ry
t i
Ġash ley
o log
Ġe ither
Ġswi mm
fe ct
Ġin fo
Ġswimm ing
o l
si de
Ġh in
Ġth ing
Ġpizz a
Ġper fect
Ġk ind
Ġ qu
Ġa sian
Ġw o
Ġcollege s
Ġch er
Ġcher ry
Ġmoder n
i re
Ġhin ton
r op
Ġfind ing
5 0
Ġre qu
by e
Ġgood bye
Ġex p
ie s
Ġmi lton
Ġper son
tt le
Ġ Ġ
Ġplan ning
6 6
Ġon ly
Ġne ar
Ġdepart s
2 9
0 8
Ġc lo
ee n
ic an
ur y
ot t
Ġpay able
ie nt
Ġar ms
Ġl a
pp y
Ġha ppy
unt ing
Ġe very
Ġneed ed
b ury
Ġpo ssi
Ġf un
Ġcertain ly
a b
Ġ2 3
Ġh ead
3 5
Ġre quest
Ġfe w
Ġu s
Ġch rist
p s
Ġrequ ire
4 0
Ġc lu
le n
1 0
Ġclu b
Ġal len
Ġ0 5
Ġpreference s
Ġor ient
Ġorient al
in a
Ġexp ress
Ġe ar
Ġc ou
Ġallen bel
Ġallenbel l
u b
Ġb elf
Ġh unting
s a
Ġbelf ry
tw een
Ġbe tween
8 8
Ġcon f
er ton
Ġintere st
Ġth ough
w h
Ġclo se
Ġch est
Ġw ere
ood le
Ġse at
Ġn oodle
6 0
Ġg ast
Ġwh i
Ġser ving
Ġchest erton
Ġbe en
Ġc our
5 4
Ġh e
nd er
Ġle ns
el d
t ed
fi eld
Ġlens field
d on
5 2
Ġri ght
w ay
Ġhunting don
Ġsp or
wh ere
ha ps
Ġper haps
Ġcour se
k w
Ġs ch
Ġsh all
Ġh ere
Ġspor ts
c an
d a
Ġar t
r oom
Ġpossi ble
Ġp a
Ġl ot
Ġthe se
0 1
Ġcou nt
Ġo h
2 7
Ġmay be
Ġmar ri
rop ub
3 9
Ġgast ropub
Ġmatch ing
fo re
Ġbe fore
4 6
Ġit s
Ġcity room
Ġsome where
Ġlo v
Ġrequire ment
5 9
Ġre s
Ġc la
Ġw ay
u ck
Ġday s
Ġl at
Ġcityroom z
i st
Ġreservation s
Ġchoice s
2 0
Ġpo l
ion s
Ġse t
Ġb ridge
Ġk o
Ġmarri ott
l ie
Ġg ra
Ġpark side
Ġwhi le
mi ss
Ġli st
y le
3 2
Ġres ul
Ġri ver
l ti
Ġh our
Ġli ttle
Ġad miss
1 9
Ġp ort
Ġmu lti
Ġadmiss ion
Ġgo ld
Ġmulti ple
Ġh all
olog y
Ġg ot
Ġgold en
nd oo
Ġresul ts
j o
Ġqu ite
Ġta ndoo
Ġrecommend ation
Ġsh ad
Ġshad d
Ġa p
an ish
4 1
Ġb ist
4 3
Ġt ur
Ġwo nder
Ġbist ro
Ġpart y
Ġoffer s
k ish
Ġtur kish
e t
Ġsou nd
Ġconf ir
n ation
Ġl ane
Ġlo ve
Ġg ree
so l
Ġtandoo ri
Ġinter nation
Ġinternation al
Ġ012233 3
Ġb est
Ġloc al
e p
Ġab sol
Ġabsol ut
ri ght
Ġho li
Ġholi day
Ġmee ts
Ġabsolut ely
Ġal right
Ġca ll
s u
Ġfa v
Ġport u
Ġa g
Ġca fe
b ra
oo n
in ity
Ġm ed
Ġin n
f ton
Ġfav or
Ġtr inity
Ġex c
Ġ z
r ough
Ġre ge
1 6
Ġf ur
Ġag ain
Ġh ut
Ġfur ther
Ġmatch es
bra y
Ġpool s
Ġaf ri
9 0
Ġw el
Ġf in
Ġsh ow
Ġafri can
n ot
Ġcan not
Ġra ted
Ġfavor ite
Ġco m
Ġco ming
Ġha mi
Ġhami lton
in ce
0 9
it ch
Ġc or
Ġint o
i l
Ġmi ght
Ġst ill
s h
Ġ012233 5
Ġdepart ment
er ra
e ver
Ġcon cer
Ġtry ing
um n
f f
Ġrege nt
Ġa ut
Ġhi ll
Ġhead ing
o d
Ġa yle
Ġf en
Ġw ar
Ġaut umn
Ġsp anish
Ġpol ice
Ġayle s
i d
b son
Ġho bson
it ton
Ġwar kw
k s
b r
or th
Ġwor th
Ġwarkw orth
Ġtrav ell
Ġth ai
Ġ2 2
Ġsain ts
es s
Ġi m
co me
Ġwel come
4 9
re d
it erra
ne an
Ġav al
Ġcount ry
Ġmed iterra
Ġmediterra nean
Ġch ar
Ġf re
Ġaval on
Ġam er
Ġch ange
Ġayles bray
Ġp r
n ch
Ġma de
Ġnot h
Ġfre nch
Ġb a
Ġy ea
Ġli sted
o s
y al
l ing
Ġnoth ing
4 8
Ġro yal
ane se
Ġwant ing
br ook
Ġn and
Ġlat er
f in
Ġde fin
Ġho me
Ġs end
m o
it ely
Ġas k
Ġlov ell
Ġdefin itely
0 6
g ing
Ġba ck
Ġevery thing
Ġyea h
oo r
Ġar ound
Ġh op
Ġhobson s
t n
Ġ our
Ġe n
Ġsuggest ions
re an
Ġg r
Ġa h
Ġhop ing
Ġ3 3
Ġsch ool
u ll
Ġhi gh
Ġs c
Ġun able
Ġd es
Ġnand os
Ġ er
sta nce
a re
Ġshadd ai
5 7
ke t
Ġo ver
Ġpro ble
ch es
Ġproble m
i p
Ġre st
Ġfin ches
Ġl uck
Ġb rough
Ġar bury
Ġbrough ton
Ġwonder ful
Ġv ie
a m
Ġad den
Ġb ra
3 6
Ġo pen
5 1
Ġd in
Ġmo st
ame se
tn amese
Ġvie tnamese
ven ue
Ġassi stance
brook es
Ġamer ican
4 2
comm od
Ġneed ing
Ġprefer red
g ue
Ġy et
Ġbed ou
Ġac commod
Ġhill s
f y
er s
5 5
Ġpr ince
3 8
Ġap olog
Ġ ke
ab ly
Ġlist ing
Ġbedou in
Ġadden brookes
gue se
Ġch an
Ġd itton
Ġsu it
ri an
7 7
er ia
Ġportu guese
Ġv in
Ġpizz eria
ex ican
Ġfit s
Ġvi si
Ġm exican
Ġarch way
Ġinterest ing
Ġnightclub s
Ġj a
k o
Ġah ead
Ġthing s
Ġvisi ting
Ġcla re
Ġconfir m
Ġclose st
Ġs ai
8 0
st le
el le
Ġca stle
es us
Ġj esus
p ha
an g
Ġal pha
Ġpark s
n er
s ser
Ġbra sser
Ġre a
Ġo ld
Ġgree n
Ġwo k
Ġseat s
Ġexc elle
Ġexcelle nt
Ġun su
i qu
or ks
Ġar tw
Ġbrasser ie
Ġartw orks
ti me
Ġ end
g in
in t
it ion
Ġma g
Ġlook s
Ġsu ch
Ġj o
a nt
Ġunsu ccessful
Ġri ce
ut e
Ġstar t
4 4
Ġ venue
Ġbe gin
a le
Ġear lie
Ġearlie st
Ġarch a
Ġcom ple
Ġ012233 6
or ter
Ġsh orter
Ġcar ol
1 8
Ġprefer ably
Ġk itch
Ġcarol ina
Ġkitch en
Ġand re
1 3
7 8
Ġa nt
Ġt el
Ġandre w
2 5
Ġch op
Ġro sa
a h
Ġ0 6
iz e
m p
ra n
ver ton
Ġroom s
Ġdown ing
Ġle verton
Ġs a
Ġal i
Ġko rean
sta l
Ġ2 4
Ġd a
Ġtravell ing
Ġbe t
Ġpo stal
Ġchar lie
Ġc li
ep hone
Ġtel ephone
Ġcli fton
Ġgo es
Ġlod ging
Ġapolog ize
Ġ rid
le ne
da lene
Ġmag dalene
2 8
s elf
Ġinclu d
5 6
Ġ01223 30
Ġco mm
it ies
m es
Ġfit z
ai l
ell o
Ġj ello
Ġhi st
Ġmar y
er n
li er
Ġear lier
re ct
Ġle is
Ġleis ure
Ġr d
Ġdo jo
Ġgr ou
Ġt en
3 4
p es
Ġa ust
Ġg u
ad y
Ġdes c
Ġgrou p
n a
Ġvin ci
Ġby ard
z a
jo y
Ġen joy
u le
Ġmy self
Ġsp ice
Ġke ttle
rip tion
Ġschool s
Ġdesc ription
Ġmi ll
k a
b oat
g er
Ġv ue
ed ule
h i
7 9
Ġti mes
Ġcost s
Ġjo h
Ġon es
Ġsch edule
Ġs ystem
Ġriver boat
or g
ull y
Ġrea ch
Ġo ak
Ġge org
Ġwork s
Ġgeorg ina
us ion
Ġhead ed
m ar
Ġb it
k y
it i
mar ket
3 3
Ġy ip
ge t
Ġ01223 4
Ġnew market
Ġyip pe
Ġgaller ies
Ġrid e
Ġgarden s
in h
Ġb inh
ff iti
Ġyippe e
Ġcomm ute
Ġs al
Ġthan h
Ġ #
Ġ ve
Ġa pp
Ġmi d
Ġchurch ill
Ġgra ffiti
Ġy u
oat s
Ġpa ra
Ġdin ing
u se
Ġbet ter
Ġcamb oats
ra id
Ġaf raid
Ġsal sa
Ġty pes
Ġent er
b il
f ully
Ġnu s
Ġd ate
Ġsu ccess
Ġwant ed
Ġshow ing
k ka
ol ia
s ca
ra la
Ġs ite
at olia
Ġan atolia
Ġlot s
Ġnus ha
Ġha kka
p in
2 6
Ġbegin ning
w ard
Ġad c
Ġc at
ko k
h in
Ġmi ss
Ġko hin
Ġkohin oor
t e
ation s
z z
Ġwh ite
Ġu g
c y
nd le
Ġten pin
Ġby e
d y
re s
Ġ7 9
ou s
Ġb ang
Ġr un
Ġid ea
Ġloc ate
Ġn am
or y
m an
Ġbang kok
ri es
ent ion
Ġun it
Ġnear by
ition al
Ġwa it
Ġhow ever
Ġb l
Ġgra fton
Ġb ot
an ic
Ġle ts
ail s
Ġug ly
Ġbot anic
ar y
Ġhe ard
b anese
th all
Ġfun ky
Ġconcer thall
Ġgu ess
Ġn ext
Ġle banese
Ġy ard
Ġho ly
Ġm oon
Ġp op
Ġd uck
Ġ01223 90
Ġpick ed
Ġduck ling
Ġh mm
2 2
Ġwa ndle
Ġin ex
Ġpop ular
Ġ quest
h al
Ġcount y
o y
Ġinex pensive
Ġlisting s
Ġguest s
Ġmee ting
Ġpara de
Ġwandle bury
7 0
Ġlov ely
q q
Ġf i
Ġra za
5 3
ver a
oom s
ma vera
Ġcor rect
Ġbl ooms
Ġb u
e mp
it a
Ġm ention
Ġpri mavera
ge s
gh er
Ġmar gher
p anese
Ġja panese
Ġ x
Ġt ou
Ġu se
Ġfe es
Ġpa lace
Ġblooms bury
Ġtheatre s
Ġmargher ita
Ġni rala
Ġcon si
Ġluck y
Ġ4 4
nt y
Ġwh ale
Ġme gh
Ġde t
Ġgaller ia
ou l
Ġs ea
9 66
g a
o ra
Ġt e
Ġb all
Ġple nty
Ġgarden ia
Ġtou rist
Ġball are
ain a
Ġse oul
be y
Ġer aina
Ġab bey
Ġspecific ation
Ġjoh ns
vi ce
Ġriver side
Ġw ee
Ġconfir mation
Ġim port
Ġrecommendation s
b ill
r on
Ġl ast
Ġj in
Ġent ries
bil ity
y s
g on
Ġl u
ir kw
Ġk irkw
Ġkirkw ood
Ġhouse s
Ġsuccess fully
Ġimport ant
w or
Ġavaila bility
e ology
Ġmegh na
p er
Ġjin ling
Ġ15 4
Ġa w
ie nce
Ġra ther
ol k
Ġmiss ing
f ood
Ġsea food
Ġt ree
Ġsta nd
Ġwh e
it o
Ġlea st
Ġv ar
bill ies
Ġcine wor
Ġdet ails
Ġcinewor ld
Ġ4 0
Ġvar sity
Ġsou l
iqu ito
Ġfitz billies
Ġf olk
Ġwi sh
Ġch iquito
Ġser vice
Ġ01223 24
Ġb us
zz o
Ġpre zzo
Ġe ven
Ġk y
Ġwee k
Ġso ck
emp ora
empora ry
Ġsome time
Ġsai gon
Ġs it
ur ger
Ġpo int
g y
Ġ012233 58
Ġap pe
Ġarcha eology
Ġboat ing
k ie
p t
Ġcont emporary
Ġf ran
Ġbe nn
mm oy
Ġky mmoy
re ci
Ġchrist i
p us
Ġcor pus
Ġfran kie
Ġex act
6 4
c ing
Ġs ay
Ġaccommod ations
Ġte ch
Ġm orn
Ġmorn ing
Ġear ly
Ġnam ed
Ġr us
Ġapp reci
Ġquest ions
i v
st r
Ġp as
Ġmu st
Ġ01223358 966
Ġwonder ing
Ġta sca
Ġadd itional
8 9
Ġp unt
Ġh ed
Ġbar n
Ġtech n
Ġpe king
Ġexc it
Ġg and
Ġgand hi
Ġar ts
Ġha d
Ġhe y
Ġant h
Ġd ura
Ġpl ay
Ġshadd ia
Ġdura tion
rop ology
Ġhed ges
Ġanth ropology
o me
es ome
Ġon ce
Ġaw esome
Ġbenn ys
ge se
ment um
Ġste ak
Ġthin king
p lace
Ġb el
ur f
j g
Ġother s
Ġali mentum
Ġappreci ate
Ġpunt er
6 8
Ġcomple ted
Ġstand ard
Ġsee ms
Ġtechn ology
Ġa str
Ġportu gese
Ġastr ot
Ġc orn
me n
1 4
Ġ &
Ġ q
Ġt w
Ġv a
Ġg our
me t
Ġsi d
Ġastrot urf
Ġgour met
Ġof f
Ġsteak house
Ġa men
Ġre g
Ġsor t
Ġaust rian
2 45
d oor
Ġout door
Ġmo ment
ab as
Ġbarn abas
d s
Ġb urger
l ish
ot e
Ġboat s
Ġfa mi
Ġp itch
y ne
Ġle ar
Ġho ld
Ġpa ss
Ġsai d
ll age
mm er
Ġconcer t
Ġexcit ed
7 6
Ġli me
Ġchurch es
p pen
Ġre ady
Ġno pe
Ġha ppen
Ġt on
Ġs oon
Ġwhat ever
Ġmi mo
Ġc ote
Ġget ting
Ġmimo sa
Ġf yne
Ġj un
Ġsome place
Ġun o
Ġtravell ers
Ġlime house
7 3
Ġ0122335 3
Ġlu ca
Ġvi llage
Ġaccommod ate
p ing
Ġco me
izz i
Ġz izzi
Ġamen ities
i ght
l ot
Ġ5 1
Ġe f
Ġge ts
Ġjun ction
Ġw at
Ġl an
Ġinclud ing
' ve
c ina
p ri
ou ble
Ġpri cing
Ġlo ch
Ġcu cina
Ġpass age
Ġd ar
es ian
Ġb ab
m ford
s as
in ess
Ġmu mford
Ġsh op
Ġsuggest ion
Ġf usion
Ġb la
Ġtw o
Ġthat s
Ġmention ed
i ra
Ġs lot
Ġwith in
Ġhelp ful
c um
Ġbus iness
Ġta j
st reet
Ġ0 1
Ġback street
z e
Ġfor ward
Ġ3 0
Ġro sas
Ġp an
Ġco cum
Ġea ch
Ġcla ssi
b ly
o wn
Ġany time
c king
u el
Ġe mm
z ion
Ġsta zion
Ġne are
Ġ2 8
Ġmar ket
Ġstazion e
Ġneare st
b u
an uel
Ġr out
Ġemm anuel
Ġc ott
Ġre d
ff ron
Ġsa ffron
Ġef es
Ġd one
Ġinclud ed
Ġconsi der
Ġc ow
Ġhe ar
Ġbla ck
6 9
Ġy ell
Ġwat er
Ġyell ow
ri end
88 8
c al
Ġ7 5
Ġd is
Ġsee ing
Ġja ma
7 1
Ġf ar
ur ing
Ġlear ner
l k
Ġsh ira
Ġgre y
Ġv ol
Ġshira z
Ġst yle
Ġsee m
Ġsa la
6 3
n g
Ġne cess
Ġcott o
Ġwhe ther
8 4
Ġth ong
Ġc op
Ġva ri
Ġjama ican
Ġcop per
1 00
ch ange
Ġex change
Ġst op
Ġhist ory
Ġrout e
Ġd at
Ġspecific ally
pri se
Ġclassi cal
a z
o gy
Ġfe z
15 1
el ogy
Ġre f
Ġ3 7
Ġche cking
Ġarcha elogy
Ġton ight
d i
lu e
Ġnumber s
Ġcomple te
e ct
Ġf riend
Ġb lue
Ġd uring
j ma
Ġp m
46 46
Ġgr ounds
Ġdin ner
jma hal
' t
ra l
Ġg la
Ġra jmahal
Ġ8 8
Ġandrew s
Ġnecess ary
ne y
Ġus ing
Ġsid ney
l n
Ġs ur
Ġ7 0
Ġpossi bly
Ġsc ience
Ġspeci fy
24 0
nt ast
ci d
Ġfa ntast
su mmer
Ġmid summer
Ġdar ry
Ġfantast ic
Ġc ool
ce pt
9 8
Ġh un
Ġlat est
of f
Ġ01223 245
r u
iqu es
Ġent ry
00 0
Ġbab a
Ġc off
Ġminut e
Ġcoff ee
t u
Ġne wn
Ġnorth ern
Ġnewn ham
Ġto ld
6 7
Ġant iques
9 9
' d
9 4
um ping
Ġhigh ly
Ġ01223245 151
b b
Ġho pe
Ġ012234 46
Ġw ine
Ġsit ar
Ġreg ard
a rian
Ġc ook
Ġ4 9
Ġ9 8
get arian
Ġve getarian
Ġcook house
Ġhist on
Ġfami ly
Ġgla d
1 49
a mb
Ġth rough
Ġre c
Ġchar ge
' re
re ady
Ġal ready
Ġ4 7
Ġk amb
Ġoffer ing
Ġappe ar
Ġkamb ar
Ġfor g
Ġ5 6
Ġfit ting
Ġeven ing
8 7
Ġh u
Ġm al
Ġ2 9
Ġmal ay
Ġco ld
Ġvi ct
Ġtheat er
Ġcom p
Ġrequest s
er y
Ġcla ri
Ġcinema s
p ot
Ġwill ia
Ġmalay sian
Ġhot pot
ll y
tt y
b j
ic al
er o
Ġs el
Ġwillia ms
8 6
Ġme ze
Ġpre tty
Ġ6 0
r or
er man
Ġs le
Ġs ince
Ġg erman
Ġreach ed
Ġm one
Ġwill ing
Ġcold ham
Ġmone y
6 5
Ġar ran
Ġ01223353 888
Ġ3 8
Ġz ero
Ġer ror
p o
Ġ5 0
Ġforg ot
4 7
Ġd anish
Ġdarry s
Ġsle ep
Ġu nder
n oon
Ġwith out
Ġafter noon
Ġconf usion
b lish
o c
sta blish
Ġe stablish
Ġpick y
a v
e sted
or ia
Ġd ouble
Ġ01223 5
pp le
Ġrequ ested
Ġexact ly
Ġvict oria
re nt
Ġca se
Ġ08 7
Ġswimming pool
3 7
u da
et y
ah ar
Ġpan ahar
Ġclari fy
s j
Ġs w
Ġm ood
ut i
ee ns
Ġqu eens
Ġwhi pple
Ġ0 2
Ġsc uda
Ġestablish ment
Ġscuda mo
9 1
Ġp unting
Ġbu d
Ġvari ety
o m
Ġ0 4
Ġsh ort
Ġbel ie
Ġarran ge
d p
Ġf ull
Ġ1 00
Ġbe a
Ġst ro
Ġ16 3
Ġf end
Ġp ip
Ġd u
as ha
Ġrun ning
Ġpip asha
b an
m w
Ġscudamo res
Ġa ccess
ere d
Ġcou ple
ction s
Ġcu ban
Ġsp ot
ga ma
Ġbud get
b s
n cy
Ġc ate
Ġwh y
Ġran ging
Ġac cept
Ġact iv
uti ful
Ġbea utiful
Ġfend itton
Ġcate g
a f
nd a
Ġro se
Ġstro ver
n ne
Ġwa gama
qu e
Ġspeci al
Ġly nne
Ġarchitect ura
Ġwagama ma
7 2
Ġt ang
Ġind ia
v ie
Ġtr umping
Ġtrumping ton
Ġwhich ever
Ġcur rent
Ġsur prise
at ive
Ġca nt
Ġho nda
j ah
ra jah
Ġma ha
Ġswi ss
Ġmaha rajah
co nd
ll ia
Ġse cond
Ġbelie ve
7 4
d es
e ed
nt il
Ġl ex
ri ll
Ġne ver
Ġca use
Ġu ntil
Ġse ction
Ġt es
Ġgree ns
a q
ri b
Ġ01223446 100
Ġregard ing
Ġl and
Ġd on
Ġin j
Ġe m
Ġ01223 21
wi llia
Ġsearch ing
be an
Ġ0122390 21
willia m
Ġp ic
Ġme an
Ġor der
Ġsh ee
Ġ01223 57
Ġcat ch
Ġlex us
Ġtes la
Ġ5 2
Ġfitz william
Ġpas se
Ġcause way
9 6
w s
Ġs ko
Ġsko da
8 2
on esian
Ġind onesian
lu g
Ġke ep
y ot
Ġch ose
Ġma king
Ġto yot
Ġinterest s
rib bean
Ġtoyot a
Ġrecommend ed
Ġclo wn
Ġrus sian
Ġrec or
o ver
Ġg rill
Ġ10 5
k in
v o
in es
Ġs es
Ġm or
Ġcross over
Ġrus kin
Ġarchitectura l
Ġses ame
Ġa u
ure d
Ġsu pp
Ġconcer n
Ġhelp ing
49 00
2 58
co ming
Ġ8 2
Ġup coming
Ġko sh
Ġkosh er
3 1
Ġs lug
Ġind eed
Ġlet tu
Ġtake s
Ġpic king
Ġlettu ce
u al
Ġca ribbean
ng th
a way
p m
s ue
Ġi ri
Ġ3 5
mm as
ma s
Ġlodging s
Ġf act
Ġle ngth
Ġme ant
Ġdi re
Ġh ong
Ġbe ing
Ġma hal
Ġgree k
e f
Ġun us
qu ale
Ġchrist mas
Ġaust ral
Ġchurchill s
Ġpas quale
Ġclown s
Ġunus ual
Ġaustral ian
0 4
Ġh k
Ġfor d
Ġeast ern
Ġun av
aila ble
un ch
Ġac cid
Ġinj ured
Ġrecor ds
Ġunav ailable
Ġaccid ent
ou nt
Ġ3 2
Ġper sian
Ġconfirm ed
o re
Ġ0122333 4900
Ġcateg ory
Ġiri sh
f t
Ġre l
Ġha ving
Ġla mmas
s se
Ġd ri
Ġtake away
Ġer it
Ġmary s
149 60
Ġcurrent ly
Ġb mw
Ġs ri
Ġm ich
al an
Ġ0 3
se s
pe ct
Ġsp end
i le
i fy
Ġ ver
Ġex hi
Ġexhi b
Ġf an
net ian
Ġ012233 12
Ġdes ire
Ġve netian
Ġ0122390 2
l f
l h
Ġg ir
a x
an gh
Ġsh angh
Ġro bb
Ġ012233 14960
Ġ20 2
Ġthough t
Ġpol ish
Ġrest ate
Ġshangh ai
0 2
6 23
Ġapolog ies
Ġsupp ose
Ġmich a
Ġre vie
Ġadd res
d q
k an
Ġpol ar
Ġsc ott
Ġdire ctions
0 5
6 2
g l
Ġlan kan
u p
it s
b ert
at ing
Ġg il
Ġ01223 45
Ġ012233 66
Ġsleep er
Ġmicha el
Ġgil bert
9 3
r h
Ġcat alan
ga rian
Ġhun garian
Ġsleeper z
7 5
s can
ot tish
le xi
Ġtu scan
way s
Ġsc ottish
lexi ble
Ġ012233 23
Ġc re
Ġis sue
Ġnor fo
Ġappear s
Ġsel ect
Ġau di
Ġver ify
ro ke
Ġdep end
Ġta king
Ġ7 4
ce nt
oc can
Ġmor occan
9 2
Ġp ound
Ġca b
ks w
Ġvol ksw
Ġrevie ws
i us
Ġca ius
Ġ0122333 23
Ġaccept able
u a
Ġf lexible
Ġtra ns
ed ish
Ġam ount
Ġtheat ers
Ġsw edish
t c
Ġcor si
258 7
Ġgir ton
Ġ0122345 2587
e g
i g
Ġb o
Ġsu sse
Ġlat in
Ġerit rean
Ġsusse x
age n
Ġnorfo lk
Ġvolksw agen
Ġaddres ses
j s
Ġp urch
Ġ0 19
Ġ012233 50
Ġpurch ase
Ġaf ford
Ġup sca
Ġupsca le
mb roke
Ġpe mbroke
one se
Ġpre ss
Ġ13 3
Ġeat ing
Ġjoh n
Ġdat es
Ġcant onese
Ġdesire d
Ġa venue
Ġhel d
Ġrobb ed
Ġs ing
Ġal mo
Ġbar be
Ġalmo st
0 3
Ġbe ca
Ġtable s
35 7
Ġ0122330 4
Ġ019 54
Ġbeca use
d w
ra me
ri ed
Ġal ways
Ġqu al
9 7
g x
Ġhave n
Ġstation s
Ġcat h
r s
t z
Ġc ra
Ġb ill
sta ke
Ġmi stake
Ġen ough
8 5
f l
g w
Ġge ner
Ġcheck ed
Ġ0122335 5
Ġexhib ition
n ger
Ġf all
12 4
Ġ01223 4646
Ġvol vo
Ġpasse nger
ore y
Ġgener al
Ġport ra
Ġal ter
Ġj ub
Ġamer ic
ile e
Ġjub ilee
b d
Ġs ca
i ous
Ġc ru
Ġad ress
d z
Ġtrain id
Ġst orey
h ill
gh es
Ġ5 3
Ġhunting ton
Ġshort en
Ġcorsi ca
Ġcath ar
Ġca f
ly n
Ġ012233 24
Ġportra its
Ġl ate
Ġm er
gh an
Ġaf ghan
57 25
Ġappe al
Ġameric as
Ġcru i
h x
co m
Ġwest side
Ġparticular ly
Ġshee p
Ġmichael house
Ġtrans port
Ġ01223 50
Ġhu ghes
Ġcre ative
Ġnarrow s
6 00
j b
Ġ3 1
Ġdi rect
Ġro w
Ġ012233 11
Ġconf use
Ġpr int
Ġcra ving
Ġcaf fe
k n
Ġp ut
Ġam az
Ġ5 17
Ġfa re
ab ase
Ġdat abase
Ġamaz ing
s w
er ge
ca de
Ġ01223 27
Ġqu een
35 3
42 00
Ġem erge
Ġemerge ncy
9 5
Ġb ate
Ġpo lyn
Ġe c
15 8
Ġu m
log y
Ġgra nd
Ġen g
Ġsca nd
Ġmer cer
Ġbate man
Ġpolyn esian
b w
d le
q f
Ġ ext
Ġe tc
Ġ01223 8
Ġ6 9
Ġfe el
Ġw ow
Ġl ess
Ġqu ery
Ġperson ally
iv ely
8 3
Ġf rame
Ġb ase
Ġex pect
Ġst ick
Ġask ed
Ġchan ce
Ġrea son
v ian
w nt
sta nd
ina vian
Ġscand inavian
Ġmercer s
i ld
ser s
Ġdo wnt
Ġo bj
Ġcrui sers
Ġdownt own
Ġobj ect
s r
t y
Ġsuit able
Ġactiv ity
Ġfan cy
Ġatt end
Ġal ong
27 9
Ġkettle s
d itional
ra nt
Ġtra ditional
Ġnew s
Ġopen ing
Ġeng lish
Ġar cade
Ġal one
Ġcheap est
Ġexp er
Ġhall s
Ġ0122333 48
Ġbel g
Ġalter n
a g
c ular
q y
Ġ6 4
Ġconcern ed
Ġbase d
2 23
a e
d ered
Ġl unch
la l
Ġha lal
Ġwhite hill
Ġtransport ation
a den
Ġm is
Ġbro aden
Ġ07 8
Ġ012235 66
i x
p j
Ġactu al
Ġidea s
Ġnam es
Ġconsi dered
6 11
u f
Ġi ll
Ġwi fe
Ġcamb ourne
Ġclo ser
Ġ012234646 46
Ġbelg ian
0 353
n z
Ġe ver
7 41
j x
Ġm ut
Ġne ither
Ġ012233 279
Ġre t
Ġ01223 52
Ġ6 3
Ġ6 8
Ġcon ven
om y
Ġ0122352 5725
h y
w y
x h
at ure
ea l
Ġlo w
Ġ5 357
Ġspecific s
Ġafford able
m y
v ol
Ġt our
88 0
Ġmid dle
Ġ0122321 0353
Ġgrand e
z c
Ġre me
ve nt
Ġprice y
Ġdeparture s
Ġsome one
12 240
66 0
Ġwel sh
Ġbit es
Ġhun g
Ġ087 12240
Ġ08712240 240
n f
Ġf o
li ple
Ġpossi bil
Ġcom es
Ġconfuse d
Ġmut liple
Ġpossibil ities
g bp
k v
Ġ07 6
Ġqu ick
j y
Ġm ain
Ġ15 2
Ġ19 1
Ġ012233 00
Ġ012234 741
Ġ012234741 44
e y
z y
le cular
Ġwi de
Ġmo lecular
Ġprovi d
08 8
Ġgast ron
20 91
Ġ0122390 2091
70 5
Ġfi g
Ġgastron omy
Ġb as
66 8
Ġservice s
a po
j f
p q
Ġd eal
Ġli ght
Ġdo ing
Ġwh o
23 6
Ġ15 1
Ġidea lly
Ġsing apo
Ġbas que
Ġ012233 35
40 50
Ġbarbe que
5 66
c r
i m
s x
v d
Ġple as
Ġ10 6
Ġunder stand
Ġrose ford
Ġqual ity
c u
s ing
Ġc l
Ġstar ing
Ġsouth ern
Ġtr ouble
Ġ01223 51
Ġop er
Ġdis p
Ġthrough out
o g
p a
Ġ es
ra unt
15 4
Ġ012233 54
08 5
39 7
Ġidea l
Ġ012233348 60
Ġhung ry
Ġsingapo rean
h u
Ġa ss
Ġb r
Ġs ir
Ġin vol
ct ic
Ġany mo
ch el
Ġpostco des
Ġpl ough
Ġchange d
ers chel
Ġ0122330 7
Ġdisp ute
Ġanymo re
1 12
p x
Ġb ad
Ġ0122330 4050
Ġsit es
Ġconven ient
a p
b g
s y
t l
Ġ rom
Ġt er
Ġwould n
Ġan gl
15 50
Ġangl ia
d b
p d
r t
Ġy o
Ġ4 1
l ar
p b
el er
Ġd ue
Ġs qu
fi ed
Ġsi mi
Ġwhe eler
Ġ087 1550
Ġ012233323 20
Ġsimi lar
Ġ0871550 10
b ably
e j
f ish
h g
Ġking fish
Ġ12 4
Ġpro bably
Ġ07 7
Ġkind s
Ġgastropub s
Ġkingfish er
j e
u y
Ġsu per
ter s
Ġpart s
Ġj ourne
Ġk id
li ar
Ġ07 9
am ple
26 5
Ġfami liar
Ġ01223902 088
ua rant
Ġjourne y
r q
Ġw r
or s
an ian
Ġg i
Ġnor man
Ġ15 17
ci l
Ġper i
Ġhin ch
Ġschedule s
Ġbu y
Ġfriend s
Ġdri ver
Ġrom anian
b ook
q a
x a
in brook
Ġp ull
Ġh erschel
Ġcent ra
Ġfa cil
Ġperson al
Ġ01223304 705
Ġhinch inbrook
7 18
l j
n l
w bray
an ce
le ctic
Ġmo wbray
Ġfood s
Ġaccommod ation
77 08
Ġ012239021 68
Ġ01223366 611
Ġec lectic
d d
Ġ est
nt a
Ġy e
at ively
co de
Ġ01223 4200
Ġwor king
08 7
Ġ40 4
623 3
Ġ012234200 60
a sian
e m
p ton
Ġne uro
Ġ2 124
Ġhow dy
Ġwor ld
27 0
Ġ0122333 6233
90 6
Ġpan asian
Ġ012239021 12
Ġ01223312 112
4 27
b t
b er
Ġn ah
Ġre sp
ce s
la nd
Ġ3 6
15 9
vi ous
Ġmarri ot
ward s
Ġweek end
Ġcoldham s
Ġfig ure
Ġ087155010 10
8 1
q b
ra t
Ġp rop
at h
Ġex ample
Ġnarrow ed
Ġplan s
h t
n i
Ġde cid
Ġ5 7
Ġ8 0
Ġ012233 52
Ġ9 6
Ġprovi des
Ġfe ature
Ġcall ing
Ġactiv ities
Ġrel atively
Ġ01223300 085
n k
Ġ ed
Ġw ent
me ters
Ġnorth am
Ġas king
Ġ15 6
Ġwor ry
Ġcuis ines
Ġhour ly
Ġ0122335 7708
42 8
Ġ01223355 397
kn own
Ġext ra
Ġnortham pton
Ġf ro
Ġin qu
ting s
Ġgree tings
Ġrege ncy
j v
l x
Ġth ir
Ġd rop
Ġ3 4
Ġ012233 15
21 0
Ġgra nta
Ġsel e
Ġ01223902 158
f d
g g
u w
Ġc le
se d
Ġcan c
Ġ4 2
Ġ4 51
ver s
ai d
Ġ7 10
Ġ8 3
Ġ6 2
Ġgive n
Ġfa ir
Ġkind ly
10 18
78 1018
64 12
Ġ01954 781018
Ġcentra lly
q c
ea land
40 2
Ġz ealand
Ġrel ated
Ġ012238 668
Ġpleas ure
Ġwr ong
Ġ012238668 00
6 1
9 14
a ce
s c
Ġc res
Ġb art
Ġd el
es house
Ġme al
Ġany way
Ġ11 0
Ġvi king
Ġswi m
Ġrest uarant
Ġgu eshouse
Ġquest ion
Ġ0122357 6412
Ġye ar
Ġcres cent
Ġbart on
c v
p h
Ġf ails
Ġl ion
Ġfor m
Ġan sw
Ġstar ts
fere d
Ġac ross
35 16
Ġ0122333 3516
Ġreme mber
in fo
sta r
Ġfor get
Ġtown info
der s
Ġ0 087
Ġ3 9
15 3
Ġ01223 7
08 000
Ġenter prise
22 08000
Ġcathar ine
Ġ0087 2208000
g m
l ver
ow ing
is on
Ġpre vious
Ġu h
Ġr ing
lo re
Ġsi lver
Ġexp lore
Ġfin ders
Ġten ison
70 2
Ġ40 428
Ġcorn er
3 88
b z
g d
m f
t q
z en
Ġt ried
Ġh m
Ġre al
Ġdo zen
Ġelse where
Ġo wn
Ġwork ed
Ġperfect ly
Ġsid gw
Ġcomp an
Ġ01223307 402
f n
r l
w w
Ġp aid
le ss
Ġe vent
45 19
Ġ01223 29
Ġ6 6
Ġrest urant
Ġaust rala
Ġattend ing
Ġaustrala sian
b q
n j
v h
Ġt re
Ġth or
ed i
Ġpe as
Ġkn own
Ġ08 4519
623 20
Ġ084519 62320
c c
h l
o int
el ix
Ġp u
Ġf elix
Ġg ave
Ġra te
Ġsu f
ic ine
Ġ7 1
Ġun known
ment s
19 4
Ġmed icine
Ġ0122335 50
78 2
Ġmill ers
Ġwhite house
Ġlu x
Ġ01223350 914
ath er
5 11
6 265
e h
z k
el ber
Ġp la
Ġp ub
Ġme t
si c
Ġco l
Ġtake n
Ġchoo sing
Ġhe id
Ġ0122333 6265
Ġ0122336 566
Ġexpect ing
Ġsqu are
Ġperi od
Ġed ward
elber g
Ġheid elberg
Ġ0122336566 4
a w
s ure
u j
Ġre fer
Ġg lo
Ġprefer able
Ġun sure
Ġwor ried
17 0
29 6
46 00
Ġ0122333 77
Ġmed ical
38 2
Ġhist or
Ġexper ience
Ġsidgw ick
Ġ012233377 66
a pes
w k
Ġn oon
th ough
Ġcan apes
Ġal though
ic ious
Ġind ust
Ġoption al
20 2
Ġprovid ed
Ġgi ving
Ġcle ar
Ġdel icious
d o
g n
j z
n u
r x
Ġ oo
ed b
Ġch ild
Ġdoes nt
Ġ14 4
Ġconcerthall s
53 14
Ġbu mmer
73 7
Ġestablishment s
Ġ0122357 5314
Ġcanc el
2 57
f s
j j
p k
r f
u x
v x
Ġg ather
Ġcent ral
Ġ01223 46
Ġfin ish
22 2
Ġshee ps
Ġ01223323 737
Ġcompan y
5 00
b i
b and
Ġc ro
Ġh us
it es
Ġex ist
Ġreser ving
Ġ7 880
Ġ13 8
Ġgive s
Ġspeci fied
29 9
38 30
Ġapp oint
Ġvari ous
Ġaltern ative
Ġest ate
Ġsele ction
Ġindust ri
Ġhus band
b al
g q
t a
v m
x s
Ġt erra
Ġl ie
Ġto p
Ġ20 5
Ġ07 4
Ġcour t
Ġhope fully
Ġarrange ments
Ġ01223566 388
Ġfeature s
Ġcol ville
Ġglo bal
Ġterra ce
d t
i al
l king
t een
v y
x y
z il
pe ci
Ġpeople s
Ġwhat s
Ġ2 00
Ġadd ition
Ġwest ern
Ġbooking s
Ġse ttle
Ġtrip s
Ġtandoo r
Ġbra zil
Ġ012233323 60
Ġfo ll
Ġes peci
Ġbrazil ian
Ġespeci ally
6 88
i h
j m
l q
m erton
Ġp ast
Ġ3 65
Ġho merton
Ġ10 8
24 8
Ġpara meters
Ġdis c
Ġ01223324 600
Ġ012233279 08
Ġappoint ment
1 88
4 10
l ic
n v
q e
v f
re t
Ġin c
Ġloc ating
Ġper ne
Ġac com
Ġsee king
Ġcon ne
59 6
Ġhmm m
71 4600
Ġ01954 714600
Ġreason able
Ġresp on
e w
n x
o i
Ġ ow
at ology
Ġca mp
Ġ3 28
Ġj edb
Ġ8 9
Ġ9 9
Ġsp ace
17 07
Ġexp and
94 48
Ġdepend ing
Ġ01223350 688
Ġinvol ve
Ġpub lic
Ġjedb ur
d h
o in
q g
r j
s ion
Ġst u
Ġst ated
23 3
23 8
Ġcontact ing
Ġ0122335 1707
Ġschedule d
Ġapp ro
Ġ40 210
Ġ0122324 3830
Ġ01223355 159
2 24
a pp
n y
o z
t b
z b
Ġt ea
nt on
ar s
Ġ0 17
Ġv ary
11 1
Ġ07 0
10 4
42 22
38 7
78 6
04 46
Ġcathar ines
Ġter ri
book ing
Ġthor nton
Ġjedbur gh
8 43
g u
i gh
z l
ra ham
Ġs m
Ġgo g
Ġab o
Ġ5 4
fi ce
Ġha nd
Ġsi ght
Ġ012233 59
Ġclub s
Ġ0122333 8
Ġ0122335 6
Ġmag og
Ġbab raham
Ġspot s
Ġ01223324 222
Ġ01223354 382
Ġindustri al
c l
c w
k c
r g
v t
Ġa way
Ġta lk
Ġex cept
Ġha em
Ġ01223 2
Ġ14 16
50 15
Ġchar ges
Ġ40 270
Ġdis app
Ġ01223304 906
5 21
a a
i j
l c
s v
Ġh ur
ri ous
15 11
Ġeat ery
ott en
88 42
49 4
36 1
Ġ01223446 104
Ġ0122350 33
Ġ01223335 511
k m
o v
q w
r k
v c
y e
st ra
Ġde ci
gh ts
Ġ5 29
Ġeast side
Ġ0122336 4222
Ġswimmingpool s
Ġret ail
Ġdozen s
Ġgather ing
Ġdeci de
8 28
9 11
h h
i f
r b
z w
nt h
Ġs ad
Ġde cent
Ġta x
ur ton
Ġst urton
59 9
Ġfavor ites
48 0446
Ġnand o
Ġsuit s
Ġ01 480446
com end
Ġopening s
Ġbr ing
Ġaccom od
Ġ01480446 000
7 660
b f
k f
m g
m it
n h
o e
p r
s q
x q
er ies
Ġb unch
Ġresta raunt
Ġ2 90
Ġ2 51
Ġguest room
Ġad j
Ġim p
Ġ0122336 7660
79 77
urger y
ng ers
Ġ0122321 7
Ġpasse ngers
Ġlow er
8 111
8 786
b n
j c
m u
n ed
Ġh on
Ġd r
Ġli ve
xi m
Ġ7 3
21 87
Ġentertain ing
Ġ07 782
Ġfi ft
Ġ01223353 248
888 2
Ġ152 154
Ġ0122351 8111
Ġneuro logy
Ġ012233550 17
2187 45
Ġ07782 218745
3 30
j q
k i
l t
m or
m ous
t r
w e
z f
Ġ ot
Ġs port
23 30
Ġ15 19
Ġhi lton
Ġ16 9
Ġ012233 60
21 38
Ġste v
Ġfa mous
08 3
19 224
Ġ0122330 2330
Ġve re
245 6
po ke
Ġ012235 19224
Ġfacil ities
Ġpu lled
Ġrespon se
Ġdisapp oin
k q
r d
w d
x d
x ed
z t
Ġb ig
Ġto wards
Ġ5 9
12 41
Ġeat eries
27 25
27 410
Ġdepend s
Ġ0122327 7977
Ġ01223566 188
Ġpla za
Ġcro wn
Ġappro xim
Ġadj ust
Ġhon est
c is
p v
x c
at ri
Ġto mor
Ġ17 2
Ġmat h
32 00
Ġhigh er
Ġdar n
Ġdirect ly
Ġhaem atology
Ġtomor row
5 52
6 07
7 50
9 00
c g
r v
w f
Ġ $
an age
Ġ01223 84
17 8
52 64
Ġmiss poke
Ġshop ping
Ġhu nd
Ġ01223312 843
Ġfall s
Ġ012233279 78
Ġdecid ed
Ġ0122384 2725
a u
c ue
h z
n w
w m
y k
Ġf u
ed d
Ġatt emp
ss y
12 596
en sive
us ing
07 4
Ġconf using
79 66
Ġshort ly
Ġ01223315 702
Ġ0122329 5264
Ġfift een
Ġhund red
h q
j p
k ed
s d
v v
z s
Ġp umping
Ġch edd
Ġthank y
Ġwant s
12 660
Ġserve d
Ġother wi
Ġvisit ors
59 8
Ġresul t
Ġjo in
Ġ0122336 2456
Ġ0122330 257
Ġbarbe cue
Ġappeal ing
Ġ012238 12660
Ġ0122351 1511
Ġoper ation
Ġlux ury
Ġfoll owing
Ġ01223338 000
Ġchedd ars
Ġotherwi se
b l
d g
d ing
h e
k d
m c
p l
re ad
Ġo dd
Ġsh e
Ġwor ries
Ġrequire d
Ġ0122333 3200
Ġ0122335 1241
80 2
Ġ0122336 8786
Ġem ail
Ġsing le
Ġaltern ate
Ġtre at
521 9
Ġcrown e
Ġthanky ou
0 1223
6 25
a j
f c
g s
l v
o j
t ree
u ter
x w
Ġs ave
co logy
Ġmo ve
Ġany one
Ġ2 5
00 89
Ġtr ust
Ġ7 2
Ġ13 9
11 8
Ġ07 3
Ġrest raunt
77 900
33 1
Ġ012234 77900
Ġ0122324 8882
Ġreg ion
Ġreg ret
Ġcomp uter
Ġdri ve
Ġpull ing
Ġfair ly
Ġ012235033 33
d f
m ind
p z
p ed
v b
z p
Ġc ard
Ġre p
Ġpri or
Ġde cis
Ġta ste
Ġ4 6
Ġhelp s
45 6
ul t
Ġea sy
Ġsi ghts
Ġtell ing
li ment
Ġevery one
Ġ0122324 0089
Ġcomp liment
Ġdouble tree
Ġsuppose d
427 7
Ġprop ert
Ġthir teen
Ġstev anage
Ġapproxim ately
c b
k t
o b
u nder
Ġt ook
Ġp lu
Ġl ar
Ġre se
Ġs ell
ie n
Ġof fered
Ġstay ed
Ġarrive d
12 299
son s
24 00
Ġ0122333 2138
Ġ012234 12299
Ġbu ild
Ġ0122324 4277
Ġlear n
Ġreason ably
Ġmis under
Ġcl in
Ġ01223352 607
edi atri
Ġstu ff
Ġhur t
Ġcompliment ary
Ġlar ge
Ġbuild ing
ediatri c
b our
j k
s an
v el
Ġre nt
Ġin san
Ġmo di
Ġlook up
Ġyour self
Ġwa lking
Ġ8 6
Ġ19 6
Ġac ute
Ġcon stra
Ġnarrow ing
Ġchest er
52 12
59 1
Ġres pect
Ġfin al
Ġrid ing
Ġ012234 124
Ġsay ing
86 50
Ġ012235 12596
Ġbo red
Ġhistor ical
Ġconne ct
Ġsad ly
Ġ01223360 966
Ġinsan ely
Ġ012234124 30
c z
l z
m er
n b
p w
r di
u me
x x
z q
Ġca me
Ġmo nth
Ġst ate
00 5
23 2
Ġinfor m
07 718
27 34
20 10
78 77
Ġ47 53
Ġ078 07718
Ġ01223335 153
718 7
Ġprop er
Ġ01223352 500
Ġ012237 27410
Ġprevious ly
Ġdr in
Ġ73 2734
Ġdisappoin ting
Ġ0122330257 9
Ġ07807718 591
5 12
a c
i u
n r
t es
v l
v q
v w
in ion
el e
Ġc et
Ġh ard
Ġd ish
Ġs urgery
le d
rid e
Ġad v
mm y
Ġsat is
Ġop inion
Ġho st
17 63
66 2
60 55
57 67
Ġ0122336 34
Ġ0122336 8650
Ġ0122336 1763
Ġ0122330 2010
Ġstand sted
Ġbo ard
Ġass ume
Ġ01223359 750
Ġregret fully
Ġ012233634 71
d x
g f
i ology
j l
o q
q z
z m
at es
Ġli mit
Ġcamb ride
Ġde ar
23 72
Ġ6 19
Ġcu rious
Ġcon g
Ġclose d
52 5
39 0
Ġ0122333 4200
Ġ33 34
Ġdes k
55 5
Ġjo b
Ġ0122336 2372
Ġspecial iz
Ġchose n
Ġ01223311 911
Ġexper ien
Ġfro nt
Ġansw er
Ġsuf fice
Ġcard iology
Ġrese arch
Ġexperien cing
1 387
2 12
9 58
b h
i y
k u
q s
r ound
y y
Ġb ur
ri te
Ġg otten
Ġcamb rdi
Ġatt ention
der ly
Ġel derly
Ġdestination s
Ġst rat
Ġ5 8
Ġun less
Ġ13 2
Ġsi ze
Ġ18 3
fic ient
Ġmin s
66 53
35 5
Ġhe art
16 7
iqu e
Ġ0122330 6
Ġ0122324 7877
Ġ01223366 202
Ġ0122327 6653
Ġfacil ity
Ġcamp us
Ġmodi fy
Ġchester on
Ġcambrdi ge
Ġstrat ford
2 083
5 154
g c
m r
o mp
w l
w ery
x f
st ood
Ġth omp
Ġc ut
Ġd ale
Ġg l
Ġon cology
Ġmo vie
ha nd
Ġsi lly
Ġbre wery
Ġstan ford
11 0
41 4
Ġayles bury
49 3
Ġreach able
70 15
Ġ0122324 1387
76 5
Ġton s
Ġcomp lex
Ġappeal s
Ġwho le
Ġevent s
Ġplu s
Ġconstra int
Ġrespect ively
Ġthomp sons
1 880
h b
h c
i er
i ry
m z
p n
t ely
u c
w b
Ġw ou
Ġh ate
Ġf ully
se ase
Ġin fect
Ġli king
Ġne at
Ġint end
Ġmu sic
30 6
Ġsouth end
Ġdi stance
Ġdi sease
Ġ8 4
Ġav o
Ġun ique
29 4
Ġgast ro
Ġgra b
Ġz ip
16 074
90 3
09 27
Ġ0122335 1880
Ġcomple tely
Ġlast ing
Ġ0122350 6055
Ġ01223311 625
Ġinvol ving
Ġter ms
Ġ017 99
Ġabo ve
Ġadv ance
Ġinfect ious
Ġdisease s
8 68
d ir
i i
j i
l m
r n
t p
u g
w c
Ġi an
Ġf oo
Ġb out
Ġre ad
Ġm ine
Ġg wy
ll s
Ġam ong
Ġle ft
00 170
Ġe gg
Ġe ye
45 50
Ġtr u
Ġman age
ast er
Ġ07 5
40 4
Ġpa ediatric
Ġ0122333 84
Ġ0122333 2400
48 100
77 86
Ġ012234 00170
Ġyu mmy
98 59
Ġregard less
47 48
Ġ01223323 361
Ġmistake n
83 00
Ġprovid ing
Ġdecid ing
Ġ012237 48100
Ġexist s
Ġgwy dir
Ġ012233384 00
j a
j d
u h
w x
z n
in ts
Ġf ut
Ġnu mer
Ġstar ving
Ġal ot
Ġplace d
Ġpo ints
Ġo c
Ġ11 6
Ġmake s
ck s
fic ations
Ġmatter s
35 4
41 49
Ġshow s
48 6
25 15
79 42
68 38
Ġsoon est
Ġcateg or
Ġnever mind
Ġow e
Ġ01223217 118
Ġhonest ly
Ġdecis ions
Ġavo id
Ġfut ure
4 07
8 07
b o
c m
g o
i fications
m n
v ies
y f
Ġ ut
Ġth ru
Ġf ul
Ġpri ci
Ġhelp ed
al f
00 59
Ġu mm
Ġpro cess
21 4
us sed
Ġout side
29 1
29 3
ist ic
use s
26 3
Ġrun s
Ġlast s
Ġsit u
Ġsteakhouse s
Ġhu h
Ġ0122357 512
Ġdri ving
02 54
Ġqual ifications
Ġ0122350 5015
Ġ01223315 232
Ġdisc ussed
Ġbuilding s
Ġprici er
Ġ0122357512 2
8 17
d l
q h
q p
v n
x p
y h
z v
z x
er ary
in erary
Ġc ele
Ġf ill
Ġb an
Ġd ai
ri ate
ve red
Ġhot sp
Ġg hand
ent ial
Ġit inerary
Ġle vel
Ġlook ed
Ġ4 5
Ġint ensive
Ġpre fered
Ġha ndle
Ġall ow
23 54
Ġ7 8
Ġspe ak
Ġpay ing
rop riate
29 87
46 4
46 7
28 6
Ġapp ropriate
Ġ0122324 4149
Ġ0122324 7942
Ġ01223353 110
Ġrec comend
Ġcl ient
Ġinqu iry
Ġansw ered
tb all
Ġimp ress
Ġfoo tball
Ġnumer ous
Ġcele bra
Ġdai ly
Ġhotsp ot
c q
h n
q n
r p
w v
x e
Ġto ward
Ġti ght
ne ver
ul ations
Ġk ill
Ġdi g
66 1
01 6
20 9
Ġmost ly
Ġchan ging
53 48
Ġhappen s
Ġoper ating
rat ulations
Ġterri fic
Ġsm all
5212 60
Ġdrin ks
Ġcet re
Ġdish es
Ġcong ratulations
Ġ01799 521260
0 53
6 57
7 55
8 464
b v
f g
h o
q d
r z
u gh
x g
Ġw an
Ġre pe
ay side
mb ered
Ġstar ted
Ġ2 6
ut ing
ir ing
ee t
ca sion
Ġav ai
Ġlondon s
Ġ012233 240
Ġcont in
Ġlong er
Ġqu ayside
60 4
41 3
Ġ0122333 8300
77 1
Ġcomm uting
70 47
Ġwhe never
Ġsoon er
Ġfriend ly
Ġsw eet
Ġreme mbered
Ġsuf ficient
Ġoc casion
Ġ012233240 33
2 00
2 50
2 525
8 494
b c
h ere
i me
r r
s borough
x j
Ġc ities
Ġp at
Ġp ot
Ġf oc
on ary
Ġm all
ce ster
Ġwi se
ll ast
Ġne igh
Ġmo vies
Ġad vent
30 71
Ġsp read
Ġpeter sborough
24 33
olog ical
Ġwo llast
66 66
60 2
27 15
Ġcor onary
Ġ0122335 51
Ġ0122335 78
Ġhigh est
Ġ0122336 2525
Ġ0122336 2433
13 1
Ġ012234 486
Ġtourist s
89 88
Ġexcit ing
86 00
65 24
Ġmain ly
Ġass um
Ġ0122346 2354
Ġ01223356 555
Ġcategor ies
Ġrepe at
Ġwollast on
Ġ012233551 66
Ġ012233578 51
Ġ012234486 20
1 46
6 39
7 09
8 79
b a
b k
l s
n o
o k
p f
s l
t o
t x
y r
Ġm ess
le igh
Ġne ces
Ġme nu
Ġcamb ri
Ġra tes
Ġal y
Ġco ver
ut ation
Ġad ul
23 7
Ġse c
en cy
Ġ12 233
Ġmatch ed
Ġ9 0
21 1
11 63
Ġpick up
27 330
59 5
Ġ0122335 0059
Ġ0122335 3071
Ġ22 5
Ġ0122336 5
Ġrid ers
56 1
56 8988
67 42
Ġ01223312 598
Ġdepend ency
Ġ012234646 30
600 3
600 9
Ġquick ly
Ġinqu ire
Ġdrop ped
Ġoo ps
Ġ01223356 354
Ġ012232 27330
599 88
Ġrep utation
Ġbur leigh
Ġneces sity
Ġadul ts
7 54
8 903
e ck
g t
h j
k l
m v
m ely
v r
w r
w t
y x
re mely
Ġf ly
Ġb ell
Ġre ch
se ss
art s
Ġni l
Ġas sess
Ġj u
Ġwhere ver
Ġho gw
Ġdif ference
Ġac c
Ġentertainment s
Ġbish op
Ġ07 88
24 7
50 4
Ġperson s
08 2
88 60
Ġpa sta
20 54
16 3
49 5
57 29
Ġpostal code
149 9
Ġ087 194
af ter
Ġ01223311 053
Ġext remely
Ġfeel ing
Ġhistor ic
Ġ012232 59988
Ġcut ting
Ġtru ly
Ġmanage d
291 80
Ġghand i
Ġpot ential
Ġrech eck
Ġassess ment
Ġhogw arts
Ġ087194 29180
4 00
8 29
9 38
9 561
h f
i q
j t
j u
k x
m x
t en
u q
u sday
w o
Ġh er
Ġh alf
Ġf ore
or ing
Ġre ce
Ġan n
Ġch ines
Ġ0 18
Ġsome ti
Ġtr ue
Ġ01223 42
ci se
ci al
Ġ14 1
Ġ012233 294
Ġthem ed
88 00
54 78
Ġhe p
52 25
20 45
20 94
32 25
19 3
43 19
Ġ0122335 7187
49 17
77 33
Ġ0122336 4319
Ġenjoy ed
53 771
Ġwish ed
pri sing
Ġconsider ing
Ġsur prising
99 37
149 2
74 23
Ġcre ate
158 1
427 53771
Ġlie k
Ġaccomod ations
Ġfly ing
Ġ018 42753771
Ġsometi mes
Ġ0122342 5478
Ġ012233294 32
Ġsurprising ly
1 07
c lo
c ces
d v
e on
g z
h v
l ine
n ess
s ary
u ally
v j
z o
Ġt ri
in ating
le s
Ġcamb id
Ġmo d
Ġtown s
Ġmoder at
Ġ0 12
Ġco vers
Ġni cer
Ġ5 5
15 02
Ġent ire
Ġro lls
Ġhi king
Ġmi xed
Ġ9 4
Ġcon vers
11 00
Ġtot ally
Ġ07 30
iver sary
24 20
Ġfa sc
66 88
Ġ23 1
35 1
wh ile
27 6
36 82
Ġjo int
Ġ0122336 4917
Ġda ugh
Ġcomm on
Ġ0122324 7015
Ġbenn y
68 7
Ġsur round
Ġspend ing
Ġ01223323 639
Ġbo ast
Ġlunch eon
Ġgueshouse s
Ġoo h
Ġinvolve d
Ġterri bly
Ġjoin ing
Ġsell s
Ġneigh bor
Ġassum ing
Ġann iversary
cces ful
Ġtri ck
Ġcambid ge
Ġfasc inating
Ġdaugh ter
Ġsurround ing
5 57
6 79
7 802
b all
i k
i um
p y
t k
v s
w a
x t
Ġt een
Ġa ve
Ġi b
Ġi h
ou rite
Ġth ree
in ed
Ġc w
Ġy t
Ġn ap
Ġtra um
ie re
th e
Ġcan cer
Ġthere after
Ġon line
ch t
Ġ4 3
ss iere
Ġel eg
Ġpre cise
ne w
Ġall owing
23 5
ic s
Ġtravel s
Ġsor ts
Ġ01223 568988
Ġ11 3
sit ive
Ġsi mp
Ġvi a
un ic
21 66
Ġpeter bour
59 21
20 25
Ġ0122333 8800
Ġ0122333 1100
Ġfav ourite
Ġag o
16 81
Ġ0122335 6666
Ġbra ssiere
42 64
Ġ0122330 258
Ġwait ing
Ġslot s
Ġspecify ing
Ġcomp a
31 12
Ġcab ridge
Ġ0122329 2094
Ġclin ic
Ġconvers ation
Ġteen age
Ġnap ier
Ġtraum a
Ġeleg ant
Ġsimp ly
Ġ0122330258 0
3 270
4 66
8 331
9 89
a ri
c p
d k
f ford
h r
h s
k k
m t
s f
t f
x v
y c
y q
z i
Ġ nt
Ġi a
er ology
ou bt
Ġf er
Ġb ite
Ġto ge
Ġm n
ce ed
Ġsta fford
Ġle ic
Ġso li
Ġnorth side
Ġmu sue
Ġk new
Ġser ver
Ġ012233 16074
Ġsugge sted
Ġpro ceed
Ġv j
21 6
07 88
Ġus ually
Ġchrist s
Ġ0122333 65
Ġ0122333 8600
Ġba sic
Ġend ing
Ġ0122336 3270
Ġsa fe
Ġ0122330 868
79 31
70 40
Ġwat ch
82 07
05 52
Ġec on
Ġvary ing
Ġtax is
Ġguestroom s
Ġmisunder stood
Ġsitu ated
Ġtoge ther
Ġleic aster
Ġsoli d
Ġ012233365 40
Ġ0122330868 1
2 153
3 19
3 702
7 19
8 08
8 39
a la
c ation
h ic
j h
l b
m in
n q
o ci
o jg
s brookes
u d
w q
z h
re a
Ġp ain
Ġh j
or rect
Ġre la
Ġs li
an s
Ġin f
Ġtra n
Ġg pb
Ġlike s
Ġ4 8
Ġleave at
Ġarrive by
Ġsouth side
fic ation
Ġarch eology
Ġcross ing
58 1
07 5
Ġallen ball
wh el
Ġits elf
49 55
06 35
Ġdes per
Ġover whel
Ġadden sbrookes
77 0
80 3
44 66
Ġ0122336 3682
56 5
Ġten sion
Ġve hic
Ġlast ly
Ġ0122324 4955
89 9
Ġfar man
Ġ01223323 178
Ġ01223311 687
stand ing
Ġass oci
Ġ01223307 581
Ġneuro sc
Ġthir ty
Ġresturant s
Ġinc orrect
Ġ017 3
Ġaccomod ate
Ġattemp t
Ġpropert ies
Ġrent al
Ġclient s
Ġcontin ue
Ġmess age
Ġcambri ge
Ġsec ure
Ġ01223365 599
Ġrela x
Ġvehic le
Ġassoci ated
Ġneurosc ience
1 661
5 29
5 170
6 58
9 78
b ul
f rame
g an
h k
l r
p ite
s code
u o
v k
w g
x u
y j
y w
z d
Ġa id
ra te
Ġp y
Ġn a
or d
Ġl ine
Ġl ines
ri ve
an cy
Ġwi ld
ent erology
ere an
Ġde ter
Ġta lking
Ġtime frame
Ġco vered
Ġpo scode
Ġo cc
for mation
30 9
Ġu q
Ġ01223 69
Ġ01223 413
Ġun li
iz ed
Ġeat s
li ke
Ġ07 2
Ġ07 79
Ġfa bul
29 2
88 13
39 3
39 42
Ġcla ssy
41 87
90 63
Ġ0122335 3942
Ġdes pite
elle d
Ġ0122336 2054
Ġfi x
Ġx m
Ġtou ch
Ġwee ks
Ġsw itch
Ġ012239021 16
Ġerit erean
Ġrobb ery
Ġ01223366 552
Ġrefer nce
Ġchild re
Ġabo ard
Ġsight se
Ġsatis fy
Ġresearch ing
Ġgastro enterology
Ġreccomend ation
Ġ012 45
ari ly
Ġdeter m
Ġ0122369 4264
Ġ01223413 000
Ġfabul ous
2 286
4 765
9 45
a ed
e z
f p
g b
h d
k b
t j
u v
x o
Ġy h
Ġf r
nd om
sta urant
Ġd oubt
ve s
th op
Ġat mo
ro logy
Ġ4 50
it ions
Ġra ndom
Ġwa st
Ġex pen
Ġint ri
Ġor thop
for m
45 0
Ġu k
Ġu rology
Ġj z
Ġj ord
Ġgreat ly
12 1
Ġser ious
Ġind oor
11 7
Ġ07 1
Ġ07 58
Ġ07 46
sp here
Ġplan ned
35 53
88 71
27 7
46 51
19 97
Ġmed ium
Ġz b
36 8
44 7
78 50
28 00
Ġ0122330 8871
26 94
Ġdet ail
100 6
Ġtrans p
223 2
Ġret ur
Ġtour s
Ġ01223354 755
Ġcamp uses
Ġpropert y
Ġ01223306 306
807 0
Ġ0173 3553
Ġdeterm ine
aed ics
Ġatmo sphere
Ġorthop aedics
Ġjord ans
Ġ01733553 355
3 17
3 456
a o
b ridge
c f
c ely
d ge
d ated
i se
k p
m edi
n ight
q j
q v
w j
w ell
re g
Ġp rom
Ġy a
Ġf l
Ġf our
Ġb i
Ġb oo
Ġd j
Ġre port
Ġre sol
ot ic
Ġm q
Ġli ked
Ġca su
Ġar r
Ġti ll
Ġra ge
Ġra il
Ġlo l
Ġpar don
Ġex otic
Ġpo sitive
Ġgo sh
Ġnorth end
Ġad vice
Ġni cely
15 37
45 8
Ġj n
Ġwed s
Ġ07 69
29 00
10 2
10 5
59 49
Ġ0122333 89
Ġ0122333 2900
28 3
28 26
Ġte usday
Ġaw w
Ġva cation
76 10
Ġdis cu
99 00
Ġvict im
Ġarchitectura lly
Ġmeant ime
sse d
Ġcorsi can
Ġ012233348 98
Ġperi meters
Ġuh m
Ġ0122346 4550
Ġconne ction
Ġspecializ ing
Ġgl itch
Ġful fi
817 6
Ġpat ience
Ġadvent ure
Ġrece ive
978 1
medi ate
Ġcasu al
Ġ012233389 01
Ġdiscu ss
1 08
2 000
4 235
4 216
6 163
9 016
c s
d ed
h ood
k z
r ing
s g
s n
s z
y o
Ġ ur
Ġ qq
Ġa while
st on
Ġth re
Ġc ust
Ġy ep
at o
Ġb es
on ven
Ġre comend
Ġin p
Ġ1 23
Ġg one
mb ridge
es bray
Ġli fe
Ġne e
Ġof fice
ct ed
Ġnot e
al ble
Ġran ked
Ġco nd
Ġsu sh
00 60
30 906
Ġpost c
12 13
comm unic
Ġ7 6
Ġ7 7
Ġshould n
Ġgood ness
Ġ18 8
Ġ012233 30906
Ġup dated
Ġchurch hill
Ġnice st
Ġ07 77
Ġ07 56
58 59
24 32
07 18
Ġfun k
54 84
Ġcityroom s
48 1
77 55
78 46
25 34
Ġgu ys
Ġbotanic al
Ġ0122324 99
Ġ01223358 899
Ġbarn well
76 1
69 71
Ġdis like
Ġdis reg
Ġgla ston
om er
Ġmis communic
Ġlow est
Ġ01223354 679
Ġinqu iring
Ġ34 35
Ġ012233550 12
Ġinc onven
Ġmisunder standing
Ġspecializ es
Ġintend ed
Ġcelebra ting
Ġwan na
Ġavai alble
107 9
clo ck
Ġboast s
Ġcust omer
Ġsush i
Ġ012232499 55
Ġdisreg ard
Ġglaston bury
3 005
3 211
6 595
8 495
b x
f h
f j
j we
k h
m k
p c
p i
s k
s ine
v ely
z u
Ġt j
Ġa y
Ġa z
Ġa ges
Ġi g
nt ly
Ġc it
Ġs ent
Ġs na
Ġis nt
Ġresta ru
Ġg oo
Ġof ten
ro y
Ġcent ere
la nt
Ġwa lk
Ġ0 0
Ġsu ey
Ġ3 00
Ġint he
ir oom
Ġad vi
Ġloc ale
ic ally
Ġwe t
ai led
Ġsunday s
Ġ15 0
Ġsi ster
Ġ14 3
Ġcu sine
Ġv al
Ġstan stead
fort able
24 6
17 50
Ġkind a
50 6
Ġfew er
10 6
Ġspor ting
01 88
39 48
46 2432
59 79
Ġcla ss
20 61
19 9
16 12
Ġcom fortable
id es
Ġ22 6
49 69
Ġback wards
Ġvie w
Ġunsu ccesful
Ġ0122330 2800
34 12
Ġve gan
Ġconsi ste
Ġappreci ated
Ġq a
Ġq k
Ġ01 462432
Ġhear ing
Ġforg otten
Ġspecial s
Ġinj ury
Ġmean s
Ġmis sed
Ġwho a
500 9
Ġhundred s
Ġclin ical
Ġhost el
958 9
Ġban k
Ġaly esbray
557 0
Ġpeterbour ough
Ġunli sted
Ġtransp lant
Ġfulfi ll
Ġbes ides
Ġinconven ience
Ġcit iroom
Ġrestaru ant
Ġ01462432 565
Ġcitiroom z
2 59
3 58
6 29
6 18
6 357
8 27
9 88
c d
d n
e ps
f x
g ical
i ly
i gin
l oring
q m
s m
u rious
w re
Ġ, <|
Ġw s
Ġp z
Ġh t
Ġy iu
Ġb on
Ġl x
Ġd an
Ġre sa
Ġs g
Ġs n
Ġs q
Ġin si
th day
Ġg ott
ro can
Ġpe ace
Ġple se
Ġany place
Ġatt a
Ġty po
Ġra d
Ġlo st
Ġco zy
Ġst ra
Ġst un
ut c
Ġor igin
Ġo b
Ġo e
30 3
Ġe t
15 18
45 4
Ġpart ial
23 9
Ġ01223 25
Ġ6 00
lo v
21 45
Ġbir thday
Ġcine me
Ġunfortun ate
Ġ07 07
Ġ07 39
Ġash ely
Ġexp loring
60 53
52 2
Ġpa rent
01 89
27 75
46 98
59 41
Ġz m
Ġfin ally
36 3
38 9
38 44
77 13
Ġ0122336 7755
mp a
res sive
70 30
Ġx y
Ġmegh an
Ġva ries
73 49
Ġbla st
63 34
Ġsur gical
149 3
sj z
Ġ0122321 73
Ġcatch ing
Ġmor rocan
Ġexhib its
05 23
05 32
611 0
Ġfo nd
Ġreal istic
Ġreal ized
Ġlux urious
Ġclear ly
Ġfoll ow
Ġinc re
Ġhand ful
Ġhand ling
Ġrestaraunt s
Ġimp ressive
212 5
Ġ01223306 283
Ġwou dl
Ġthru sday
Ġumm m
Ġcompa red
Ġecon om
808 0
Ġrelax ing
Ġchildre ns
Ġresol ving
Ġdan cing
Ġresa urant
Ġgott a
Ġpeace ful
Ġstun ning
Ġparent s
1 15
3 77
4 20
5 390
7 06
7 803
8 662
8 167
c j
c x
d dle
e ing
f z
g v
i de
k g
m j
p u
q l
r c
s b
s ely
t d
t un
t ory
y g
el s
Ġc y
Ġc en
Ġp d
Ġp ie
Ġp hy
Ġh q
Ġh ook
Ġh es
Ġh ang
Ġf ish
at in
Ġn ature
oo t
or ford
or ding
Ġd b
ot u
Ġs d
Ġfor ty
Ġfor tun
Ġresta u
Ġresta ur
Ġrestaurant s
Ġdo able
Ġhave a
Ġle g
Ġpe t
Ġany th
Ġany ways
Ġguest h
Ġel ab
Ġco des
Ġno ddle
Ġst ri
Ġst orford
Ġo s
Ġsh ops
Ġsh oot
Ġj m
23 79
12 6
Ġse ve
Ġ8 7
Ġ6 5
Ġavaila be
Ġ13 30
Ġmi x
Ġ07 35
Ġ07 99
58 74
24 1
Ġcost ly
ti h
Ġwo ld
29 41
Ġclo sely
40 9
60 3
27 30
Ġlat ter
Ġset ting
19 6
16 72
Ġtravell er
48 59
36 5
38 3
38 39
80 17
Ġrea der
56 77
Ġ0122330 7030
79 28
53 58
ora te
64 88
str u
Ġva can
Ġamen ity
ira tory
Ġdis co
Ġnecess arily
Ġglad ly
Ġcharge d
Ġarran ging
Ġbelie ving
Ġ01223366 668
85 33
95 33
566 2
Ġresp iratory
Ġform al
Ġlie cester
Ġdisc ount
Ġinvolve s
Ġfu ssy
Ġtaste s
657 8
Ġfoc us
Ġacc ording
719 5
Ġinf usion
Ġsightse eing
Ġelab orate
5 40
6 247
6 193
9 493
9 102
a king
a ger
e se
f q
f v
f re
k r
l w
l ur
m ed
n c
p ounds
t it
t ical
u de
v g
w z
x z
y p
z r
Ġt at
Ġa o
re y
re nce
Ġi ve
ou th
Ġp h
Ġh f
Ġh it
Ġh is
nd id
Ġn ed
Ġb ound
Ġb bq
Ġs on
Ġs op
ar k
ave s
Ġdo ct
ation al
Ġ2 41
ut t
00 31
Ġe p
Ġadd miss
Ġinter mediate
Ġj c
Ġgreat er
23 1
Ġent ered
Ġsat ru
Ġman ager
Ġ6 1
Ġr r
Ġr ound
Ġ12 0
Ġcri tical
Ġ21 4
Ġv ic
Ġ9 7
Ġsp lur
Ġ07 60
Ġ07 54
17 55
Ġhospital s
07 97
Ġfa x
Ġqu ie
66 6
29 29
40 6
Ġbelf rey
60 60
Ġright y
46 79
32 57
Ġlocal s
Ġz j
90 4
09 19
am g
38 6
77 34
80 42
18 19
18 28
25 12
56 86
Ġ# :
Ġyu p
70 57
Ġtourist y
76 2
Ġ01223353 88
Ġrout es
99 33
Ġrec commend
Ġoffering s
Ġclari fication
47 24
74 30
Ġ0122357 7786
Ġsupp ly
Ġdire ction
Ġselect ed
95 57
Ġideal s
Ġexample s
Ġsele ctions
Ġrefer ral
zl r
Ġlimit ed
493 131
Ġmoderat ly
Ġneighbor hood
Ġfer ret
Ġoverwhel med
Ġneuroscience s
529 8
Ġ01245 493131
Ġadvi se
Ġsatru day
0 467
0 209
3 782
3 404
4 88
5 331
6 77
6 105
8 09
8 265
c cer
d ent
e q
f it
h le
i sit
i ww
m d
m q
n p
n ic
p ical
s li
u ght
w ad
y t
z uy
Ġt d
Ġt g
Ġt p
Ġt rian
nt u
ra int
Ġc e
Ġh ea
Ġf li
at urant
Ġb lo
Ġl n
Ġd k
Ġd x
Ġd it
ri e
an ia
le v
Ġis cb
Ġbook s
Ġ1 12
Ġg z
Ġca ught
Ġty pical
Ġ4 1518
Ġguest ho
it ing
Ġra ve
Ġso ccer
Ġsu ite
Ġpo cke
Ġmu sli
Ġsome wh
23 4
12 5
Ġr q
Ġro ck
Ġdif fic
Ġ10 2
qu isit
Ġact ing
Ġ9 2
21 3
Ġsee n
11 08
Ġid ent
Ġ07 15
Ġ07 12
Ġ07 27
Ġ07 49
Ġ07 57
Ġsearch es
Ġarchite cht
Ġplan ing
07 74
29 65
01 92
27 71
39 5
46 25
46 26
Ġres aturant
32 2
43 29
Ġ0122335 6060
06 86
Ġsc rea
Ġdes ig
Ġer ania
57 2
57 13
Ġrest raint
44 47
18 30
18 73
25 30
28 40
Ġfitz roy
Ġbl ow
Ġcorrect ly
Ġuse ful
Ġbel fast
14 72
Ġ30 2
Ġcott age
69 39
94 45
Ġregard s
Ġmor den
Ġfact or
ig n
85 30
Ġ0122327 618
83 14
Ġconven ience
Ġ01223300 552
Ġdeal s
Ġoper ate
Ġkid ding
Ġpull s
rl m
Ġ0122346 1661
gu ing
Ġhand y
Ġfu nds
Ġfill s
Ġallow s
709 2
Ġfore ver
989 2
Ġsli ght
Ġdesper ately
Ġintri guing
540 1
Ġguestho mes
Ġpocke t
Ġmusli m
Ġsomewh at
Ġarchitecht ure
Ġscrea ming
Ġdesig nation
Ġ0122327618 2
0 357
3 240
3 158
5 504
7 299
9 77
9 70
9 263
a fe
a rant
a cial
b ster
c n
d u
d vi
f ly
f act
f zc
g j
h ave
h rs
i or
j n
m h
m ain
n us
n own
q i
s in
t ance
u z
u vd
v z
v is
y u
Ġa rive
Ġi l
Ġw rite
Ġp ath
Ġf g
Ġf il
Ġl q
Ġd h
Ġre nown
Ġm c
of acial
Ġis su
Ġresta uarant
ie st
bel led
Ġtrain ing
es p
Ġli ar
Ġli ter
est er
ll ofacial
ent y
Ġle ich
Ġle cester
Ġch at
Ġbe e
Ġde ma
it ate
Ġlo bster
ind ian
estin al
ut es
Ġad mit
ver se
xi llofacial
Ġo ral
30 87
Ġe ight
Ġsh are
Ġinter sted
Ġea s
ai ling
Ġser vers
Ġ01223 59
Ġma xillofacial
Ġ11 8
Ġ12 23
Ġop itions
sit ies
Ġdif fer
Ġ14 0
Ġintere net
Ġ18 9
Ġ012233 3948
Ġ20 6
Ġ20 17
Ġv r
Ġcon ference
Ġ07 09
Ġuniver sities
Ġplan e
Ġgon na
24 9
17 09
07 43
07 55
07 76
ssi ble
Ġwo nt
66 7
66 28
Ġnear ly
29 39
29 74
Ġla belled
Ġrequest ing
Ġbelf y
88 24
Ġclose t
54 13
59 53
32 8
Ġap reci
Ġexc ur
Ġz n
Ġaut o
Ġim po
49 77
49 75
48 3
mo der
36 00
Ġopen ed
fy q
55 58
Ġvisi ts
int estinal
13 42
56 2
79 35
Ġpara ce
bill ary
68 34
Ġtw ice
Ġtw enty
73 60
69 54
69 82
67 4
Ġhu ge
86 36
Ġunder stood
37 20
37 36
ft a
62 26
Ġ01223350 106
fl x
Ġ01223324 351
Ġmis read
Ġrestuarant s
Ġtre ating
Ġrefer ring
Ġfinish ed
Ġcro ssed
Ġ01223359 506
Ġhur ry
Ġattemp ted
Ġregion al
Ġprior ity
bour n
Ġgastro intestinal
Ġful bourn
Ġcelebra te
879 2
Ġhep ato
839 9
945 2
Ġpostc ard
827 2
Ġinsi st
Ġet rance
Ġincre ase
Ġhes itate
Ġrestaur nt
Ġdoct ors
Ġslight ly
Ġpath ological
Ġrenown ed
Ġissu es
Ġliter ally
Ġleich ester
Ġdema nds
Ġadmit tance
Ġeight een
Ġ0122333948 5
Ġapreci ate
Ġimpo ssible
Ġhepato billary
1 159
3 38
4 12
4 494
4 604
6 54
7 309
8 57
8 26
8 63
8 202
9 083
b od
d m
e o
f m
f r
f u
f bu
f gd
g cy
g round
h m
i b
i o
j my
k ely
k cv
l p
m tl
q t
v rv
y z
Ġ ou
Ġi r
Ġc t
Ġw j
Ġw v
Ġp f
Ġh z
Ġf ast
Ġf ff
Ġf rill
at al
Ġb t
Ġb z
Ġb ay
Ġb um
Ġl k
sta rs
Ġre side
Ġre lev
Ġs b
Ġm r
Ġm t
co mi
Ġ1 15
th j
Ġg j
Ġg dp
Ġg xq
Ġli ed
Ġwi l
Ġsta ges
ll ars
Ġdo llars
Ġthere s
Ġar ti
Ġta mpa
Ġ4 00
al our
Ġnor m
00 085
00 005
Ġloc k
ly l
30 43
Ġe ve
Ġj ig
ell ing
ic ke
Ġmuse ms
Ġk p
Ġk z
12 0
Ġtravel ers
Ġtu es
Ġafter wards
ca e
ca p
Ġvi ce
un iver
Ġac comi
iz a
Ġv c
Ġ9 1
Ġche ers
Ġcontact ed
Ġair pl
Ġ07 17
Ġ07 08
Ġ07 06
Ġ07 74
club s
66 92
29 50
29 69
Ġevery bod
35 44
10 9
10 39
54 65
01 41
41 61
Ġag ree
90 9
90 20
Ġcountry side
Ġchar ming
48 49
06 80
06 37
36 85
Ġsuit es
28 63
Ġdesc ri
26 9
Ġfi xed
53 43
Ġmention ing
89 13
Ġtechn ical
14 7
14 12
Ġq g
76 3
Ġ28 00
Ġdat a
4646 46
67 45
Ġcomp are
86 10
Ġerror s
Ġ012235 00005
Ġclarify ing
96 11
82 24
Ġrecor d
Ġver sa
lf riend
Ġgir lfriend
Ġdepend ancy
03 15
Ġqual ities
Ġsca le
Ġmis in
zc bl
Ġfig uring
Ġconvenient ly
Ġsqu alour
Ġsuper vis
Ġgi ft
zk d
bi fd
Ġlive s
hq d
Ġodd ly
Ġsatis fied
146 5
Ġ12233 16074
wa oz
Ġib iza
Ġmusue m
Ġocc up
lov ell
Ġ012232173 14
706 2
Ġsplur ge
fgd re
kcv thj
Ġfff w
Ġfrill s
Ġrelev ant
Ġgxq zcbl
univer sity
Ġaccomi d
Ġairpl ane
Ġeverybod y
3 11
3 194
3 602
4 39
5 365
6 167
7 17
7 276
7 447
8 58
8 41
8 705
8 361
8 199
8 762
9 082
e bg
f a
g un
h cw
h istic
i os
j w
l st
q r
q x
q am
r m
s ce
s urgery
u nd
u cr
w p
x ah
y a
z tn
z vm
Ġ ul
Ġt b
Ġt ep
Ġa mb
re l
Ġi v
Ġth er
Ġth ier
Ġc ert
Ġc ult
Ġw p
Ġp al
Ġp alan
Ġthe e
Ġh an
Ġy op
Ġf z
Ġf aster
at ter
Ġb s
Ġb v
Ġb other
Ġb oom
Ġb ott
Ġl s
Ġl co
Ġd oor
ri a
Ġs y
Ġs ki
se nt
Ġfor th
Ġg w
Ġg ain
Ġg oon
Ġli vely
Ġca ridge
Ġwh ose
Ġlook out
Ġplease d
Ġ2 64
Ġta sce
Ġlo vers
ss l
Ġwa lle
Ġst r
Ġst uck
Ġst ran
Ġpre su
Ġab d
00 32
Ġby art
Ġe th
15 84
45 9
45 49
Ġsh ortford
Ġu e
Ġu j
Ġu mber
Ġsure ly
vi ded
12 9
Ġlea ver
Ġse n
Ġdi vided
Ġhas n
Ġper fre
Ġcriter a
Ġac qu
gge d
Ġbar rel
fo d
Ġv k
21 64
Ġbro xb
11 44
Ġ07 00
Ġ07 45
Ġ07 24
Ġ07 50
Ġ07 59
Ġ07 19
Ġ07 78
Ġ07 26
Ġ07 89
sp lt
17 91
07 21
50 42
50 56
Ġrequ iring
66 5
08 9
35 96
Ġclose by
Ġwhi lst
27 55
27 04
46 8
20 52
19 23
43 8
43 34
Ġtur ns
su q
16 8
16 88
09 45
09 96
49 8
Ġpr otu
Ġ33 4
Ġsc atter
57 8
57 20
Ġluck ily
Ġadden brook
Ġdin er
42 12
38 0
Ġke eps
77 6
Ġbrasser i
Ġrea staurant
Ġ0122336 50
18 98
18 92
25 3
Ġrid es
79 2
33 30
33 71
Ġdet ailed
ga c
Ġbus y
89 32
Ġq ji
63 10
98 35
99 56
Ġhu ts
47 57
37 45
37 32
Ġshort est
Ġdu de
74 20
31 38
04 27
Ġbo ss
Ġbo xbourne
85 19
Ġcrui ses
Ġput ting
sw x
Ġret ain
cr n
Ġpleas ant
Ġes m
book ed
Ġneuro surgery
ni ghts
Ġcle an
mf r
Ġrate ing
Ġpla st
nv l
vf a
Ġ01223338 100
Ġtalk ed
Ġ012235033 3
Ġattemp ting
pw j
Ġboard ing
Ġcomplex es
868 5
250 3
754 2
400 3
Ġhep atology
Ġmusue ms
Ġfour teen
Ġinp ut
Ġmiscommunic ation
Ġlocale s
Ġconsiste nt
988 6
Ġorigin al
Ġstri ke
Ġvacan cy
Ġsop histic
Ġaddmiss ion
Ġquie ter
Ġdit tion
Ġkp fta
und ant
xah u
Ġtep in
Ġcult ure
Ġpal ce
Ġpalan ce
Ġyop u
Ġbott om
Ġski mp
Ġwalle t
Ġstran ge
Ġpresu me
Ġacqu ire
Ġsophistic ated
0 363
3 18
7 245
8 00
8 48
8 36
8 151
9 904
b m
e b
e ci
f b
h at
h ich
i at
j r
k j
k ip
l in
l hi
m of
m ps
n ook
n amg
q k
s ll
s ult
t is
u ct
u sted
u dd
v jp
x r
y n
y mc
Ġ xi
Ġ xb
Ġt s
Ġt z
Ġt ar
Ġt mo
Ġa i
Ġa ction
Ġi k
er ing
er sp
er atin
Ġth ak
ra bly
Ġc q
Ġc eratin
Ġp g
Ġp age
Ġp sy
Ġh dt
Ġy v
Ġy or
Ġf d
Ġf lu
Ġf id
at form
Ġb nook
Ġl g
sta rt
Ġre ese
Ġs v
Ġs mi
Ġs kip
Ġm ot
Ġm other
Ġm ailing
ve g
end ed
Ġ1 000
th ur
Ġg k
Ġat ra
Ġsta mps
pe tit
Ġdo e
Ġca sh
Ġca bs
Ġwh ee
Ġon ward
Ġcent e
Ġch ip
si s
la c
la sian
Ġti ger
Ġwith ersp
ch iat
Ġal ert
Ġ0 11
ut ish
fi l
Ġas ain
30 1
30 55
Ġe ns
15 49
15 34
15 75
ul ance
Ġsh ab
Ġsh own
ic y
Ġwe have
Ġlea s
Ġtravel er
Ġprefer rably
Ġdi stra
Ġdi verse
Ġ8 1
Ġ6 23
Ġind eci
lo se
Ġavaila bi
Ġmin i
Ġmin im
Ġpool way
Ġv f
Ġv o
21 30
21 82
Ġsp elling
Ġsp icy
Ġcon sult
Ġste p
Ġnorw hich
Ġcontact s
Ġpl atform
val s
Ġ07 36
Ġ07 55
Ġ07 44
Ġ07 63
Ġ07 96
Ġ07 03
Ġlong s
Ġfir m
24 71
07 7
66 07
66 97
Ġhead s
Ġseat ing
52 66
32 12
lti y
19 58
41 34
Ġz l
Ġz oo
Ġz ule
90 62
Ġcom petit
09 53
49 7
48 13
48 61
06 38
Ġour s
Ġsc rat
57 11
57 97
51 4
77 27
80 26
28 23
56 94
Ġgu ide
Ġgroup on
33 43
70 20
Ġx n
Ġx r
Ġconsi st
gy c
iv ity
Ġplay ground
Ġq h
Ġoff ensive
76 56
Ġ37 5
67 41
99 69
87 14
37 35
Ġdu cking
Ġsurprise d
vo q
Ġrevie w
cent re
Ġbo x
my l
Ġbr utish
pd t
Ġcanc elled
jm t
Ġdisc lose
Ġbring ing
Ġdisappoin ted
xc d
Ġrestraunt s
Ġconnect ivity
212 9
817 7
Ġban kok
879 9
754 8
829 0
938 3
Ġmod rate
466 9
319 0
Ġpain t
658 3
Ġserious ly
Ġretur n
Ġretur ned
Ġval u
Ġht els
Ġbon us
Ġob vious
Ġcen re
Ġphy sic
Ġanyth ign
Ġdisco vered
Ġident ify
Ġpocket book
Ġdiffer nt
moder ate
Ġmisin formation
Ġamb ulance
Ġlco ated
tis ux
udd ov
Ġtar get
Ġtmo v
Ġthak s
Ġpsy chiat
thur sday
Ġwithersp oon
Ġens ure
Ġshab by
Ġdistra cted
Ġindeci sive
Ġavailabi ltiy
Ġminim um
Ġzule u
Ġcompetit ors
Ġscrat ch
Ġpsychiat ry
' '
0 24
0 121
2 292
3 390
3 765
4 170
4 351
5 17
5 159
6 368
6 386
7 58
7 213
7 578
8 13
8 241
9 80
9 178
9 276
b ry
c ine
c ian
c ity
c qw
d own
e i
e nce
f k
f w
f riend
g ne
h p
h wc
i w
i ment
j ww
k house
l g
m ic
m nu
m jc
n rt
o h
o ndoo
o il
p lug
q hz
s oo
s ve
t m
t oy
w ch
w ah
w ka
w fn
y d
y m
y rx
y zl
Ġ ough
Ġa ge
Ġa en
Ġa cade
re ction
Ġi j
Ġi mm
Ġi ron
er ine
ou x
nt tr
el p
el ves
ra ble
Ġc p
Ġc z
Ġw tih
Ġh h
Ġh y
Ġy b
Ġy rip
Ġy elp
Ġf t
Ġn s
Ġn oo
Ġn ad
Ġn yp
Ġb d
Ġb oy
Ġb zx
Ġl p
Ġl w
Ġto ay
Ġd d
Ġs ia
Ġm d
Ġm p
Ġm on
Ġm uti
se y
Ġhot e
Ġin stru
Ġresta rant
ld q
Ġbook m
th u
Ġg c
Ġg go
Ġca ndid
ro lls
Ġle ase
Ġcent r
Ġti ps
Ġdep ature
ch ine
Ġta ondoo
Ġty ping
wn x
Ġ4 80
Ġra in
ur ous
gh n
ble d
Ġnot ch
Ġrange d
Ġco llage
Ġst b
ut f
ut ton
Ġgo d
Ġgo den
Ġab undant
00 94
Ġas sit
Ġas ap
30 7
30 76
Ġe u
Ġe w
Ġe z
15 42
45 1
45 06
Ġge m
Ġu c
Ġu z
Ġinter ned
Ġj d
Ġj jwe
Ġk l
Ġk sh
Ġk hb
vi ly
Ġthur day
Ġthursday s
Ġ15 00
Ġ15 45
Ġwhere as
Ġma chine
Ġ6 7
ia v
lu ar
Ġr g
Ġun plug
Ġper fer
Ġ14 14
Ġbed s
Ġbed room
Ġ10 7
un g
un ity
Ġpartic luar
Ġspe aking
Ġ012233 4900
ma de
Ġv m
Ġv zf
21 7
21 8
21 9
Ġsp oil
Ġup on
Ġnorw ay
Ġpl cae
Ġmar vel
Ġpick s
ue se
Ġcine man
Ġ07 40
Ġ07 52
Ġ07 98
Ġ07 72
Ġ07 93
Ġ07 97
Ġsearch ed
Ġcar s
Ġgar bled
07 1
07 6
Ġpizza ria
66 45
66 98
29 7
35 6
35 77
60 5
54 33
54 76
Ġhe bf
Ġpa cking
01 3
01 23
46 9
46 80
uck s
Ġgra bb
19 78
Ġconfir ming
Ġz z
Ġz sd
16 9
16 56
09 22
Ġcor khouse
Ġcor rection
Ġwarkw oth
Ġchange s
48 24
Ġhome made
Ġsend ing
51 08
38 47
80 54
18 54
18 27
18 79
13 16
25 21
Ġsa w
56 9
Ġcomm unity
34 7
Ġtimes lot
33 7
33 42
use d
26 8
26 21
zz i
22 57
53 1
Ġbu ff
Ġx g
Ġx xx
per son
64 77
Ġpunt i
Ġq x
76 78
Ġjama cian
63 12
Ġref rence
98 23
94 60
86 59
37 30
Ġarrange d
96 29
96 44
31 30
02 01
up u
93 45
ig s
Ġcath erine
Ġcra zy
85 10
Ġexper iment
ag g
Ġret rie
wy iu
zc f
566 9
Ġbr other
lj ghn
Ġthir d
Ġyear s
vh w
edi ately
Ġpu ts
843 1
Ġsm art
ov a
oe ik
jq m
Ġ01223360 409
01223 358
01223 464646
Ġdecis ion
Ġdrin k
rn m
Ġegg rolls
Ġsitu ation
Ġfoc used
Ġadvent urous
Ġcover ing
237 27410
Ġbasic ally
658 5
Ġxm cht
Ġexpen sve
Ġprom pt
Ġsent ence
Ġrestaruant s
Ġlx mfr
Ġfortun ately
Ġrr nttr
Ġvic inity
Ġhea vily
Ġblo cks
977 5
fly wy
Ġbz iav
717 7
Ġ011 23727410
Ġours elves
gne b
soo pr
toy zuy
wah k
Ġough t
Ġacade mic
Ġimm ediately
Ġnad os
Ġboy friend
Ġsia gon
Ġmuti ple
Ġinstru ctions
Ġcandid ates
Ġtaondoo ri
Ġjjwe o
Ġkhb ljghn
Ġmarvel ous
Ġhebf pw
Ġgrabb ing
Ġretrie ve
01223358 966
Ġlxmfr zlr
0 277
1 662
1 395
2 07
3 12
3 293
3 450
4 194
4 202
5 19
5 389
6 55
6 210
6 387
6 763
7 293
7 604
7 075
8 45
8 604
9 202
9 802
9 404
a av
b roke
b code
c sa
c ln
d uf
e ms
e ological
f hh
g ns
g ob
h w
i wl
j na
k so
k cy
k vo
k bz
l bs
m end
m where
n bw
o nd
o den
o xq
p ad
p ax
p ark
r wf
s fs
t le
t est
t ered
t dx
v a
v ir
v pa
v nh
v sd
v kt
w se
w kv
w bn
x n
x fy
x tu
y i
y v
Ġ ould
Ġt emporary
Ġa x
Ġa commod
Ġa im
Ġi o
Ġi am
st y
ou mg
nt s
Ġw on
Ġw gu
Ġp n
Ġp q
Ġp v
Ġp ur
Ġh c
Ġf k
Ġf bz
nd ered
Ġn z
Ġn ine
Ġyou d
Ġb vd
Ġb uses
or ge
Ġl j
Ġl on
Ġl dy
on ment
Ġto do
Ġd g
Ġd ie
Ġd ance
Ġd rea
Ġre co
Ġre ver
Ġs ick
Ġm h
ook ing
Ġhot test
ed xfy
th ent
Ġg a
Ġg s
Ġg am
Ġg orge
ke n
Ġli kely
Ġwi pp
Ġsta urday
Ġne eed
Ġcan bridge
Ġca lc
Ġit ala
Ġit ems
op ok
Ġatt rib
Ġfood ie
Ġ2 1223
Ġ2 66
Ġta sty
Ġty oe
Ġ4 14
it ude
Ġra ter
Ġra ise
Ġlo ad
Ġwa ndered
Ġran g
Ġso mwhere
ter y
Ġno me
is ion
Ġst ress
ir g
ir do
Ġpo sh
Ġad ult
xi w
Ġloc ally
Ġ5 25
fi i
Ġe pensive
Ġe gy
Ġe qn
Ġe opok
Ġadd ed
15 7
15 96
mm v
Ġpost bcode
45 94
ul ates
Ġu b
Ġu kt
Ġget away
Ġj q
23 57
23 34
Ġwe irdo
Ġk ci
Ġk vv
Ġk igs
Ġent ra
Ġdoes n
Ġse pa
Ġcb agg
Ġcb ooking
Ġind ic
Ġr vsd
Ġro les
tion s
Ġ16 8
ak fzc
Ġper form
Ġmy ster
Ġrating e
qu u
Ġspe ed
Ġmin ton
Ġeuro logy
Ġacorn s
Ġarch eological
Ġnew est
Ġv ision
Ġste ep
Ġbro wse
pp ed
11 4
11 80
Ġbir d
Ġbir min
Ġnow here
Ġdid nt
li ed
Ġassist ing
Ġunfortun at
Ġ07 23
Ġ07 21
Ġ07 10
Ġ07 48
Ġ07 42
Ġ07 18
Ġ07 37
58 67
tw a
Ġuniver ist
Ġfirst ly
17 56
17 65
17 04
07 34
ti k
Ġswimm in
66 26
66 75
29 52
29 19
08 4
35 9
35 15
Ġus qhz
40 68
Ġcou sin
88 73
60 66
60 16
Ġhe ctic
Ġpa pad
Ġlot tery
01 46
01 68
27 5
Ġgra fit
Ġap art
43 3
Ġlove s
bra ined
90 5
90 39
09 95
Ġfre es
Ġnoth ern
48 28
06 3
Ġen vir
Ġah ve
57 54
57 47
57 37
Ġrest ru
Ġbra h
Ġbra oden
36 77
51 1511
42 66
55 07
55 67
38 10
77 59
77 06
Ġold er
18 17
Ġandre s
13 39
78 9
25 19
ah m
Ġali gns
28 60
28 54
56 91
za ft
Ġsystem s
26 2
zz gl
dy ing
Ġ79 7
Ġx p
Ġx fd
89 35
Ġstandard s
Ġq b
Ġpass code
76 9
Ġhappen ing
Ġjun ior
Ġlan ken
Ġ28 28
Ġconsider ation
69 98
84 66
84 20
cid csa
98 39
98 76
87 30
bj b
po pean
sj y
Ġstro ll
72 23
Ġpic nic
96 35
96 41
Ġau thent
04 15
Ġexhib it
02 12
05 59
Ġ0122345 4550
97 32
Ġ0122327 42
Ġ0122327 4680
Ġext ended
qy oumg
my g
dd te
fd bjb
Ġtre mend
Ġpla nts
vm x
vy r
ih at
vf v
ew q
Ġstu dent
Ġstu dying
zw vkt
330 4
jq t
Ġbur den
uh jqt
wx esp
807 8
657 2
les bray
Ġmod est
Ġmoderat ley
466 4
dk tik
319 7
Ġsli de
Ġdesper ate
Ġwild est
Ġarr rive
sz j
Ġcond o
Ġstra pped
Ġmeghan a
Ġeconom ical
Ġeconom ically
115 2
Ġrestau ant
Ġseve nty
Ġhf qyoumg
488 7
809 5
Ġfil tered
Ġdh db
Ġvr zwvkt
863 1
Ġdescri be
Ġaccomid ate
Ġscatter brained
Ġstrike s
Ġyor k
Ġmot el
Ġspelling city
Ġobvious ly
Ġaen edxfy
Ġeu popean
fhh no
park side
rwf gm
Ġacommod ate
Ġnine teen
Ġlon ely
Ġtodo ay
Ġdie ting
Ġdrea ms
Ġrever sed
Ġgam es
Ġgorge ous
Ġwipp gg
Ġcalc ulates
Ġitala in
Ġattrib utes
Ġ21223 511511
Ġegy y
Ġeqn ky
Ġeopok ff
Ġukt vt
Ġkci wxesp
Ġbirmin ham
Ġuniverist y
Ġusqhz nbw
Ġpapad oux
Ġgrafit ti
Ġenvir onment
Ġrestru arant
Ġauthent ic
Ġtremend ous
Ġstudent s
' m
0 29
0 32
2 211
3 246
4 40
4 294
4 322
5 58
5 234
5 077
7 28
7 355
8 18
8 69
8 387
8 306
8 522
8 406
8 674
9 17
9 26
9 209
9 246
9 219
a urant
b ery
b ile
b nk
c on
d c
d den
d zz
d jx
d ele
e bn
f pq
g mingham
g ff
g am
g gy
g fl
g pa
h ist
h erschel
i kv
i vals
j or
j ir
j ful
k ar
k pv
m gy
o a
o ve
o le
o ld
o as
o man
p ned
q it
q is
r nd
r fl
r ces
s lf
s zc
t si
t ain
t code
t vyr
u k
u u
u ing
u ic
u hu
v ma
v ft
v sr
v gm
w la
x en
x wh
x lc
x rz
y l
y way
z jf
Ġ `
Ġ nds
Ġt end
Ġa st
Ġa fer
Ġa kf
re quisit
Ġi xe
Ġi cqw
st ish
st cu
Ġth ous
in ation
nt ure
Ġc j
Ġc k
Ġc r
Ġc x
Ġc ct
Ġc kl
Ġw eal
Ġp ops
Ġp ediatric
Ġthe me
Ġh b
Ġh s
Ġh its
Ġh hqd
Ġy i
Ġy p
Ġy y
Ġy ay
Ġy vh
Ġy cg
Ġf est
Ġf rist
Ġf vn
Ġf aves
nd ar
at ient
at ological
Ġn bor
Ġn zp
Ġn mt
Ġb m
Ġb q
Ġb w
Ġb pe
oo p
or ical
or ious
Ġl f
Ġl r
Ġl la
Ġl ies
Ġl bs
Ġl nk
Ġl vt
sta lasian
Ġd l
Ġd w
Ġd ci
Ġd kv
ri bean
Ġre si
Ġre comm
Ġre un
Ġre cent
ook ed
ook sh
le aves
ge d
Ġis herschel
ura te
ar nt
end ent
th y
Ġg f
Ġg q
Ġg dh
Ġg dzz
mb le
ke i
es q
me g
Ġli ving
Ġwi den
Ġwi ki
pe pned
Ġdo ck
Ġca p
Ġca ge
Ġca ff
Ġpri se
Ġpri cy
Ġwh ch
ro gd
Ġon oc
art er
Ġmo vt
Ġbe vm
Ġnu mb
Ġnu sh
Ġlook ng
Ġar con
ree ment
Ġlooking for
la j
la gcy
ea et
ch a
ch ed
ch urch
Ġ2 29
Ġ2 56
Ġ2 662
Ġta g
Ġ4 52
it d
it lz
Ġlo al
Ġwa u
Ġwill l
Ġleave es
Ġex ha
ow r
cer tain
Ġran ger
Ġso cial
Ġsu cks
Ġsu ccesful
Ġst ort
Ġst rip
Ġpo sr
Ġgo int
Ġgo jir
Ġpre requisit
Ġsou rces
ne h
ne ce
Ġo m
Ġo y
Ġo jful
Ġloc ates
Ġ5 00
Ġ5 66
fi ve
ress ing
30 57
30 85
mm pi
45 43
all ing
ul r
ul ty
Ġsh ot
Ġu x
Ġu of
Ġu ms
Ġwest ies
Ġj x
Ġj ot
Ġj gn
Ġcould nt
23 11
23 92
Ġk f
Ġk j
Ġk oo
Ġcolle ction
Ġent ree
Ġthur s
Ġse ated
Ġ15 15
Ġdi lton
Ġma jor
ia ble
Ġind ep
en atal
lu n
Ġr f
Ġr h
Ġr x
Ġr z
oom end
Ġ11 7
Ġun ite
Ġun certain
Ġ17 93
Ġhi dden
Ġ12 2
cess ful
Ġ16 00
Ġho vw
Ġ14 6
ck ls
ck qx
Ġknow s
Ġvi v
Ġ19 5
ite ment
Ġspe ct
Ġspeci fc
Ġmi le
Ġmi les
Ġmin or
Ġnight li
Ġlod on
Ġbri stish
Ġcu ri
Ġarch yway
Ġnew er
fo esq
Ġv w
Ġv as
Ġ9 3
21 18
Ġsp a
Ġlet ting
Ġste et
den so
Ġ09 59
11 9
11 60
11 49
Ġcheck in
Ġbir gmingham
mi ming
Ġ08 00
Ġboat ers
Ġ07 29
Ġ07 01
Ġ07 32
Ġ07 16
Ġ07 13
Ġ07 76
Ġ07 67
Ġ07 86
Ġ07 65
Ġ07 47
Ġ07 263
58 9
58 06
58 63
Ġswi miming
Ġcar ribbean
Ġcar ribean
tt lk
be ib
24 73
24 75
17 6
17 61
Ġqu arter
08 6
ps ulr
Ġhunting down
88 2
88 05
54 2
54 73
Ġhe ck
Ġpossible s
27 8
27 88
39 2
39 76
59 01
59 72
59 02
20 3
20 21
Ġgra te
Ġadmiss ions
Ġadmiss oin
Ġlove d
Ġexc use
Ġexc itement
Ġz g
Ġz i
Ġz p
Ġz cr
Ġz ht
Ġz vft
16 10
90 30
90 25
90 33
09 25
sh k
sh y
Ġconcer ning
Ġayle bray
br m
Ġim formation
49 90
49 92
48 40
mo bile
06 84
Ġhop ital
Ġsc ra
57 70
57 93
Ġover all
Ġover night
Ġover booked
Ġrest ating
Ġbra y
55 17
38 28
77 43
77 63
77 47
Ġinteresting ly
ko q
80 44
Ġold est
Ġmag dele
18 63
Ġant enatal
25 57
28 2
Ġ0122330 1761
Ġcomm it
34 70
Ġve nture
26 1
26 17
26 34
Ġcat ala
zz ny
Ġug pe
Ġwandle bery
oy oas
qq kf
Ġx l
Ġx t
Ġx z
Ġx denso
Ġaw v
Ġsit ting
Ġappe alling
68 33
Ġq my
76 48
73 24
Ġef fort
Ġef ficient
Ġclassi fication
69 3
Ġdis ag
Ġref s
240 2
Ġ01223245 15
ru xd
94 27
bb n
Ġrec oomend
Ġhu mble
Ġ29 29
86 32
86 76
65 17
Ġscudamo re
dp n
Ġbea ch
Ġactiv ites
af sw
af lv
96 78
82 25
Ġau stalasian
pm q
Ġfact ors
04 40
Ġmarys church
Ġ01223312 41
lh uv
ax u
05 45
05 16
up l
93 10
93 60
Ġnorfo ld
92 26
js q
Ġpurchase d
03 78
dw v
bd j
bd neh
hx gl
95 17
qy c
jx k
jx n
jx p
Ġret aurant
zc q
zy m
jf xlc
im g
Ġbr ooksh
px r
ap y
sy t
db za
pd l
rt b
Ġ087155010 1
dd c
Ġresp ond
nk z
nk gs
fd t
gg r
gm ntu
Ġthor ton
Ġlux orious
wk ab
rf jq
vx l
Ġfinish ing
Ġindustri cal
Ġ074 79
nv qd
Ġaccom ad
dh n
kc z
rg dbza
Ġhaem atological
ij iww
km vo
hh s
Ġdecent ly
Ġstev ange
wm d
wm r
sd psulr
lv ha
df jfxlc
pz gff
Ġprior ities
vq l
Ġcong ra
mr shk
Ġgl bnk
hc upl
Ġwou old
Ġtru sday
mn bdneh
Ġdig ressing
Ġcontin uing
200 1
200 6
bc ckqx
Ġju ne
Ġacc urate
tk j
Ġib tn
Ġcw ruxd
Ġcompa rable
sf jm
zi oman
Ġoverwhel ming
Ġocc ur
Ġyh ou
Ġjz xs
317 7
Ġmq rgdbza
Ġrail way
Ġinp atient
Ġmiscommunic ated
Ġaz syt
Ġsna gged
115 6
Ġpie ces
Ġrestau arnt
Ġ0799 89
Ġao xh
Ġph dx
Ġ97 25
md beib
Ġfli ght
Ġdiffic ulty
dvi lhuv
fact s
Ġrestauarant s
Ġeas iest
Ġ0122359 6066
Ġauto mobile
857 5
Ġbum p
Ġarti facts
Ġnorm al
Ġoccup ational
858 5
Ġther apy
Ġgoon a
Ġvk km
Ġaddenbrook s
Ġ012233650 68
swx at
Ġplast ic
Ġai port
Ġvalu ed
980 5
Ġiron y
Ġrestarant s
Ġkl pepned
312 8
818 5
869 9
ebn qr
hist orical
ikv z
mgy yh
rnd ation
zjf z
Ġast ropub
Ġixe zzny
Ġicqw vql
stcu za
Ġthous and
Ġckl foesq
Ġweal thy
Ġhhqd ga
Ġyvh r
Ġycg v
Ġfest ivals
Ġnbor th
Ġlla mmas
Ġresi ding
Ġrecomm rndation
Ġreun ion
endent ly
Ġcaff ee
Ġonoc cl
Ġnush ua
Ġexha usted
Ġstort fod
Ġposr tcode
Ġgojir rq
Ġprerequisit es
Ġmajor ity
Ġindep endently
ckls laj
Ġspecifc ally
Ġnightli fe
Ġvas cular
Ġgrate ful
Ġzvft q
Ġmagdele ne
Ġcatala m
Ġdisag reement
aflv a
Ġbrooksh ite
nkgs n
ijiww q
pzgff t
Ġixezzny l
0 30
0 39
0 57
0 33
0 117
1 42
1 428
2 602
3 237
3 347
4 082
4 117
5 24
5 60
5 39
6 45
6 51
6 71
7 59
7 239
8 50
8 131
8 239
9 18
9 382
9 286
9 522
9 792
a ck
a ue
a ully
a js
b iz
c ion
c fic
c mo
c gy
c ds
c ount
c jz
c jt
d ander
d gy
d tz
d xh
d jl
e pe
e um
e zt
e oj
f fic
g st
g th
g ur
g ate
g ah
g urf
g fn
g jj
g ih
h bg
h pb
i op
i ps
i ko
i jx
i qg
j ky
j uf
j hq
j df
k jk
m and
m ky
m qq
m lj
n re
n wk
o zc
p te
p olk
p uw
q at
q ot
r ry
r um
r ni
r cm
s ame
s ly
s qu
s ions
s mf
s zk
t iz
t able
u es
u ate
u ment
u cu
v so
v ca
v ince
v ga
v vf
v bdj
w ave
x li
x ta
x ob
y b
y nz
y em
y jm
y ac
z te
Ġ nd
Ġ ry
Ġt f
Ġt gf
Ġa j
Ġa ver
Ġa vi
Ġi u
Ġi il
Ġi kc
er ts
er ue
ou g
Ġth usday
in x
in ks
nt sted
nt sy
el or
ra y
ra ct
ra ting
ra ted
Ġc v
Ġc pri
Ġc vw
Ġc xf
Ġc nus
Ġw w
Ġw z
Ġw oul
Ġp oor
Ġp atri
Ġp crn
Ġh l
Ġy g
Ġy q
Ġy wn
Ġy ur
Ġy ah
Ġy sv
Ġf p
Ġf ot
Ġf ora
Ġf kv
nd ca
nd ors
nd tr
at c
at uring
at wave
Ġn l
Ġn n
Ġn v
Ġb end
Ġb ly
oo th
or i
or p
Ġl c
Ġl z
Ġl ma
Ġl jo
Ġl aid
Ġl zl
on one
ing ton
Ġd n
Ġd y
Ġd est
Ġd ea
Ġd jf
Ġd vd
Ġd pf
Ġd ztn
Ġre fere
Ġre main
ot ford
Ġs ly
Ġs lyn
Ġs ample
Ġs ni
Ġm bg
ve st
ve pj
le st
le nta
le ndar
ay lk
ay fn
ge ntly
se o
Ġhot al
Ġhotel ex
Ġin side
ce p
ce des
Ġbook n
Ġtra ffic
ie ster
Ġg m
Ġg v
Ġg al
Ġg as
Ġg vq
Ġg fil
es a
Ġthat res
Ġthat wor
Ġli f
Ġsta ntsted
Ġdo main
Ġdo dgy
Ġca lendar
Ġwh t
Ġan e
Ġan h
ro am
ct uate
Ġle iester
Ġch ain
Ġch ips
Ġpe me
Ġpe nn
Ġbe gun
Ġnu w
si vely
si ove
Ġplease s
Ġany the
Ġstar ters
la in
nce s
ea ir
Ġde mand
Ġattra cion
Ġti tle
Ġdep erts
Ġwith outh
ch s
ch edule
Ġta ll
Ġty hat
Ġ4 63
Ġyour s
Ġhelp p
Ġlo se
Ġwa ll
Ġwa ill
ate n
Ġtime table
Ġex quisit
gh x
Ġal ley
Ġplace s
Ġnot able
house s
pen sively
Ġso ld
Ġco in
Ġsu m
Ġsu prise
Ġ3 45
Ġdestin ed
Ġreference s
Ġst ree
Ġst ates
Ġst inks
Ġpo e
Ġpo lenta
Ġgo ig
Ġcheap ish
Ġpre fe
Ġab ou
Ġni gth
00 17
00 33
00 85
Ġo i
Ġo st
Ġo sa
Ġo yg
lle st
Ġ5 93
Ġmu lt
Ġas pect
30 52
Ġe g
Ġe o
Ġe bl
Ġe aten
15 6
15 67
15 62
45 5
Ġaddress s
ee fi
Ġu y
Ġu uct
Ġea wi
Ġj w
Ġj umping
Ġj pk
Ġj eefi
23 82
Ġinfor ma
Ġwe n
Ġtr qq
Ġaf fect
vi gate
Ġcollege are
Ġrecommend ing
ust rating
Ġse ms
Ġse ctions
Ġse pte
Ġ7 18
Ġsor rry
Ġdi al
ca ping
Ġma m
Ġind if
en rl
Ġr j
Ġr u
Ġr ude
Ġgood night
Ġun rated
lo x
Ġ13 50
Ġ16 10
Ġho le
Ġho gurf
ak cn
Ġknow ing
Ġ19 4
Ġ19 97
qu jhq
Ġspe cfic
Ġ012233 481
Ġ012233 483
Ġspecific ations
Ġ21 0
Ġeuro pe
Ġcu ts
Ġact aully
iz vma
Ġnew com
fo yj
Ġv rn
Ġv yr
Ġv orp
Ġ9 25
Ġ9 73
21 78
Ġsp ark
Ġcon cent
Ġcon stru
Ġcon vince
Ġste ve
Ġste am
Ġentertain ent
Ġche f
Ġbro ke
Ġbro ad
Ġ09 30
bor oq
xb f
xb y
11 88
Ġfe edb
Ġfe aturing
wi k
Ġalex dander
Ġarrival s
Ġ07 11
Ġ07 66
Ġ07 43
Ġ07 73
Ġ07 75
Ġ07 95
24 36
17 4
07 2
07 93
Ġfa xed
Ġfa ult
as g
29 12
29 85
08 13
Ġfun ction
Ġus b
ps d
40 15
10 58
10 90
10 44
Ġear lest
Ġcou d
88 4
88 93
Ġthough ts
Ġclose s
Ġchest ert
oodle s
60 34
54 08
54 96
Ġhe atwave
Ġpa ces
01 84
39 22
46 38
Ġrequirement s
59 65
59 85
Ġres chedule
Ġcla ire
20 6
20 58
Ġriver bo
Ġtandoo n
41 8
41 15
41 80
Ġbistro s
Ġz wn
Ġz dt
16 4
Ġcor ss
sh twa
Ġconcer ts
Ġconcer ns
ff a
Ġwar n
br l
Ġworth while
49 87
49 131
48 63
Ġdefin ite
06 78
06 72
Ġen count
Ġover ly
ip t
36 34
36 8786
42 50
42 26
Ġaccommod ating
38 5
38 58
38 54
38 43
77 21
80 11
Ġjo ke
44 40
18 62
78 5
78 78
78 64
25 6
ize yl
56 88
Ġgrou ps
34 66
34 356
Ġenjoy s
79 8
79 17
79 40
ky cw
33 70
Ġve ndors
Ġmid st
Ġmid day
26 35
26 56
26 73
zz ahm
cy x
dy t
Ġguess ing
Ġinex pensively
oy k
Ġguests houses
70 12
Ġfi ght
Ġx h
Ġx j
Ġx v
Ġx chs
Ġsea son
Ġsea same
Ġte h
Ġjin lin
Ġaw ful
Ġstand by
Ġappe tiz
Ġsay s
89 20
89 44
Ġplay ing
place d
jg oxq
14 78
Ġq d
Ġq lc
Ġq ewq
ight ful
Ġ01 233
Ġclassi fied
69 30
Ġseem ed
Ġref ine
Ġref use
di w
98 1
tu la
67 23
Ġrec all
87 24
Ġcomp lain
bj gh
65 60
Ġdouble d
Ġsw e
91 88
dp b
dp aue
Ġfend er
Ġdu y
Ġem ailed
Ġau umn
Ġiri c
04 66
04 71
up roam
93 66
93 20
Ġselect ing
tz h
Ġportra it
Ġameric a
Ġshorten ing
Ġmer cedes
hx g
kn f
Ġmis placed
uf xta
Ġever day
xh m
my wh
kv smf
Ġ01223300 0085
zy c
cr clo
im ated
sx gd
Ġcl so
Ġoper ates
Ġes caping
hu vga
bg iww
ej z
Ġ077 27
Ġ079 1862
lj aw
Ġest imated
427 4
Ġ36 54
jv t
lx vbdj
qc s
qc dt
qc ba
Ġdel ightful
ph v
tq wl
uj kd
wk i
fs n
pk hc
vy tsi
xy h
xy dz
ih n
410 6
ew g
oi se
oi wki
Ġow a
Ġow ln
zb ffa
Ġsm ooth
ov ti
vc x
if ex
Ġbring s
nh oj
sq l
Ġ01223217 231
Ġsport y
Ġapproxim ate
yk ihn
Ġfu hpb
Ġfu llest
ssy p
vv pv
vv zyc
dg ment
01223 368786
fc d
ult ies
Ġrent ing
Ġstate ment
vl it
Ġcet nre
jl mp
958 2
Ġheart broke
mr w
pn c
Ġwou d
Ġmanage ment
wx mky
Ġut ufxta
qh d
Ġkill ing
rz r
bc ai
709 4
sl gy
Ġ12233 00085
yx z
Ġju dgment
Ġrece ipt
Ġmod el
Ġboast ing
Ġneighbor ing
Ġpeterbour gh
989 1
Ġsafe ty
Ġecon omy
ala ble
Ġinf lexible
Ġtran fer
wg ayfn
Ġna vigate
Ġ01245 49131
Ġfr ustrating
Ġexpen siove
Ġintri gue
qv gt
Ġreport ed
Ġreceive d
Ġur gently
Ġrecomend ations
Ġconsiste ntly
Ġatta ctions
Ġfortun ate
Ġguesth oise
126 194
yt gb
Ġce mbridge
Ġfli p
Ġdiffic ulties
Ġcottage s
jn xhm
nus ha
Ġfg om
Ġexcur sion
Ġexcur sions
fyq ha
Ġinsist s
338 23
654 9
io vi
mtl qcba
Ġct v
Ġwj boroq
Ġjig gy
Ġsupervis or
Ġstr otford
Ġeth iop
Ġsen se
Ġprotu gese
Ġinput ting
Ġts ounds
Ġtz phv
Ġflu ctuate
xcd mw
Ġphysic ian
758 3
wka wi
yzl gjj
Ġdd izeyl
Ġmon ument
207 8
Ġio huvga
Ġ012232742 84
Ġtremendous ly
Ġcr ljaw
meg fyqha
Ġviv iting
Ġspect rum
Ġzcr polk
Ġ07479 126194
Ġ079989 34356
ajs r
biz r
cmo gur
cgy nw
dxh djl
gst qc
gah v
gih o
iko hz
iqg aylk
jky mx
juf q
mqq fcd
rni i
squ s
xli o
xob m
Ġtgf jkymx
Ġaver age
Ġavi alable
ntsy b
elor qb
Ġcpri o
Ġcvw akcn
Ġcxf enrl
Ġpatri cks
Ġyah bizr
Ġysv sly
Ġbend er
Ġljo ey
Ġlzl sjz
Ġdea ling
Ġdvd lh
Ġdpf net
Ġrefere nece
Ġslyn f
Ġsni ppy
Ġmbg jnxhm
Ġhotelex pensive
Ġthatwor k
Ġpenn y
Ġanythe ing
Ġexquisit e
Ġprefe nces
Ġnigth clubs
Ġosa gfn
Ġaspect s
Ġuuct foyj
Ġeawi q
Ġinforma nt
Ġtrqq xobm
Ġsems yf
Ġsepte mber
Ġindif ferent
Ġhogurf vc
qujhq img
Ġ012233481 44
Ġnewcom ers
Ġconcent rate
Ġconstru cted
Ġconvince d
Ġfeedb ack
Ġriverbo ar
Ġencount ering
Ġappetiz ing
jgoxq px
bgiww z
Ġ0791862 0184
vytsi j
Ġsmooth ly
nhoj rd
Ġfuhpb za
Ġheartbroke n
wxmky a
Ġwjboroq r
Ġethiop ian
yzlgjj l
Ġcrljaw x
Ġcxfenrl z
0 15
0 66
0 60
0 393
0 269
0 217
1 309
2 016
2 089
2 514
3 39
3 353
4 08
4 46
4 79
4 210
4 404
4 249
5 45
5 59
6 24
6 16
6 89
7 45
7 38
7 151
7 222
7 667
7 468
7 438
7 169
8 21
8 44
8 966
8 149
8 598
8 504
8 121
9 494
9 331
9 303
9 693
: #
a ut
a ms
a red
b at
b ll
b ne
b ers
b hz
b xw
b ucks
c la
c ad
d gh
d ul
d sday
d ws
d cc
d nb
e k
e ave
e house
e ts
e ub
e cc
e ki
e ves
f st
f an
f ir
f da
g p
g or
g de
g xb
g ran
g bu
g uw
g cl
g jp
g iest
h ow
h sh
h qy
i ian
i ks
i ky
i fdt
j ed
j ee
j en
j our
j ci
j ua
j qg
k le
k ic
k lm
l um
l cy
l ru
l pm
l myl
l ooked
m l
m ri
m ex
m ia
m od
m exican
m tz
m nl
m vx
m xx
m vl
m qh
m veg
n m
n pd
n cv
o ing
o es
o gue
o ah
o alf
o ntu
p g
p sp
p are
p lly
p rt
p gq
p uq
p elled
q ee
q gd
r ting
r vation
r by
r jx
r vh
r vy
r mr
s ry
s nb
s outh
t thing
t rip
t jo
t lk
t aq
t xd
t vv
t ically
u ss
u esday
u ul
u fo
u vol
v p
v ate
v jo
v vx
w ai
w fo
w li
w dw
w xs
w jl
w knf
x k
x m
x ct
x ha
x ol
x gy
x fl
x xh
x my
x ni
x pk
x ov
x kh
y ay
y lk
y ru
y gl
y do
y dx
y uc
y zx
y zo
z le
z ed
z od
z ft
z sy
z db
z jm
Ġ *
Ġ oom
Ġ oodles
Ġt x
Ġt ll
Ġt vf
Ġt cl
Ġa at
Ġa side
Ġa oy
Ġa yq
Ġa lesbray
Ġa jsq
re sh
re vf
Ġi in
Ġi kie
Ġi gc
st i
st ing
st nz
er l
ou a
Ġth s
Ġth ich
Ġth uesday
in b
in ent
nt ime
ra se
ra xkh
Ġc ic
Ġc ma
Ġc ops
Ġc qb
Ġc kk
Ġw k
Ġw q
Ġw y
Ġw lu
Ġw zy
Ġw cv
Ġw dvi
Ġw fii
Ġp s
Ġp si
Ġp it
Ġp qa
Ġp iks
Ġh ar
Ġh ating
Ġh vy
Ġy yx
Ġf pq
Ġf jv
Ġf cz
Ġf cq
Ġf mtz
at er
at jee
Ġn h
Ġn k
Ġn r
Ġn ay
Ġn gh
Ġn ast
Ġn aw
Ġn mc
Ġb b
Ġb x
Ġb ct
Ġb ood
Ġb ck
Ġb nn
Ġb uck
Ġb bg
oo ag
or ow
Ġl v
Ġl ay
Ġl so
Ġl oop
Ġto mm
Ġd m
Ġd ir
Ġd eap
Ġd ad
Ġd ang
Ġd yy
Ġd hs
ri ty
ste n
Ġre q
Ġre z
Ġre mo
Ġre com
Ġre book
Ġre ph
Ġre cap
Ġre inb
Ġs ver
Ġs for
Ġs elf
Ġs lac
Ġs lum
Ġm f
Ġm x
Ġm tz
Ġm nf
Ġm kv
Ġm tl
Ġm rq
Ġm wd
Ġm pl
Ġm mind
Ġm xg
ve boat
ve zk
an nc
le pn
le ndid
ay fr
ay raxkh
se bray
Ġin sp
Ġin be
co s
ce w
Ġresta ira
ld pgq
ar u
ar ole
Ġbook in
Ġtra shy
Ġand d
th ouse
Ġg ut
Ġg for
Ġg uese
Ġg pmq
Ġg wik
mb ws
ke v
Ġat zt
Ġat mxx
Ġli w
Ġli sten
Ġlike to
pe q
pe ople
pe mvx
Ġpri vate
op l
op o
Ġme ed
Ġcambridge sh
ct iy
Ġle hr
Ġle eave
Ġyes si
Ġch bhz
Ġch xfl
Ġpe a
Ġpe opl
Ġnu m
Ġcentre m
si cal
si pb
Ġar thu
Ġar ray
Ġany how
ree n
Ġstar bucks
ea nder
Ġatt itude
Ġde cad
Ġti ck
Ġti red
Ġdepart ung
de nce
de ga
de vy
Ġ2 52
Ġ2 78
Ġta cos
Ġ4 39
Ġ4 20
it lhi
Ġra iting
ur k
ur ne
Ġpar ing
ss gx
gh j
gh k
ow lti
ow fl
Ġfrom s
Ġthank l
Ġco d
Ġsu txd
ter ly
Ġ3 60
Ġ3 802
Ġ3 293
Ġst ating
Ġst vhw
Ġanything s
Ġpo ast
Ġpre cis
Ġpre pare
Ġab ound
Ġab npd
ne q
ne cess
ver ing
00 13
Ġo ou
Ġo le
Ġo db
Ġo dge
Ġloc ked
Ġwant a
Ġ5 43
fi b
fi dent
fi dence
Ġsome tthing
30 93
Ġe y
Ġe vd
Ġe qc
Ġe ooag
15 90
15 55
15 70
mm fd
Ġnigh clubs
Ġpart ies
Ġu v
Ġu oe
Ġu zf
Ġu dg
Ġea fy
um j
Ġpostco d
Ġpostcode e
Ġj v
Ġj ci
Ġj pn
Ġj bv
Ġha g
Ġha pp
Ġall right
ic king
Ġwe el
Ġk c
Ġk u
Ġk cc
Ġk hh
Ġk sfs
Ġk ldpgq
Ġk icking
vi ll
comm ed
Ġsunday mo
Ġfrid ya
Ġthur dsday
Ġse cu
Ġse uss
Ġ15 27
Ġafter all
Ġif xp
ca ri
ca oa
Ġ01223 257
Ġ01223 00085
Ġ8 59
Ġind iian
en bd
en wm
Ġr c
Ġr p
Ġr jv
Ġr lt
Ġr commed
Ġ11 30
Ġun aw
Ġun necess
Ġ17 4
lo qw
Ġ12 5
Ġ12 235
our be
Ġ16 4
Ġho sv
Ġho sons
Ġdif fident
Ġsi zed
Ġper im
Ġvi g
Ġvi sting
Ġ19 8
Ġ19 00
Ġbre aking
Ġcri me
Ġcri ti
Ġcri sti
Ġmi gran
Ġbri ght
Ġinclu sive
Ġ20 4
Ġbar bers
iz i
ma c
fo aj
Ġv h
Ġv y
Ġv an
Ġv mf
Ġv rx
21 48
21 06
21 76
21 75
Ġsp elled
Ġsp lendid
Ġticket sis
Ġassi gn
Ġri ch
Ġri gam
Ġri veboat
Ġely pax
Ġfit ted
Ġcon fidence
Ġly ln
us q
us ac
ops y
pp iness
11 10
11 65
Ġbir mi
li x
Ġmar ger
wi v
ns pk
by qu
Ġalex eander
Ġ07 38
Ġ07 80
Ġ07 28
Ġ07 33
Ġ07 64
Ġ07 330
Ġ07 389
Ġlong on
58 0
58 16
58 31
sp fc
be tically
Ġgon vill
24 94
17 64
Ġcost ing
07 57
07 98
Ġswimm oing
Ġinfo mation
Ġqu icke
Ġwo es
Ġwo ah
50 1
50 50
50 89
50 91
66 9
66 73
66 91
29 58
08 23
08 22
08 64
08 62
Ġla pt
Ġla eves
Ġevery where
Ġfun ny
ab x
Ġ23 30
40 16
sa jv
88 06
wh g
60 45
54 7
54 12
Ġhe jf
52 45
52 82
52 85
kw t
da j
01 15
01 96
27 1
27 4
27 59
27 76
39 12
39 29
39 34
39 53
59 2
59 09
59 28
59 71
Ġres rvation
20 48
Ġgra y
Ġgra ded
32 62
19 8
19 11
19 31
Ġshadd i
Ġap dcc
41 6
43 44
Ġz f
Ġz h
Ġz t
Ġz x
Ġz nn
Ġz za
Ġz izi
90 24
Ġfin s
09 98
09 92
Ġ0122335 5909
Ġdepartment s
ff g
ff km
ks zq
49 43
49 28
Ġchar ging
Ġpr tu
Ġpr xy
yal fst
48 0
48 7
48 98
48 03
Ġdefin ately
06 25
06 74
tn q
Ġen oalf
Ġsc reen
Ġover looked
36 59
42 30
42 56
42 83
Ġbedou is
55 11
55 38
77 8
77 68
77 69
Ġpizzeria s
Ġja cu
Ġalpha betically
78 52
78 79
78 22
Ġchop house
ah jv
Ġsa urday
Ġali ke
28 15
28 50
56 48
56 93
56 95
Ġ0122330 914
Ġcomm unic
na opsy
za o
Ġdescription s
hi h
79 56
79 79
mar ks
ky snb
kka fp
26 36
26 25
26 96
Ġmiss pelled
cy j
Ġ79 1
Ġpop pin
Ġhmm mm
22 50
oy ghk
qq c
qq s
Ġfi day
Ġfi lled
Ġfi bne
Ġx pe
Ġx xa
Ġx pk
Ġx eo
Ġx ams
Ġx usq
Ġuse d
Ġmegh a
Ġimport ance
gon ville
Ġlu ch
Ġaw a
Ġaw are
Ġ0122324 882
pt mtl
64 73
iv x
89 25
89 28
89 33
Ġhey a
Ġbel t
jg gjp
68 4
Ġastrot urk
Ġq ca
Ġq cla
Ġq ygl
73 10
Ġ01 1223
Ġclassi c
69 89
888 5
63 19
84 76
Ġpm hz
Ġ70 1570
98 31
tu jxn
67 15
67 59
94 17
94 07
bb aj
bj t
Ġsle eps
47 58
Ġestablish ed
37 34
om rc
mw j
mw guw
bs bw
af s
74 11
aq ja
Ġland marks
Ġ0122321 629
96 88
Ġdri ing
Ġmich ehouse
lf b
lf vd
lh o
lh qc
ax dyt
05 21
gl mu
gl jed
92 25
eg i
Ġ01223350 420
97 51
97 56
gx pl
tz um
tz jq
Ġbill ing
gw jc
gw vj
Ġ0122350 655
jb n
jb qs
jb zo
Ġdirect ory
sw c
qf hx
ag mlj
223 6
pj jbzo
uf n
jx x
wy tnq
my c
my x
my wn
zc fv
nf kvo
Ġfo ggy
Ġ076 21
jy n
zy q
zy cc
Ġfig ured
vd d
vd abx
cu jq
Ġcl bj
Ġes pensive
Ġes sent
Ġbr unch
px c
tl w
pd m
rt ree
Ġsqu ared
hg sjz
je v
Ġwr ote
bt g
bt p
bt gc
bt bjt
81 43
Ġed uc
uw f
qc xni
cv klm
ph p
Ġansw ers
gm v
gd jz
gd to
mf g
mf on
Ġreal m
bq t
bq hc
vh b
Ġthor ough
eh d
zk z
Ġcol to
Ġrefer rence
wk mu
do de
do hu
gn ham
jz u
jz wai
rx n
rx kq
Ġcancel ed
257 5401
fs fj
pk u
rf a
vx d
dt ry
ial s
vy tx
Ġsettle d
ih cz
ih pemvx
lq hd
188 7
nv n
vf zt
Ġrespon ses
Ġappro ve
ny hs
oz v
zb h
Ġsm h
cw cf
rg oi
vt pj
Ġdisapp oint
ij p
lc nfkvo
sv u
rk j
vc ad
911 0
911 4
if p
zw xd
bf up
sq o
bn o
jc svu
nw l
yk ji
jp u
zs m
01223 355
vb m
lz xj
zq v
Ġinform atin
nr mv
vl gu
led ge
Ġsatis fact
gf k
gf w
oq sq
oq kev
zm cr
Ġlimit ations
958 0
iy annc
wb myc
Ġadvance d
ug zk
Ġbout iques
zn jx
407 8
bo h
Ġut terly
263 3912
cq l
bv rlm
fg i
xg plly
250 8
Ġpat ient
bk fic
Ġcambri gde
Ġaly sebray
Ġ12233 14960
Ġ01223365 454
kl ra
vr pp
938 4
938 6
Ġ55 35
Ġyt ou
the at
yc mi
yq dy
Ġnt kq
Ġmn kwt
min s
nq i
uo ivx
Ġ072 29
Ġswitch ing
Ġsightse ers
Ġfr m
Ġ0746 2575401
317 3
ao ctiy
Ġprom inent
Ġfl ori
Ġbi king
Ġbi btgc
ato ions
Ġpostc dode
Ġay els
Ġsna ppiness
Ġval ue
Ġht el
Ġbon jour
Ġsg ssgx
Ġsn oring
Ġatta ched
Ġstra ight
Ġob fyq
Ġxy aoctiy
420 5
Ġcen rtree
Ġpie h
Ġphy sical
Ġsd rn
Ġdisco vering
Ġdiscount s
Ġtat se
Ġround trip
Ġvic zdb
Ġln rxn
Ġdx zbh
970 4
Ġmc itlhi
flx pt
Ġbt ts
Ġsb devy
Ġjig giest
Ġagree able
Ġqg i
Ġsupervis ors
zkd nrmv
ebg t
ios f
Ġcert re
Ġcert ian
Ġhan k
Ġhan ging
Ġbroxb urne
Ġbroxb ourbe
Ġxi pjjbzo
Ġsmi dge
Ġatra in
Ġvf ux
Ġxn qn
Ġqh kc
voq php
jmt ai
813 4
wch ymc
Ġage nt
Ġft voqphp
Ġgc ghx
Ġuc spfc
Ġrg owfl
Ġ0772 2633912
0123 25
Ġxg bqhc
845 3
aav a
wbn rp
Ġdg ghj
Ġga aqja
Ġmyster y
Ġunfortunat ley
Ġxp cari
728 5
Ġ` `
Ġnds ugzk
Ġyp ou
Ġjgn hu
Ġkj bb
Ġcongra dul
850 9
918 7
kjk zod
vca k
yem rmr
Ġaj te
Ġyq xgplly
Ġnn yalfst
Ġnv znjx
Ġdemand ing
Ġpoe ple
Ġdial ogue
Ġswe ar
545 456
aut umn
bat dn
bxw kv
dgh ac
dws qn
ets l
eub hwc
ecc cs
eki ufo
fan wj
gbu zf
jua a
lru gfw
lpm km
mnl c
prt qhd
rjx c
rvh je
tlk h
uul b
uvol vxd
vjo bno
wdw lv
xol ra
xov bbaj
ydo a
yzx fd
zle fo
zsy zs
Ġoom oe
Ġtvf ex
Ġtcl mex
Ġaoy flxpt
Ġayq o
Ġajsq zy
revf j
Ġikie ezt
Ġcic ina
Ġcma bridge
Ġwlu oqkev
Ġwzy cql
Ġwcv y
Ġpsi dghac
Ġpit c
Ġpiks vfzt
Ġhar vest
Ġyyx r
Ġfpq jqm
Ġfjv atjee
Ġfcz jmtai
Ġfcq zw
Ġfmtz qot
Ġngh d
Ġnast y
Ġbck qcxni
Ġbnn zycc
Ġtomm orow
Ġdir ty
Ġdeap rting
Ġdyy ute
Ġremo ve
Ġreph rase
Ġsver al
Ġmtz oyghk
Ġmnf wdwlv
Ġmkv vdabx
Ġmwd lzxj
lepn cc
Ġinsp ire
Ġinbe tween
Ġrestaira nt
Ġgut en
Ġguese thouse
Ġatzt dm
Ġatmxx nqi
Ġcambridgesh ire
Ġyessi ree
Ġchbhz pdm
sipb f
Ġarthu rian
Ġdecad ent
Ġtick le
Ġprecis ely
Ġabound ing
Ġabnpd u
Ġevd o
Ġeqc lfb
Ġeooag zcf
Ġuzf w
Ġudg bvrlm
Ġeafy z
Ġjpn lh
Ġjbv umn
Ġhapp ily
Ġkhh jbqs
Ġksfs kic
Ġsundaymo nday
Ġsecu rity
Ġifxp nyhs
enbd th
Ġrjv ne
Ġrlt ot
Ġunaw are
Ġunnecess arily
loqw xpk
Ġ12235 12596
Ġhosv dega
Ġdiffident ly
Ġperim ater
Ġcriti eria
Ġmigran es
foaj a
Ġvmf xyh
Ġassign ed
Ġrigam arole
Ġelypax qz
Ġbirmi gnham
Ġmarger ita
Ġ07330 545456
Ġ07389 012325
Ġswimmoing pool
Ġquicke st
Ġlapt op
Ġhejf vrpp
kszq nwl
Ġprtu guese
Ġprxy mnlc
Ġenoalf av
Ġjacu zzi
Ġ0122330914 7
Ġcommunic ation
Ġxpk rjxc
Ġxams dtry
Ġqcla b
Ġqygl cine
Ġ0122321629 7
gljed pz
gwjc j
agmlj m
Ġessent ials
gdjz q
vytx wh
ihcz v
01223355 397
Ġsatisfact ory
Ġflori da
Ġbibtgc na
Ġayels bray
Ġobfyq jzu
Ġsbdevy h
Ġgcghx nvn
Ġucspfc vi
Ġgaaqja qq
Ġcongradul atoions
Ġbnnzycc s
Ġmwdlzxj r
Ġkhhjbqs z
0 58
0 55
0 236
0 662
0 481
0 328
0 469
1 38
1 088
1 4600
1 233
1 393
2 88
2 80
2 013
3 29
3 279
3 111
3 661
3 292
4 454
4 905
5 124
5 167
5 293
6 40
6 10
6 49
6 44
6 2456
6 456
6 125
7 00
7 90
7 458
7 409
7 483
7 278
8 23
8 34
8 70
8 31
8 233
8 531
8 542
8 385
9 100
9 299
9 495
a fast
a be
a gon
a ua
a ract
b co
b tt
b tu
b ae
b lc
b lt
b kd
b vl
c ies
c ws
c rh
c cu
c zk
c zf
c qz
c utc
d ra
d al
d ha
d nn
d ka
d ze
d lx
d nv
e es
e ha
e ky
e ww
e if
e kt
e vw
e staurant
f rid
f xb
f li
f wh
f uw
f rx
f au
f wx
f bo
f hj
g ouse
g br
g zz
g rl
g bi
g vm
g ij
g rd
g vr
g mpa
g rc
h ri
h an
h ould
h ar
h ut
h ub
h zz
h cu
h ensive
i ate
i lo
i jz
i oz
i wmr
j me
j ad
j nn
j nf
j rt
j ny
j rb
j au
k mb
k lu
k be
k ff
k mo
k js
k hx
k tq
k xx
l el
l it
l club
l ies
l pl
m ns
m tw
m gx
m xa
m zl
m qw
n ia
n ito
n bu
n xa
n ph
n esa
o end
o len
o jb
o qa
o vx
o hh
o xc
o kt
p ar
p ss
p ital
p cu
p ial
p gcy
q o
q ts
q li
q ah
q bu
q lh
q xs
r in
r nch
r te
r gy
r dd
r mg
s at
s ct
s al
s bs
s vx
s whg
t g
t ca
t fe
t qq
t fl
u fi
u vy
u km
v ha
v bb
v pn
w u
w ent
w ol
w jy
w rd
w zq
w qh
x l
x me
x um
x oc
x dq
x vm
x ji
x xby
y at
y ir
y ka
y dy
y hu
y gn
y kf
y suq
z ar
z ll
z by
z ps
z fs
z gq
z qe
z mc
z uc
Ġ nth
Ġt n
Ġt ge
Ġt ie
Ġt cy
Ġt js
Ġt qa
Ġt qd
Ġa in
Ġa ri
Ġa kn
Ġa ojg
re o
re q
re ly
re om
re sent
re hensive
Ġi ir
Ġi un
Ġi req
st s
st ig
st qb
er ol
er istic
er mediate
ou sity
Ġth us
in c
in nn
el ing
el jf
el vha
ra ined
Ġc c
Ġc d
Ġc m
Ġc ul
Ġc red
Ġc ej
Ġc rj
Ġw d
Ġw f
Ġw x
Ġw de
Ġw fo
Ġw jc
Ġw bh
Ġw tj
Ġw ql
Ġw reo
Ġp est
Ġp ertain
Ġp un
Ġp int
Ġp unch
Ġp fl
Ġp uw
Ġp xs
Ġp dl
Ġp lox
Ġh v
Ġh x
Ġh at
Ġh ld
Ġh si
Ġh ng
Ġh ni
Ġh sv
Ġh reom
Ġy fi
Ġy ff
Ġy bt
Ġy fn
Ġf f
Ġf ry
Ġf ive
Ġf tz
Ġf gm
Ġf xd
Ġf hz
Ġf neq
at ch
at jmy
Ġn b
Ġn f
Ġn al
Ġn cz
Ġn sl
Ġb k
Ġb se
Ġb ple
Ġb nf
Ġb vt
Ġb vc
Ġb bo
oo ple
oo ps
or q
or we
or fz
Ġl l
Ġl ne
Ġl ak
Ġl hy
Ġl gm
Ġl tq
Ġl lt
Ġl we
Ġl pz
Ġl qs
on i
on atal
Ġto d
Ġd q
Ġd ke
Ġd gm
Ġd ki
Ġd tx
Ġd ldq
Ġd utton
Ġd fsn
ri g
ri ffiti
Ġre ff
Ġre mod
Ġre estaurant
Ġs an
Ġs ce
Ġs yx
Ġs ssl
Ġs zgq
Ġm l
Ġm es
Ġm gy
Ġm nl
Ġm xj
Ġm fp
Ġm wjy
ve c
an o
an p
an xme
le ge
le ast
le ted
ge dh
se c
se n
se wy
Ġin xji
ex hu
Ġfor u
Ġare at
ar pt
ar zr
ar cqz
Ġtra ck
ed l
ie j
th rough
th dk
Ġg un
Ġg yne
Ġg kd
Ġg xt
Ġg pu
Ġg gj
Ġg pgcy
Ġg riffiti
mb a
me f
Ġat b
Ġat least
Ġthat nk
Ġwi il
Ġwi res
ll ly
pe fs
pe zt
Ġne tf
Ġne onatal
Ġca wrd
Ġwh ould
Ġwh ic
Ġwh oops
Ġan kle
Ġit ermediate
Ġam d
Ġam f
Ġam ple
Ġam men
Ġme a
Ġme h
Ġme at
Ġcamb ir
ct ly
ct pezt
Ġle kn
Ġyes m
Ġcent ry
Ġch aract
Ġpe z
Ġpe ple
Ġpe oople
Ġbe ast
Ġbe jrb
si ble
si tion
Ġpeople at
Ġar gu
Ġatt ta
Ġde oend
Ġattra ct
Ġti ye
Ġwith ing
de g
ch ance
Ġ2 59
Ġ2 44
Ġty deg
wn h
Ġ4 68
Ġ4 668
Ġguest gouse
Ġra rte
ur c
Ġwa qs
Ġmoder ite
Ġex lp
ry hj
Ġal s
Ġal kk
Ġal kso
Ġnot es
Ġnot ice
al s
al jt
al yd
Ġ0 10
Ġ0 277
Ġso lo
Ġco mb
Ġco lege
Ġsu cessful
ter borough
Ġ3 58
Ġ3 25
is ness
Ġst one
Ġst olen
ut m
Ġpre der
Ġpre stig
Ġab otu
Ġab kff
00 35
00 88
Ġo g
Ġo q
Ġo z
Ġo ic
Ġo ae
Ġo yy
Ġo bk
Ġo dv
Ġo zzgl
Ġ5 44
Ġ5 81
Ġmu wl
Ġmu btu
fi li
fi dq
30 8
30 21
30 66
30 62
Ġe ference
Ġe ww
Ġe hh
Ġe wf
Ġe tih
Ġe ebg
15 5
15 77
15 26
mm o
Ġpost o
45 15
45 46
Ġpart ner
Ġsh ound
Ġsh oul
Ġsh utt
Ġsh oes
Ġu ft
Ġu orey
Ġu ber
Ġu xy
Ġinter ist
Ġget me
um ped
Ġpostcode in
Ġj b
Ġj p
Ġj wi
Ġj ff
Ġj am
Ġj hi
Ġj ix
Ġj wd
Ġj hq
Ġj qp
Ġj quu
Ġj arzr
Ġj ctpezt
Ġj umped
Ġok v
Ġha ha
ic mm
ic ide
Ġwe ather
Ġtr in
Ġk h
Ġk xe
Ġk vj
Ġk cd
Ġk gmv
Ġaf fili
ai o
ai ment
Ġcolle ag
Ġwifi i
Ġent ert
Ġlea v
ish ment
Ġleaving a
Ġwedn sday
Ġsat iate
Ġse mi
Ġse ns
Ġse vent
Ġse staurant
Ġman ufi
Ġcity centre
Ġsor y
Ġ15 24
Ġdi abe
Ġ01223 44
Ġ01223 62456
Ġ8 15
Ġserve al
Ġ6 76
Ġ6 383
ia s
Ġcb m
Ġcb r
Ġcb fd
Ġav ol
Ġav pk
Ġr l
Ġr t
Ġr ood
Ġr lc
Ġr mg
Ġr tp
Ġr zd
Ġr voq
Ġfee t
Ġindian a
Ġ11 1
Ġ11 4
Ġ11 45
lo zqv
Ġ13 00
Ġ12 1
Ġ12 263
Ġop pss
ice d
ha en
Ġsi llly
Ġper chance
ck a
ck ccu
Ġtell s
Ġ10 4
Ġ10 64
Ġ18 36
Ġ19 55
un l
ite an
Ġbre afast
Ġbreak er
Ġac w
qu qa
Ġmin ist
Ġnight lclub
Ġ21 1
Ġcu y
iz s
iz gbi
ma edl
Ġnew ham
fo yc
Ġv x
Ġv ross
Ġv kw
Ġv sj
Ġv js
Ġv xq
Ġv hb
Ġv mz
Ġv urc
Ġ9 01
Ġ9 91
21 41
Ġsee k
Ġsee university
nn r
Ġsp are
Ġsp rained
fe ild
fe hf
Ġly ymc
Ġche ar
Ġup jb
11 93
Ġbir dw
Ġpl ft
Ġpl bf
Ġpl rlm
Ġsteven s
mi q
Ġpizz as
li wo
ns y
ns wk
Ġ07 20
Ġ07 70
Ġ07 53
Ġ07 68
Ġ07 84
Ġ07 04
Ġ07 623
Ġ07 62
Ġ07 92
Ġ07 85
Ġ07 598
bp mp
bp dka
58 70
tw wh
Ġcar pool
24 4
24 42
24 78
17 1
17 44
17 72
17 31
07 0
as a
ti i
ti stqb
ol w
50 8
50 17
Ġexp res
66 55
29 25
08 43
ab nrt
Ġ23 6
Ġ23 20
Ġ23 926
ps c
ps gf
10 27
Ġ05 00
sa jf
88 30
60 6
60 37
54 88
54 28
54 31
54 97
Ġhe mp
Ġlens di
Ġlens feild
52 67
01 12
Ġoh n
39 9
39 40
Ġbefore hand
46 3
46 55
46 89
46 73
Ġits hould
59 10
59 06
59 98
Ġcla ssed
Ġcityroomz s
20 5
20 29
32 07
Ġresul ting
19 55
43 1
43 79
43 82
Ġtur sday
ep i
ep k
Ġabsolut e
su kp
Ġz k
Ġz xi
Ġz ko
Ġz bj
Ġz pd
Ġz kt
Ġz wc
16 99
16 74
90 2
90 98
Ġfin est
Ġcom leted
09 8
il v
il ple
sh c
Ġ0122335 5711
ff tty
br c
br tc
br ht
49 9
Ġaval iable
Ġba cking
Ġyea s
os mvl
48 00
48 48
48 77
mo bv
06 77
tn hq
Ġgr j
ull l
Ġer m
Ġer itean
are ntly
57 0
ip f
Ġrest rant
Ġbra nd
36 2
36 9
Ġdin ers
42 2
Ġbedou ln
38 1
38 73
38 91
Ġapolog ise
77 38
77 71
pha sis
Ġold s
Ġend oc
ant ic
44 4
Ġ0122336 233
Ġ0122336 9299
Ġcarol ine
18 4
18 35
18 32
18 71
78 34
ah h
ah co
ah tb
ah kt
Ġ06 32
28 7
28 19
28 31
56 78
56 26
34 15
34 20
34 76
Ġgu arant
na oo
79 6
79 7
79 94
Ġapp lies
Ġapp arently
Ġmid night
26 151
kok g
te m
zz kq
zz wo
cy irg
dy e
70 330
70 3476
qq r
Ġcorrect ed
Ġbu isness
emp o
Ġx lk
Ġx sq
Ġx dwv
Ġte el
Ġ01223358 399
Ġfran ky
64 71
89 18
jg rh
jg cm
68 3
68 06
68 44
68 70
Ġq it
Ġq hg
Ġq vc
Ġq rd
Ġq bv
Ġq owr
Ġq oqa
Ġq ahkt
ds rh
76 34
76 96
73 29
73 72
Ġ01 40
ze u
bu d
bu qli
69 25
Ġstyle d
Ġstyle s
63 36
ng vlit
di m
ln f
tu esday
67 25
94 24
94 20
Ġregard ed
Ġ47 34
Ġcold har
Ġcomp rehensive
Ġclari fied
bj ho
bj mq
86 27
Ġ38 00
Ġ38 54
Ġ38 589
47 5
Ġunder went
av oo
Ġ012235 1241
Ġsw fuw
Ġbud dha
dp l
dp m
Ġdu h
mw r
Ġspecial ize
Ġem phasis
Ġ0122321 77
Ġ0122357 168
96 16
82 60
82 52
vo x
Ġsupp lied
ual fe
Ġ35 15
ef s
ef x
04 49
Ġrel ation
Ġrel ating
Ġexhib itions
Ġdesire s
lh zu
ax d
Ġmicha e
dq cl
05 54
62 23
gl g
up ai
up cw
75 19
Ġ01223323 555
Ġvolksw agon
ua jna
Ġbo bt
Ġ019 6
Ġ01954 14600
97 24
97 14
gx d
gx w
fl mf
gw k
jb g
jb ih
Ġ31 12
sw d
sw q
95 45
Ġec brm
bw kg
qf q
ty bj
Ġbelg ry
ag st
ag dqcl
qy jh
qy psgf
Ġ078 51
pj eh
uf xj
nz bg
Ġmut ilple
wy m
my zll
zc l
nf d
kv hn
Ġ076 29
Ġ076 57
jy t
ey wv
ey td
zy j
pq pv
cr co
im x
vd xy
og zjm
Ġes le
Ġass bu
Ġbr qc
112 0
bg v
sy c
tl bk
Ġrom antic
Ġsqu cln
ej qj
Ġ077 15
lj fidq
qb zuy
nk ti
nk jm
jv lz
lx m
Ġthir sday
uw xxby
qc nph
cv b
ph r
ph ir
388 2
gd f
Ġsidgw ich
ww vh
bq h
bq s
bq mf
bq kh
nj h
nj p
Ġpu nds
511 0
zk jyt
Ġglo dal
wk c
wk j
do zkz
gn b
jz i
jz qe
jz mv
rx z
rf m
ux g
ux rg
ux xum
ux alyd
bi olw
xy r
xy t
xy zb
jm g
nv nf
qe u
qe crh
vf h
Ġrespon sible
Ġow xj
Ġ01223359 42
cl w
kc boh
kc nbu
521 6
521 60
qw fwx
828 5
hh pj
nth k
mg rf
oe iv
sq r
xq j
mu kmo
Ġfift y
ki wfn
tr ut
we qk
Ġot er
kq dp
xed gdf
zt fda
pv b
Ġmath s
607 2
rv tnhq
au gq
yk xc
Ġjoin ts
01223 21
gs lhi
xw zar
Ġrep resent
Ġsupposed ly
Ġplu bry
Ġsell ing
Ġlarge st
Ġconstra ined
Ġrespect ive
jl p
ku vl
wl r
wl sp
xf zm
xf mk
Ġgl by
Ġgl utton
hc n
hc myx
mz qy
Ġzip code
Ġ01799 52160
Ġ075 58
wx pz
Ġcategor ized
mn p
yh rk
zv p
zx o
Ġghand hi
ential s
755 6
ugh q
rr ga
879 3
Ġaly dozkz
wt aljt
Ġju z
829 2
hf qts
hv te
vj ze
Ġentire s
py ok
py zby
Ġih phir
cp i
hr cy
mt g
yq nnr
Ġnt pyzby
Ġia uxalyd
jh os
min utes
ud kcnbu
Ġhj he
Ġhj kokg
Ġhj cyirg
Ġtran sition
xu jb
Ġpy gl
Ġpy dlx
Ġchildre n
gb oni
gb agst
uv z
Ġexpen se
Ġfl g
Ġfl oor
Ġarr ving
Ġglitch ed
sg im
sz jzmv
Ġqq vpn
sk orq
Ġay ilo
Ġgoo h
Ġstanstead through
Ġqa od
988 3
Ġoe v
Ġ0122325 6645
Ġxy iq
Ġxy gxd
cj po
Ġcy bpdka
Ġhq osmvl
Ġpet terborough
Ġstri ctly
Ġseve rely
Ġvacan cies
yp ss
Ġph sey
Ġned eed
Ġbbq xvm
Ġep nsy
Ġjc zkjyt
809 2
Ġtd peq
Ġtg kx
Ġtg dye
Ġblo nd
Ġdk hcmyx
Ġrq ljfidq
fzc vec
Ġmc swq
Ġzn ro
flx sj
jmy oi
Ġou f
Ġwj ch
Ġbum ped
Ġlk le
Ġarti sts
Ġvc upcw
Ġqg abnrt
Ġoccup ancy
fa fy
hcw ce
qam ughq
ztn k
Ġul z
Ġul swhg
Ġbv u
Ġbv dpm
Ġstr pxc
Ġeth nic
Ġuj wym
Ġsen sitive
Ġprotu guese
318 3
836 4
Ġsmi le
Ġatra ctions
Ġ0763 2382
024 4
nrt v
yrx r
Ġlp nkz
Ġrain id
Ġksh hcwce
Ġvm wiv
Ġzsd xs
Ġzsd flxsj
Ġxxx x
kbz um
Ġmh erl
Ġentra ce
Ġsepa rate
Ġindic ate
qit l
qis g
xen h
xrz d
Ġakf p
Ġcct lxm
Ġcap able
Ġnumb e
itd rh
Ġux glg
Ġjx kuvl
Ġkoo j
Ġcuri ousity
Ġvw cr
Ġspa ces
Ġ07263 70330
Ġscra pe
Ġaccomad ation
Ġry ed
Ġtf up
Ġwz rj
Ġyg myzll
Ġlc exhu
Ġdy amg
Ġremain der
Ġgal ley
Ġuy wwvh
Ġjw erol
Ġ012233483 13
Ġsteve anage
Ġchestert om
446 10
689 5
bll w
puq pr
wxs l
xgy l
stnz y
Ġlv rg
Ġjv gyc
Ġ07621 703476
vhb cg
btt i
blc sb
bkd r
czf pqpv
cutc ph
dze g
eky i
eww r
eif xn
frid ay
fxb r
fhj vd
gbr mr
grd rb
hub dz
jrt r
kbe v
kjs rrga
khx r
ktq seo
kxx pr
nia a
nxa or
ojb nt
ovx x
pial jo
qbu v
rin ology
rnch za
rdd l
rmg sh
sal jyn
sbs njp
tqq g
ukm liwo
wqh v
ygn ka
ykf j
ysuq o
zps l
Ġnth e
Ġtcy avoo
Ġtjs xo
Ġtqd mtw
Ġakn pf
Ġaojg d
Ġiir b
Ġiun u
eristic s
Ġcred entials
Ġcej p
Ġwde tdx
Ġwfo qfq
Ġwjc ua
Ġwbh zzwo
Ġwtj er
Ġpest icide
Ġpertain ing
Ġpun ishment
Ġpint o
Ġpfl vz
Ġpuw pi
Ġpdl pm
Ġhsi innn
Ġhsv g
Ġyfi orwe
Ġyff shc
Ġyfn h
Ġfive s
Ġftz qcnph
Ġfxd nf
Ġfhz mukmo
atch ing
Ġnal gedh
Ġncz qbzuy
Ġnsl kei
Ġbse jzqe
Ġbple ase
Ġbvt k
orfz pb
Ġlak qv
Ġlhy lov
Ġltq hut
Ġlwe ogzjm
Ġdgm g
Ġdldq ir
Ġremod eling
Ġsce ne
Ġsssl foyc
Ġszgq o
Ġmes sed
Ġmgy r
Ġmxj rf
Ġmwjy c
anxme a
arpt z
arcqz h
Ġgyne cology
Ġgkd dpl
Ġgxt xw
Ġggj cv
Ġgpgcy pcu
Ġnetf lix
Ġammen ities
Ġcambir dge
Ġlekn i
Ġcharact eristics
Ġbejrb nda
Ġargu ment
Ġattta ction
Ġdeoend ancy
Ġexlp ress
ryhj tp
Ġ358 7
Ġprestig ous
Ġoic bjmq
Ġoae jmyoi
Ġoyy uxxum
Ġodv zeu
Ġozzgl cvb
Ġmuwl bllw
Ġmubtu utm
Ġehh sin
Ġewf xujb
Ġetih er
Ġeebg s
Ġshutt le
Ġjam ican
Ġjix sct
Ġjhq jlp
Ġjqp iej
Ġkxe quqa
Ġkvj nzbg
Ġkgmv nkjm
Ġaffili ations
Ġcolleag ues
Ġentert aiment
Ġsens ational
Ġsevent een
Ġmanufi que
Ġdiabe tes
Ġcbfd x
Ġavol on
Ġavpk tybj
Ġrvoq bwkg
Ġminist ry
Ġvkw mnp
Ġvjs d
Ġvxq s
Ġupjb mq
Ġbirdw atching
Ġplft p
Ġplbf mns
bpmp u
Ġexpres ses
sajf u
Ġlensdi eld
Ġzko gbrmr
Ġzpd xc
Ġzwc f
brht v
Ġendoc rinology
Ġguarant ees
26151 603
Ġxlk z
Ġxsq hk
Ġqhg ualfe
Ġqvc sajfu
Ġqrd n
Ġqbv p
dsrh j
buqli k
Ġcoldhar ms
flmf k
jbih kc
Ġecbrm js
qypsgf h
pjeh zw
vdxy hih
Ġsqucln la
ejqj ws
kcboh zb
kiwfn ou
Ġrepresent ative
Ġplubry fc
hfqts au
Ġtransition al
Ġpydlx tii
Ġcybpdka z
Ġbbqxvm zk
Ġvcupcw da
Ġqgabnrt x
Ġulswhg vk
Ġstrpxc ft
Ġ07632382 262
Ġvmwiv zv
Ġmherl swd
Ġ0726370330 6
Ġlcexhu az
Ġuywwvh k
Ġyfiorwe k
0 23
0 292
0 497
0 176
1 382
1 238
1 082
1 328
2 60
2 51
2 25
2 28
3 00
3 60
3 504
3 498
3 433
3 798
4 005
4 414
4 7769
5 30
5 50
5 291
6 41
6 36
6 413
6 459
7 11
7 49
7 178
7 277
7 307
7 013
7 156
8 238
8 118
8 126
8 337
9 30
9 15
9 52
9 39
9 64
9 765
9 803
9 605
a ar
a ion
a ow
a unt
a gue
a ok
b ge
b nce
b ur
b ale
b mg
b kq
b irg
c ch
c wn
c wh
c nx
d oo
d ress
d od
d ft
d dz
d nk
d vq
e el
e ve
e ys
e bq
e iry
e oyk
f ts
f rent
f ua
f bz
f ux
f hz
f kb
f utf
f miq
g r
g ul
g ci
g dz
g pd
g rq
g jv
g sq
h ir
h ks
h qq
h rq
h nv
h ew
h wo
i th
i ir
i br
i stal
i its
i og
i ung
j mb
j su
j nk
j jv
j wt
k el
k ex
k end
k ow
k ut
k ir
k ol
k ks
k ds
k ig
k ty
k cu
l oo
l on
l tw
l bj
l rs
l jxx
m ate
m al
m ir
m wi
m da
m ks
m tn
m ko
m use
m cy
m rq
m rk
m lr
n ks
n ga
n om
n ov
n rb
o gh
o ad
o et
o ag
o ber
o ew
o zzgl
p is
p ose
p as
p jo
p ah
q ay
q ci
q ck
q dy
q sj
q im
q lx
q gg
q km
q lv
q xf
q jd
r ly
r inese
r ps
r fd
r wd
r myg
s ow
s ns
s fl
s do
s nr
s mz
t ar
t ad
t tish
t bw
t db
t jz
t vb
u of
u ke
u hi
u qf
u kd
u uo
u vxl
v mo
v lk
v ng
v av
v tz
v nl
v nb
v gnb
w ood
w ss
w ind
w ly
w un
w ick
w ys
w tq
w do
w rv
w lv
w ja
w gfk
w bud
x la
x ne
x fo
x da
x tn
x za
x cum
x ag
x ej
x fc
x esp
y ce
y ln
y ey
y px
y uy
y xa
y fn
y zb
y mg
y xd
y cm
y no
y quu
z nt
z mb
z si
z ut
z ee
z ha
z pq
z pb
z jv
z ww
z ih
z oi
Ġ +
Ġ ridge
Ġ oth
Ġ uti
Ġt c
Ġt jz
Ġt jl
Ġt xe
Ġa le
Ġa si
Ġa ch
Ġa ward
Ġa yk
Ġa mbridge
Ġa qim
re ts
re vation
re zc
re fn
Ġi i
Ġi q
Ġi x
Ġi ko
Ġi qc
Ġi gm
Ġi oj
Ġi gf
st house
st qi
er ac
Ġth he
Ġth nks
in ing
in king
nt ch
nt vhw
ra us
Ġc ere
Ġc ouse
Ġc de
Ġc row
Ġc pb
Ġc xc
Ġc zq
Ġc rlm
Ġc fr
Ġc fpq
Ġw b
Ġw ood
Ġw xi
Ġw ff
Ġw bd
Ġw vs
Ġw lb
Ġw gv
Ġp w
Ġp or
Ġp ran
Ġp qq
Ġp di
Ġp hx
Ġp wf
Ġp np
Ġp vfa
Ġh ic
Ġh ia
Ġh kw
Ġh rs
Ġh vt
Ġy on
Ġy iz
Ġy ys
Ġy nz
Ġy bg
Ġy tb
Ġy we
Ġy kx
Ġf h
Ġf w
Ġf at
Ġf ing
Ġf co
Ġf rs
Ġf cg
Ġf kd
Ġf tf
Ġf zr
nd b
nd d
nd z
nd raus
at vb
Ġn m
Ġn on
Ġn qf
Ġn qc
Ġn zx
Ġb ia
Ġb fo
Ġb cy
Ġb ix
Ġb mz
Ġb oring
oo mb
oo ns
oo vy
oo wm
or mc
Ġl fe
Ġl wi
Ġl ny
Ġl pv
Ġl mj
Ġd f
Ġd v
Ġd se
Ġd ood
Ġd ak
Ġd xd
Ġd zn
Ġd go
ri tish
ri ott
ri ctions
Ġre th
Ġre ster
Ġre place
Ġre mind
Ġre booked
ot kf
ot yz
Ġs r
Ġs x
Ġs ge
Ġs ould
Ġs ed
Ġs is
Ġs rs
Ġs lw
Ġm s
Ġm th
Ġm ere
Ġm ouse
Ġm lk
Ġm jj
Ġm lq
Ġm rv
Ġm gc
Ġm tx
Ġm wt
Ġm mh
Ġm icke
ve d
ve fo
ve erac
an av
ook es
le g
le tn
le verton
le vh
ay r
ay oet
ge uese
ge wick
se xh
Ġhotel s
Ġin i
Ġin quest
Ġin iti
Ġfor tr
ce by
ce kg
Ġis v
ld f
ld z
ld da
ld nj
Ġbook it
Ġtra il
Ġtra id
ed ady
ie pe
Ġg ge
Ġg ur
Ġg ds
Ġg vd
Ġg sd
Ġg lv
Ġg nb
Ġg qs
Ġg ja
Ġg wz
mb b
mb ur
ke yj
Ġat yka
Ġwi ch
Ġwi pple
Ġwi qe
Ġwi ukd
est hwo
Ġsta ud
ll h
pe vy
Ġdo x
Ġdo ers
Ġof ter
Ġthere a
Ġwh op
Ġwh hat
Ġan f
Ġan im
Ġit ail
op tion
ct f
ct ure
ct ober
Ġle mrq
art ial
Ġch ien
Ġch rinese
Ġmo nder
Ġbe hal
si cr
Ġany ting
la sh
ea fs
Ġde ep
Ġde em
Ġti yzb
Ġdepart iung
de pi
Ġ2 40
Ġ2 761
Ġta pas
wn u
Ġ4 269
Ġ4 455
it er
it ti
it jj
Ġra nce
Ġra ving
Ġra eg
ur js
ur je
ss ah
Ġex cep
gh g
gh nz
ind s
Ġal pah
Ġal sexh
Ġfree e
Ġel aa
so x
so zl
Ġsu e
Ġsu mm
Ġsu mmer
ter fly
Ġ3 56
Ġ3 53
is ing
Ġfind me
ts c
ts nq
ts ormc
Ġst ops
Ġst ore
Ġst up
ut lu
ut ical
ir ns
ir cwh
Ġpo sey
Ġpo lun
Ġpo inds
Ġcheap moderate
Ġnorth e
Ġnorth ham
Ġad jo
Ġad am
Ġni go
Ġni futf
ver side
00 44
00 14
Ġo bl
Ġo xw
Ġo ntime
Ġo asa
Ġo aow
Ġo esthwo
Ġo ctober
Ġ5 54
Ġ5 46
Ġ5 36
ly p
ly jq
Ġmu d
Ġmu cy
Ġmu eiry
fi ka
30 4
30 209
Ġe v
Ġe za
Ġe ka
Ġe bq
Ġadd dress
15 0
mm d
45 58
45 09
45 64
Ġnigh club
ul i
ul sp
ul fl
ul uc
Ġsh ucks
Ġge st
Ġu ow
Ġu az
Ġu known
Ġu uh
Ġu wr
um s
um sy
Ġj g
Ġj t
Ġj y
Ġj ra
Ġj ak
Ġj ua
Ġj vc
Ġj zm
ell g
Ġha w
Ġha ak
Ġha kks
ain s
ic sa
Ġwe ill
Ġmuse m
Ġtr ua
Ġbut terfly
Ġk wn
Ġk ad
Ġk po
Ġk ix
Ġk kv
Ġk vk
Ġk dft
Ġwas nt
vi qay
12 7
Ġnights star
Ġcolle ct
Ġcolle ague
Ġser cr
Ġlea vers
ad j
Ġwed ding
Ġwedn edady
Ġse tt
Ġse jbn
Ġman ny
Ġcity r
Ġ7 32
Ġ7 38
Ġ7 562
Ġ7 089
Ġsor ting
Ġ15 32
ca w
ca zn
ca mbridge
Ġ01223 596
Ġma p
Ġma riott
Ġ8 19
Ġ8 53
Ġ8 665
Ġ6 53
lu xu
Ġav vx
Ġav aion
Ġr w
Ġr fd
Ġr bq
Ġr rk
Ġr jq
Ġro cks
Ġro ez
Ġro verside
Ġun wind
Ġ17 00
Ġhi ding
Ġhi ya
Ġ13 4
Ġop af
Ġop gq
Ġ16 5
Ġ16 45
ha a
Ġho ild
Ġho lel
ak dvq
Ġdif frent
Ġ14 30
Ġpark ign
Ġkn rf
ck ed
Ġ18 30
un zjv
ite cture
Ġwork ers
Ġ012233 48
Ġbri llia
Ġbri ttish
uro sy
Ġ21 00
Ġcenter s
Ġcu za
ming han
Ġ20 30
Ġ20 58
Ġsugge tions
iz qt
ma vy
Ġsever ail
Ġv q
Ġv wi
Ġv bp
Ġv zb
Ġv zp
Ġv hn
Ġv vbm
Ġv oons
Ġv caw
Ġv akdvq
Ġ9 5
Ġ9 18
Ġ9 89
21 44
21 02
21 62
nn fn
nn xw
Ġsp lash
Ġcont ains
fe t
ster ton
Ġcon formation
pp dy
pp oz
Ġstan sed
11 62
11 625
Ġbir minghan
mi p
Ġpizz e
li bility
wi d
Ġid s
Ġout standing
ue k
ue mwr
ns l
ns bf
ms av
ms vt
ms uuo
Ġ07 34
Ġ07 245
Ġ07 94
Ġ07 82
Ġ07 906
Ġ07 0552
bp cy
bp qw
58 69
Ġswi ming
be ww
24 17
24 08
24 600
17 3
17 9
17 66
17 70
17 73
07 67
07 62
Ġfa e
as q
ol qy
Ġhin to
Ġcher y
Ġcher sterton
rop od
50 32
50 18
50 34
66 50
66 78
66 68
66 552
29 0
29 8
29 70
29 98
08 90
08 99
ab u
ab qg
ab ctf
35 43
35 64
35 47
40 45
40 17
40 67
40 31
10 47
10 62
Ġcou ny
ub q
88 7
wh fpq
wh wlv
Ġgast ropod
54 3
54 4
Ġhe v
52 07
52 56
kw g
kw ma
27 64
39 8
46 2
46 29
46 3830
59 4
59 75
59 03
20 26
Ġpol itely
Ġgra ff
32 45
32 59
32 67
19 52
19 75
Ġap ha
41 36
43 7
43 00
43 73
Ġtur n
et vs
et nnfn
su xc
Ġportu geuese
Ġz s
Ġz w
Ġz uf
Ġz nv
Ġz if
Ġz jp
Ġz yo
Ġz fre
Ġz cjz
Ġz etnnfn
16 5
Ġfur thu
Ġhut ington
Ġafri an
09 887
sh u
sh v
Ġ0122335 124
od nsbf
id ance
ks x
br x
br my
49 2
49 71
49 4679
Ġchar lin
Ġba hv
os fm
48 2
48 5
48 9
48 90
48 75
mo res
mo hd
06 15
06 27
06 13
Ġhop istal
tn z
Ġen xxh
Ġgr oovy
Ġdes ination
57 3
57 90
57 73
Ġproble ms
ip cz
ip ime
Ġrest rictions
am xi
am na
am pt
36 297
51 46
42 88
42 59
fy o
38 42
38 05
Ġke pt
Ġsuit ed
77 4
77 44
77 03
80 40
Ġrea ches
Ġjo yg
Ġ0122336 26
Ġ0122336 265
18 69
18 407
13 7
78 08
78 55
78 53
Ġant olia
ah e
ah ds
ah uy
ah hb
mp oew
Ġda a
Ġda ey
56 4
Ġgu idance
na jf
ka v
79 64
ky w
ky z
iti mate
33 2400
Ġsal sas
Ġve g
Ġve dx
Ġpara ge
26 13
26 87
zz c
zz vv
Ġug u
Ġbl owing
Ġbl oomb
Ġ0122390 268
70 43
53 49
53 44
Ġblooms bur
Ġbu pk
Ġmargher it
Ġx x
Ġx al
Ġx ell
Ġx oy
Ġx rr
Ġx ldda
Ġte hcn
ys z
Ġky wf
gy wss
64 19
Ġhed ing
urf tu
jg kv
68 1
68 11
Ġq f
Ġq sas
Ġq lk
Ġq gl
Ġq bq
Ġq zp
Ġq sns
Ġq lyjq
Ġsid gewick
Ġamen ites
Ġreg ular
ds bs
76 92
76 30209
Ġef gw
Ġdar ling
Ġclassi fy
bu a
bu qp
69 7
69 08
69 46
lk su
lk mz
84 10
Ġvari ed
100 8
az c
az n
Ġref resh
ru wch
tu gn
tu yx
67 88
99 26
99 84
99 31
99 92
Ġ47 559
Ġ56 36
Ġwillia m
po m
47 4
47 23
av u
Ġ012235 5017
37 2
ety f
sj wc
sj qkm
Ġ02 233
Ġbud ge
om v
72 12
74 60
Ġlex ux
Ġtes iir
Ġ0122321 6811
Ġ012239021 6
Ġ52 57
96 2
96 80
ws g
Ġau hg
31 08
pm zk
pm nb
pm ucr
Ġhk mr
ft k
lh x
Ġgir l
05 58
gl x
up hir
93 12
93 46
93 32
Ġ01223323 61
ua gg
tc m
eg c
Ġbo ko
03 39
97 33
gx hks
tz ff
Ġcra sh
bd l
bd bf
dz w
hx f
Ġ01223311 62
kn m
kn zyj
sw fb
Ġ0122327 4222
Ġeng ine
Ġeng land
Ġscand anav
83 35
sr qi
ty b
ty l
ty nu
Ġaltern atively
qy upu
ae ksx
ix j
ix r
ix gge
nz d
nz kow
jx a
wy uf
wy cw
vol r
Ġhung ting
nf srqi
Ġ076 08
Ġ076 25
Ġ076 36297
jy tw
jy ol
zy v
zy ru
pq mz
236 1
Ġsingapo re
Ġ01223335 16
sx t
vd h
Ġcl umsy
hu ghes
hu yuy
Ġyo ntch
Ġ077 39
Ġ077 3854
Ġ077 26151603
je bz
je zp
uy in
uy qck
Ġgi bf
lj q
lj rt
dd fw
427 9931
bt dt
81 35
qb m
qb zy
rat ely
ht b
ni my
nk qu
nk ty
nk kol
jv px
lx w
lx x
lx z
uw gdz
qc c
qc qdy
61 66
cv kz
cv luxu
ph zut
bz vy
bz kav
mf a
mf m
Ġhm n
Ġhm uh
Ġreal ize
Ġcompan ion
Ġcompan ies
fn c
vh m
cc gz
hl m
hl s
hl jo
zk x
aw bi
gn q
nu co
Ġoo ghnz
Ġoo amxi
jj n
ux kir
vx vb
vx azn
gq j
gq tnz
gq mfm
Ġtop ic
Ġ074 11
Ġ074 218
lq ra
lq bdl
oi mm
oi uy
dh ipime
qg j
233 3057
Ġappro x
ny c
ny h
oz r
oz ak
tb m
zb n
Ġ070 39
Ġ070 48
Ġ070 4379
zl mlr
cw j
ij n
ij u
sv q
sv pom
ov k
rk t
rk xu
hh ood
if k
zw p
Ġaccomod ation
bf w
bf xw
nh c
nh p
nh so
pr fe
sq sc
xq vc
Ġimp artial
Ġ01223217 450
Ġ01223217 261
bn br
rd abu
wd nd
wd kf
wd nm
pv zd
Ġmath cing
750 9
cg c
cg ot
wf hnv
au dv
hz qe
nw ndb
hq fy
hq vd
zs f
01223 332400
aj h
df po
pz hljo
vb kj
Ġrep lied
Ġ46 73
Ġrese revation
bour hood
Ġchester son
005 105
Ġinform tion
nr cwj
Ġadv ic
zm vox
qs fkb
yy gy
yy doo
yy ijn
gc sqr
wb x
ii kbz
lm k
lm xs
Ġamong st
ja cgot
jd ar
407 6
467 40
hn mj
rp hxf
wv u
rz rh
Ġavai ble
Ġavai bale
Ġavai libility
bc ji
rr jvpx
Ġpat ch
Ġfoc uses
Ġneigh bourhood
709 5
Ġmess ing
Ġsec rets
Ġ12233 11625
Ġinquire d
754 34
hj su
kl g
Ġ0788 7630209
247 2408
829 7
hf ucr
iq nsl
ju vw
kx rkt
ten pin
uq im
Ġ0730 836
Ġneighbor hhood
tk id
Ġib fe
Ġcw lkmz
Ġyt oiuy
sf ko
Ġnt qsj
808 9
lb cu
ud n
yj n
Ġna utical
Ġunli kely
Ġxm l
ez ldf
tj se
Ġyh ns
cf q
qj phzut
Ġprom ising
Ġfl ick
Ġbi bj
108 6
Ġcond ition
Ġcond uct
Ġ0756 2472408
bx l
bx nrb
Ġsna cks
827 19
Ġinsi sted
Ġatta cked
Ġrad ically
Ġoe bh
Ġ0122325 6459
Ġ0122325 6650
Ġ0122325 6166
Ġzm gywss
Ġzm zlmlr
Ġincre ments
Ġcy jdar
Ġpd ms
Ġhq ka
Ġhq gn
Ġhq sozl
Ġsd mc
Ġleg nth
Ġleg itimate
Ġguesth ous
196 30
lw vq
lw lxz
Ġaddmiss on
Ġround ing
Ġ0760 99
Ġquie t
yt amna
Ġident ical
Ġ0712 1756
Ġ0757 463830
jn uy
uz fnc
Ġ1223 568988
fm nhc
Ġir de
Ġct etvs
Ġmr rv
Ġmr tsnq
Ġgj pmzk
lyl sh
Ġdescri option
zkd it
Ġaccomid ations
gun h
rm lz
Ġtb icsa
Ġwp gq
Ġwp kwg
Ġfz lk
Ġgw me
Ġgoon ville
Ġue klg
Ġuj umj
Ġaddenbrook e
380 56
Ġ012233650 98
swx ej
Ġretain ed
Ġplast ics
Ġskimp ing
Ġts refn
Ġpage s
Ġgk jebz
Ġ0744 4279931
Ġ0703 494679
Ġxr wycw
Ġphysic ally
517 3
cine mas
fk ixr
iw uzfnc
Ġcp ndraus
Ġhh bz
Ġhy ppoz
Ġyb cvluxu
Ġbd jacgot
Ġrain s
Ġ67 42
Ġrg bb
Ġzz pp
Ġxg dp
jna c
wkv k
yv gz
Ġpq pb
Ġpur pose
Ġreco ment
Ġload ed
Ġentra bnce
Ġsepa rately
Ġindic ation
Ġ0748 18407
917 9
djx lt
djx azc
rfl pz
vsr vh
vsr rz
Ġcj sen
Ġyy ppdy
Ġfvn msuuo
Ġlf bb
Ġlf qbm
Ġkf hqfy
Ġrz kwma
Ġ0786 2333057
Ġxz hnmj
afsw e
afsw la
kcz qa
hhs lxw
142 6
Ġww zs
Ġlma p
Ġdest roy
Ġsample s
Ġmult o
Ġeg rkxu
Ġwen esday
Ġrj oua
Ġzdt m
Ġxh rx
Ġ01233 66552
Ġclso er
Ġ07727 005105
060 1
624 2
616 2
mia vh
sry tu
xmy y
Ġwy ixgge
Ġps nfsrqi
Ġnh crn
Ġdm iepe
Ġreq ure
Ġmx mohd
Ġmrq ellg
Ġole zkdit
Ġey egc
Ġweel kend
Ġvh wyuf
Ġzza a
Ġawa epk
theat res
Ġhank ering
ohh p
xoc sa
Ġhv gcsqr
Ġnb audv
Ġnf kr
Ġbnf zmvox
Ġdq rt
rig ty
Ġsan y
Ġcomb ination
Ġposto code
Ġjb bpqw
Ġzxi bge
0122321 0353
cpi fs
636 4
cch v
ddz b
eel pu
eve w
eys d
ebq sqsc
fts p
gul pv
gpd oy
grq wbx
gjv z
gsq vs
hqq ulfl
ith cs
iits nd
jsu f
jnk dod
kel m
kex q
kut ua
kds ff
kig ns
ltw hg
lrs l
mir fir
mks m
muse ums
nga vnb
nov fd
ogh ua
oad qcc
oag c
pis wdkf
qci iz
qgg j
qjd no
rly zkx
rps y
rfd cgc
sfl v
sdo h
tad it
tdb iju
tjz nf
uke yo
uhi uu
wys leg
wdo kb
xla q
xfo bdbf
xfc shu
yey utc
yxa ff
yxd k
ycm lxx
zmb uc
zsi hls
zpq n
zpb nfd
zww qn
zih sz
Ġridge wood
Ġoth e
Ġtjz my
Ġtjl zzc
Ġtxe b
Ġasi a
Ġach itecture
Ġaward ed
Ġaqim z
Ġiko i
Ġigm rvy
Ġioj tyl
Ġcere p
Ġcpb uemwr
Ġcrlm atvb
Ġwood bridge
Ġwxi aok
Ġwff ljrt
Ġwvs mpoew
Ġpor tions
Ġpran k
Ġpqq vsrvh
Ġpdi wvu
Ġpwf vg
Ġpnp gqmfm
Ġhic miavh
Ġhia ssah
Ġhvt afs
Ġyon urjs
Ġybg swxej
Ġywe kso
Ġfing ered
Ġfrs z
Ġfcg nzkow
Ġfkd ue
Ġftf rigty
Ġnzx pp
Ġbia zmbuc
Ġbfo dsbs
Ġbcy nhp
Ġbix l
oowm jen
Ġlwi xne
Ġlny gvm
Ġlpv gjvz
Ġdak q
Ġreth inking
Ġrester aunt
Ġreplace ment
Ġremind ed
otkf h
Ġsge zxo
Ġsrs otyz
Ġmth f
Ġmlq zyru
Ġmrv afswe
Ġmgc svpom
Ġmtx ch
Ġmmh ron
Ġmicke y
vefo g
Ġiniti ally
ceby u
ldnj zee
Ġgur sthouse
Ġglv bzvy
Ġgnb ko
Ġgqs ot
Ġwiqe bn
Ġstaud ct
pevy v
Ġwhop ping
Ġanim als
Ġitail ian
Ġchien se
Ġmonder n
Ġbehal f
sicr d
eafs m
Ġdeep ly
itjj mjc
Ġraeg fil
Ġexcep tion
Ġalsexh ly
Ġstup id
irns v
Ġpolun esian
Ġnorthham pton
Ġadjo ining
Ġnifutf qf
Ġoxw o
Ġoasa ahhb
Ġoaow j
Ġmueiry k
Ġeza wt
Ġebq n
Ġuaz uxkir
Ġuwr mv
Ġjua pvb
Ġhaak a
Ġtrua ma
Ġkad pmucr
Ġkix yygy
Ġkvk izqt
Ġkdft beww
Ġnightsstar ting
Ġsercr cln
Ġsett ling
Ġ7562 5428
Ġavvx fl
Ġrbq lun
Ġrrk zoi
Ġrjq o
Ġhoild ay
Ġknrf fo
Ġbrillia nt
mavy rq
Ġvbp wad
Ġvzp whwlv
Ġvhn bpcy
Ġvakdvq nb
Ġ989 2
Ġsplash ing
msvt p
olqy p
whfpq t
Ġgraff itti
Ġzuf sd
Ġznv pvzd
Ġzyo hew
Ġzfre k
Ġfurthu er
brmy hp
Ġbahv a
ipcz jp
ampt j
Ġjoyg ndz
Ġ012233626 82
ahds d
ahuy b
zzvv l
Ġbloomb ury
Ġbloomsbur g
Ġbupk jytw
Ġxldda gqj
Ġtehcn ology
Ġkywf gunh
urftu c
Ġqzp cebyu
Ġqsns uagg
Ġqlyjq kty
Ġefgw y
Ġrefresh ed
ruwch n
tuyx ww
sjwc xza
Ġ02233 24600
Ġtesiir j
Ġauhg volr
Ġhkmr si
uphir t
Ġscandanav ian
tynu q
Ġ07636297 454
huyuy gs
Ġyontch wd
Ġ0773854 4250
jezp dw
Ġgibf wdnm
ddfw ph
btdt ol
nkkol wnu
qcqdy fq
Ġooghnz gw
Ġ0704379 5737
bfxw tp
wfhnv gm
vbkj ft
qsfkb m
iikbz bl
Ġ0730836 7931
Ġcwlkmz er
Ġntqsj sp
Ġzmgywss o
Ġhqsozl wh
ytamna ao
Ġ07121756 826
Ġ0757463830 7
Ġmrtsnq mu
Ġtsrefn qw
Ġgkjebz n
Ġ0703494679 6
Ġxrwycw bt
Ġhyppoz mf
Ġpurpose s
Ġ074818407 29
Ġxzhnmj rs
Ġdmiepe ty
Ġmxmohd j
Ġawaepk rt
Ġjbbpqw a
Ġzxibge vs
Ġyonurjs x
Ġbfodsbs l
Ġglvbzvy o
Ġvhnbpcy y
0 279
0 106
0 904
0 605
0 275
1 66
1 480
2 52
3 15
3 66
3 46
3 41
3 71
3 000
3 387
3 447
3 769
4 909
4 902
5 33
5 164
6 78
6 270
7 07
7 34
7 147
7 514
8 01
8 06
8 53
8 782
8 390
8 363
9 35
9 19
9 41
9 53
9 236
9 531
9 084
a ook
a pe
a fi
a lex
a cks
b re
b ing
b pe
b it
b sit
b qy
b nu
b qqs
c ame
c ur
c so
c wor
c nl
c code
c jv
c xj
d r
d in
d at
d ts
d ose
d id
d fy
e u
e ive
e ops
e be
e bb
e gl
e qw
e cology
e cb
e ku
f ry
f tt
f za
f ze
f pb
f hg
f rf
f vv
f mx
f ud
f fet
g ine
g ose
g as
g ies
g ging
g lk
g oi
g tr
g zp
g cae
h il
h sy
h rl
h zf
h kq
h cg
h pf
i xi
i lle
i il
i gy
i ht
i oq
i wb
j fi
j sp
j ds
j qy
j nv
j lt
j rd
k gy
k je
k bl
k rn
k gt
l ha
l jb
l qf
l ww
l rf
l bi
m its
m db
m ht
m jz
m jk
m qz
m qd
m outh
n at
n ge
n ke
n ow
n am
n ber
n rk
o x
o sity
o sa
o je
o bz
o jc
p se
p pe
p um
p by
p nf
p cl
q sh
q ka
q ef
q zb
q mu
q vl
r w
r me
r day
r ms
r inity
r nx
r zn
r cp
s ot
s ally
s pp
s zt
s gt
s kx
s aru
t v
t ra
t ie
t vx
t pr
t ftk
u ve
u fe
u guese
u ries
u ds
u zk
u zp
u ug
u cessful
v ay
v na
v qf
v xh
v uy
v lj
v bz
v jm
v nr
v jl
v uhu
v ysz
w at
w ce
w ed
w af
w dz
w rt
w cv
w xy
x ts
x ad
x ds
x wy
x cw
x oe
x oj
x pz
x kl
y wn
y ul
y na
y hg
y mf
y hh
y zf
y to
y vg
y qqs
y ghg
y htb
z j
z la
z am
z william
z udn
Ġt ext
Ġt th
Ġt ss
Ġt xi
Ġt qq
Ġt jf
Ġt cr
Ġt nu
Ġt tr
Ġt xx
Ġa e
Ġa ed
Ġa ain
Ġa ck
Ġa ab
Ġa stra
Ġa qm
Ġa qr
Ġa eb
Ġa uli
re ma
re comend
Ġi e
Ġi y
Ġi ma
Ġi po
Ġi gn
st ate
er ling
er gies
ou xbourne
Ġth a
Ġth yat
in s
in yn
nt ion
el u
ra a
Ġc f
Ġc n
Ġc oo
Ġc ince
Ġc oor
Ġc dh
Ġc mbridge
Ġc xz
Ġc igy
Ġw t
Ġw oo
Ġw ri
Ġw sp
Ġw cr
Ġw ku
Ġw wq
Ġw ucr
Ġp c
Ġp ity
Ġp ad
Ġp gy
Ġp bg
Ġp bz
Ġp gq
Ġp ho
Ġp kei
Ġp bnbr
Ġthe ie
Ġh len
Ġh cy
Ġh bb
Ġh rt
Ġh xs
Ġh xy
Ġh jp
Ġh bx
Ġy j
Ġy n
Ġy pe
Ġy uck
Ġy ello
Ġy bd
Ġy nu
Ġy yk
Ġy dg
Ġy ku
Ġy rr
Ġy xv
Ġf j
Ġf n
Ġf ss
Ġf ror
Ġf dp
Ġf cr
Ġf zk
Ġf rfm
nd or
nd tvx
at us
at pj
at gu
Ġn x
Ġn y
Ġn sta
Ġn ch
Ġn bw
Ġn vl
Ġn sg
Ġyou like
Ġb ry
Ġb ust
Ġb ast
Ġb ourne
Ġb cu
Ġb nh
Ġb wx
Ġb cm
Ġb xr
oo q
oo gy
oo tz
or o
or ting
or zp
Ġl t
Ġl bu
Ġl zy
Ġl fn
Ġl bh
on ne
Ġto w
Ġto me
ing y
Ġd c
Ġd t
Ġd si
Ġd our
Ġd ough
Ġd tu
Ġd mk
Ġd ql
Ġd pjo
ri cular
ri ta
Ġre read
Ġre verse
Ġs f
Ġs of
Ġs arch
Ġs ket
Ġs rt
Ġs bh
Ġs rc
Ġm b
Ġm j
Ġm m
Ġm z
Ġm la
Ġm vi
Ġm ht
Ġm qg
ve zi
of k
of z
an er
ay s
ay lesbray
ge j
ge vp
Ġhotel l
Ġin market
Ġin eed
ce nv
ce frf
Ġis or
Ġare nt
ld e
ld n
ld o
ar p
Ġtra y
ed on
ie ncy
ie gt
ie pcl
Ġtrain did
th h
th p
Ġg b
Ġg ue
Ġg dy
Ġg bb
Ġg bz
Ġg vn
Ġg fg
Ġg nrk
Ġg yna
mb led
ke fy
es u
me nation
Ġthat k
Ġli mits
Ġsta nds
Ġsta ff
ll as
ll wm
pe e
pe y
Ġdo pe
Ġof fi
Ġthere fore
Ġthere ban
Ġpri iced
Ġan o
Ġan q
ere s
ro za
ro qg
ct t
Ġle zo
Ġle va
Ġle aner
Ġch icke
Ġpe ts
Ġpe ppe
Ġbe g
Ġbe came
Ġnu ecb
Ġnu vbz
ouse s
Ġwhat a
la at
ea a
ea s
Ġde bit
Ġti p
de brookes
de mz
ch y
ch way
Ġ2 7
Ġta i
Ġta ndor
Ġguest ouses
it ol
Ġra ves
Ġarri vi
ur so
ur xq
ss f
Ġwa ma
Ġwill recomend
der ss
gh na
gh zv
ry c
ry m
ry lh
ow a
ow w
ow rr
Ġal mentum
Ġal fli
Ġplace m
Ġfree way
al i
al v
Ġel ese
so me
so vuhu
Ġco re
Ġsu p
Ġsu s
Ġsu ucessful
Ġno min
Ġ3 24
Ġ3 27
Ġ3 18
Ġ3 245
Ġint alian
Ġint rinity
ts kq
ts oubt
Ġst res
Ġst erling
Ġst atus
Ġst ingy
ir sf
ir hqy
Ġpo ccode
Ġcheap t
ne c
ne j
Ġor vr
Ġad z
Ġad ios
Ġad debrookes
Ġad derss
00 3
00 9
00 07
00 77
00 25
00 71
00 4877
Ġby tskq
Ġo gx
Ġo gb
Ġo vnr
Ġo demz
Ġ5 797
Ġ5 150
Ġmu f
Ġmu cn
Ġmu gged
Ġmu nber
fi ph
30 5
30 23
30 78
Ġe h
Ġe q
Ġe qg
Ġe ki
Ġe oj
Ġe oq
Ġe hn
Ġe uo
Ġe uz
15 24
45 7
45 37
45 31
45 6838
Ġpart ricular
ul cke
ul pr
ul kb
Ġsh ell
Ġsh ore
Ġsh arp
Ġu f
Ġu uj
Ġu qg
Ġu ov
Ġu au
Ġu gej
Ġinter vals
Ġea ger
um ae
Ġpostcode cb
Ġj i
Ġj ck
Ġj umn
Ġj jk
Ġok hx
Ġall l
Ġall ergies
23 24
23 19
23 25
23 98
ic thp
Ġwe ts
Ġwe bsit
Ġtr qit
Ġbut the
Ġk is
Ġk ross
Ġk uq
Ġk qlh
12 15
12 42
ai jm
Ġwed en
Ġsat rday
Ġ7 35
Ġ7 39
Ġ7 51
Ġ7 14
Ġ15 36
Ġif hsy
ca or
ca zm
Ġma lasian
Ġma ghna
Ġ8 00
Ġ6 30
ia gd
ia ntion
lu ld
Ġr k
Ġr by
Ġr ga
Ġr sd
Ġr hf
Ġr cj
Ġr nge
Ġr kefy
Ġun v
Ġun nam
lo l
Ġhi m
Ġ13 45
Ġ13 29
Ġ12 00
Ġ12 45
our z
Ġ16 01
ci wl
ha x
ak er
ak wb
Ġper cept
Ġ14 9
Ġ14 12
Ġpark in
Ġpark land
Ġkn ick
Ġkn hd
Ġkn acks
Ġ10 29
Ġknow ledge
Ġ18 0
Ġ18 4
Ġ18 15
Ġ18 45
un o
un rh
Ġbre ad
Ġbreakfast in
Ġbreakfast ritish
Ġac ron
Ġac cu
Ġac cep
Ġac llas
qu hj
Ġmi fn
Ġ: <|
fic iency
Ġmin tu
Ġmin osa
Ġ21 45
Ġvisit ed
Ġcu ps
Ġsuggest for
iz m
iz lj
Ġsever ing
Ġv b
Ġv s
Ġv u
Ġv de
Ġv ince
Ġv rh
Ġv xh
Ġv kv
Ġv wf
Ġv vj
Ġv jqm
Ġv vso
Ġ9 00
port uguese
21 92
Ġsp skx
fe q
fe gx
Ġticket ss
Ġfit billies
able s
Ġste er
Ġche kc
Ġup per
Ġ09 0
Ġ09 6
xb d
Ġbish eops
pp d
pp qg
pp sg
pp pee
11 3
11 11
Ġbir ds
li vl
Ġmar ga
wi gn
wi gas
Ġid f
ms f
ms mb
ms rk
ms urso
Ġunfort unt
by v
Ġ07 90
Ġ07 22
Ġ07 87
Ġ07 83
Ġ07 611
Ġ07 511
Ġ07 413
Ġ07 146
Ġ07 504
Ġ07 2054
Ġ07 193
Ġ07 19630
58 3
58 66
58 25
58 53
58 552
sp t
tw fu
Ġsearch by
Ġuniver sally
Ġcar ing
Ġfir day
Ġcur mu
unt e
tt en
24 35
24 40
24 09
24 2400
17 5
17 29
17 19
17 84
Ġcho ise
07 3
07 9
07 49
07 13
07 26
07 68
07 63
as bz
Ġash bury
Ġash itd
Ġqu ote
Ġqu eries
Ġwo luld
50 3
50 5
50 60
50 129
66 33
66 62
29 43
29 13
29 99
29 82
29 188
08 0
08 26
08 880
Ġla w
Ġla ck
Ġla gging
Ġla pse
Ġfun house
ab s
ab il
ab owrr
Ġ23 12
Ġ23 79
35 66
35 60
35 37
35 7708
35 4679
40 52
40 318
Ġclu nk
10 1
10 12
10 36
10 37
10 981
Ġclub bing
Ġcou lc
Ġallenbel le
Ġhunting on
Ġhunting do
60 11
60 27
60 56
60 248
54 6
54 92
52 7
52 8
da ldo
Ġart chway
01 62
27 3
27 13
27 62
27 6037
39 32
39 99
Ġgastropub ed
46 15
46 08
Ġlov el
59 0
59 36
59 18
59 96
Ġcla ir
Ġgra t
32 5
32 66
32 55
32 83
19 2
19 06
19 51
19 03
jo s
Ġap lha
Ġbist oro
43 4
43 46
43 64
43 76
43 87
Ġsound ing
Ġz c
Ġz r
Ġz one
Ġz ua
Ġz uw
Ġz iy
Ġz ug
Ġz cm
Ġz wmr
16 91
16 276037
Ġafri ca
Ġhami lit
il x
sh all
od le
od yj
od sg
od dn
od hqy
od kgt
ks k
br p
49 67
red i
48 4
48 31
48 5866
Ġlater s
06 07
Ġen ozr
Ġah ley
Ġ33 30
Ġsc ud
Ġdes int
Ġer cazm
57 6
57 7
am livl
Ġadden book
Ġbra in
Ġbra ined
36 7
36 24
36 89
36 37
36 3682
51 8
51 3560
Ġamerican s
Ġamerican indian
fy r
fy yw
55 6
55 56
77 28
77 79
77 76
77 85
80 36
80 29188
18 00
13 47
78 4
78 27
78 43
78 47
78 2800
Ġtel e
ah ej
ah we
Ġsa aook
28 35
28 55
28 33
28 95
28 719
56 00
56 11
56 49
Ġcomm unte
Ġten pen
79 3
79 5
79 00
Ġsal on
Ġ# <|
Ġve kf
Ġmid bi
26 30
26 16
26 31
Ġug roza
cy zt
dy jm
22 802
22 303
hal mqd
oy nj
53 603
Ġcorrect ing
Ġblooms ber
Ġbu zz
Ġbu ffet
Ġx f
Ġx ln
Ġx okt
Ġx ooq
Ġx abowrr
Ġx dyjm
ys kr
per ative
Ġaw some
Ġwish ing
Ġ0122324 600
gy o
89 7
89 54
89 91
Ġbel ow
Ġbel eive
jg wfn
jg oogy
68 5
68 6
68 23
68 66
68 09
14 19
14 77
Ġq j
Ġq m
Ġq t
Ġq w
Ġq ol
Ġq ey
Ġq fn
Ġq bh
Ġq gz
Ġq wz
Ġoutdoor s
Ġmoment s
ds xpz
Ġlear ning
Ġhold ing
76 21
73 18
Ġef ficiency
pri mavera
Ġ28 15
Ġred o
69 58
69 13
71 44
lk gevp
63 7
63 66
63 13
84 88
84 706
di q
98 54
tu dsxpz
99 1
99 42
99 64
bb d
bb wce
Ġ01223446 400
87 23
87 60
87 43
87 4600
Ġhu vqf
86 26
86 53
47 2
47 08
oc x
av a
av z
91 39
om k
dp y
mw p
bs be
bs yul
72 57
Ġsecond ary
aq goi
Ġinj uries
Ġem ailing
Ġpasse d
96 1
82 30
82 08
82 55
258 3
04 12
04 2435
Ġaccident ally
Ġrel iable
lh urxq
02 20
dq p
dq z
05 17
62 24
rh ee
92 08880
eg rg
ig z
97 41
tz jwt
fl t
Ġalter cation
Ġcru cial
dz vf
dz dpy
Ġcaf edon
hx cw
hx xoj
jb qp
353 248
bw g
83 66
83 10
Ġexpect ed
Ġchance s
ty o
Ġaltern ately
qy z
Ġmis poke
Ġ078 16
Ġ078 6666
Ġ078 459
Ġ078 4052
pj f
uf ryc
741 3
Ġret ry
Ġret state
wy jf
xh c
zc c
zc cf
Ġfo e
kv k
kv n
kv jv
kv rj
Ġ076 43
Ġ076 18
Ġ076 1898
Ġ076 359
Ġ076 485866
jy qs
Ġmain ten
zy x
zy uu
Ġdeal bre
Ġbarbeque moder
sx vn
og bn
Ġbr ouxbourne
Ġsir fmx
px rdi
tl q
tl glk
pd fza
pb mac
Ġ077 00
Ġ077 1027
uy vay
Ġ079 45
Ġ079 12
Ġ079 39
Ġ079 16
Ġ079 57
Ġ079 80
Ġ079 56
Ġ079 241
Ġ079 40318
rq lg
Ġdriver s
xa w
nl s
nl gw
Ġye bk
ni rala
ni qs
nk i
Ġed wards
jv b
Ġdrop ping
Ġdrop off
qc j
sc orzp
cv v
cv pd
ph wc
ph jh
Ġform at
gm vmx
Ġuh h
388 9
bz j
Ġown j
Ġown er
nj n
nj and
vh j
vh n
vh zam
cc p
Ġpu vx
Ġmet o
uj k
Ġrefer ance
wk cr
wk odyj
Ġindust ry
gn m
gn wign
nu zq
rx y
Ġoo oh
pk tzh
Ġ0122346 166
Ġappoint ments
gq am
vm j
vm l
Ġ074 30
Ġ074 17
Ġ074 2054
Ġ074 456838
Ġ074 2943
lq ed
lq xej
Ġdisc onne
410 1
nv qq
Ġinc redi
ew b
ew j
Ġow gtr
dh ghzv
ny aw
tb nx
zb hm
zb nkz
Ġ070 17
Ġ070 569
gu uk
zl g
zl t
kc bm
lc xad
sv w
km t
km u
rb o
kf ofz
nh d
pr m
sq ora
Ġadj usted
Ġ01223217 498
we op
wd inyn
wd raa
cg ob
rv p
hz r
ssy qh
zs ourz
he bry
kd jr
Ġtreat ment
gs f
df wj
jk g
Ġmodi fied
lz ng
xx mg
zq if
nr c
vw b
Ġhost pital
oq l
qz n
zm v
525 1090
958 8
bh sgt
iy vezi
ku h
xf b
903 6655
wc msmb
Ġfoo t
Ġ075 16276037
Ġmistaken ly
jd c
Ġoc f
407 0
qh ue
qh brm
qp hxxoj
xp fhg
Ġban a
Ġlevel s
755 3
bv uve
250 8366
Ġmall s
Ġassum ed
146 9
pf pz
yr wr
Ġbell fry
Ġju mbled
Ġacc orn
Ġ0788 1581
iq x
Ġ012 2021
Ġentire ly
Ġ0730 458
557 9
679 9
py gg
wa ojc
dk pw
Ġvj ubq
Ġsolid ly
839 2
839 4
nq o
wq r
Ġtran sit
xu ij
zd c
Ġ072 07
Ġ0779 84706
Ġ0779 9036655
uv quhj
Ġyh cvv
Ġwast ing
Ġuk uno
Ġ071 23
Ġ071 40
Ġ071 32
Ġ0758 5251090
Ġ0746 915
Ġtransp orting
dge on
qj ky
Ġfour ty
Ġboo t
Ġdj akwb
Ġarr vie
Ġ0769 304
Ġ0769 22303
sg laat
yo byv
Ġqq fbz
Ġcond itions
Ġ0777 778
fj w
jwe ilx
Ġaz nty
Ġadvi sed
Ġqk zsourz
Ġfulfill ing
sm l
Ġlx vwb
Ġstra nd
Ġorigin ation
Ġorigin ally
Ġ0707 654
Ġfollow s
Ġfollow ed
Ġresaurant s
420 4
sb me
td oddn
Ġcy jkg
Ġpie ce
Ġrestaur nat
Ġguesth ose
Ġguesth use
Ġmix up
Ġdiscount ed
fv tlq
vg ulkb
231 3537
Ġsplur ging
Ġfax ing
488 5
fit zwilliam
Ġtg ma
Ġhea z
Ġrq wkodyj
Ġ0749 9208880
yu zb
Ġil wv
Ġfg tt
Ġfg ahej
Ġfil ter
Ġchat ting
Ġ0122359 6055
Ġ0122359 4264
Ġ1223 363682
Ġ1223 353248
Ġvr su
Ġ0709 9
Ġ0709 749
flx fyyw
826 7
fu i
Ġkz halmqd
Ġ0717 874600
Ġ0706 42
Ġ0774 4629
109 40
109 27
109 1729
zkd xb
Ġiv uvquhj
Ġwp ch
Ġsy ee
Ġvk jgwfn
Ġ0745 46740
Ġ0726 22802
kj daldo
Ġxb g
Ġxb h
Ġxb yobyv
Ġai ms
Ġyv qa
Ġsv ciwl
Ġvf irsf
Ġzl rylh
8026 406
Ġvalu ables
yzl p
Ġft lhurxq
Ġnoo lde
Ġnoo odle
Ġbd xd
Ġdd lkgevp
Ġmd kcbm
Ġmon opo
Ġgc su
Ġew sovuhu
Ġ0772 08
Ġ0793 73
Ġ0797 242400
Ġ0797 53603
zzi bbd
Ġbuff s
Ġretrieve d
655 4531
duf h
kvo vjm
sfs mh
wbn izlj
Ġax ljb
Ġpur z
Ġnz gyo
Ġlj wdinyn
Ġldy hl
Ġload s
Ġub tsoubt
Ġmyster ious
Ġunfortunat ly
Ġ0742 2508366
Ġ0737 8026406
Ġqb iagd
917 5
dc ja
kar lg
qis l
xen sml
Ġcct yhu
Ġyi pppee
Ġdw msurso
Ġdw zmv
Ġrecent ly
Ġgq pn
Ġcap abil
Ġnumb eres
Ġoy bqs
Ġkoo ydy
Ġcuri osity
Ġspa cy
Ġ0713 7847
Ġ0747 8029188
Ġzp dwv
Ġscra ped
Ġxz oj
Ġaccomad ations
057 9
645 7
Ġiil atpj
Ġwoul s
Ġhl gv
Ġywn a
Ġlma bmg
Ġdest iantion
Ġ463 1
Ġmult itude
Ġeg iil
Ġ0773 782800
Ġ0775 2313537
Ġ0795 1091729
4250 26
Ġ01233 357708
Ġduy cgob
Ġclso e
408 24
pg ro
Ġdad s
Ġrecom men
Ġrecom menation
cew brp
opo bp
Ġ01223257 168
Ġ01223257 157
mac bp
Ġ011223 464646
Ġ011223 354679
Ġeduc ation
Ġeduc ational
700 1
tg kmu
Ġtn ahh
Ġari ving
Ġmeat s
Ġ0122344 7144
Ġrl ofk
Ġ0785 58552
Ġ012232177 12
Ġ07851 425026
260 52
dnk jlt
uqf b
vng n
vav o
yce fu
ypx o
Ġtc gx
Ġdv rx
Ġjak fvtlq
Ġ07245 5207
Ġ070552 28719
dzw out
Ġ074218 10927
Ġ07048 042435
Ġ076099 26052
alex ander
din ate
dts ws
dose twfu
ebb la
egl weqk
eqw zdc
ftt jp
fpb a
fvv qz
fud rx
gose u
hil qzb
hrl wxy
hcg f
ixi h
iwb oc
jfi o
jsp fk
jqy rema
jnv zha
kgy bd
kje ce
krn ar
lww a
lbi w
mjz ig
mjk uw
mqz o
nke z
now ledge
pum o
pby pd
qvl vd
rme hq
rms dc
rnx jt
rcp ye
sot o
spp p
tra ins
uds fh
uug j
vxh kr
wed a
waf mf
wrt d
wcv jfio
xcw jd
xoe z
ywn k
yhg vysz
yto av
yghg spt
Ġtxi pl
Ġtjf pd
Ġtxx xcwjd
Ġaed kgybd
Ġaain t
Ġack nowledge
Ġaab mc
Ġastra y
Ġaqm kfofz
Ġaqr mt
Ġaeb kvjv
Ġima gine
Ġign ore
Ġcoo perative
Ġcince ma
Ġcoor dinate
Ġcdh r
Ġcigy xaw
Ġwri tten
Ġwcr bsyul
Ġwku zw
Ġwwq vd
Ġwucr xxmg
Ġpad gs
Ġpbg q
Ġpbz wh
Ġpgq kg
Ġpho en
Ġpkei hxcw
Ġhxs pey
Ġhxy macbp
Ġynu ex
Ġyyk jrd
Ġyku iegt
Ġyrr jg
Ġyxv rl
Ġfdp k
Ġfcr ra
Ġfzk bqy
Ġfrfm wn
Ġnsta ot
Ġbry ard
Ġbust ing
Ġbast ille
Ġbourne mouth
Ġbcu q
Ġbwx li
Ġbxr zyuu
ootz c
Ġlbu hu
Ġlbh pktzh
Ġdsi que
Ġdtu fttjp
Ġdpjo ds
Ġsket chy
Ġmla a
Ġmvi bvuve
Ġmht jjn
Ġmqg fe
iepcl qu
Ġgdy bqqs
Ġgbz vhzam
Ġgfg rnxjt
Ġgnrk q
Ġgyna ecology
llwm nom
Ġoffi cial
Ġthereban y
roqg kd
Ġleva ing
Ġchicke n
Ġpeppe red
Ġnuecb thh
Ġnuvbz xwy
Ġtandor ri
Ġarrivi gn
Ġwama gama
Ġalfli jmy
Ġnomin al
Ġstres sed
irhqy o
Ġorvr fo
Ġbytskq jt
Ġogx ndtvx
Ġogb az
Ġmucn cvpd
fiph ul
Ġeoj dk
Ġehn oql
Ġeuo hk
ulcke v
Ġuov cew
Ġuau opobp
Ġjck un
Ġjumn qw
Ġwebsit e
Ġkuq svw
Ġkqlh m
Ġweden sday
Ġifhsy rzn
Ġrby pr
Ġrhf zm
Ġrcj dh
Ġrkefy hm
Ġunnam ed
Ġpercept ive
Ġaccu ally
Ġaccep ting
Ġacllas us
Ġmintu es
Ġvrh ksk
Ġvkv t
Ġvvj wu
Ġvvso h
Ġspskx m
fegx wo
Ġmarga rita
Ġunfortunt ately
Ġ0719630 5390
Ġcurmu dgeon
asbz ha
Ġclunk er
Ġzuw p
Ġhamilit on
odsg j
odhqy m
Ġscud mores
Ġdesint ation
Ġercazm ga
Ġaddenbook es
Ġsaaook i
Ġvekf oww
Ġmidbi ufe
Ġugroza q
Ġbloomsber ry
Ġxdyjm to
Ġqey tlglk
Ġqgz ke
Ġqwz xq
Ġ0786666 6313
Ġ078459 10981
Ġ0784052 5996
wyjf k
zccf ku
Ġ0761898 7553
Ġ076485866 09
Ġmainten ance
Ġdealbre aker
Ġbarbequemoder n
pxrdi hg
Ġ0771027 5649
Ġ079241 38056
Ġ07940318 761
Ġyebk k
niqs m
scorzp y
Ġpuvx nkez
gnwign c
Ġ0742054 2713
Ġ074456838 00
Ġ0742943 8913
Ġ070569 50129
iyvezi b
yrwr ssf
Ġ07881581 074
Ġ0122021 68
Ġ0730458 5611
Ġ077984706 42
Ġ0746915 6027
Ġ0769304 4050
Ġ076922303 66
Ġqqfbz tyo
Ġ0777778 7318
Ġ0707654 0763
Ġfgahej d
Ġ0709749 0762
Ġ0717874600 2
Ġ07744629 357
Ġvkjgwfn r
Ġ074546740 26
Ġ072622802 07
Ġsvciwl wa
Ġvfirsf ks
Ġmonopo ly
Ġ0797242400 82
Ġ079753603 45
Ġaxljb tf
Ġqbiagd vh
Ġcctyhu u
Ġoybqs bzj
Ġkooydy fy
Ġ07137847 685
Ġiilatpj i
Ġlmabmg ni
Ġ0773782800 7
Ġ078558552 25
Ġ072455207 50
hilqzb f
hrlwxy b
Ġykuiegt j
0 45
0 12
0 397
0 104
0 667
1 660
1 404
1 389
1 392
2 2725
2 293
2 274
2 155
3 23
3 49
3 13
3 73
3 888
3 493
3 102
3 234
3 147
3 297
4 45
4 49
4 888
4 71
4 792
5 15
5 16
5 38
5 153
5 194
5 163
5 385
6 52
6 32
6 38
6 28
6 70
6 76
6 240
6 880
6 088
6 906
6 159
6 309
6 454
6 203
6 437
6 305
7 40
7 39
7 44
7 33
7 22
7 494
7 598
7 406
7 909
7 569
7 683
7 472
8 35
8 42
8 22
8 73
8 67
8 293
8 365
8 665
8 244
8 372
9 50
9 20
9 13
9 68
9 67
9 65
9 31
9 525
9 2094
9 351
9 199
9 395
9 905
9 487
9 637
a ction
a de
a um
a fo
a uel
a eg
a ag
b en
b ck
b tn
b ky
b cy
b qq
b lue
b mw
b he
b mj
b knm
c ul
c xb
c da
c cy
c up
c qb
c nu
c bf
c xu
d oc
d tl
d xa
d ht
d ny
d xc
d xw
d uq
e v
e er
e ay
e pensive
e very
e ig
e og
e cl
e zw
e zp
e iy
f is
f ns
f dy
f mw
f lh
f pj
f kv
f vd
f zw
f zm
f uq
g ood
g al
g ca
g lo
g ck
g ip
g di
g gl
g tz
g ious
g ix
g vw
g rfm
g njn
h th
h wn
h ange
h ep
h ko
h gy
h jg
h gx
h pj
h jy
h hl
h vx
h ov
h mu
h sd
h nb
i ar
i it
i ut
i ster
i by
i ries
i ft
i jb
i bg
i kd
i bx
i mbur
j si
j ur
j mi
j da
j za
j ka
j lk
j pq
j qc
j ki
k tn
k tz
k dz
k xh
k lq
k bh
k ba
l er
l ay
l iz
l be
l ff
l tl
l je
l rq
m on
m se
m jx
m hy
m lx
m zp
m xbf
m jdc
n ri
n ent
n is
n hx
n we
n mc
o mb
o bd
o im
o hl
o bf
o xd
p re
p ie
p ai
p ia
p os
p am
p wd
p gt
p rym
q os
q tx
r lo
r xh
r pq
r cu
r gm
r rx
r pl
r wb
r ookes
r knm
r mwp
s of
s uck
s ks
s mo
s di
s cu
s gg
s lq
t ch
t ai
t ck
t us
t ep
t kn
t xc
t ja
t ayr
u ce
u ea
u is
u il
u os
u ig
u fl
u wy
u im
u db
u hg
v u
v in
v on
v ge
v mm
v lu
v ci
v tw
v tt
v af
v sx
v uj
v qg
v aa
v the
v gfk
v kvn
v kuh
w of
w co
w est
w lo
w ha
w ck
w pp
w ms
w ga
w gu
w mg
w aj
w tp
x ex
x th
x ai
x dw
x jc
x go
y ic
y pri
y oc
y af
y pd
y nv
y yk
y aj
y cz
y td
y jxn
y haa
y ava
z g
z ing
z ry
z tw
z as
z iv
z bs
z tz
z bt
z nj
z bqs
Ġ ood
Ġ ooked
Ġt q
Ġt t
Ġt sj
Ġt gu
Ġt kp
Ġa ia
Ġa com
Ġa aw
re af
re ngth
re ned
re ii
Ġi c
Ġi w
Ġi ay
Ġi fi
Ġi us
Ġi str
Ġi ef
Ġi pb
Ġi vx
Ġi bi
Ġi yk
Ġi ac
st ri
er k
er os
er cise
ou cjv
Ġth ast
Ġth uz
in sive
in rz
nt o
nt nn
nt eer
ra mes
ra bw
Ġc ep
Ġc iti
Ġc qe
Ġc zt
Ġw u
Ġw in
Ġw ce
Ġw ww
Ġw jj
Ġw mu
Ġw yo
Ġw fz
Ġw mh
Ġw qt
Ġw xn
Ġw yv
Ġp j
Ġp one
Ġp mi
Ġp ique
Ġp gv
Ġp wmd
Ġp iced
Ġh w
Ġh le
Ġh ous
Ġh ral
Ġh po
Ġh vd
Ġh gq
Ġh xg
Ġh no
Ġy d
Ġy ol
Ġy sw
Ġy nw
Ġy yf
Ġy cqw
Ġf ed
Ġf ave
Ġf ow
Ġf ool
Ġf na
Ġf ru
Ġf sx
Ġf yf
Ġf sof
Ġf rames
at ched
at nmc
Ġn w
Ġn of
Ġn an
Ġn ir
Ġn by
Ġn cc
Ġn app
Ġn lc
Ġn ye
Ġn xw
Ġn reaf
Ġyou u
Ġyou have
Ġb g
Ġb p
Ġb le
Ġb ke
Ġb and
Ġb ms
Ġb ol
Ġb sj
Ġb kv
Ġb qb
Ġb jj
Ġb ta
Ġb mv
Ġb kx
Ġb cp
Ġb hwn
oo j
oo ow
oo hx
or j
or ist
or do
Ġl d
Ġl ve
Ġl ady
Ġl nz
Ġl xq
ing s
Ġd de
Ġd zz
Ġd dy
Ġd bw
ri y
ri can
Ġre vi
Ġre li
Ġre iter
Ġre imbur
ot i
ot nd
ot vbm
ot orj
Ġs s
Ġs and
Ġs ma
Ġs sc
Ġs xq
Ġs sry
Ġm zz
Ġm tb
Ġm sg
of pf
of bmj
an a
le ct
ay uck
ay cb
ay cp
ge z
ge ssi
se ment
se cp
Ġin stance
Ġin eq
ce tw
ce fx
ce rened
Ġis cw
ed ezp
ie ow
Ġand good
th at
Ġg t
Ġg ps
Ġg tz
Ġg kn
Ġg gm
Ġg vm
Ġg wd
Ġg pf
Ġg xv
Ġg nc
Ġg fsn
Ġg inrz
mb si
ke bo
es xm
es dat
me e
Ġat e
Ġat bu
Ġthat ll
Ġli a
Ġli ft
Ġwi li
Ġwi dh
Ġsta ined
Ġdo g
Ġof or
Ġca m
Ġca amb
Ġpri ve
Ġwh oop
Ġit is
Ġam end
Ġam use
Ġam ny
Ġam ended
op fs
Ġme mor
Ġme fvd
ro sas
ro wnh
Ġon wards
ct g
ct ing
ct zh
ct ao
Ġle w
Ġle ince
day s
Ġpe y
Ġpe po
Ġpe ole
Ġmo ving
Ġbe nch
Ġbe ef
Ġbe ans
Ġbe gan
Ġnu erology
Ġnu eros
si m
si u
si er
si ght
si ers
si pital
Ġany tih
Ġwhat every
la vo
ea jk
Ġde ni
Ġti a
Ġti q
Ġti ming
fere n
de b
de tf
ch eap
Ġ2 45
Ġta ht
Ġta lbe
Ġ4 58
it k
Ġra hz
Ġarri ces
Ġlo m
Ġlo sing
ur ring
ss du
Ġwa gam
Ġex epensive
Ġex hange
Ġex ercise
ow s
Ġnot ify
pen ese
pen vqg
one kw
Ġel l
Ġel ated
Ġexpensive no
so jd
Ġ0 501
Ġ0 482
Ġco b
Ġco se
Ġco com
Ġsu nri
Ġno ise
Ġ3 474
Ġ3 434
Ġfind s
Ġreference d
ts my
Ġst ory
Ġst rength
ir jd
Ġgo l
Ġab c
Ġab lt
ne m
ne n
Ġor dered
Ġor mu
Ġor gan
Ġad fo
00 1
00 6
00 7
00 78
00 53
00 87
00 93
00 200
00 108
00 758
Ġo ly
Ġo su
Ġo sh
Ġo bt
Ġo do
Ġo qp
Ġo gz
Ġo sn
Ġtaxi that
for man
Ġ5 49
Ġ5 71
Ġ5 484
Ġmu bj
fi cent
Ġas lo
Ġas ks
30 49
30 48
30 962
Ġe is
Ġe ck
Ġe mp
Ġe qf
Ġe bz
Ġe iy
Ġe ja
Ġe bc
Ġadd s
15 30
15 21
15 46
15 06
15 38
15 28
15 53
15 73
15 98
15 005
15 073
mm ig
45 2
45 35
45 26
45 53
45 87
45 598
45 457
ul pt
Ġsh ame
Ġsh ew
Ġsh ali
Ġsh ift
ian a
ee tt
Ġu d
Ġu ij
Ġinter nent
Ġea sier
um k
um z
Ġpostco ade
Ġj k
Ġj s
Ġj qg
Ġj cp
Ġj elu
Ġok at
ell ation
Ġgre ate
Ġha ir
Ġha nds
Ġha gw
Ġha xfb
ain ted
Ġall s
23 21
23 78
23 68
23 100
23 65
23 789
ic ben
Ġwe hj
Ġmuse aum
Ġk a
Ġk i
Ġk s
Ġk x
Ġk xh
Ġk cr
Ġk rj
Ġk uwf
Ġk lnf
Ġk weqk
Ġk tpr
Ġk vna
Ġk gck
Ġaf t
Ġaf ju
Ġaf resh
vi wpp
12 27
12 20
12 49
12 87
12 47
12 62
12 938
12 127
ai is
Ġtrav av
Ġent rean
Ġser vies
ad bi
Ġrecommend vlit
Ġwedn esdat
Ġsaturday s
Ġse cular
Ġ7 44
Ġ7 776
Ġ7 4615
Ġdi p
Ġdi stri
ca po
ca jen
Ġmonday thursday
Ġ01223 53
Ġ01223 5869
Ġ01223 92094
Ġma xim
Ġ8 45
Ġ8 11
Ġ8 602
Ġ8 292
Ġ8 991
Ġ6 20
Ġ6 42
Ġ6 98
ia j
ia ke
Ġcb h
Ġcb v
Ġind in
Ġind ain
en l
en ac
en vmj
en uhg
lu w
lu ck
lu nteer
Ġav j
Ġav z
Ġav ail
Ġav bknm
Ġr s
Ġr ough
Ġr bb
Ġr xc
Ġr cs
Ġr bky
Ġ11 00
Ġun im
Ġun luck
Ġop fpj
Ġ16 30
ci w
ha kka
Ġho sipital
ak tq
Ġdif feren
Ġper forman
Ġ14 00
ck bp
un ff
qu dny
Ġmin on
Ġmin us
Ġnight ma
Ġwell ington
Ġcu z
Ġcu pc
gge st
Ġbar ring
Ġpro vies
Ġpro ved
Ġpro nto
fo s
Ġv on
Ġv of
Ġv ale
Ġv ys
Ġv dq
Ġv hy
Ġv zc
Ġv ph
Ġv nh
Ġv hz
Ġv pmq
Ġv dxa
Ġ9 24
Ġ9 468
port ant
21 01
21 19
21 09
21 81
21 829
21 072
Ġsee ng
nn gg
Ġsp yic
Ġcont ract
fe z
fe uy
Ġassi sted
Ġlet ters
Ġri ser
Ġtheat r
Ġleice ister
Ġcon vo
Ġcon cerened
us qz
Ġup yaj
ong ings
Ġ09 3
Ġ09 45
izz ae
11 48
11 74
11 311
11 076
Ġpl iz
Ġpl vgfk
Ġsteven bridge
Ġpizz ria
li p
li ig
li cting
Ġcare fully
Ġfe tch
wi jb
Ġid cu
Ġid aiis
ue y
ns d
ns k
ns dg
Ġcode yi
Ġ07 41
Ġ07 149
Ġ07 91
Ġ07 31
Ġ07 02
Ġ07 124
Ġ07 741
Ġ07 880
Ġ07 236
Ġ07 4050
Ġ07 566
Ġ07 087
Ġ07 270
Ġ07 153
Ġ07 299
Ġ07 248
Ġ07 224
Ġ07 118
Ġ07 8650
Ġ07 212
Ġ07 167
Ġ07 306
Ġ07 903
Ġ07 486
Ġ07 237
Ġ07 107
Ġ07 8207
Ġ07 450
Ġ07 447
Ġ07 9900
Ġ07 4969
Ġ07 8017
Ġ07 1342
Ġ07 1039
Ġ07 4134
Ġ07 6645
Ġ07 337
Ġ07 5146
bp lu
58 2
58 5
58 48
58 84
58 86
58 02
58 95
58 903
58 5413
sp ital
sp gq
tw v
tw ff
Ġcar ries
tt n
be zbt
24 45
24 62
24 3830
24 317
24 165
17 39
17 79
17 14
17 03
17 97
17 163
17 542
Ġhosp ti
07 17
07 48
07 1249
Ġfa c
Ġarchitecture s
ti xk
Ġqu ant
Ġcher r
50 54
50 57
50 94
50 97
50 198
Ġexp insive
66 51
66 89
66 63
66 96
66 224
29 26
29 966
29 68
29 73
29 087
29 337
08 53
08 623
08 7755
Ġla banese
Ġla iter
ab k
35 2
35 71
35 909
35 9188
35 2636
Ġrequest er
40 29
40 19
40 41
40 18
40 93
40 629
Ġclu e
Ġclu dxc
10 30
10 24
10 38
10 28
10 91
10 31
10 200
10 1770
10 1174
ub x
88 29
88 35
88 46
88 63
88 72
88 559
Ġconf licting
wh b
wh otorj
60 24
60 64
Ġwhi p
Ġserving s
54 36
54 900
54 24165
54 1714
Ġhe fmw
52 69
52 5802
kw k
kw orth
Ġsch ag
room z
Ġpa mp
01 35
01 39
01 807
27 16
27 22
27 94
27 500
39 1
39 38
39 18
39 47
39 02
39 6930
39 508
46 37
46 31
46 2354
46 909
Ġcityroom a
59 77
59 89
59 84
59 61
20 90
20 42
20 69
20 98
20 178
20 467
20 203
Ġgra ton
Ġlist s
32 60
32 26
32 5018
19 0
19 68
19 276
19 35909
19 541714
jo ms
Ġshad ai
41 845
43 89
43 61
43 439
43 451
Ġtur ned
Ġwonder fully
et onekw
Ġ0122333 383
ep l
ep m
ep n
ep ka
su h
su ow
Ġz e
Ġz q
Ġz u
Ġz lk
Ġz lm
16 1
16 2
16 59
16 16
16 2045
16 945
90 12
90 66
90 59
90 93
90 257
90 583
Ġcom fir
09 43
09 99
il c
il fp
ff r
ff cu
Ġaut om
od jmi
Ġwar m
ks v
br ft
br lh
br roke
49 6
49 31
49 938
Ġba mbridge
Ġba mj
os cs
48 29
48 14
48 99
48 074
48 458
mo ahh
06 94
06 97
Ġback ground
tn bplu
Ġsc ulpt
57 17
57 22
57 62
57 03
57 6412
57 498
Ġover sight
ip gv
am ped
Ġadden broke
Ġadden gr
Ġadden rookes
Ġadden brroke
36 48
36 91
36 97
36 503
51 37
51 153
51 377
Ġdin ning
42 57
42 80
42 58903
fy h
fy y
fy mn
55 24
38 77
38 78
38 64
38 62
38 75
38 666
Ġke en
77 5
77 45
77 87
77 977
77 3624
Ġja penese
80 4
80 37
80 3720
Ġmag ni
44 29
44 90
44 48
44 458
Ġcomple ting
18 1
18 09
18 49
18 64
18 4149
18 654
13 427
78 24
25 35
25 51
Ġda la
Ġda vin
28 1
28 51
28 42
56 50
56 29
56 171
56 341
Ġ0122330 1906
34 78
34 792
34 4637
Ġenjoy able
Ġmill ion
ka p
ka q
hi kz
79 43
79 78
79 26
79 96
79 108
79 311
Ġgeorg iana
33 00
33 45
33 50
33 40
33 39
33 19
33 38
33 73
33 218
33 585413
33 1864
33 79311
26 7
26 80
26 456
26 246
zz ty
dy v
Ġ79 9
Ġbl rx
22 602
22 307
Ġwandle bry
Ġquest house
Ġquest ios
hal xp
70 24
70 3661
Ġfi qy
53 70
Ġbu mber
Ġbu ggy
Ġbu wat
Ġx q
Ġx u
Ġx zc
Ġx pq
Ġx cu
Ġx qe
Ġx yk
Ġx sm
Ġx zzty
ga be
ora h
ys f
ys lff
Ġlu dy
Ġlu obd
Ġstand ing
Ġ40 48
Ġ0122324 77977
Ġky h
Ġky xt
gy hjg
Ġbenn ies
iv u
iv jm
89 52
89 79
89 74
89 38666
Ġpunt ers
Ġhed ged
Ġanth ing
Ġbel ongings
jg b
jg i
jg gn
68 12
68 17
14 00
14 30
14 17
14 75
Ġq dz
Ġq rj
Ġq au
Ġq lm
Ġq rvy
Ġq eajk
Ġsort ford
245 2
ds bq
ds kr
76 18
76 53
76 73
76 71
76 296
73 17
73 40
Ġemm auel
Ġred undant
Ġred uce
69 19
69 80
69 76296
71 15
ng rlo
84 90583
ogy a
151 4490
Ġref ried
Ġref lect
di i
di bt
Ġgla ss
ln mfr
240 5869
98 90
98 06
98 42
98 798
000 57498
tu p
67 666
99 3
99 11
99 25
99 10200
bb um
bb zz
Ġrec urring
Ġ56 5
87 59
87 36
bj l
ical y
86 519
65 30
65 2974
47 20
oc u
oc ma
37 4
37 80
37 53
37 0713
Ġsw ing
Ġsw amped
dp u
af t
af rican
Ġspecial ty
aq v
Ġem f
Ġ0122321 7708
Ġ0122321 6305
Ġ0122321 7671
ws f
vo k
vo ecl
258 6
Ġrel ief
sse s
Ġdri ven
lf ktz
ax wo
02 290
05 5747
62 5507
93 49
93 76
75 5984
Ġ01223323 222
Ġcre ated
Ġaudi o
92 66
ua sojd
Ġtrans fer
eg os
eg zq
eg rknm
ig f
ig tj
Ġbo ld
Ġbo ked
js fd
gx co
gx mx
rs owr
85 00
85 21
85 17542
fl g
gw oc
bd x
Ġcru siers
Ġcaf w
hx k
hx nk
jb z
jb it
kn h
kn jsq
Ġ0122327 118
Ġ0122327 4679
353 355
95 34792
Ġec pe
bw f
Ġext end
83 27
83 77
83 73
83 2090
Ġstick ler
ild p
ag sv
qy q
qy zi
223 9
ae j
Ġ078 17
Ġ078 35
Ġ078 54
Ġ078 57
Ġ078 25
Ġ078 63
Ġ078 660
Ġ078 087
Ġ078 296
Ġ078 6908
Ġ078 0087
Ġ078 23100
Ġ078 101770
Ġ078 396930
ix xh
pj jggn
Ġactual y
611 9012
uf rq
jx l
Ġ68 34
hy kw
hy uw
hy lp
wy q
xh lk
my om
my rl
my bk
Ġtour ing
zc sj
zc ph
nf au
nf sn
Ġfo ejz
Ġ076 899
Ġ076 108
Ġ076 199
Ġ076 071
Ġ076 5507
Ġ076 2617
Ġ076 4689
Ġ076 1739
ey mmig
pq zz
pq ov
im h
sx ef
vd j
Ġunderstand ing
Ġdisp lay
154 0721
085 605
397 58
397 36
397 50198
hu k
hu xe
hu edezp
hu gxco
px enuhg
ap kq
sy ve
tl r
db tayr
pd dz
Ġ077 60
Ġ077 49
Ġ077 48
Ġ077 3200
Ġ077 6666
Ġ077 117
Ġ077 506
Ġ077 469
Ġ077 0823
Ġ077 4019
Ġ077 19541714
Ġ077 0697
Ġ077 51377
Ġ077 33585413
Ġ077 39750198
je q
je ibg
uy rmwp
Ġ079 41
Ġ079 51
Ġ079 65
Ġ079 355
Ġ079 450
Ġ079 5032
Ġ079 24317
Ġ079 01807
rq r
Ġgi by
xa af
nl r
087 4608
906 3338
ht p
ht vv
Ġinqu iries
210 29087
gg n
gg gh
gg cup
sed nsd
Ġcanc ellation
Ġdel ays
cv h
cv t
gm u
bz i
bz mlx
gd cbf
tq ikd
Ġown ed
ww xh
Ġevent ually
bq j
hl r
Ġpu x
Ġsuf fered
511 377
eh el
zk twv
Ġpub icaly
aw a
aw l
wk fis
gn up
jz ivu
rx dv
257 6
pk jt
ux p
500 3
bi o
bi q
Ġcro sses
gq vm
vm t
xs f
xs m
Ġ074 214
Ġ074 247
Ġ074 216
Ġ074 21829
Ġ074 66224
Ġ074 101174
Ġ074 00057498
Ġ074 21029087
Ġsettle s
jm go
lq rj
lq pre
lq gmu
vf c
596 20
Ġow vuy
Ġcamp liz
Ġjedbur h
dh vw
qg z
qg vge
rj k
233 1493
224 2319
ny v
Ġ070 21
Ġ070 58
Ġ070 60
Ġ070 59
Ġ070 594
Ġ070 45457
Ġ070 27500
Ġterri ble
kc lip
rg ku
aa epl
ij h
ij i
361 4017
ov p
rk igf
vc f
828 6
hh z
if xs
mg t
nh oe
7977 95
Ġ01223217 297
jc s
Ġdr w
Ġdr ops
Ġot q
083 73
kq s
pv p
750 5
rv r
wf p
wf u
wf zd
178 22602
nw zi
yk t
zs fez
01223 243830
01223 576412
lv k
lv p
oj sim
oj fyh
Ġsave d
Ġ073 46
Ġ073 78
Ġ073 328
Ġ073 1958
Ġ073 2382
Ġ073 00200
Ġ073 40629
Ġ073 13427
df kf
pz dyv
vb st
vb mn
Ġrep ly
Ġrep ainted
kt j
ob im
Ġrent ed
cz r
lz ab
zq o
zq bezbt
232 666
Ġinform ative
ac orn
iu c
nr ce
vq lvp
Ġcet umj
gf xn
212 9349
958 77
bh o
bh kwk
iy u
iy hc
ku v
mr cq
xf u
493 32
Ġwou le
Ġavo xts
ii ko
ug ng
Ġ075 50
Ġ075 163
Ġ075 328
Ġ075 5492
Ġ075 17822602
zn qo
486 418
cm h
Ġprocess ing
291 483
zv gnjn
Ġhandle d
467 3319
286 3087
wv k
209 981
053 7
657 0
657 212
Ġwan kworth
Ġ26 30
639 55
709 8
ba ck
bk pddz
sl gc
tx co
Ġsec ured
mv aag
Ġju kebo
Ġju iake
Ġ0788 319
Ġ0788 0874608
082 2722
495 603
kx lnmfr
mx detf
dv ktj
gz ttn
Ġmoderat re
Ġ0730 3450
Ġ0730 2617
Ġ0730 88559
Ġ0730 18654
Ġ0730 8517542
6688 661
ball s
py fod
Ġih d
Ġih w
989 42
ari zing
hs g
hs m
kk kclip
sf w
sf wc
tf x
xv z
xv feuy
Ġmn oj
719 8
839 5762
jh ewg
ud mbsi
Ġhj zcph
Ġ0173 353355
hk r
lr twff
yw ctg
Ġocc ured
Ġuq m
Ġ072 291483
Ġ0779 640
Ġ0779 5998
393 6064
Ġswitch ed
ez j
ez bwg
uv jo
Ġrandom ly
form ed
Ġuk otnd
Ġ071 30
Ġ0758 4361
Ġ0758 1540721
Ġ0746 213
Ġ0746 22725
317 6
ao ks
cf u
qv odjmi
wj nx
Ġbi bmw
Ġbi ggest
Ġboo ing
Ġboo ok
Ġresol ve
Ġ0769 40824
Ġ0769 9910200
Ġfulfi lled
Ġ0777 645
Ġ0777 538
Ġ0777 67666
Ġ0777 02290
Ġ0777 9063338
Ġ0756 206
Ġ0756 5050
Ġ0756 931
Ġ0756 8490583
Ġmisunderstanding s
fh vfc
pc qyq
zu psd
Ġgoo day
Ġgoo bye
Ġval id
1750 9
629 8
sm lx
Ġsn atched
Ġet oi
Ġ0707 676
Ġ0707 2119
Ġ0707 11311
Ġ0739 1598
Ġ0739 2863087
Ġ012232173 00
Ġ012232173 12
377 5918
cj r
cj so
pu i
td sa
Ġanyth in
Ġanyth ig
Ġ0735 2155
Ġ0735 5269
Ġ0735 652974
Ġ0735 755984
Ġ0735 9534792
Ġ0799 288
196 5496
383 38
lw udb
vg qu
zr jzivu
Ġph on
Ġsop ap
Ġsop ggcup
Ġdoct or
Ġ0760 6976296
Ġ0754 07
Ġ0754 0853
Ġ0754 26246
Ġ0754 625507
386 590
488 6
677 4
8265 19
hle t
np g
yt ln
Ġtd vd
Ġtrian id
Ġhea ar
Ġdx my
Ġdit ten
Ġrock ed
Ġ0715 789
Ġ0715 3999
Ġ0715 17163
Ġ0712 981
Ġ0712 6119012
Ġ0749 863
Ġ0757 3158
Ġ0757 4928
977 6
Ġfil ms
Ġlq spgq
Ġmc ca
Ġ1223 462354
Ġvr w
Ġ0709 129
Ġ0709 12938
8824 111
412 7
857 4
857 311
dm zm
ib whb
Ġou n
Ġou kn
Ġpf usqz
Ġlk dt
Ġnorm ally
Ġ0717 7768
Ġ0717 43439
Ġ0708 0139
Ġ0706 759
Ġ0774 0734
Ġ0774 12127
Ġ0774 6689
147 3862
Ġmisin formed
6167 165
Ġls qyzi
Ġdoor s
Ġuj egrknm
129 7115
Ġ0700 4136
Ġ0700 1660
Ġ0745 5408
Ġ0745 30962
Ġ0724 1514490
Ġ0750 3689
Ġ0750 2242319
Ġ0750 8824111
Ġ0759 6698
Ġ0759 057
Ġ0759 1473862
Ġ0719 3902
Ġ0719 184149
Ġ0719 370713
Ġ0778 6419
Ġ0778 3493
Ġ0778 54900
Ġ0726 1965496
Ġ0789 45598
Ġ0789 8395762
498 702
578 77
380 2794
836 50
bm ht
fb so
fb nen
Ġxi viwpp
Ġtz liig
Ġik rvr
Ġhdt pos
Ġfd lfktz
Ġmot orist
Ġvo lunteer
Ġ0736 20203
Ġ0736 2331493
Ġ0755 6741
Ġ0755 669
Ġ0755 4509
Ġ0755 5424165
Ġ0744 10940
Ġ0763 19276
Ġ0763 44458
Ġ0796 16945
Ġ0796 79108
Ġzl rl
497 147
down ing
wfn bhe
Ġij hh
Ġiron ing
Ġnoo ne
Ġnoo ntime
Ġew rn
Ġew ofbmj
Ġuc wkfis
Ġuz nf
Ġuz brlh
Ġkl ofpf
Ġvm dv
Ġ0740 40
Ġ0740 3878
Ġ0752 057
Ġ0798 511377
Ġ0793 5848
8054 313
531 44
519 8
va ahm
Ġpur se
Ġlj qgvge
Ġdg jk
Ġ0723 5895
Ġ0723 4258903
Ġ0721 1297115
Ġ0710 3379311
Ġ0710 3614017
Ġ0748 2129349
Ġ0742 3023
Ġ0742 6688661
Ġ0718 3775918
Ġ0737 515
Ġ012232742 80
558 0
728 9
wla e
Ġnds jbn
Ġck rjk
Ġbw xb
Ġlnk duq
Ġjgn mhy
Ġvw dbtayr
Ġ0729 179
Ġ0729 0822722
Ġ0701 3802794
Ġ0716 5032
Ġ0776 4280
Ġ0776 8938666
Ġ0767 1538
Ġ0765 3266
Ġ0765 29966
Ġ0747 386590
Ġ07263 6696
Ġcongra ts
039 4
Ġry xm
Ġikc bzmlx
Ġlc fymn
Ġlz iiko
Ġdy lwudb
Ġremain s
Ġgal ary
esa ver
Ġlif esaver
Ġost code
Ġ012233483 14
Ġsteve age
Ġ0766 4673319
Ġ0743 46909
Ġ0773 162045
Ġ0775 4509
Ġchestert own
060 9
339 6
gp zktwv
mia wn
nm nty
xmy mr
Ġtll gqvm
Ġps ot
Ġnr dsbq
Ġmx dz
aru omk
Ġnum ner
Ġole ase
Ġey es
Ġallright y
Ġ0728 9
Ġ0733 3936064
Ġ0764 00758
Ġ0764 325018
8806 15
Ġzx knh
Ġzza g
5538 02
Ġawa iting
theat re
Ġ07229 832090
288 5
649 6
870 4
lit xvz
qlh vw
tfl p
Ġtie m
Ġari val
Ġbvc ge
Ġmeat balls
308 667
Ġjp aq
Ġ0122344 6011
Ġvx syve
Ġ0720 6167165
Ġ0753 2982
Ġ0768 20467
Ġ0768 1935909
Ġ0784 2440
Ġ0704 1247
Ġ07623 362
Ġ0762 29337
Ġ0792 8872
Ġ07598 08623
570 37
683 21
Ġ012232177 15
Ġ07629 344637
Ġ07657 055747
Ġ07715 6823
Ġ07558 835
550 2
xag v
xag z
ymg o
Ġale miawn
Ġcrow d
Ġcrow ded
Ġpw uyrmwp
Ġsx pjjggn
Ġsed kq
ayr gabe
mbur bc
Ġsumm ary
Ġsumm arizing
Ġjra o
127 325
Ġ01223596 102
Ġ01223596 203
Ġrw vc
Ġrw dskr
Ġ01223348 169
Ġ01223348 527
Ġ0734 2405869
Ġ07906 803720
5018 09
0899 5
abqg je
abqg pgt
398 20
485 210
Ġqlk cda
Ġhungting ton
Ġhungting don
Ġ07608 331864
Ġ07739 352636
Ġ07411 7257
Ġ07411 90257
Ġ07039 085605
Ġ07039 857311
252 6
533 14
919 5
bpe oxq
Ġwsp nwzi
Ġyj ctzh
Ġny gdcbf
Ġnch j
Ġdc lqrj
Ġsof t
Ġsus pect
4537 01
Ġrk bqj
Ġvb mxdetf
Ġ0722 8054313
Ġ07413 773624
Ġ07146 797795
Ġ07504 485210
Ġ072054 21072
Ġ07193 127325
2409 44
0726 15005
577 086
Ġqj tixk
Ġqm halxp
ocx gnup
Ġ07816 577086
xhc fdt
Ġ07643 657212
Ġ076359 51153
Ġ07700 0694
Ġ07945 880615
Ġ07916 703661
Ġ07957 232666
Ġ07980 498702
gnm fy
Ġdisconne cted
Ġincredi ble
Ġ07207 525802
Ġ07123 501809
Ġ07140 486418
Ġ07132 308667
Ġ07099 497147
Ġ070642 57037
Ġ077208 56341
Ġ079373 48458
Ġcapabil ity
6240 4
822 60
967 5
bck q
cul x
doc jur
dht qx
dxw r
eig q
ezw u
fns q
fdy tn
fzm kl
gca bio
glo d
gdi bp
gix g
grfm vdj
hth zu
hep gz
hko c
hgy rv
hhl ra
hvx e
iut q
ibx m
jlk vvf
jqc l
klq wt
kba eg
mxbf ll
nhx a
oim ds
ohl c
oxd ciw
pia f
prym dv
qos dv
sks ry
scu vbst
sgg iuc
slq nhxa
uea gtz
uis ccp
uig p
uwy wjnx
uim xv
vmm p
vtw bv
vaf lr
vsx c
vuj l
vthe io
vkuh bi
wck t
wms z
wgu qa
waj pb
xth tja
xai wckt
xgo a
yoc ring
yaf r
ynv v
zry o
ztw u
zas af
ziv n
ztz u
znj hylp
Ġtsj a
Ġaia obim
Ġaaw vsxc
reii um
Ġiay fj
Ġief d
Ġipb ct
Ġiyk hkoc
ntnn n
rabw r
Ġwce mvaag
Ġwjj dibt
Ġwmu c
Ġwfz tqikd
Ġwqt gd
Ġwyv yslff
Ġhle p
Ġhpo spital
Ġhgq gs
Ġyol n
Ġysw joms
Ġynw ufrq
Ġycqw egos
Ġfow ard
Ġfna jhewg
Ġfru gal
Ġfsx m
Ġfyf xwh
Ġnof olk
Ġnan fos
Ġncc fyy
Ġnapp ing
Ġnye umz
Ġnreaf g
Ġble ssed
Ġbke hhlra
Ġbms h
Ġbqb o
Ġbkx nwe
Ġbhwn flg
ooow tr
Ġlve iji
Ġlxq ww
Ġdde i
Ġdzz pyfod
Ġddy pie
Ġdbw txco
Ġrevi sed
Ġreli gious
Ġreiter ate
Ġreimbur sement
otvbm ss
Ġsma mrcq
Ġssc jda
Ġssry qgz
Ġmzz na
Ġmtb hnb
Ġmsg bhkwk
Ġineq vbmn
cetw ap
Ġiscw x
Ġandgood bye
Ġgwd ir
Ġgpf ba
Ġatbu ifxs
Ġwidh bp
Ġcaamb oats
Ġamuse ment
opfs bq
Ġmemor ies
Ġmefvd bwf
Ġleince ster
Ġpepo le
Ġnueros urgery
Ġanytih ng
Ġwhatevery ou
lavo g
Ġdeni ed
Ġrahz vkvn
Ġwagam ana
Ġsunri se
tsmy a
irjd nn
Ġorgan ize
Ġadfo rable
Ġoly qosdv
Ġosu o
Ġosh zupsd
Ġobt ain
Ġosn xb
Ġ549 27
Ġmubj smlx
Ġeck x
Ġemp ty
Ġeqf gnmfy
Ġebz ipgv
Ġeiy ul
Ġeja op
Ġshew p
eett jf
Ġjqg voecl
Ġhagw q
Ġhaxfb kap
Ġkcr pui
Ġkrj nyv
Ġkvna c
Ġtravav elling
Ġentrean ce
Ġrecommendvlit tle
Ġ74615 5219
Ġdistri ct
Ġ0122353 888
Ġ012235869 67
Ġmaxim um
Ġavail ble
Ġavbknm xq
Ġrough ly
Ġrbb hgyrv
Ġunim portant
Ġunluck y
Ġopfpj huk
Ġperforman ces
qudny hj
Ġnightma re
Ġcupc jmgo
Ġvale t
Ġvys fhvfc
Ġvdq w
Ġvhy o
Ġvzc xfu
Ġvph sfwc
Ġvhz umk
Ġvpmq dfkf
Ġvdxa czr
Ġupyaj tep
Ġplvgfk hd
nsdg j
Ġ07124 495603
Ġ07741 826519
Ġ074050 95877
Ġ07270 553802
Ġ07153 240944
Ġ07248 087755
Ġ078650 26456
Ġ07903 6651
Ġ078207 57877
Ġ07450 209981
Ġ07447 453701
Ġ079900 98942
Ġ074969 08373
Ġ078017 59620
Ġ071342 86519
Ġ071039 63955
Ġ074134 41845
Ġ076645 53144
Ġ07337 359188
Ġ075146 53314
Ġhospti al
071249 98798
Ġquant ity
Ġhefmw btn
Ġpamp hlet
Ġ0122333383 00
epka u
Ġzlm xp
Ġcomfir m
Ġautom ated
Ġbamj w
Ġsculpt ure
Ġaddenbroke s
Ġaddengr ookes
Ġaddenbrroke s
Ġmagni ficent
Ġdavin ci
hikz si
Ġblrx v
Ġquestios n
Ġxzc deb
Ġxcu cxu
Ġxyk uxp
Ġxsm icben
Ġxzzty rwb
Ġluobd jxl
ngrlo zv
uasojd n
jsfd di
hxnk xo
knjsq xy
Ġ078660 49938
Ġ078087 56171
Ġ078296 17509
Ġ0786908 1756
Ġ0780087 8036
Ġ07823100 765
Ġ078101770 49
Ġ078396930 90
ixxh v
hyuw pb
nfau xby
nfsn mzp
Ġfoejz bzi
Ġ076899 39820
Ġ076108 39736
Ġ076199 68321
Ġ076071 23789
Ġ0765507 2535
Ġ0762617 3176
Ġ0764689 0093
Ġ0761739 1159
Ġdisplay ing
huxe uz
Ġ0773200 8521
Ġ0776666 7494
Ġ077117 38338
Ġ077506 08995
Ġ077469 39508
Ġ0770823 8835
Ġ0774019 2551
Ġ0770697 5524
Ġ07751377 592
Ġ079355 36503
Ġ079450 15073
Ġ0795032 8037
Ġ07924317 108
Ġ07901807 088
Ġ074214 49332
Ġ074216 33218
Ġ07421829 709
Ġ07466224 734
Ġ074101174 78
Ġcampliz o
Ġ070594 48074
Ġ07045457 153
Ġ07027500 870
rgku mm
nhoe k
wfzd ed
Ġ073328 20178
Ġ0731958 5629
Ġ0732382 0078
Ġ07300200 666
Ġ07340629 776
Ġ07313427 234
Ġcetumj km
Ġavoxts pm
Ġ075163 11076
Ġ075328 22307
Ġ0755492 5977
znqo mb
Ġjukebo x
Ġ0788319 2583
Ġ07303450 247
Ġ07302617 458
Ġ073088559 44
Ġ073018654 82
Ġ072291483 00
Ġ0779640 1968
Ġ07795998 512
Ġ07584361 462
Ġ0746213 1215
Ġ074622725 35
Ġbibmw th
Ġ076940824 26
Ġ0777645 7787
Ġ0777538 009
Ġ077767666 76
Ġ077702290 36
Ġ0756206 3340
Ġ07565050 556
Ġ0756931 2325
Ġ0707676 2321
Ġ07072119 452
Ġ070711311 48
Ġ07391598 275
Ġ07352155 369
Ġ07355269 466
Ġ0735755984 7
Ġ0799288 6663
Ġ07540853 232
Ġ075426246 33
Ġ0754625507 3
Ġ0715789 6056
Ġ07153999 224
Ġ071517163 12
Ġ0712981 3049
Ġ0749863 1779
Ġ07573158 248
Ġ07574928 61
Ġ0709129 1573
Ġ070912938 11
Ġpfusqz ix
Ġ07177768 413
Ġ071743439 71
Ġ07080139 469
Ġ0706759 7569
Ġ07740734 110
Ġ077412127 24
Ġ07746689 138
Ġ07004136 407
Ġ07001660 178
Ġ07455408 697
Ġ074530962 54
Ġ07503689 471
Ġ07596698 267
Ġ0759057 4334
Ġ07193902 205
Ġ0719184149 2
Ġ0719370713 3
Ġ07786419 072
Ġ07783493 391
Ġ077854900 51
Ġ078945598 56
Ġtzliig k
Ġfdlfktz m
Ġ073620203 10
Ġ07556741 489
Ġ0755669 7926
Ġ07554509 101
Ġ074410940 25
Ġ076319276 76
Ġ076344458 15
Ġ079616945 17
Ġ079679108 16
Ġklofpf um
Ġ07403878 307
Ġ0752057 7289
Ġ0798511377 9
Ġ07935848 087
Ġljqgvge a
Ġ07235895 362
Ġ07423023 261
Ġ0737515 6908
Ġlnkduq pe
Ġjgnmhy r
Ġ0729179 2842
Ġ07165032 687
Ġ07764280 286
Ġ07671538 206
Ġ07653266 113
Ġ076529966 05
Ġ072636696 45
Ġryxm cefx
Ġ074346909 50
Ġ0773162045 2
Ġ07754509 492
Ġtllgqvm h
Ġnrdsbq ty
Ġ076400758 49
Ġ0764325018 6
Ġ07532982 082
Ġ076820467 22
Ġ07842440 492
Ġ07041247 281
Ġ07623362 802
Ġ076229337 33
Ġ07928872 088
Ġ0759808623 9
Ġ077156823 47
Ġ07558835 298
Ġ074117257 80
Ġ0741190257 2
Ġnygdcbf x
072615005 33
Ġqmhalxp g
Ġ077000694 70
docjur l
Ġwjjdibt f
Ġ079036651 07
