{"<|belief|>":0," <|endofbelief|>":1,"<|context|>":2," <|user|> ":3," <|system|> ":4,"<|endofcontext|>":5,"!":6,"\"":7,"#":8,"$":9,"%":10,"&":11,"'":12,"(":13,")":14,"*":15,"+":16,",":17,"-":18,".":19,"/":20,"0":21,"1":22,"2":23,"3":24,"4":25,"5":26,"6":27,"7":28,"8":29,"9":30,":":31,";":32,"<":33,"=":34,">":35,"?":36,"@":37,"A":38,"B":39,"C":40,"D":41,"E":42,"F":43,"G":44,"H":45,"I":46,"J":47,"K":48,"L":49,"M":50,"N":51,"O":52,"P":53,"Q":54,"R":55,"S":56,"T":57,"U":58,"V":59,"W":60,"X":61,"Y":62,"Z":63,"[":64,"\\":65,"]":66,"^":67,"_":68,"`":69,"a":70,"b":71,"c":72,"d":73,"e":74,"f":75,"g":76,"h":77,"i":78,"j":79,"k":80,"l":81,"m":82,"n":83,"o":84,"p":85,"q":86,"r":87,"s":88,"t":89,"u":90,"v":91,"w":92,"x":93,"y":94,"z":95,"{":96,"|":97,"}":98,"~":99,"¡":100,"¢":101,"£":102,"¤":103,"¥":104,"¦":105,"§":106,"¨":107,"©":108,"ª":109,"«":110,"¬":111,"®":112,"¯":113,"°":114,"±":115,"²":116,"³":117,"´":118,"µ":119,"¶":120,"·":121,"¸":122,"¹":123,"º":124,"»":125,"¼":126,"½":127,"¾":128,"¿":129,"À":130,"Á":131,"Â":132,"Ã":133,"Ä":134,"Å":135,"Æ":136,"Ç":137,"È":138,"É":139,"Ê":140,"Ë":141,"Ì":142,"Í":143,"Î":144,"Ï":145,"Ð":146,"Ñ":147,"Ò":148,"Ó":149,"Ô":150,"Õ":151,"Ö":152,"×":153,"Ø":154,"Ù":155,"Ú":156,"Û":157,"Ü":158,"Ý":159,"Þ":160,"ß":161,"à":162,"á":163,"â":164,"ã":165,"ä":166,"å":167,"æ":168,"ç":169,"è":170,"é":171,"ê":172,"ë":173,"ì":174,"í":175,"î":176,"ï":177,"ð":178,"ñ":179,"ò":180,"ó":181,"ô":182,"õ":183,"ö":184,"÷":185,"ø":186,"ù":187,"ú":188,"û":189,"ü":190,"ý":191,"þ":192,"ÿ":193,"Ā":194,"ā":195,"Ă":196,"ă":197,"Ą":198,"ą":199,"Ć":200,"ć":201,"Ĉ":202,"ĉ":203,"Ċ":204,"ċ":205,"Č":206,"č":207,"Ď":208,"ď":209,"Đ":210,"đ":211,"Ē":212,"ē":213,"Ĕ":214,"ĕ":215,"Ė":216,"ė":217,"Ę":218,"ę":219,"Ě":220,"ě":221,"Ĝ":222,"ĝ":223,"Ğ":224,"ğ":225,"Ġ":226,"ġ":227,"Ģ":228,"ģ":229,"Ĥ":230,"ĥ":231,"Ħ":232,"ħ":233,"Ĩ":234,"ĩ":235,"Ī":236,"ī":237,"Ĭ":238,"ĭ":239,"Į":240,"į":241,"İ":242,"ı":243,"Ĳ":244,"ĳ":245,"Ĵ":246,"ĵ":247,"Ķ":248,"ķ":249,"ĸ":250,"Ĺ":251,"ĺ":252,"Ļ":253,"ļ":254,"Ľ":255,"ľ":256,"Ŀ":257,"ŀ":258,"Ł":259,"ł":260,"Ń":261,"Ġt":262,"Ġa":263,"re":264,"Ġi":265,"<|":266,"|>":267,"st":268,"er":269,"ou":270,"Ġ<|":271,"Ġth":272,"in":273,"Ġ,":274,"Ġ.":275,"nt":276,"el":277,"ra":278,"Ġc":279,"Ġw":280,"Ġp":281,"Ġthe":282,"Ġh":283,"Ġy":284,"Ġf":285,"nd":286,"at":287,"ser":288,"Ġn":289,"Ġyou":290,"Ġb":291,"oo":292,"or":293,"Ġl":294,"user":295,"on":296,"Ġ?":297,"Ġto":298,"sta":299,"ing":300,"Ġd":301,"ri":302,"ste":303,"Ġre":304,"ot":305,"Ġs":306,"Ġm":307,"yste":308,"ystem":309,"system":310,"ve":311,"of":312,"an":313,"ook":314,"le":315,"ay":316,"ge":317,"se":318,"Ġhot":319,"Ġhotel":320,"Ġin":321,"ex":322,"co":323,"Ġfor":324,"ce":325,"Ġis":326,"ura":327,"urant":328,"Ġresta":329,"Ġrestaurant":330,"Ġare":331,"ld":332,"ould":333,"ar":334,"Ġbook":335,"end":336,"Ġtra":337,"ed":338,"ie":339,"ion":340,"Ġand":341,"bel":342,"ext":343,"ief":344,"ntext":345,"context":346,"endof":347,"belief":348,"Ġ1":349,"Ġtrain":350,"th":351,"Ġg":352,"mb":353,"ke":354,"Ġwould":355,"es":356,"ave":357,"me":358,"Ġat":359,"Ġthat":360,"Ġli":361,"Ġlike":362,"Ġwi":363,"est":364,"Ġsta":365,"ll":366,"pe":367,"Ġne":368,"Ġcan":369,"Ġdo":370,"Ġof":371,"rid":372,"Ġca":373,"Ġthere":374,"Ġpri":375,"Ġhave":376,"Ġwh":377,"Ġneed":378,"Ġarea":379,"Ġan":380,"ent":381,"Ġit":382,"Ġam":383,"ation":384,"op":385,"ere":386,"Ġme":387,"ridge":388,"Ġcamb":389,"ro":390,"Ġcambridge":391,"Ġon":392,"ct":393,"endofcontext":394,"endofbelief":395,"Ġle":396,"art":397,"day":398,"Ġyes":399,"Ġcent":400,"ood":401,"Ġch":402,"Ġpe":403,"Ġmo":404,"Ġbe":405,"Ġnu":406,"Ġday":407,"mber":408,"Ġnumber":409,"Ġcentre":410,"Ġlook":411,"si":412,"Ġple":413,"ase":414,"Ġplease":415,"ouse":416,"ople":417,"Ġpeople":418,"Ġar":419,"Ġ-":420,"Ġany":421,"Ġwhat":422,"ree":423,"Ġlooking":424,"Ġstar":425,"Ġprice":426,"la":427,"ction":428,"nce":429,"ea":430,"Ġatt":431,"ure":432,"Ġde":433,"Ġattra":434,"Ġattraction":435,"Ġti":436,"Ġfood":437,"fere":438,"Ġhel":439,"ame":440,"Ġdep":441,"Ġwith":442,"Ġdepart":443,"uest":444,"de":445,"king":446,"ch":447,"Ġ2":448,"Ġta":449,"Ġty":450,"wn":451,"Ġtype":452,"Ġ4":453,"Ġguest":454,"Ġyour":455,"it":456,"Ġhelp":457,"Ġra":458,"Ġarri":459,"Ġlo":460,"ur":461,"Ġpar":462,"ss":463,"Ġwa":464,"ference":465,"Ġtown":466,"Ġwill":467,"Ġleave":468,"ate":469,"der":470,"Ġstay":471,"Ġtime":472,"Ġname":473,"Ġmoder":474,"thing":475,"Ġex":476,"lace":477,"gh":478,"ind":479,"ry":480,"ow":481,"Ġal":482,"Ġplace":483,"Ġfree":484,"ble":485,"Ġmoderate":486,"Ġnot":487,"al":488,"rom":489,"Ġfrom":490,"Ġarrive":491,"house":492,"pen":493,"ange":494,"cer":495,"Ġthan":496,"Ġparking":497,"one":498,"sive":499,"Ġ.<|":500,"Ġguesthouse":501,"Ġran":502,"Ġel":503,"pensive":504,"Ġrange":505,"Ġpricer":506,"Ġpricerange":507,"Ġexpensive":508,"so":509,"Ġthank":510,"Ġ0":511,"Ġso":512,"Ġco":513,"Ġsu":514,"ter":515,"Ġno":516,"Ġnor":517,"Ġ3":518,"Ġalso":519,"is":520,"Ġdeparture":521,"estin":522,"Ġdestin":523,"Ġdestination":524,"Ġfind":525,"Ġint":526,"Ġreference":527,"ts":528,"out":529,"Ġ!":530,"Ġst":531,"ut":532,"ir":533,"nday":534,"Ġanything":535,"ine":536,"esday":537,"Ġelse":538,"Ġpo":539,"Ġgo":540,"eap":541,"Ġcheap":542,"Ġnorth":543,"Ġpre":544,"Ġsou":545,"hone":546,"Ġab":547,"ne":548,"Ġor":549,"Ġad":550,"Ġni":551,"Ġphone":552,"ver":553,"00":554,"Ġby":555,"xi":556,"Ġo":557,"Ġloc":558,"lle":559,"Ġtaxi":560,"for":561,"Ġwant":562,"Ġabout":563,"Ġ5":564,"ly":565,"Ġmu":566,"fi":567,"Ġhow":568,"Ġsome":569,"ress":570,"Ġas":571,"30":572,"Ġhouse":573,"Ġe":574,"Ġreser":575,"ving":576,"Ġadd":577,"15":578,"mm":579,"Ġpost":580,"45":581,"Ġnigh":582,"Ġpart":583,"Ġaddress":584,"Ġstars":585,"all":586,"ul":587,"Ġsh":588,"Ġge":589,"ian":590,"ee":591,"Ġu":592,"Ġinter":593,"ting":594,"Ġea":595,"Ġwest":596,"Ġget":597,"um":598,"Ġpostco":599,"Ġpostcode":600,"ated":601,"Ġeast":602,"Ġj":603,"Ġok":604,"net":605,"Ġlocated":606,"fer":607,"Ġinternet":608,"ell":609,"Ġgre":610,"oth":611,"Ġha":612,"Ġgreat":613,"Ġ?<|":614,"mation":615,"ain":616,"Ġall":617,"Ġcould":618,"Ġsure":619,"Ġsouth":620,"23":621,"ic":622,"Ġinfor":623,"Ġbooking":624,"Ġinformation":625,"Ġwe":626,"Ġmuse":627,"vation":628,"Ġmuseum":629,"Ġreservation":630,"Ġtr":631,"Ġbut":632,"ity":633,"Ġk":634,"Ġaf":635,"Ġwas":636,"vi":637,"12":638,"reet":639,"ai":640,"comm":641,"Ġnights":642,"Ġcolle":643,"Ġcollege":644,"Ġtable":645,"Ġwifi":646,"Ġtry":647,"Ġtrav":648,"Ġent":649,"Ġsunday":650,"Ġser":651,"Ġstreet":652,"Ġfrid":653,"Ġfriday":654,"Ġlea":655,"ish":656,"ton":657,"ad":658,"Ġleaving":659,"commend":660,"Ġrecommend":661,"Ġtheir":662,"Ġwed":663,"Ġdoes":664,"other":665,"Ġwedn":666,"ich":667,"sday":668,"Ġwednesday":669,"Ġthur":670,"Ġsat":671,"Ġthursday":672,"urday":673,"Ġsaturday":674,"Ġtravel":675,"Ġtu":676,"Ġpriced":677,"Ġprefer":678,"ust":679,"Ġtuesday":680,"Ġse":681,"Ġman":682,"Ġcity":683,"Ġ7":684,"Ġsor":685,"Ġ15":686,"Ġdi":687,"At":688,"ĠleaveAt":689,"nds":690,"Ġafter":691,"Ġif":692,"Ġwhere":693,"ca":694,"Ġshould":695,"Ġmonday":696,"Ġsorry":697,"1223":698,"Ġthanks":699,"Ġ01223":700,"Ġmany":701,"Ġma":702,"Ġ8":703,"Ġjust":704,"Ġserve":705,"By":706,"ĠarriveBy":707,"Ġ6":708,"ia":709,"sted":710,"Ġcb":711,"Ġpreference":712,"Ġind":713,"en":714,"lu":715,"Ġav":716,"Ġhas":717,"Ġr":718,"ool":719,"Ġdont":720,"oom":721,"Ġokay":722,"Ġthey":723,"Ġro":724,"ally":725,"Ġgood":726,"Ġfee":727,"tion":728,"care":729,"Ġdontcare":730,"Ġindian":731,"Ġking":732,"ort":733,"Ġ11":734,"ert":735,"ast":736,"Ġun":737,"Ġ17":738,"aila":739,"lo":740,"cke":741,"Ġticke":742,"ertain":743,"Ġhi":744,"ful":745,"Ġavaila":746,"Ġmat":747,"ive":748,"Ġ13":749,"Ġ12":750,"Ġtoday":751,"our":752,"Ġsomething":753,"Ġthis":754,"Ġop":755,"Ġgive":756,"inese":757,"Ġchinese":758,"cess":759,"Ġavailable":760,"sit":761,"Ġoption":762,"ice":763,"Ġbooked":764,"Ġleaves":765,"Ġwhich":766,"Ġmake":767,"ccess":768,"Ġstarting":769,"Ġdeparting":770,"Ġ16":771,"ment":772,"Ġwor":773,"ci":774,"Ġkings":775,"rance":776,"Ġentrance":777,"Ġgoing":778,"ha":779,"Ġho":780,"Ġserves":781,"ak":782,"Ġdif":783,"Ġtrains":784,"ferent":785,"Ġdifferent":786,"Ġsi":787,"clu":788,"Ġroom":789,"Ġper":790,"Ġ14":791,"Ġbed":792,"ndon":793,"Ġlondon":794,"Ġoptions":795,"Ġmore":796,"Ġintere":797,"ccessful":798,"Ġpark":799,"Ġmy":800,"ular":801,"'ll":802,"ough":803,"Ġkn":804,"ck":805,"Ġtell":806,"Ġ10":807,"Ġknow":808,"Ġmay":809,"alian":810,"Ġitalian":811,"Ġsounds":812,"Ġ18":813,"Ġroad":814,"Ġsame":815,"Ġvi":816,"Ġ19":817,"Ġanother":818,"un":819,"Ġside":820,"ite":821,"Ġbre":822,"Ġbreak":823,"Ġpartic":824,"fast":825,"Ġparticular":826,"Ġsuccessful":827,"Ġbreakfast":828,"Ġcri":829,"Ġwork":830,"Ġcriter":831,"ely":832,"Ġcriteria":833,"Ġarrives":834,"Ġrating":835,"Ġac":836,"qu":837,"Ġspe":838,"Ġspeci":839,"Ġmi":840,"Ġ012233":841,"lled":842,"Ġcalled":843,"Ġguesthouses":844,"Ġ:":845,"fic":846,"Ġinterested":847,"Ġmin":848,"Ġreserve":849,"Ġother":850,"orn":851,"Ġminut":852,"Ġspecific":853,"tish":854,"Ġnight":855,"ound":856,"Ġlod":857,"Ġwell":858,"Ġcertain":859,"Ġnone":860,"Ġbri":861,"uro":862,"Ġbritish":863,"Ġ21":864,"Ġcenter":865,"Ġvisit":866,"Ġinclu":867,"Ġtickets":868,"Ġminutes":869,"Ġeuro":870,"pean":871,"ose":872,"Ġeuropean":873,"Ġcu":874,"Ġstation":875,"ght":876,"ven":877,"Ġmind":878,"and":879,"ming":880,"Ġthem":881,"Ġmatch":882,"Ġ20":883,"Ġmee":884,"gge":885,"Ġsugge":886,"Ġattractions":887,"very":888,"Ġact":889,"Ġsuggest":890,"Ġbar":891,"ther":892,"Ġreally":893,"Ġpro":894,"Ġthose":895,"Ġacorn":896,"iz":897,"Ġlodge":898,"ma":899,"ounds":900,"Ġmuch":901,"Ġpool":902,"Ġarch":903,"age":904,"Ġactu":905,"Ġnew":906,"Ġeat":907,"Ġarriving":908,"fo":909,"Ġsever":910,"Ġfine":911,"Ġseveral":912,"Ġv":913,"act":914,"Ġinclude":915,"Ġ9":916,"Ġactually":917,"port":918,"21":919,"Ġsee":920,"rip":921,"oat":922,"Ġcuis":923,"nn":924,"Ġsp":925,"Ġpounds":926,"Ġtraveling":927,"Ġcont":928,"fe":929,"ford":930,"Ġhello":931,"pool":932,"Ġcuisine":933,"Ġticket":934,"Ġassi":935,"Ġlet":936,"Ġmatter":937,"ster":938,"Ġri":939,"Ġoffer":940,"Ġfound":941,"ross":942,"Ġely":943,"ham":944,"Ġfit":945,"Ġlocation":946,"Ġtheat":947,"Ġgall":948,"Ġgaller":949,"Ġleice":950,"Ġcon":951,"Ġleicester":952,"Ġly":953,"Ġcross":954,"able":955,"Ġliver":956,"Ġliverpool":957,"Ġste":958,"Ġentertain":959,"den":960,"urch":961,"Ġche":962,"ourne":963,"Ġentertainment":964,"Ġwhen":965,"us":966,"Ġup":967,"Ġsain":968,"Ġnorw":969,"Ġtake":970,"Ġbro":971,"ong":972,"Ġnorwich":973,"Ġ09":974,"bor":975,"Ġlynn":976,"Ġcontact":977,"izz":978,"Ġpeter":979,"Ġdown":980,"borough":981,"Ġchurch":982,"xb":983,"son":984,"Ġneeds":985,"Ġpeterborough":986,"Ġair":987,"Ġairport":988,"xbourne":989,"Ġtrip":990,"lton":991,"ops":992,"Ġbroxbourne":993,"Ġbish":994,"Ġtheatre":995,"Ġbishops":996,"pp":997,"Ġstan":998,"11":999,"ick":1000,"Ġcheck":1001,"Ġprovi":1002,"Ġdine":1003,"Ġstansted":1004,"Ġbir":1005,"Ġnow":1006,"ortford":1007,"Ġstortford":1008,"Ġpl":1009,"Ġsteven":1010,"mi":1011,"Ġstevenage":1012,"mingham":1013,"Ġbirmingham":1014,"Ġboth":1015,"ard":1016,"Ġpizz":1017,"Ġdid":1018,"li":1019,"Ġcare":1020,"sity":1021,"Ġtot":1022,"sian":1023,"Ġmar":1024,"Ġmuseums":1025,"row":1026,"Ġable":1027,"Ġprovide":1028,"Ġtotal":1029,"Ġ08":1030,"Ġnice":1031,"Ġnar":1032,"Ġnarrow":1033,"Ġthin":1034,"Ġfe":1035,"Ġassist":1036,"wi":1037,"Ġid":1038,"ning":1039,"Ġ!<|":1040,"ately":1041,"Ġout":1042,"Ġpick":1043,"Ġthen":1044,"fort":1045,"ue":1046,"ns":1047,"ms":1048,"Ġcine":1049,"Ġunfort":1050,"Ġunfortun":1051,"lex":1052,"Ġunfortunately":1053,"stead":1054,"by":1055,"Ġcode":1056,"Ġreserved":1057,"Ġinstead":1058,"Ġalex":1059,"ander":1060,"Ġchoo":1061,"Ġboat":1062,"val":1063,"Ġalexander":1064,"ead":1065,"Ġarrival":1066,"Ġstaying":1067,"Ġmeet":1068,"Ġ07":1069,"Ġlong":1070,"Ġchoose":1071,"bp":1072,"Ġtoo":1073,"arch":1074,"58":1075,"sp":1076,"iver":1077,"Ġgallery":1078,"tw":1079,"Ġsearch":1080,"ple":1081,"Ġarchite":1082,"Ġuniver":1083,"Ġswi":1084,"Ġarchitect":1085,"Ġplan":1086,"Ġuniversity":1087,"Ġcar":1088,"Ġthink":1089,"ill":1090,"Ġfir":1091,"Ġcur":1092,"Ġgbp":1093,"unt":1094,"ville":1095,"tt":1096,"elf":1097,"Ġgar":1098,"Ġfirst":1099,"Ġpay":1100,"Ġgarden":1101,"be":1102,"Ġgon":1103,"24":1104,"Ġvery":1105,"17":1106,"Ġsaint":1107,"Ġcho":1108,"Ġchoice":1109,"Ġgonville":1110,"ital":1111,"Ġcost":1112,"log":1113,"quest":1114,"Ġhosp":1115,"Ġhospital":1116,"07":1117,"ither":1118,"Ġcinema":1119,"club":1120,"Ġfa":1121,"rist":1122,"Ġnightclub":1123,"Ġarchitecture":1124,"ssi":1125,"ley":1126,"ane":1127,"as":1128,"Ġash":1129,"Ġcurry":1130,"ti":1131,"Ġashley":1132,"olog":1133,"Ġeither":1134,"Ġswimm":1135,"fect":1136,"Ġinfo":1137,"Ġswimming":1138,"ol":1139,"side":1140,"Ġhin":1141,"Ġthing":1142,"Ġpizza":1143,"Ġperfect":1144,"Ġkind":1145,"Ġqu":1146,"Ġasian":1147,"Ġwo":1148,"Ġcolleges":1149,"Ġcher":1150,"Ġcherry":1151,"Ġmodern":1152,"ire":1153,"Ġhinton":1154,"rop":1155,"Ġfinding":1156,"50":1157,"Ġrequ":1158,"bye":1159,"Ġgoodbye":1160,"Ġexp":1161,"ies":1162,"Ġmilton":1163,"Ġperson":1164,"ttle":1165,"ĠĠ":1166,"Ġplanning":1167,"66":1168,"Ġonly":1169,"Ġnear":1170,"Ġdeparts":1171,"29":1172,"08":1173,"Ġclo":1174,"een":1175,"ican":1176,"ury":1177,"ott":1178,"Ġpayable":1179,"ient":1180,"Ġarms":1181,"Ġla":1182,"ppy":1183,"Ġhappy":1184,"unting":1185,"Ġevery":1186,"Ġneeded":1187,"bury":1188,"Ġpossi":1189,"Ġfun":1190,"Ġcertainly":1191,"ab":1192,"Ġ23":1193,"Ġhead":1194,"35":1195,"Ġrequest":1196,"Ġfew":1197,"Ġus":1198,"Ġchrist":1199,"ps":1200,"Ġrequire":1201,"40":1202,"Ġclu":1203,"len":1204,"10":1205,"Ġclub":1206,"Ġallen":1207,"Ġ05":1208,"Ġpreferences":1209,"Ġorient":1210,"Ġoriental":1211,"ina":1212,"Ġexpress":1213,"Ġear":1214,"Ġcou":1215,"Ġallenbel":1216,"Ġallenbell":1217,"ub":1218,"Ġbelf":1219,"Ġhunting":1220,"sa":1221,"Ġbelfry":1222,"tween":1223,"Ġbetween":1224,"88":1225,"Ġconf":1226,"erton":1227,"Ġinterest":1228,"Ġthough":1229,"wh":1230,"Ġclose":1231,"Ġchest":1232,"Ġwere":1233,"oodle":1234,"Ġseat":1235,"Ġnoodle":1236,"60":1237,"Ġgast":1238,"Ġwhi":1239,"Ġserving":1240,"Ġchesterton":1241,"Ġbeen":1242,"Ġcour":1243,"54":1244,"Ġhe":1245,"nder":1246,"Ġlens":1247,"eld":1248,"ted":1249,"field":1250,"Ġlensfield":1251,"don":1252,"52":1253,"Ġright":1254,"way":1255,"Ġhuntingdon":1256,"Ġspor":1257,"where":1258,"haps":1259,"Ġperhaps":1260,"Ġcourse":1261,"kw":1262,"Ġsch":1263,"Ġshall":1264,"Ġhere":1265,"Ġsports":1266,"can":1267,"da":1268,"Ġart":1269,"room":1270,"Ġpossible":1271,"Ġpa":1272,"Ġlot":1273,"Ġthese":1274,"01":1275,"Ġcount":1276,"Ġoh":1277,"27":1278,"Ġmaybe":1279,"Ġmarri":1280,"ropub":1281,"39":1282,"Ġgastropub":1283,"Ġmatching":1284,"fore":1285,"Ġbefore":1286,"46":1287,"Ġits":1288,"Ġcityroom":1289,"Ġsomewhere":1290,"Ġlov":1291,"Ġrequirement":1292,"59":1293,"Ġres":1294,"Ġcla":1295,"Ġway":1296,"uck":1297,"Ġdays":1298,"Ġlat":1299,"Ġcityroomz":1300,"ist":1301,"Ġreservations":1302,"Ġchoices":1303,"20":1304,"Ġpol":1305,"ions":1306,"Ġset":1307,"Ġbridge":1308,"Ġko":1309,"Ġmarriott":1310,"lie":1311,"Ġgra":1312,"Ġparkside":1313,"Ġwhile":1314,"miss":1315,"Ġlist":1316,"yle":1317,"32":1318,"Ġresul":1319,"Ġriver":1320,"lti":1321,"Ġhour":1322,"Ġlittle":1323,"Ġadmiss":1324,"19":1325,"Ġport":1326,"Ġmulti":1327,"Ġadmission":1328,"Ġgold":1329,"Ġmultiple":1330,"Ġhall":1331,"ology":1332,"Ġgot":1333,"Ġgolden":1334,"ndoo":1335,"Ġresults":1336,"jo":1337,"Ġquite":1338,"Ġtandoo":1339,"Ġrecommendation":1340,"Ġshad":1341,"Ġshadd":1342,"Ġap":1343,"anish":1344,"41":1345,"Ġbist":1346,"43":1347,"Ġtur":1348,"Ġwonder":1349,"Ġbistro":1350,"Ġparty":1351,"Ġoffers":1352,"kish":1353,"Ġturkish":1354,"et":1355,"Ġsound":1356,"Ġconfir":1357,"nation":1358,"Ġlane":1359,"Ġlove":1360,"Ġgree":1361,"sol":1362,"Ġtandoori":1363,"Ġinternation":1364,"Ġinternational":1365,"Ġ0122333":1366,"Ġbest":1367,"Ġlocal":1368,"ep":1369,"Ġabsol":1370,"Ġabsolut":1371,"right":1372,"Ġholi":1373,"Ġholiday":1374,"Ġmeets":1375,"Ġabsolutely":1376,"Ġalright":1377,"Ġcall":1378,"su":1379,"Ġfav":1380,"Ġportu":1381,"Ġag":1382,"Ġcafe":1383,"bra":1384,"oon":1385,"inity":1386,"Ġmed":1387,"Ġinn":1388,"fton":1389,"Ġfavor":1390,"Ġtrinity":1391,"Ġexc":1392,"Ġz":1393,"rough":1394,"Ġrege":1395,"16":1396,"Ġfur":1397,"Ġagain":1398,"Ġhut":1399,"Ġfurther":1400,"Ġmatches":1401,"bray":1402,"Ġpools":1403,"Ġafri":1404,"90":1405,"Ġwel":1406,"Ġfin":1407,"Ġshow":1408,"Ġafrican":1409,"not":1410,"Ġcannot":1411,"Ġrated":1412,"Ġfavorite":1413,"Ġcom":1414,"Ġcoming":1415,"Ġhami":1416,"Ġhamilton":1417,"ince":1418,"09":1419,"itch":1420,"Ġcor":1421,"Ġinto":1422,"il":1423,"Ġmight":1424,"Ġstill":1425,"sh":1426,"Ġ0122335":1427,"Ġdepartment":1428,"erra":1429,"ever":1430,"Ġconcer":1431,"Ġtrying":1432,"umn":1433,"ff":1434,"Ġregent":1435,"Ġaut":1436,"Ġhill":1437,"Ġheading":1438,"od":1439,"Ġayle":1440,"Ġfen":1441,"Ġwar":1442,"Ġautumn":1443,"Ġspanish":1444,"Ġpolice":1445,"Ġayles":1446,"id":1447,"bson":1448,"Ġhobson":1449,"itton":1450,"Ġwarkw":1451,"ks":1452,"br":1453,"orth":1454,"Ġworth":1455,"Ġwarkworth":1456,"Ġtravell":1457,"Ġthai":1458,"Ġ22":1459,"Ġsaints":1460,"ess":1461,"Ġim":1462,"come":1463,"Ġwelcome":1464,"49":1465,"red":1466,"iterra":1467,"nean":1468,"Ġaval":1469,"Ġcountry":1470,"Ġmediterra":1471,"Ġmediterranean":1472,"Ġchar":1473,"Ġfre":1474,"Ġavalon":1475,"Ġamer":1476,"Ġchange":1477,"Ġaylesbray":1478,"Ġpr":1479,"nch":1480,"Ġmade":1481,"Ġnoth":1482,"Ġfrench":1483,"Ġba":1484,"Ġyea":1485,"Ġlisted":1486,"os":1487,"yal":1488,"ling":1489,"Ġnothing":1490,"48":1491,"Ġroyal":1492,"anese":1493,"Ġwanting":1494,"brook":1495,"Ġnand":1496,"Ġlater":1497,"fin":1498,"Ġdefin":1499,"Ġhome":1500,"Ġsend":1501,"mo":1502,"itely":1503,"Ġask":1504,"Ġlovell":1505,"Ġdefinitely":1506,"06":1507,"ging":1508,"Ġback":1509,"Ġeverything":1510,"Ġyeah":1511,"oor":1512,"Ġaround":1513,"Ġhop":1514,"Ġhobsons":1515,"tn":1516,"Ġour":1517,"Ġen":1518,"Ġsuggestions":1519,"rean":1520,"Ġgr":1521,"Ġah":1522,"Ġhoping":1523,"Ġ33":1524,"Ġschool":1525,"ull":1526,"Ġhigh":1527,"Ġsc":1528,"Ġunable":1529,"Ġdes":1530,"Ġnandos":1531,"Ġer":1532,"stance":1533,"are":1534,"Ġshaddai":1535,"57":1536,"ket":1537,"Ġover":1538,"Ġproble":1539,"ches":1540,"Ġproblem":1541,"ip":1542,"Ġrest":1543,"Ġfinches":1544,"Ġluck":1545,"Ġbrough":1546,"Ġarbury":1547,"Ġbroughton":1548,"Ġwonderful":1549,"Ġvie":1550,"am":1551,"Ġadden":1552,"Ġbra":1553,"36":1554,"Ġopen":1555,"51":1556,"Ġdin":1557,"Ġmost":1558,"amese":1559,"tnamese":1560,"Ġvietnamese":1561,"venue":1562,"Ġassistance":1563,"brookes":1564,"Ġamerican":1565,"42":1566,"commod":1567,"Ġneeding":1568,"Ġpreferred":1569,"gue":1570,"Ġyet":1571,"Ġbedou":1572,"Ġaccommod":1573,"Ġhills":1574,"fy":1575,"ers":1576,"55":1577,"Ġprince":1578,"38":1579,"Ġapolog":1580,"Ġke":1581,"ably":1582,"Ġlisting":1583,"Ġbedouin":1584,"Ġaddenbrookes":1585,"guese":1586,"Ġchan":1587,"Ġditton":1588,"Ġsuit":1589,"rian":1590,"77":1591,"eria":1592,"Ġportuguese":1593,"Ġvin":1594,"Ġpizzeria":1595,"exican":1596,"Ġfits":1597,"Ġvisi":1598,"Ġmexican":1599,"Ġarchway":1600,"Ġinteresting":1601,"Ġnightclubs":1602,"Ġja":1603,"ko":1604,"Ġahead":1605,"Ġthings":1606,"Ġvisiting":1607,"Ġclare":1608,"Ġconfirm":1609,"Ġclosest":1610,"Ġsai":1611,"80":1612,"stle":1613,"elle":1614,"Ġcastle":1615,"esus":1616,"Ġjesus":1617,"pha":1618,"ang":1619,"Ġalpha":1620,"Ġparks":1621,"ner":1622,"sser":1623,"Ġbrasser":1624,"Ġrea":1625,"Ġold":1626,"Ġgreen":1627,"Ġwok":1628,"Ġseats":1629,"Ġexcelle":1630,"Ġexcellent":1631,"Ġunsu":1632,"iqu":1633,"orks":1634,"Ġartw":1635,"Ġbrasserie":1636,"Ġartworks":1637,"time":1638,"Ġend":1639,"gin":1640,"int":1641,"ition":1642,"Ġmag":1643,"Ġlooks":1644,"Ġsuch":1645,"Ġjo":1646,"ant":1647,"Ġunsuccessful":1648,"Ġrice":1649,"ute":1650,"Ġstart":1651,"44":1652,"Ġvenue":1653,"Ġbegin":1654,"ale":1655,"Ġearlie":1656,"Ġearliest":1657,"Ġarcha":1658,"Ġcomple":1659,"Ġ0122336":1660,"orter":1661,"Ġshorter":1662,"Ġcarol":1663,"18":1664,"Ġpreferably":1665,"Ġkitch":1666,"Ġcarolina":1667,"Ġkitchen":1668,"Ġandre":1669,"13":1670,"78":1671,"Ġant":1672,"Ġtel":1673,"Ġandrew":1674,"25":1675,"Ġchop":1676,"Ġrosa":1677,"ah":1678,"Ġ06":1679,"ize":1680,"mp":1681,"ran":1682,"verton":1683,"Ġrooms":1684,"Ġdowning":1685,"Ġleverton":1686,"Ġsa":1687,"Ġali":1688,"Ġkorean":1689,"stal":1690,"Ġ24":1691,"Ġda":1692,"Ġtravelling":1693,"Ġbet":1694,"Ġpostal":1695,"Ġcharlie":1696,"Ġcli":1697,"ephone":1698,"Ġtelephone":1699,"Ġclifton":1700,"Ġgoes":1701,"Ġlodging":1702,"Ġapologize":1703,"Ġrid":1704,"lene":1705,"dalene":1706,"Ġmagdalene":1707,"28":1708,"self":1709,"Ġinclud":1710,"56":1711,"Ġ0122330":1712,"Ġcomm":1713,"ities":1714,"mes":1715,"Ġfitz":1716,"ail":1717,"ello":1718,"Ġjello":1719,"Ġhist":1720,"Ġmary":1721,"ern":1722,"lier":1723,"Ġearlier":1724,"rect":1725,"Ġleis":1726,"Ġleisure":1727,"Ġrd":1728,"Ġdojo":1729,"Ġgrou":1730,"Ġten":1731,"34":1732,"pes":1733,"Ġaust":1734,"Ġgu":1735,"ady":1736,"Ġdesc":1737,"Ġgroup":1738,"na":1739,"Ġvinci":1740,"Ġbyard":1741,"za":1742,"joy":1743,"Ġenjoy":1744,"ule":1745,"Ġmyself":1746,"Ġspice":1747,"Ġkettle":1748,"ription":1749,"Ġschools":1750,"Ġdescription":1751,"Ġmill":1752,"ka":1753,"boat":1754,"ger":1755,"Ġvue":1756,"edule":1757,"hi":1758,"79":1759,"Ġtimes":1760,"Ġcosts":1761,"Ġjoh":1762,"Ġones":1763,"Ġschedule":1764,"Ġsystem":1765,"Ġriverboat":1766,"org":1767,"ully":1768,"Ġreach":1769,"Ġoak":1770,"Ġgeorg":1771,"Ġworks":1772,"Ġgeorgina":1773,"usion":1774,"Ġheaded":1775,"mar":1776,"Ġbit":1777,"ky":1778,"iti":1779,"market":1780,"33":1781,"Ġyip":1782,"get":1783,"Ġ012234":1784,"Ġnewmarket":1785,"Ġyippe":1786,"Ġgalleries":1787,"Ġride":1788,"Ġgardens":1789,"inh":1790,"Ġbinh":1791,"ffiti":1792,"Ġyippee":1793,"Ġcommute":1794,"Ġsal":1795,"Ġthanh":1796,"Ġ#":1797,"Ġve":1798,"Ġapp":1799,"Ġmid":1800,"Ġchurchill":1801,"Ġgraffiti":1802,"Ġyu":1803,"oats":1804,"Ġpara":1805,"Ġdining":1806,"use":1807,"Ġbetter":1808,"Ġcamboats":1809,"raid":1810,"Ġafraid":1811,"Ġsalsa":1812,"Ġtypes":1813,"Ġenter":1814,"bil":1815,"fully":1816,"Ġnus":1817,"Ġdate":1818,"Ġsuccess":1819,"Ġwanted":1820,"Ġshowing":1821,"kka":1822,"olia":1823,"sca":1824,"rala":1825,"Ġsite":1826,"atolia":1827,"Ġanatolia":1828,"Ġlots":1829,"Ġnusha":1830,"Ġhakka":1831,"pin":1832,"26":1833,"Ġbeginning":1834,"ward":1835,"Ġadc":1836,"Ġcat":1837,"kok":1838,"hin":1839,"Ġmiss":1840,"Ġkohin":1841,"Ġkohinoor":1842,"te":1843,"ations":1844,"zz":1845,"Ġwhite":1846,"Ġug":1847,"cy":1848,"ndle":1849,"Ġtenpin":1850,"Ġbye":1851,"dy":1852,"res":1853,"Ġ79":1854,"ous":1855,"Ġbang":1856,"Ġrun":1857,"Ġidea":1858,"Ġlocate":1859,"Ġnam":1860,"ory":1861,"man":1862,"Ġbangkok":1863,"ries":1864,"ention":1865,"Ġunit":1866,"Ġnearby":1867,"itional":1868,"Ġwait":1869,"Ġhowever":1870,"Ġbl":1871,"Ġgrafton":1872,"Ġbot":1873,"anic":1874,"Ġlets":1875,"ails":1876,"Ġugly":1877,"Ġbotanic":1878,"ary":1879,"Ġheard":1880,"banese":1881,"thall":1882,"Ġfunky":1883,"Ġconcerthall":1884,"Ġguess":1885,"Ġnext":1886,"Ġlebanese":1887,"Ġyard":1888,"Ġholy":1889,"Ġmoon":1890,"Ġpop":1891,"Ġduck":1892,"Ġ0122390":1893,"Ġpicked":1894,"Ġduckling":1895,"Ġhmm":1896,"22":1897,"Ġwandle":1898,"Ġinex":1899,"Ġpopular":1900,"Ġquest":1901,"hal":1902,"Ġcounty":1903,"oy":1904,"Ġinexpensive":1905,"Ġlistings":1906,"Ġguests":1907,"Ġmeeting":1908,"Ġparade":1909,"Ġwandlebury":1910,"70":1911,"Ġlovely":1912,"qq":1913,"Ġfi":1914,"Ġraza":1915,"53":1916,"vera":1917,"ooms":1918,"mavera":1919,"Ġcorrect":1920,"Ġblooms":1921,"Ġbu":1922,"emp":1923,"ita":1924,"Ġmention":1925,"Ġprimavera":1926,"ges":1927,"gher":1928,"Ġmargher":1929,"panese":1930,"Ġjapanese":1931,"Ġx":1932,"Ġtou":1933,"Ġuse":1934,"Ġfees":1935,"Ġpalace":1936,"Ġbloomsbury":1937,"Ġtheatres":1938,"Ġmargherita":1939,"Ġnirala":1940,"Ġconsi":1941,"Ġlucky":1942,"Ġ44":1943,"nty":1944,"Ġwhale":1945,"Ġmegh":1946,"Ġdet":1947,"Ġgalleria":1948,"oul":1949,"Ġsea":1950,"966":1951,"ga":1952,"ora":1953,"Ġte":1954,"Ġball":1955,"Ġplenty":1956,"Ġgardenia":1957,"Ġtourist":1958,"Ġballare":1959,"aina":1960,"Ġseoul":1961,"bey":1962,"Ġeraina":1963,"Ġabbey":1964,"Ġspecification":1965,"Ġjohns":1966,"vice":1967,"Ġriverside":1968,"Ġwee":1969,"Ġconfirmation":1970,"Ġimport":1971,"Ġrecommendations":1972,"bill":1973,"ron":1974,"Ġlast":1975,"Ġjin":1976,"Ġentries":1977,"bility":1978,"ys":1979,"gon":1980,"Ġlu":1981,"irkw":1982,"Ġkirkw":1983,"Ġkirkwood":1984,"Ġhouses":1985,"Ġsuccessfully":1986,"Ġimportant":1987,"wor":1988,"Ġavailability":1989,"eology":1990,"Ġmeghna":1991,"per":1992,"Ġjinling":1993,"Ġ154":1994,"Ġaw":1995,"ience":1996,"Ġrather":1997,"olk":1998,"Ġmissing":1999,"food":2000,"Ġseafood":2001,"Ġtree":2002,"Ġstand":2003,"Ġwhe":2004,"ito":2005,"Ġleast":2006,"Ġvar":2007,"billies":2008,"Ġcinewor":2009,"Ġdetails":2010,"Ġcineworld":2011,"Ġ40":2012,"Ġvarsity":2013,"Ġsoul":2014,"iquito":2015,"Ġfitzbillies":2016,"Ġfolk":2017,"Ġwish":2018,"Ġchiquito":2019,"Ġservice":2020,"Ġ0122324":2021,"Ġbus":2022,"zzo":2023,"Ġprezzo":2024,"Ġeven":2025,"Ġky":2026,"Ġweek":2027,"Ġsock":2028,"empora":2029,"emporary":2030,"Ġsometime":2031,"Ġsaigon":2032,"Ġsit":2033,"urger":2034,"Ġpoint":2035,"gy":2036,"Ġ01223358":2037,"Ġappe":2038,"Ġarchaeology":2039,"Ġboating":2040,"kie":2041,"pt":2042,"Ġcontemporary":2043,"Ġfran":2044,"Ġbenn":2045,"mmoy":2046,"Ġkymmoy":2047,"reci":2048,"Ġchristi":2049,"pus":2050,"Ġcorpus":2051,"Ġfrankie":2052,"Ġexact":2053,"64":2054,"cing":2055,"Ġsay":2056,"Ġaccommodations":2057,"Ġtech":2058,"Ġmorn":2059,"Ġmorning":2060,"Ġearly":2061,"Ġnamed":2062,"Ġrus":2063,"Ġappreci":2064,"Ġquestions":2065,"iv":2066,"str":2067,"Ġpas":2068,"Ġmust":2069,"Ġ01223358966":2070,"Ġwondering":2071,"Ġtasca":2072,"Ġadditional":2073,"89":2074,"Ġpunt":2075,"Ġhed":2076,"Ġbarn":2077,"Ġtechn":2078,"Ġpeking":2079,"Ġexcit":2080,"Ġgand":2081,"Ġgandhi":2082,"Ġarts":2083,"Ġhad":2084,"Ġhey":2085,"Ġanth":2086,"Ġdura":2087,"Ġplay":2088,"Ġshaddia":2089,"Ġduration":2090,"ropology":2091,"Ġhedges":2092,"Ġanthropology":2093,"ome":2094,"esome":2095,"Ġonce":2096,"Ġawesome":2097,"Ġbennys":2098,"gese":2099,"mentum":2100,"Ġsteak":2101,"Ġthinking":2102,"place":2103,"Ġbel":2104,"urf":2105,"jg":2106,"Ġothers":2107,"Ġalimentum":2108,"Ġappreciate":2109,"Ġpunter":2110,"68":2111,"Ġcompleted":2112,"Ġstandard":2113,"Ġseems":2114,"Ġtechnology":2115,"Ġastr":2116,"Ġportugese":2117,"Ġastrot":2118,"Ġcorn":2119,"men":2120,"14":2121,"Ġ&":2122,"Ġq":2123,"Ġtw":2124,"Ġva":2125,"Ġgour":2126,"met":2127,"Ġsid":2128,"Ġastroturf":2129,"Ġgourmet":2130,"Ġoff":2131,"Ġsteakhouse":2132,"Ġamen":2133,"Ġreg":2134,"Ġsort":2135,"Ġaustrian":2136,"245":2137,"door":2138,"Ġoutdoor":2139,"Ġmoment":2140,"abas":2141,"Ġbarnabas":2142,"ds":2143,"Ġburger":2144,"lish":2145,"ote":2146,"Ġboats":2147,"Ġfami":2148,"Ġpitch":2149,"yne":2150,"Ġlear":2151,"Ġhold":2152,"Ġpass":2153,"Ġsaid":2154,"llage":2155,"mmer":2156,"Ġconcert":2157,"Ġexcited":2158,"76":2159,"Ġlime":2160,"Ġchurches":2161,"ppen":2162,"Ġready":2163,"Ġnope":2164,"Ġhappen":2165,"Ġton":2166,"Ġsoon":2167,"Ġwhatever":2168,"Ġmimo":2169,"Ġcote":2170,"Ġgetting":2171,"Ġmimosa":2172,"Ġfyne":2173,"Ġjun":2174,"Ġsomeplace":2175,"Ġuno":2176,"Ġtravellers":2177,"Ġlimehouse":2178,"73":2179,"Ġ01223353":2180,"Ġluca":2181,"Ġvillage":2182,"Ġaccommodate":2183,"ping":2184,"Ġcome":2185,"izzi":2186,"Ġzizzi":2187,"Ġamenities":2188,"ight":2189,"lot":2190,"Ġ51":2191,"Ġef":2192,"Ġgets":2193,"Ġjunction":2194,"Ġwat":2195,"Ġlan":2196,"Ġincluding":2197,"'ve":2198,"cina":2199,"pri":2200,"ouble":2201,"Ġpricing":2202,"Ġloch":2203,"Ġcucina":2204,"Ġpassage":2205,"Ġdar":2206,"esian":2207,"Ġbab":2208,"mford":2209,"sas":2210,"iness":2211,"Ġmumford":2212,"Ġshop":2213,"Ġsuggestion":2214,"Ġfusion":2215,"Ġbla":2216,"Ġtwo":2217,"Ġthats":2218,"Ġmentioned":2219,"ira":2220,"Ġslot":2221,"Ġwithin":2222,"Ġhelpful":2223,"cum":2224,"Ġbusiness":2225,"Ġtaj":2226,"street":2227,"Ġ01":2228,"Ġbackstreet":2229,"ze":2230,"Ġforward":2231,"Ġ30":2232,"Ġrosas":2233,"Ġpan":2234,"Ġcocum":2235,"Ġeach":2236,"Ġclassi":2237,"bly":2238,"own":2239,"Ġanytime":2240,"cking":2241,"uel":2242,"Ġemm":2243,"zion":2244,"Ġstazion":2245,"Ġneare":2246,"Ġ28":2247,"Ġmarket":2248,"Ġstazione":2249,"Ġnearest":2250,"bu":2251,"anuel":2252,"Ġrout":2253,"Ġemmanuel":2254,"Ġcott":2255,"Ġred":2256,"ffron":2257,"Ġsaffron":2258,"Ġefes":2259,"Ġdone":2260,"Ġincluded":2261,"Ġconsider":2262,"Ġcow":2263,"Ġhear":2264,"Ġblack":2265,"69":2266,"Ġyell":2267,"Ġwater":2268,"Ġyellow":2269,"riend":2270,"888":2271,"cal":2272,"Ġ75":2273,"Ġdis":2274,"Ġseeing":2275,"Ġjama":2276,"71":2277,"Ġfar":2278,"uring":2279,"Ġlearner":2280,"lk":2281,"Ġshira":2282,"Ġgrey":2283,"Ġvol":2284,"Ġshiraz":2285,"Ġstyle":2286,"Ġseem":2287,"Ġsala":2288,"63":2289,"ng":2290,"Ġnecess":2291,"Ġcotto":2292,"Ġwhether":2293,"84":2294,"Ġthong":2295,"Ġcop":2296,"Ġvari":2297,"Ġjamaican":2298,"Ġcopper":2299,"100":2300,"change":2301,"Ġexchange":2302,"Ġstop":2303,"Ġhistory":2304,"Ġroute":2305,"Ġdat":2306,"Ġspecifically":2307,"prise":2308,"Ġclassical":2309,"az":2310,"ogy":2311,"Ġfez":2312,"151":2313,"elogy":2314,"Ġref":2315,"Ġ37":2316,"Ġchecking":2317,"Ġarchaelogy":2318,"Ġtonight":2319,"di":2320,"lue":2321,"Ġnumbers":2322,"Ġcomplete":2323,"ect":2324,"Ġfriend":2325,"Ġblue":2326,"Ġduring":2327,"jma":2328,"Ġpm":2329,"4646":2330,"Ġgrounds":2331,"Ġdinner":2332,"jmahal":2333,"'t":2334,"ral":2335,"Ġgla":2336,"Ġrajmahal":2337,"Ġ88":2338,"Ġandrews":2339,"Ġnecessary":2340,"ney":2341,"Ġusing":2342,"Ġsidney":2343,"ln":2344,"Ġsur":2345,"Ġ70":2346,"Ġpossibly":2347,"Ġscience":2348,"Ġspecify":2349,"240":2350,"ntast":2351,"cid":2352,"Ġfantast":2353,"summer":2354,"Ġmidsummer":2355,"Ġdarry":2356,"Ġfantastic":2357,"Ġcool":2358,"cept":2359,"98":2360,"Ġhun":2361,"Ġlatest":2362,"off":2363,"Ġ01223245":2364,"ru":2365,"iques":2366,"Ġentry":2367,"000":2368,"Ġbaba":2369,"Ġcoff":2370,"Ġminute":2371,"Ġcoffee":2372,"tu":2373,"Ġnewn":2374,"Ġnorthern":2375,"Ġnewnham":2376,"Ġtold":2377,"67":2378,"Ġantiques":2379,"99":2380,"'d":2381,"94":2382,"umping":2383,"Ġhighly":2384,"Ġ01223245151":2385,"bb":2386,"Ġhope":2387,"Ġ01223446":2388,"Ġwine":2389,"Ġsitar":2390,"Ġregard":2391,"arian":2392,"Ġcook":2393,"Ġ49":2394,"Ġ98":2395,"getarian":2396,"Ġvegetarian":2397,"Ġcookhouse":2398,"Ġhiston":2399,"Ġfamily":2400,"Ġglad":2401,"149":2402,"amb":2403,"Ġthrough":2404,"Ġrec":2405,"Ġcharge":2406,"'re":2407,"ready":2408,"Ġalready":2409,"Ġ47":2410,"Ġkamb":2411,"Ġoffering":2412,"Ġappear":2413,"Ġkambar":2414,"Ġforg":2415,"Ġ56":2416,"Ġfitting":2417,"Ġevening":2418,"87":2419,"Ġhu":2420,"Ġmal":2421,"Ġ29":2422,"Ġmalay":2423,"Ġcold":2424,"Ġvict":2425,"Ġtheater":2426,"Ġcomp":2427,"Ġrequests":2428,"ery":2429,"Ġclari":2430,"Ġcinemas":2431,"pot":2432,"Ġwillia":2433,"Ġmalaysian":2434,"Ġhotpot":2435,"lly":2436,"tty":2437,"bj":2438,"ical":2439,"ero":2440,"Ġsel":2441,"Ġwilliams":2442,"86":2443,"Ġmeze":2444,"Ġpretty":2445,"Ġ60":2446,"ror":2447,"erman":2448,"Ġsle":2449,"Ġsince":2450,"Ġgerman":2451,"Ġreached":2452,"Ġmone":2453,"Ġwilling":2454,"Ġcoldham":2455,"Ġmoney":2456,"65":2457,"Ġarran":2458,"Ġ01223353888":2459,"Ġ38":2460,"Ġzero":2461,"Ġerror":2462,"po":2463,"Ġ50":2464,"Ġforgot":2465,"47":2466,"Ġdanish":2467,"Ġdarrys":2468,"Ġsleep":2469,"Ġunder":2470,"noon":2471,"Ġwithout":2472,"Ġafternoon":2473,"Ġconfusion":2474,"blish":2475,"oc":2476,"stablish":2477,"Ġestablish":2478,"Ġpicky":2479,"av":2480,"ested":2481,"oria":2482,"Ġdouble":2483,"Ġ012235":2484,"pple":2485,"Ġrequested":2486,"Ġexactly":2487,"Ġvictoria":2488,"rent":2489,"Ġcase":2490,"Ġ087":2491,"Ġswimmingpool":2492,"37":2493,"uda":2494,"ety":2495,"ahar":2496,"Ġpanahar":2497,"Ġclarify":2498,"sj":2499,"Ġsw":2500,"Ġmood":2501,"uti":2502,"eens":2503,"Ġqueens":2504,"Ġwhipple":2505,"Ġ02":2506,"Ġscuda":2507,"Ġestablishment":2508,"Ġscudamo":2509,"91":2510,"Ġpunting":2511,"Ġbud":2512,"Ġvariety":2513,"om":2514,"Ġ04":2515,"Ġshort":2516,"Ġbelie":2517,"Ġarrange":2518,"dp":2519,"Ġfull":2520,"Ġ100":2521,"Ġbea":2522,"Ġstro":2523,"Ġ163":2524,"Ġfend":2525,"Ġpip":2526,"Ġdu":2527,"asha":2528,"Ġrunning":2529,"Ġpipasha":2530,"ban":2531,"mw":2532,"Ġscudamores":2533,"Ġaccess":2534,"ered":2535,"Ġcouple":2536,"ctions":2537,"Ġcuban":2538,"Ġspot":2539,"gama":2540,"Ġbudget":2541,"bs":2542,"ncy":2543,"Ġcate":2544,"Ġwhy":2545,"Ġranging":2546,"Ġaccept":2547,"Ġactiv":2548,"utiful":2549,"Ġbeautiful":2550,"Ġfenditton":2551,"Ġcateg":2552,"af":2553,"nda":2554,"Ġrose":2555,"Ġstrover":2556,"nne":2557,"Ġwagama":2558,"que":2559,"Ġspecial":2560,"Ġlynne":2561,"Ġarchitectura":2562,"Ġwagamama":2563,"72":2564,"Ġtang":2565,"Ġindia":2566,"vie":2567,"Ġtrumping":2568,"Ġtrumpington":2569,"Ġwhichever":2570,"Ġcurrent":2571,"Ġsurprise":2572,"ative":2573,"Ġcant":2574,"Ġhonda":2575,"jah":2576,"rajah":2577,"Ġmaha":2578,"Ġswiss":2579,"Ġmaharajah":2580,"cond":2581,"llia":2582,"Ġsecond":2583,"Ġbelieve":2584,"74":2585,"des":2586,"eed":2587,"ntil":2588,"Ġlex":2589,"rill":2590,"Ġnever":2591,"Ġcause":2592,"Ġuntil":2593,"Ġsection":2594,"Ġtes":2595,"Ġgreens":2596,"aq":2597,"rib":2598,"Ġ01223446100":2599,"Ġregarding":2600,"Ġland":2601,"Ġdon":2602,"Ġinj":2603,"Ġem":2604,"Ġ0122321":2605,"willia":2606,"Ġsearching":2607,"bean":2608,"Ġ012239021":2609,"william":2610,"Ġpic":2611,"Ġmean":2612,"Ġorder":2613,"Ġshee":2614,"Ġ0122357":2615,"Ġcatch":2616,"Ġlexus":2617,"Ġtesla":2618,"Ġ52":2619,"Ġfitzwilliam":2620,"Ġpasse":2621,"Ġcauseway":2622,"96":2623,"ws":2624,"Ġsko":2625,"Ġskoda":2626,"82":2627,"onesian":2628,"Ġindonesian":2629,"lug":2630,"Ġkeep":2631,"yot":2632,"Ġchose":2633,"Ġmaking":2634,"Ġtoyot":2635,"Ġinterests":2636,"ribbean":2637,"Ġtoyota":2638,"Ġrecommended":2639,"Ġclown":2640,"Ġrussian":2641,"Ġrecor":2642,"over":2643,"Ġgrill":2644,"Ġ105":2645,"kin":2646,"vo":2647,"ines":2648,"Ġses":2649,"Ġmor":2650,"Ġcrossover":2651,"Ġruskin":2652,"Ġarchitectural":2653,"Ġsesame":2654,"Ġau":2655,"ured":2656,"Ġsupp":2657,"Ġconcern":2658,"Ġhelping":2659,"4900":2660,"258":2661,"coming":2662,"Ġ82":2663,"Ġupcoming":2664,"Ġkosh":2665,"Ġkosher":2666,"31":2667,"Ġslug":2668,"Ġindeed":2669,"Ġlettu":2670,"Ġtakes":2671,"Ġpicking":2672,"Ġlettuce":2673,"ual":2674,"Ġcaribbean":2675,"ngth":2676,"away":2677,"pm":2678,"sue":2679,"Ġiri":2680,"Ġ35":2681,"mmas":2682,"mas":2683,"Ġlodgings":2684,"Ġfact":2685,"Ġlength":2686,"Ġmeant":2687,"Ġdire":2688,"Ġhong":2689,"Ġbeing":2690,"Ġmahal":2691,"Ġgreek":2692,"ef":2693,"Ġunus":2694,"quale":2695,"Ġchristmas":2696,"Ġaustral":2697,"Ġchurchills":2698,"Ġpasquale":2699,"Ġclowns":2700,"Ġunusual":2701,"Ġaustralian":2702,"04":2703,"Ġhk":2704,"Ġford":2705,"Ġeastern":2706,"Ġunav":2707,"ailable":2708,"unch":2709,"Ġaccid":2710,"Ġinjured":2711,"Ġrecords":2712,"Ġunavailable":2713,"Ġaccident":2714,"ount":2715,"Ġ32":2716,"Ġpersian":2717,"Ġconfirmed":2718,"ore":2719,"Ġ01223334900":2720,"Ġcategory":2721,"Ġirish":2722,"ft":2723,"Ġrel":2724,"Ġhaving":2725,"Ġlammas":2726,"sse":2727,"Ġdri":2728,"Ġtakeaway":2729,"Ġerit":2730,"Ġmarys":2731,"14960":2732,"Ġcurrently":2733,"Ġbmw":2734,"Ġsri":2735,"Ġmich":2736,"alan":2737,"Ġ03":2738,"ses":2739,"pect":2740,"Ġspend":2741,"ile":2742,"ify":2743,"Ġver":2744,"Ġexhi":2745,"Ġexhib":2746,"Ġfan":2747,"netian":2748,"Ġ01223312":2749,"Ġdesire":2750,"Ġvenetian":2751,"Ġ01223902":2752,"lf":2753,"lh":2754,"Ġgir":2755,"ax":2756,"angh":2757,"Ġshangh":2758,"Ġrobb":2759,"Ġ01223314960":2760,"Ġ202":2761,"Ġthought":2762,"Ġpolish":2763,"Ġrestate":2764,"Ġshanghai":2765,"02":2766,"623":2767,"Ġapologies":2768,"Ġsuppose":2769,"Ġmicha":2770,"Ġrevie":2771,"Ġaddres":2772,"dq":2773,"kan":2774,"Ġpolar":2775,"Ġscott":2776,"Ġdirections":2777,"05":2778,"62":2779,"gl":2780,"Ġlankan":2781,"up":2782,"its":2783,"bert":2784,"ating":2785,"Ġgil":2786,"Ġ0122345":2787,"Ġ01223366":2788,"Ġsleeper":2789,"Ġmichael":2790,"Ġgilbert":2791,"93":2792,"rh":2793,"Ġcatalan":2794,"garian":2795,"Ġhungarian":2796,"Ġsleeperz":2797,"75":2798,"scan":2799,"ottish":2800,"lexi":2801,"Ġtuscan":2802,"ways":2803,"Ġscottish":2804,"lexible":2805,"Ġ01223323":2806,"Ġcre":2807,"Ġissue":2808,"Ġnorfo":2809,"Ġappears":2810,"Ġselect":2811,"Ġaudi":2812,"Ġverify":2813,"roke":2814,"Ġdepend":2815,"Ġtaking":2816,"Ġ74":2817,"cent":2818,"occan":2819,"Ġmoroccan":2820,"92":2821,"Ġpound":2822,"Ġcab":2823,"ksw":2824,"Ġvolksw":2825,"Ġreviews":2826,"ius":2827,"Ġcaius":2828,"Ġ012233323":2829,"Ġacceptable":2830,"ua":2831,"Ġflexible":2832,"Ġtrans":2833,"edish":2834,"Ġamount":2835,"Ġtheaters":2836,"Ġswedish":2837,"tc":2838,"Ġcorsi":2839,"2587":2840,"Ġgirton":2841,"Ġ01223452587":2842,"eg":2843,"ig":2844,"Ġbo":2845,"Ġsusse":2846,"Ġlatin":2847,"Ġeritrean":2848,"Ġsussex":2849,"agen":2850,"Ġnorfolk":2851,"Ġvolkswagen":2852,"Ġaddresses":2853,"js":2854,"Ġpurch":2855,"Ġ019":2856,"Ġ01223350":2857,"Ġpurchase":2858,"Ġafford":2859,"Ġupsca":2860,"Ġupscale":2861,"mbroke":2862,"Ġpembroke":2863,"onese":2864,"Ġpress":2865,"Ġ133":2866,"Ġeating":2867,"Ġjohn":2868,"Ġdates":2869,"Ġcantonese":2870,"Ġdesired":2871,"Ġavenue":2872,"Ġheld":2873,"Ġrobbed":2874,"Ġsing":2875,"Ġalmo":2876,"Ġbarbe":2877,"Ġalmost":2878,"03":2879,"Ġbeca":2880,"Ġtables":2881,"357":2882,"Ġ01223304":2883,"Ġ01954":2884,"Ġbecause":2885,"dw":2886,"rame":2887,"ried":2888,"Ġalways":2889,"Ġqual":2890,"97":2891,"gx":2892,"Ġhaven":2893,"Ġstations":2894,"Ġcath":2895,"rs":2896,"tz":2897,"Ġcra":2898,"Ġbill":2899,"stake":2900,"Ġmistake":2901,"Ġenough":2902,"85":2903,"fl":2904,"gw":2905,"Ġgener":2906,"Ġchecked":2907,"Ġ01223355":2908,"Ġexhibition":2909,"nger":2910,"Ġfall":2911,"124":2912,"Ġ012234646":2913,"Ġvolvo":2914,"Ġpassenger":2915,"orey":2916,"Ġgeneral":2917,"Ġportra":2918,"Ġalter":2919,"Ġjub":2920,"Ġameric":2921,"ilee":2922,"Ġjubilee":2923,"bd":2924,"Ġsca":2925,"ious":2926,"Ġcru":2927,"Ġadress":2928,"dz":2929,"Ġtrainid":2930,"Ġstorey":2931,"hill":2932,"ghes":2933,"Ġ53":2934,"Ġhuntington":2935,"Ġshorten":2936,"Ġcorsica":2937,"Ġcathar":2938,"Ġcaf":2939,"lyn":2940,"Ġ01223324":2941,"Ġportraits":2942,"Ġlate":2943,"Ġmer":2944,"ghan":2945,"Ġafghan":2946,"5725":2947,"Ġappeal":2948,"Ġamericas":2949,"Ġcrui":2950,"hx":2951,"com":2952,"Ġwestside":2953,"Ġparticularly":2954,"Ġsheep":2955,"Ġmichaelhouse":2956,"Ġtransport":2957,"Ġ0122350":2958,"Ġhughes":2959,"Ġcreative":2960,"Ġnarrows":2961,"600":2962,"jb":2963,"Ġ31":2964,"Ġdirect":2965,"Ġrow":2966,"Ġ01223311":2967,"Ġconfuse":2968,"Ġprint":2969,"Ġcraving":2970,"Ġcaffe":2971,"kn":2972,"Ġput":2973,"Ġamaz":2974,"Ġ517":2975,"Ġfare":2976,"abase":2977,"Ġdatabase":2978,"Ġamazing":2979,"sw":2980,"erge":2981,"cade":2982,"Ġ0122327":2983,"Ġqueen":2984,"353":2985,"4200":2986,"Ġemerge":2987,"Ġemergency":2988,"95":2989,"Ġbate":2990,"Ġpolyn":2991,"Ġec":2992,"158":2993,"Ġum":2994,"logy":2995,"Ġgrand":2996,"Ġeng":2997,"Ġscand":2998,"Ġmercer":2999,"Ġbateman":3000,"Ġpolynesian":3001,"bw":3002,"dle":3003,"qf":3004,"Ġext":3005,"Ġetc":3006,"Ġ012238":3007,"Ġ69":3008,"Ġfeel":3009,"Ġwow":3010,"Ġless":3011,"Ġquery":3012,"Ġpersonally":3013,"ively":3014,"83":3015,"Ġframe":3016,"Ġbase":3017,"Ġexpect":3018,"Ġstick":3019,"Ġasked":3020,"Ġchance":3021,"Ġreason":3022,"vian":3023,"wnt":3024,"stand":3025,"inavian":3026,"Ġscandinavian":3027,"Ġmercers":3028,"ild":3029,"sers":3030,"Ġdownt":3031,"Ġobj":3032,"Ġcruisers":3033,"Ġdowntown":3034,"Ġobject":3035,"sr":3036,"ty":3037,"Ġsuitable":3038,"Ġactivity":3039,"Ġfancy":3040,"Ġattend":3041,"Ġalong":3042,"279":3043,"Ġkettles":3044,"ditional":3045,"rant":3046,"Ġtraditional":3047,"Ġnews":3048,"Ġopening":3049,"Ġenglish":3050,"Ġarcade":3051,"Ġalone":3052,"Ġcheapest":3053,"Ġexper":3054,"Ġhalls":3055,"Ġ012233348":3056,"Ġbelg":3057,"Ġaltern":3058,"ag":3059,"cular":3060,"qy":3061,"Ġ64":3062,"Ġconcerned":3063,"Ġbased":3064,"223":3065,"ae":3066,"dered":3067,"Ġlunch":3068,"lal":3069,"Ġhalal":3070,"Ġwhitehill":3071,"Ġtransportation":3072,"aden":3073,"Ġmis":3074,"Ġbroaden":3075,"Ġ078":3076,"Ġ01223566":3077,"ix":3078,"pj":3079,"Ġactual":3080,"Ġideas":3081,"Ġnames":3082,"Ġconsidered":3083,"611":3084,"uf":3085,"Ġill":3086,"Ġwife":3087,"Ġcambourne":3088,"Ġcloser":3089,"Ġ01223464646":3090,"Ġbelgian":3091,"0353":3092,"nz":3093,"Ġever":3094,"741":3095,"jx":3096,"Ġmut":3097,"Ġneither":3098,"Ġ012233279":3099,"Ġret":3100,"Ġ0122352":3101,"Ġ63":3102,"Ġ68":3103,"Ġconven":3104,"omy":3105,"Ġ01223525725":3106,"hy":3107,"wy":3108,"xh":3109,"ature":3110,"eal":3111,"Ġlow":3112,"Ġ5357":3113,"Ġspecifics":3114,"Ġaffordable":3115,"my":3116,"vol":3117,"Ġtour":3118,"880":3119,"Ġmiddle":3120,"Ġ01223210353":3121,"Ġgrande":3122,"zc":3123,"Ġreme":3124,"vent":3125,"Ġpricey":3126,"Ġdepartures":3127,"Ġsomeone":3128,"12240":3129,"660":3130,"Ġwelsh":3131,"Ġbites":3132,"Ġhung":3133,"Ġ08712240":3134,"Ġ08712240240":3135,"nf":3136,"Ġfo":3137,"liple":3138,"Ġpossibil":3139,"Ġcomes":3140,"Ġconfused":3141,"Ġmutliple":3142,"Ġpossibilities":3143,"gbp":3144,"kv":3145,"Ġ076":3146,"Ġquick":3147,"jy":3148,"Ġmain":3149,"Ġ152":3150,"Ġ191":3151,"Ġ01223300":3152,"Ġ012234741":3153,"Ġ01223474144":3154,"ey":3155,"zy":3156,"lecular":3157,"Ġwide":3158,"Ġmolecular":3159,"Ġprovid":3160,"088":3161,"Ġgastron":3162,"2091":3163,"Ġ01223902091":3164,"705":3165,"Ġfig":3166,"Ġgastronomy":3167,"Ġbas":3168,"668":3169,"Ġservices":3170,"apo":3171,"jf":3172,"pq":3173,"Ġdeal":3174,"Ġlight":3175,"Ġdoing":3176,"Ġwho":3177,"236":3178,"Ġ151":3179,"Ġideally":3180,"Ġsingapo":3181,"Ġbasque":3182,"Ġ01223335":3183,"4050":3184,"Ġbarbeque":3185,"566":3186,"cr":3187,"im":3188,"sx":3189,"vd":3190,"Ġpleas":3191,"Ġ106":3192,"Ġunderstand":3193,"Ġroseford":3194,"Ġquality":3195,"cu":3196,"sing":3197,"Ġcl":3198,"Ġstaring":3199,"Ġsouthern":3200,"Ġtrouble":3201,"Ġ0122351":3202,"Ġoper":3203,"Ġdisp":3204,"Ġthroughout":3205,"og":3206,"pa":3207,"Ġes":3208,"raunt":3209,"154":3210,"Ġ01223354":3211,"085":3212,"397":3213,"Ġideal":3214,"Ġ01223334860":3215,"Ġhungry":3216,"Ġsingaporean":3217,"hu":3218,"Ġass":3219,"Ġbr":3220,"Ġsir":3221,"Ġinvol":3222,"ctic":3223,"Ġanymo":3224,"chel":3225,"Ġpostcodes":3226,"Ġplough":3227,"Ġchanged":3228,"erschel":3229,"Ġ01223307":3230,"Ġdispute":3231,"Ġanymore":3232,"112":3233,"px":3234,"Ġbad":3235,"Ġ01223304050":3236,"Ġsites":3237,"Ġconvenient":3238,"ap":3239,"bg":3240,"sy":3241,"tl":3242,"Ġrom":3243,"Ġter":3244,"Ġwouldn":3245,"Ġangl":3246,"1550":3247,"Ġanglia":3248,"db":3249,"pd":3250,"rt":3251,"Ġyo":3252,"Ġ41":3253,"lar":3254,"pb":3255,"eler":3256,"Ġdue":3257,"Ġsqu":3258,"fied":3259,"Ġsimi":3260,"Ġwheeler":3261,"Ġ0871550":3262,"Ġ01223332320":3263,"Ġsimilar":3264,"Ġ087155010":3265,"bably":3266,"ej":3267,"fish":3268,"hg":3269,"Ġkingfish":3270,"Ġ124":3271,"Ġprobably":3272,"Ġ077":3273,"Ġkinds":3274,"Ġgastropubs":3275,"Ġkingfisher":3276,"je":3277,"uy":3278,"Ġsuper":3279,"ters":3280,"Ġparts":3281,"Ġjourne":3282,"Ġkid":3283,"liar":3284,"Ġ079":3285,"ample":3286,"265":3287,"Ġfamiliar":3288,"Ġ01223902088":3289,"uarant":3290,"Ġjourney":3291,"rq":3292,"Ġwr":3293,"ors":3294,"anian":3295,"Ġgi":3296,"Ġnorman":3297,"Ġ1517":3298,"cil":3299,"Ġperi":3300,"Ġhinch":3301,"Ġschedules":3302,"Ġbuy":3303,"Ġfriends":3304,"Ġdriver":3305,"Ġromanian":3306,"book":3307,"qa":3308,"xa":3309,"inbrook":3310,"Ġpull":3311,"Ġherschel":3312,"Ġcentra":3313,"Ġfacil":3314,"Ġpersonal":3315,"Ġ01223304705":3316,"Ġhinchinbrook":3317,"718":3318,"lj":3319,"nl":3320,"wbray":3321,"ance":3322,"lectic":3323,"Ġmowbray":3324,"Ġfoods":3325,"Ġaccommodation":3326,"7708":3327,"Ġ01223902168":3328,"Ġ01223366611":3329,"Ġeclectic":3330,"dd":3331,"Ġest":3332,"nta":3333,"Ġye":3334,"atively":3335,"code":3336,"Ġ012234200":3337,"Ġworking":3338,"087":3339,"Ġ404":3340,"6233":3341,"Ġ01223420060":3342,"asian":3343,"em":3344,"pton":3345,"Ġneuro":3346,"Ġ2124":3347,"Ġhowdy":3348,"Ġworld":3349,"270":3350,"Ġ01223336233":3351,"906":3352,"Ġpanasian":3353,"Ġ01223902112":3354,"Ġ01223312112":3355,"427":3356,"bt":3357,"ber":3358,"Ġnah":3359,"Ġresp":3360,"ces":3361,"land":3362,"Ġ36":3363,"159":3364,"vious":3365,"Ġmarriot":3366,"wards":3367,"Ġweekend":3368,"Ġcoldhams":3369,"Ġfigure":3370,"Ġ08715501010":3371,"81":3372,"qb":3373,"rat":3374,"Ġprop":3375,"ath":3376,"Ġexample":3377,"Ġnarrowed":3378,"Ġplans":3379,"ht":3380,"ni":3381,"Ġdecid":3382,"Ġ57":3383,"Ġ80":3384,"Ġ01223352":3385,"Ġ96":3386,"Ġprovides":3387,"Ġfeature":3388,"Ġcalling":3389,"Ġactivities":3390,"Ġrelatively":3391,"Ġ01223300085":3392,"nk":3393,"Ġed":3394,"Ġwent":3395,"meters":3396,"Ġnortham":3397,"Ġasking":3398,"Ġ156":3399,"Ġworry":3400,"Ġcuisines":3401,"Ġhourly":3402,"Ġ01223357708":3403,"428":3404,"Ġ01223355397":3405,"known":3406,"Ġextra":3407,"Ġnorthampton":3408,"Ġfro":3409,"Ġinqu":3410,"tings":3411,"Ġgreetings":3412,"Ġregency":3413,"jv":3414,"lx":3415,"Ġthir":3416,"Ġdrop":3417,"Ġ34":3418,"Ġ01223315":3419,"210":3420,"Ġgranta":3421,"Ġsele":3422,"Ġ01223902158":3423,"fd":3424,"gg":3425,"uw":3426,"Ġcle":3427,"sed":3428,"Ġcanc":3429,"Ġ42":3430,"Ġ451":3431,"vers":3432,"aid":3433,"Ġ710":3434,"Ġ83":3435,"Ġ62":3436,"Ġgiven":3437,"Ġfair":3438,"Ġkindly":3439,"1018":3440,"781018":3441,"6412":3442,"Ġ01954781018":3443,"Ġcentrally":3444,"qc":3445,"ealand":3446,"402":3447,"Ġzealand":3448,"Ġrelated":3449,"Ġ012238668":3450,"Ġpleasure":3451,"Ġwrong":3452,"Ġ01223866800":3453,"61":3454,"914":3455,"ace":3456,"sc":3457,"Ġcres":3458,"Ġbart":3459,"Ġdel":3460,"eshouse":3461,"Ġmeal":3462,"Ġanyway":3463,"Ġ110":3464,"Ġviking":3465,"Ġswim":3466,"Ġrestuarant":3467,"Ġgueshouse":3468,"Ġquestion":3469,"Ġ01223576412":3470,"Ġyear":3471,"Ġcrescent":3472,"Ġbarton":3473,"cv":3474,"ph":3475,"Ġfails":3476,"Ġlion":3477,"Ġform":3478,"Ġansw":3479,"Ġstarts":3480,"fered":3481,"Ġacross":3482,"3516":3483,"Ġ01223333516":3484,"Ġremember":3485,"info":3486,"star":3487,"Ġforget":3488,"Ġtowninfo":3489,"ders":3490,"Ġ0087":3491,"Ġ39":3492,"153":3493,"Ġ012237":3494,"08000":3495,"Ġenterprise":3496,"2208000":3497,"Ġcatharine":3498,"Ġ00872208000":3499,"gm":3500,"lver":3501,"owing":3502,"ison":3503,"Ġprevious":3504,"Ġuh":3505,"Ġring":3506,"lore":3507,"Ġsilver":3508,"Ġexplore":3509,"Ġfinders":3510,"Ġtenison":3511,"702":3512,"Ġ40428":3513,"Ġcorner":3514,"388":3515,"bz":3516,"gd":3517,"mf":3518,"tq":3519,"zen":3520,"Ġtried":3521,"Ġhm":3522,"Ġreal":3523,"Ġdozen":3524,"Ġelsewhere":3525,"Ġown":3526,"Ġworked":3527,"Ġperfectly":3528,"Ġsidgw":3529,"Ġcompan":3530,"Ġ01223307402":3531,"fn":3532,"rl":3533,"ww":3534,"Ġpaid":3535,"less":3536,"Ġevent":3537,"4519":3538,"Ġ0122329":3539,"Ġ66":3540,"Ġresturant":3541,"Ġaustrala":3542,"Ġattending":3543,"Ġaustralasian":3544,"bq":3545,"nj":3546,"vh":3547,"Ġtre":3548,"Ġthor":3549,"edi":3550,"Ġpeas":3551,"Ġknown":3552,"Ġ084519":3553,"62320":3554,"Ġ08451962320":3555,"cc":3556,"hl":3557,"oint":3558,"elix":3559,"Ġpu":3560,"Ġfelix":3561,"Ġgave":3562,"Ġrate":3563,"Ġsuf":3564,"icine":3565,"Ġ71":3566,"Ġunknown":3567,"ments":3568,"194":3569,"Ġmedicine":3570,"Ġ012233550":3571,"782":3572,"Ġmillers":3573,"Ġwhitehouse":3574,"Ġlux":3575,"Ġ01223350914":3576,"ather":3577,"511":3578,"6265":3579,"eh":3580,"zk":3581,"elber":3582,"Ġpla":3583,"Ġpub":3584,"Ġmet":3585,"sic":3586,"Ġcol":3587,"Ġtaken":3588,"Ġchoosing":3589,"Ġheid":3590,"Ġ01223336265":3591,"Ġ0122336566":3592,"Ġexpecting":3593,"Ġsquare":3594,"Ġperiod":3595,"Ġedward":3596,"elberg":3597,"Ġheidelberg":3598,"Ġ01223365664":3599,"aw":3600,"sure":3601,"uj":3602,"Ġrefer":3603,"Ġglo":3604,"Ġpreferable":3605,"Ġunsure":3606,"Ġworried":3607,"170":3608,"296":3609,"4600":3610,"Ġ012233377":3611,"Ġmedical":3612,"382":3613,"Ġhistor":3614,"Ġexperience":3615,"Ġsidgwick":3616,"Ġ01223337766":3617,"apes":3618,"wk":3619,"Ġnoon":3620,"though":3621,"Ġcanapes":3622,"Ġalthough":3623,"icious":3624,"Ġindust":3625,"Ġoptional":3626,"202":3627,"Ġprovided":3628,"Ġgiving":3629,"Ġclear":3630,"Ġdelicious":3631,"do":3632,"gn":3633,"jz":3634,"nu":3635,"rx":3636,"Ġoo":3637,"edb":3638,"Ġchild":3639,"Ġdoesnt":3640,"Ġ144":3641,"Ġconcerthalls":3642,"5314":3643,"Ġbummer":3644,"737":3645,"Ġestablishments":3646,"Ġ01223575314":3647,"Ġcancel":3648,"257":3649,"fs":3650,"jj":3651,"pk":3652,"rf":3653,"ux":3654,"vx":3655,"Ġgather":3656,"Ġcentral":3657,"Ġ0122346":3658,"Ġfinish":3659,"222":3660,"Ġsheeps":3661,"Ġ01223323737":3662,"Ġcompany":3663,"500":3664,"bi":3665,"band":3666,"Ġcro":3667,"Ġhus":3668,"ites":3669,"Ġexist":3670,"Ġreserving":3671,"Ġ7880":3672,"Ġ138":3673,"Ġgives":3674,"Ġspecified":3675,"299":3676,"3830":3677,"Ġappoint":3678,"Ġvarious":3679,"Ġalternative":3680,"Ġestate":3681,"Ġselection":3682,"Ġindustri":3683,"Ġhusband":3684,"bal":3685,"gq":3686,"ta":3687,"vm":3688,"xs":3689,"Ġterra":3690,"Ġlie":3691,"Ġtop":3692,"Ġ205":3693,"Ġ074":3694,"Ġcourt":3695,"Ġhopefully":3696,"Ġarrangements":3697,"Ġ01223566388":3698,"Ġfeatures":3699,"Ġcolville":3700,"Ġglobal":3701,"Ġterrace":3702,"dt":3703,"ial":3704,"lking":3705,"teen":3706,"vy":3707,"xy":3708,"zil":3709,"peci":3710,"Ġpeoples":3711,"Ġwhats":3712,"Ġ200":3713,"Ġaddition":3714,"Ġwestern":3715,"Ġbookings":3716,"Ġsettle":3717,"Ġtrips":3718,"Ġtandoor":3719,"Ġbrazil":3720,"Ġ01223332360":3721,"Ġfoll":3722,"Ġespeci":3723,"Ġbrazilian":3724,"Ġespecially":3725,"688":3726,"ih":3727,"jm":3728,"lq":3729,"merton":3730,"Ġpast":3731,"Ġ365":3732,"Ġhomerton":3733,"Ġ108":3734,"248":3735,"Ġparameters":3736,"Ġdisc":3737,"Ġ01223324600":3738,"Ġ01223327908":3739,"Ġappointment":3740,"188":3741,"410":3742,"lic":3743,"nv":3744,"qe":3745,"vf":3746,"ret":3747,"Ġinc":3748,"Ġlocating":3749,"Ġperne":3750,"Ġaccom":3751,"Ġseeking":3752,"Ġconne":3753,"596":3754,"Ġhmmm":3755,"714600":3756,"Ġ01954714600":3757,"Ġreasonable":3758,"Ġrespon":3759,"ew":3760,"nx":3761,"oi":3762,"Ġow":3763,"atology":3764,"Ġcamp":3765,"Ġ328":3766,"Ġjedb":3767,"Ġ89":3768,"Ġ99":3769,"Ġspace":3770,"1707":3771,"Ġexpand":3772,"9448":3773,"Ġdepending":3774,"Ġ01223350688":3775,"Ġinvolve":3776,"Ġpublic":3777,"Ġjedbur":3778,"dh":3779,"oin":3780,"qg":3781,"rj":3782,"sion":3783,"Ġstu":3784,"Ġstated":3785,"233":3786,"238":3787,"Ġcontacting":3788,"Ġ01223351707":3789,"Ġscheduled":3790,"Ġappro":3791,"Ġ40210":3792,"Ġ01223243830":3793,"Ġ01223355159":3794,"224":3795,"app":3796,"ny":3797,"oz":3798,"tb":3799,"zb":3800,"Ġtea":3801,"nton":3802,"ars":3803,"Ġ017":3804,"Ġvary":3805,"111":3806,"Ġ070":3807,"104":3808,"4222":3809,"387":3810,"786":3811,"0446":3812,"Ġcatharines":3813,"Ġterri":3814,"booking":3815,"Ġthornton":3816,"Ġjedburgh":3817,"843":3818,"gu":3819,"igh":3820,"zl":3821,"raham":3822,"Ġsm":3823,"Ġgog":3824,"Ġabo":3825,"Ġ54":3826,"fice":3827,"Ġhand":3828,"Ġsight":3829,"Ġ01223359":3830,"Ġclubs":3831,"Ġ01223338":3832,"Ġ01223356":3833,"Ġmagog":3834,"Ġbabraham":3835,"Ġspots":3836,"Ġ01223324222":3837,"Ġ01223354382":3838,"Ġindustrial":3839,"cl":3840,"cw":3841,"kc":3842,"rg":3843,"vt":3844,"Ġaway":3845,"Ġtalk":3846,"Ġexcept":3847,"Ġhaem":3848,"Ġ012232":3849,"Ġ1416":3850,"5015":3851,"Ġcharges":3852,"Ġ40270":3853,"Ġdisapp":3854,"Ġ01223304906":3855,"521":3856,"aa":3857,"ij":3858,"lc":3859,"sv":3860,"Ġhur":3861,"rious":3862,"1511":3863,"Ġeatery":3864,"otten":3865,"8842":3866,"494":3867,"361":3868,"Ġ01223446104":3869,"Ġ012235033":3870,"Ġ01223335511":3871,"km":3872,"ov":3873,"qw":3874,"rk":3875,"vc":3876,"ye":3877,"stra":3878,"Ġdeci":3879,"ghts":3880,"Ġ529":3881,"Ġeastside":3882,"Ġ01223364222":3883,"Ġswimmingpools":3884,"Ġretail":3885,"Ġdozens":3886,"Ġgathering":3887,"Ġdecide":3888,"828":3889,"911":3890,"hh":3891,"if":3892,"rb":3893,"zw":3894,"nth":3895,"Ġsad":3896,"Ġdecent":3897,"Ġtax":3898,"urton":3899,"Ġsturton":3900,"599":3901,"Ġfavorites":3902,"480446":3903,"Ġnando":3904,"Ġsuits":3905,"Ġ01480446":3906,"comend":3907,"Ġopenings":3908,"Ġbring":3909,"Ġaccomod":3910,"Ġ01480446000":3911,"7660":3912,"bf":3913,"kf":3914,"mg":3915,"mit":3916,"nh":3917,"oe":3918,"pr":3919,"sq":3920,"xq":3921,"eries":3922,"Ġbunch":3923,"Ġrestaraunt":3924,"Ġ290":3925,"Ġ251":3926,"Ġguestroom":3927,"Ġadj":3928,"Ġimp":3929,"Ġ01223367660":3930,"7977":3931,"urgery":3932,"ngers":3933,"Ġ01223217":3934,"Ġpassengers":3935,"Ġlower":3936,"8111":3937,"8786":3938,"bn":3939,"jc":3940,"mu":3941,"ned":3942,"Ġhon":3943,"Ġdr":3944,"Ġlive":3945,"xim":3946,"Ġ73":3947,"2187":3948,"Ġentertaining":3949,"Ġ07782":3950,"Ġfift":3951,"Ġ01223353248":3952,"8882":3953,"Ġ152154":3954,"Ġ01223518111":3955,"Ġneurology":3956,"Ġ01223355017":3957,"218745":3958,"Ġ07782218745":3959,"330":3960,"jq":3961,"ki":3962,"lt":3963,"mor":3964,"mous":3965,"tr":3966,"we":3967,"zf":3968,"Ġot":3969,"Ġsport":3970,"2330":3971,"Ġ1519":3972,"Ġhilton":3973,"Ġ169":3974,"Ġ01223360":3975,"2138":3976,"Ġstev":3977,"Ġfamous":3978,"083":3979,"19224":3980,"Ġ01223302330":3981,"Ġvere":3982,"2456":3983,"poke":3984,"Ġ01223519224":3985,"Ġfacilities":3986,"Ġpulled":3987,"Ġresponse":3988,"Ġdisappoin":3989,"kq":3990,"rd":3991,"wd":3992,"xd":3993,"xed":3994,"zt":3995,"Ġbig":3996,"Ġtowards":3997,"Ġ59":3998,"1241":3999,"Ġeateries":4000,"2725":4001,"27410":4002,"Ġdepends":4003,"Ġ01223277977":4004,"Ġ01223566188":4005,"Ġplaza":4006,"Ġcrown":4007,"Ġapproxim":4008,"Ġadjust":4009,"Ġhonest":4010,"cis":4011,"pv":4012,"xc":4013,"atri":4014,"Ġtomor":4015,"Ġ172":4016,"Ġmath":4017,"3200":4018,"Ġhigher":4019,"Ġdarn":4020,"Ġdirectly":4021,"Ġhaematology":4022,"Ġtomorrow":4023,"552":4024,"607":4025,"750":4026,"900":4027,"cg":4028,"rv":4029,"wf":4030,"Ġ$":4031,"anage":4032,"Ġ0122384":4033,"178":4034,"5264":4035,"Ġmisspoke":4036,"Ġshopping":4037,"Ġhund":4038,"Ġ01223312843":4039,"Ġfalls":4040,"Ġ01223327978":4041,"Ġdecided":4042,"Ġ01223842725":4043,"au":4044,"cue":4045,"hz":4046,"nw":4047,"wm":4048,"yk":4049,"Ġfu":4050,"edd":4051,"Ġattemp":4052,"ssy":4053,"12596":4054,"ensive":4055,"using":4056,"074":4057,"Ġconfusing":4058,"7966":4059,"Ġshortly":4060,"Ġ01223315702":4061,"Ġ01223295264":4062,"Ġfifteen":4063,"Ġhundred":4064,"hq":4065,"jp":4066,"ked":4067,"sd":4068,"vv":4069,"zs":4070,"Ġpumping":4071,"Ġchedd":4072,"Ġthanky":4073,"Ġwants":4074,"12660":4075,"Ġserved":4076,"Ġotherwi":4077,"Ġvisitors":4078,"598":4079,"Ġresult":4080,"Ġjoin":4081,"Ġ01223362456":4082,"Ġ0122330257":4083,"Ġbarbecue":4084,"Ġappealing":4085,"Ġ01223812660":4086,"Ġ01223511511":4087,"Ġoperation":4088,"Ġluxury":4089,"Ġfollowing":4090,"Ġ01223338000":4091,"Ġcheddars":4092,"Ġotherwise":4093,"bl":4094,"dg":4095,"ding":4096,"he":4097,"kd":4098,"mc":4099,"pl":4100,"read":4101,"Ġodd":4102,"Ġshe":4103,"Ġworries":4104,"Ġrequired":4105,"Ġ01223333200":4106,"Ġ01223351241":4107,"802":4108,"Ġ01223368786":4109,"Ġemail":4110,"Ġsingle":4111,"Ġalternate":4112,"Ġtreat":4113,"5219":4114,"Ġcrowne":4115,"Ġthankyou":4116,"01223":4117,"625":4118,"aj":4119,"fc":4120,"gs":4121,"lv":4122,"oj":4123,"tree":4124,"uter":4125,"xw":4126,"Ġsave":4127,"cology":4128,"Ġmove":4129,"Ġanyone":4130,"Ġ25":4131,"0089":4132,"Ġtrust":4133,"Ġ72":4134,"Ġ139":4135,"118":4136,"Ġ073":4137,"Ġrestraunt":4138,"77900":4139,"331":4140,"Ġ01223477900":4141,"Ġ01223248882":4142,"Ġregion":4143,"Ġregret":4144,"Ġcomputer":4145,"Ġdrive":4146,"Ġpulling":4147,"Ġfairly":4148,"Ġ01223503333":4149,"df":4150,"mind":4151,"pz":4152,"ped":4153,"vb":4154,"zp":4155,"Ġcard":4156,"Ġrep":4157,"Ġprior":4158,"Ġdecis":4159,"Ġtaste":4160,"Ġ46":4161,"Ġhelps":4162,"456":4163,"ult":4164,"Ġeasy":4165,"Ġsights":4166,"Ġtelling":4167,"liment":4168,"Ġeveryone":4169,"Ġ01223240089":4170,"Ġcompliment":4171,"Ġdoubletree":4172,"Ġsupposed":4173,"4277":4174,"Ġpropert":4175,"Ġthirteen":4176,"Ġstevanage":4177,"Ġapproximately":4178,"cb":4179,"kt":4180,"ob":4181,"under":4182,"Ġtook":4183,"Ġplu":4184,"Ġlar":4185,"Ġrese":4186,"Ġsell":4187,"ien":4188,"Ġoffered":4189,"Ġstayed":4190,"Ġarrived":4191,"12299":4192,"sons":4193,"2400":4194,"Ġ01223332138":4195,"Ġ01223412299":4196,"Ġbuild":4197,"Ġ01223244277":4198,"Ġlearn":4199,"Ġreasonably":4200,"Ġmisunder":4201,"Ġclin":4202,"Ġ01223352607":4203,"ediatri":4204,"Ġstuff":4205,"Ġhurt":4206,"Ġcomplimentary":4207,"Ġlarge":4208,"Ġbuilding":4209,"ediatric":4210,"bour":4211,"jk":4212,"san":4213,"vel":4214,"Ġrent":4215,"Ġinsan":4216,"Ġmodi":4217,"Ġlookup":4218,"Ġyourself":4219,"Ġwalking":4220,"Ġ86":4221,"Ġ196":4222,"Ġacute":4223,"Ġconstra":4224,"Ġnarrowing":4225,"Ġchester":4226,"5212":4227,"591":4228,"Ġrespect":4229,"Ġfinal":4230,"Ġriding":4231,"Ġ012234124":4232,"Ġsaying":4233,"8650":4234,"Ġ01223512596":4235,"Ġbored":4236,"Ġhistorical":4237,"Ġconnect":4238,"Ġsadly":4239,"Ġ01223360966":4240,"Ġinsanely":4241,"Ġ01223412430":4242,"cz":4243,"lz":4244,"mer":4245,"nb":4246,"pw":4247,"rdi":4248,"ume":4249,"xx":4250,"zq":4251,"Ġcame":4252,"Ġmonth":4253,"Ġstate":4254,"005":4255,"232":4256,"Ġinform":4257,"07718":4258,"2734":4259,"2010":4260,"7877":4261,"Ġ4753":4262,"Ġ07807718":4263,"Ġ01223335153":4264,"7187":4265,"Ġproper":4266,"Ġ01223352500":4267,"Ġ01223727410":4268,"Ġpreviously":4269,"Ġdrin":4270,"Ġ732734":4271,"Ġdisappointing":4272,"Ġ01223302579":4273,"Ġ07807718591":4274,"512":4275,"ac":4276,"iu":4277,"nr":4278,"tes":4279,"vl":4280,"vq":4281,"vw":4282,"inion":4283,"ele":4284,"Ġcet":4285,"Ġhard":4286,"Ġdish":4287,"Ġsurgery":4288,"led":4289,"ride":4290,"Ġadv":4291,"mmy":4292,"Ġsatis":4293,"Ġopinion":4294,"Ġhost":4295,"1763":4296,"662":4297,"6055":4298,"5767":4299,"Ġ012233634":4300,"Ġ01223368650":4301,"Ġ01223361763":4302,"Ġ01223302010":4303,"Ġstandsted":4304,"Ġboard":4305,"Ġassume":4306,"Ġ01223359750":4307,"Ġregretfully":4308,"Ġ01223363471":4309,"dx":4310,"gf":4311,"iology":4312,"jl":4313,"oq":4314,"qz":4315,"zm":4316,"ates":4317,"Ġlimit":4318,"Ġcambride":4319,"Ġdear":4320,"2372":4321,"Ġ619":4322,"Ġcurious":4323,"Ġcong":4324,"Ġclosed":4325,"525":4326,"390":4327,"Ġ01223334200":4328,"Ġ3334":4329,"Ġdesk":4330,"555":4331,"Ġjob":4332,"Ġ01223362372":4333,"Ġspecializ":4334,"Ġchosen":4335,"Ġ01223311911":4336,"Ġexperien":4337,"Ġfront":4338,"Ġanswer":4339,"Ġsuffice":4340,"Ġcardiology":4341,"Ġresearch":4342,"Ġexperiencing":4343,"1387":4344,"212":4345,"958":4346,"bh":4347,"iy":4348,"ku":4349,"qs":4350,"round":4351,"yy":4352,"Ġbur":4353,"rite":4354,"Ġgotten":4355,"Ġcambrdi":4356,"Ġattention":4357,"derly":4358,"Ġelderly":4359,"Ġdestinations":4360,"Ġstrat":4361,"Ġ58":4362,"Ġunless":4363,"Ġ132":4364,"Ġsize":4365,"Ġ183":4366,"ficient":4367,"Ġmins":4368,"6653":4369,"355":4370,"Ġheart":4371,"167":4372,"ique":4373,"Ġ01223306":4374,"Ġ01223247877":4375,"Ġ01223366202":4376,"Ġ01223276653":4377,"Ġfacility":4378,"Ġcampus":4379,"Ġmodify":4380,"Ġchesteron":4381,"Ġcambrdige":4382,"Ġstratford":4383,"2083":4384,"5154":4385,"gc":4386,"mr":4387,"omp":4388,"wl":4389,"wery":4390,"xf":4391,"stood":4392,"Ġthomp":4393,"Ġcut":4394,"Ġdale":4395,"Ġgl":4396,"Ġoncology":4397,"Ġmovie":4398,"hand":4399,"Ġsilly":4400,"Ġbrewery":4401,"Ġstanford":4402,"110":4403,"414":4404,"Ġaylesbury":4405,"493":4406,"Ġreachable":4407,"7015":4408,"Ġ01223241387":4409,"765":4410,"Ġtons":4411,"Ġcomplex":4412,"Ġappeals":4413,"Ġwhole":4414,"Ġevents":4415,"Ġplus":4416,"Ġconstraint":4417,"Ġrespectively":4418,"Ġthompsons":4419,"1880":4420,"hb":4421,"hc":4422,"ier":4423,"iry":4424,"mz":4425,"pn":4426,"tely":4427,"uc":4428,"wb":4429,"Ġwou":4430,"Ġhate":4431,"Ġfully":4432,"sease":4433,"Ġinfect":4434,"Ġliking":4435,"Ġneat":4436,"Ġintend":4437,"Ġmusic":4438,"306":4439,"Ġsouthend":4440,"Ġdistance":4441,"Ġdisease":4442,"Ġ84":4443,"Ġavo":4444,"Ġunique":4445,"294":4446,"Ġgastro":4447,"Ġgrab":4448,"Ġzip":4449,"16074":4450,"903":4451,"0927":4452,"Ġ01223351880":4453,"Ġcompletely":4454,"Ġlasting":4455,"Ġ01223506055":4456,"Ġ01223311625":4457,"Ġinvolving":4458,"Ġterms":4459,"Ġ01799":4460,"Ġabove":4461,"Ġadvance":4462,"Ġinfectious":4463,"Ġdiseases":4464,"868":4465,"dir":4466,"ii":4467,"ji":4468,"lm":4469,"rn":4470,"tp":4471,"ug":4472,"wc":4473,"Ġian":4474,"Ġfoo":4475,"Ġbout":4476,"Ġread":4477,"Ġmine":4478,"Ġgwy":4479,"lls":4480,"Ġamong":4481,"Ġleft":4482,"00170":4483,"Ġegg":4484,"Ġeye":4485,"4550":4486,"Ġtru":4487,"Ġmanage":4488,"aster":4489,"Ġ075":4490,"404":4491,"Ġpaediatric":4492,"Ġ012233384":4493,"Ġ01223332400":4494,"48100":4495,"7786":4496,"Ġ01223400170":4497,"Ġyummy":4498,"9859":4499,"Ġregardless":4500,"4748":4501,"Ġ01223323361":4502,"Ġmistaken":4503,"8300":4504,"Ġproviding":4505,"Ġdeciding":4506,"Ġ01223748100":4507,"Ġexists":4508,"Ġgwydir":4509,"Ġ01223338400":4510,"ja":4511,"jd":4512,"uh":4513,"wx":4514,"zn":4515,"ints":4516,"Ġfut":4517,"Ġnumer":4518,"Ġstarving":4519,"Ġalot":4520,"Ġplaced":4521,"Ġpoints":4522,"Ġoc":4523,"Ġ116":4524,"Ġmakes":4525,"cks":4526,"fications":4527,"Ġmatters":4528,"354":4529,"4149":4530,"Ġshows":4531,"486":4532,"2515":4533,"7942":4534,"6838":4535,"Ġsoonest":4536,"Ġcategor":4537,"Ġnevermind":4538,"Ġowe":4539,"Ġ01223217118":4540,"Ġhonestly":4541,"Ġdecisions":4542,"Ġavoid":4543,"Ġfuture":4544,"407":4545,"807":4546,"bo":4547,"cm":4548,"go":4549,"ifications":4550,"mn":4551,"vies":4552,"yf":4553,"Ġut":4554,"Ġthru":4555,"Ġful":4556,"Ġprici":4557,"Ġhelped":4558,"alf":4559,"0059":4560,"Ġumm":4561,"Ġprocess":4562,"214":4563,"ussed":4564,"Ġoutside":4565,"291":4566,"293":4567,"istic":4568,"uses":4569,"263":4570,"Ġruns":4571,"Ġlasts":4572,"Ġsitu":4573,"Ġsteakhouses":4574,"Ġhuh":4575,"Ġ0122357512":4576,"Ġdriving":4577,"0254":4578,"Ġqualifications":4579,"Ġ01223505015":4580,"Ġ01223315232":4581,"Ġdiscussed":4582,"Ġbuildings":4583,"Ġpricier":4584,"Ġ01223575122":4585,"817":4586,"dl":4587,"qh":4588,"qp":4589,"vn":4590,"xp":4591,"yh":4592,"zv":4593,"zx":4594,"erary":4595,"inerary":4596,"Ġcele":4597,"Ġfill":4598,"Ġban":4599,"Ġdai":4600,"riate":4601,"vered":4602,"Ġhotsp":4603,"Ġghand":4604,"ential":4605,"Ġitinerary":4606,"Ġlevel":4607,"Ġlooked":4608,"Ġ45":4609,"Ġintensive":4610,"Ġprefered":4611,"Ġhandle":4612,"Ġallow":4613,"2354":4614,"Ġ78":4615,"Ġspeak":4616,"Ġpaying":4617,"ropriate":4618,"2987":4619,"464":4620,"467":4621,"286":4622,"Ġappropriate":4623,"Ġ01223244149":4624,"Ġ01223247942":4625,"Ġ01223353110":4626,"Ġreccomend":4627,"Ġclient":4628,"Ġinquiry":4629,"Ġanswered":4630,"tball":4631,"Ġimpress":4632,"Ġfootball":4633,"Ġnumerous":4634,"Ġcelebra":4635,"Ġdaily":4636,"Ġhotspot":4637,"cq":4638,"hn":4639,"qn":4640,"rp":4641,"wv":4642,"xe":4643,"Ġtoward":4644,"Ġtight":4645,"never":4646,"ulations":4647,"Ġkill":4648,"Ġdig":4649,"661":4650,"016":4651,"209":4652,"Ġmostly":4653,"Ġchanging":4654,"5348":4655,"Ġhappens":4656,"Ġoperating":4657,"ratulations":4658,"Ġterrific":4659,"Ġsmall":4660,"521260":4661,"Ġdrinks":4662,"Ġcetre":4663,"Ġdishes":4664,"Ġcongratulations":4665,"Ġ01799521260":4666,"053":4667,"657":4668,"755":4669,"8464":4670,"bv":4671,"fg":4672,"ho":4673,"qd":4674,"rz":4675,"ugh":4676,"xg":4677,"Ġwan":4678,"Ġrepe":4679,"ayside":4680,"mbered":4681,"Ġstarted":4682,"Ġ26":4683,"uting":4684,"iring":4685,"eet":4686,"casion":4687,"Ġavai":4688,"Ġlondons":4689,"Ġ012233240":4690,"Ġcontin":4691,"Ġlonger":4692,"Ġquayside":4693,"604":4694,"413":4695,"Ġ01223338300":4696,"771":4697,"Ġcommuting":4698,"7047":4699,"Ġwhenever":4700,"Ġsooner":4701,"Ġfriendly":4702,"Ġsweet":4703,"Ġremembered":4704,"Ġsufficient":4705,"Ġoccasion":4706,"Ġ01223324033":4707,"200":4708,"250":4709,"2525":4710,"8494":4711,"bc":4712,"here":4713,"ime":4714,"rr":4715,"sborough":4716,"xj":4717,"Ġcities":4718,"Ġpat":4719,"Ġpot":4720,"Ġfoc":4721,"onary":4722,"Ġmall":4723,"cester":4724,"Ġwise":4725,"llast":4726,"Ġneigh":4727,"Ġmovies":4728,"Ġadvent":4729,"3071":4730,"Ġspread":4731,"Ġpetersborough":4732,"2433":4733,"ological":4734,"Ġwollast":4735,"6666":4736,"602":4737,"2715":4738,"Ġcoronary":4739,"Ġ012233551":4740,"Ġ012233578":4741,"Ġhighest":4742,"Ġ01223362525":4743,"Ġ01223362433":4744,"131":4745,"Ġ012234486":4746,"Ġtourists":4747,"8988":4748,"Ġexciting":4749,"8600":4750,"6524":4751,"Ġmainly":4752,"Ġassum":4753,"Ġ01223462354":4754,"Ġ01223356555":4755,"Ġcategories":4756,"Ġrepeat":4757,"Ġwollaston":4758,"Ġ01223355166":4759,"Ġ01223357851":4760,"Ġ01223448620":4761,"146":4762,"639":4763,"709":4764,"879":4765,"ba":4766,"bk":4767,"ls":4768,"no":4769,"ok":4770,"pf":4771,"sl":4772,"to":4773,"tx":4774,"yr":4775,"Ġmess":4776,"leigh":4777,"Ġneces":4778,"Ġmenu":4779,"Ġcambri":4780,"Ġrates":4781,"Ġaly":4782,"Ġcover":4783,"utation":4784,"Ġadul":4785,"237":4786,"Ġsec":4787,"ency":4788,"Ġ12233":4789,"Ġmatched":4790,"Ġ90":4791,"211":4792,"1163":4793,"Ġpickup":4794,"27330":4795,"595":4796,"Ġ01223350059":4797,"Ġ01223353071":4798,"Ġ225":4799,"Ġ01223365":4800,"Ġriders":4801,"561":4802,"568988":4803,"6742":4804,"Ġ01223312598":4805,"Ġdependency":4806,"Ġ01223464630":4807,"6003":4808,"6009":4809,"Ġquickly":4810,"Ġinquire":4811,"Ġdropped":4812,"Ġoops":4813,"Ġ01223356354":4814,"Ġ01223227330":4815,"59988":4816,"Ġreputation":4817,"Ġburleigh":4818,"Ġnecessity":4819,"Ġadults":4820,"754":4821,"8903":4822,"eck":4823,"gt":4824,"hj":4825,"kl":4826,"mv":4827,"mely":4828,"vr":4829,"wr":4830,"wt":4831,"yx":4832,"remely":4833,"Ġfly":4834,"Ġbell":4835,"Ġrech":4836,"sess":4837,"arts":4838,"Ġnil":4839,"Ġassess":4840,"Ġju":4841,"Ġwherever":4842,"Ġhogw":4843,"Ġdifference":4844,"Ġacc":4845,"Ġentertainments":4846,"Ġbishop":4847,"Ġ0788":4848,"247":4849,"504":4850,"Ġpersons":4851,"082":4852,"8860":4853,"Ġpasta":4854,"2054":4855,"163":4856,"495":4857,"5729":4858,"Ġpostalcode":4859,"1499":4860,"Ġ087194":4861,"after":4862,"Ġ01223311053":4863,"Ġextremely":4864,"Ġfeeling":4865,"Ġhistoric":4866,"Ġ01223259988":4867,"Ġcutting":4868,"Ġtruly":4869,"Ġmanaged":4870,"29180":4871,"Ġghandi":4872,"Ġpotential":4873,"Ġrecheck":4874,"Ġassessment":4875,"Ġhogwarts":4876,"Ġ08719429180":4877,"400":4878,"829":4879,"938":4880,"9561":4881,"hf":4882,"iq":4883,"jt":4884,"ju":4885,"kx":4886,"mx":4887,"ten":4888,"uq":4889,"usday":4890,"wo":4891,"Ġher":4892,"Ġhalf":4893,"Ġfore":4894,"oring":4895,"Ġrece":4896,"Ġann":4897,"Ġchines":4898,"Ġ018":4899,"Ġsometi":4900,"Ġtrue":4901,"Ġ0122342":4902,"cise":4903,"cial":4904,"Ġ141":4905,"Ġ012233294":4906,"Ġthemed":4907,"8800":4908,"5478":4909,"Ġhep":4910,"5225":4911,"2045":4912,"2094":4913,"3225":4914,"193":4915,"4319":4916,"Ġ01223357187":4917,"4917":4918,"7733":4919,"Ġ01223364319":4920,"Ġenjoyed":4921,"53771":4922,"Ġwished":4923,"prising":4924,"Ġconsidering":4925,"Ġsurprising":4926,"9937":4927,"1492":4928,"7423":4929,"Ġcreate":4930,"1581":4931,"42753771":4932,"Ġliek":4933,"Ġaccomodations":4934,"Ġflying":4935,"Ġ01842753771":4936,"Ġsometimes":4937,"Ġ01223425478":4938,"Ġ01223329432":4939,"Ġsurprisingly":4940,"107":4941,"clo":4942,"cces":4943,"dv":4944,"eon":4945,"gz":4946,"hv":4947,"line":4948,"ness":4949,"sary":4950,"ually":4951,"vj":4952,"zo":4953,"Ġtri":4954,"inating":4955,"les":4956,"Ġcambid":4957,"Ġmod":4958,"Ġtowns":4959,"Ġmoderat":4960,"Ġ012":4961,"Ġcovers":4962,"Ġnicer":4963,"Ġ55":4964,"1502":4965,"Ġentire":4966,"Ġrolls":4967,"Ġhiking":4968,"Ġmixed":4969,"Ġ94":4970,"Ġconvers":4971,"1100":4972,"Ġtotally":4973,"Ġ0730":4974,"iversary":4975,"2420":4976,"Ġfasc":4977,"6688":4978,"Ġ231":4979,"351":4980,"while":4981,"276":4982,"3682":4983,"Ġjoint":4984,"Ġ01223364917":4985,"Ġdaugh":4986,"Ġcommon":4987,"Ġ01223247015":4988,"Ġbenny":4989,"687":4990,"Ġsurround":4991,"Ġspending":4992,"Ġ01223323639":4993,"Ġboast":4994,"Ġluncheon":4995,"Ġgueshouses":4996,"Ġooh":4997,"Ġinvolved":4998,"Ġterribly":4999,"Ġjoining":5000,"Ġsells":5001,"Ġneighbor":5002,"Ġassuming":5003,"Ġanniversary":5004,"ccesful":5005,"Ġtrick":5006,"Ġcambidge":5007,"Ġfascinating":5008,"Ġdaughter":5009,"Ġsurrounding":5010,"557":5011,"679":5012,"7802":5013,"ball":5014,"ik":5015,"ium":5016,"py":5017,"tk":5018,"vs":5019,"wa":5020,"xt":5021,"Ġteen":5022,"Ġave":5023,"Ġib":5024,"Ġih":5025,"ourite":5026,"Ġthree":5027,"ined":5028,"Ġcw":5029,"Ġyt":5030,"Ġnap":5031,"Ġtraum":5032,"iere":5033,"the":5034,"Ġcancer":5035,"Ġthereafter":5036,"Ġonline":5037,"cht":5038,"Ġ43":5039,"ssiere":5040,"Ġeleg":5041,"Ġprecise":5042,"new":5043,"Ġallowing":5044,"235":5045,"ics":5046,"Ġtravels":5047,"Ġsorts":5048,"Ġ01223568988":5049,"Ġ113":5050,"sitive":5051,"Ġsimp":5052,"Ġvia":5053,"unic":5054,"2166":5055,"Ġpeterbour":5056,"5921":5057,"2025":5058,"Ġ01223338800":5059,"Ġ01223331100":5060,"Ġfavourite":5061,"Ġago":5062,"1681":5063,"Ġ01223356666":5064,"Ġbrassiere":5065,"4264":5066,"Ġ0122330258":5067,"Ġwaiting":5068,"Ġslots":5069,"Ġspecifying":5070,"Ġcompa":5071,"3112":5072,"Ġcabridge":5073,"Ġ01223292094":5074,"Ġclinic":5075,"Ġconversation":5076,"Ġteenage":5077,"Ġnapier":5078,"Ġtrauma":5079,"Ġelegant":5080,"Ġsimply":5081,"Ġ01223302580":5082,"3270":5083,"466":5084,"8331":5085,"989":5086,"ari":5087,"cp":5088,"dk":5089,"fford":5090,"hr":5091,"hs":5092,"kk":5093,"mt":5094,"sf":5095,"tf":5096,"xv":5097,"yc":5098,"yq":5099,"zi":5100,"Ġnt":5101,"Ġia":5102,"erology":5103,"oubt":5104,"Ġfer":5105,"Ġbite":5106,"Ġtoge":5107,"Ġmn":5108,"ceed":5109,"Ġstafford":5110,"Ġleic":5111,"Ġsoli":5112,"Ġnorthside":5113,"Ġmusue":5114,"Ġknew":5115,"Ġserver":5116,"Ġ01223316074":5117,"Ġsuggested":5118,"Ġproceed":5119,"Ġvj":5120,"216":5121,"0788":5122,"Ġusually":5123,"Ġchrists":5124,"Ġ012233365":5125,"Ġ01223338600":5126,"Ġbasic":5127,"Ġending":5128,"Ġ01223363270":5129,"Ġsafe":5130,"Ġ0122330868":5131,"7931":5132,"7040":5133,"Ġwatch":5134,"8207":5135,"0552":5136,"Ġecon":5137,"Ġvarying":5138,"Ġtaxis":5139,"Ġguestrooms":5140,"Ġmisunderstood":5141,"Ġsituated":5142,"Ġtogether":5143,"Ġleicaster":5144,"Ġsolid":5145,"Ġ01223336540":5146,"Ġ01223308681":5147,"2153":5148,"319":5149,"3702":5150,"719":5151,"808":5152,"839":5153,"ala":5154,"cation":5155,"hic":5156,"jh":5157,"lb":5158,"min":5159,"nq":5160,"oci":5161,"ojg":5162,"sbrookes":5163,"ud":5164,"wq":5165,"zh":5166,"rea":5167,"Ġpain":5168,"Ġhj":5169,"orrect":5170,"Ġrela":5171,"Ġsli":5172,"ans":5173,"Ġinf":5174,"Ġtran":5175,"Ġgpb":5176,"Ġlikes":5177,"Ġ48":5178,"Ġleaveat":5179,"Ġarriveby":5180,"Ġsouthside":5181,"fication":5182,"Ġarcheology":5183,"Ġcrossing":5184,"581":5185,"075":5186,"Ġallenball":5187,"whel":5188,"Ġitself":5189,"4955":5190,"0635":5191,"Ġdesper":5192,"Ġoverwhel":5193,"Ġaddensbrookes":5194,"770":5195,"803":5196,"4466":5197,"Ġ01223363682":5198,"565":5199,"Ġtension":5200,"Ġvehic":5201,"Ġlastly":5202,"Ġ01223244955":5203,"899":5204,"Ġfarman":5205,"Ġ01223323178":5206,"Ġ01223311687":5207,"standing":5208,"Ġassoci":5209,"Ġ01223307581":5210,"Ġneurosc":5211,"Ġthirty":5212,"Ġresturants":5213,"Ġincorrect":5214,"Ġ0173":5215,"Ġaccomodate":5216,"Ġattempt":5217,"Ġproperties":5218,"Ġrental":5219,"Ġclients":5220,"Ġcontinue":5221,"Ġmessage":5222,"Ġcambrige":5223,"Ġsecure":5224,"Ġ01223365599":5225,"Ġrelax":5226,"Ġvehicle":5227,"Ġassociated":5228,"Ġneuroscience":5229,"1661":5230,"529":5231,"5170":5232,"658":5233,"978":5234,"bul":5235,"frame":5236,"gan":5237,"hk":5238,"lr":5239,"pite":5240,"scode":5241,"uo":5242,"vk":5243,"wg":5244,"xu":5245,"yj":5246,"yw":5247,"zd":5248,"Ġaid":5249,"rate":5250,"Ġpy":5251,"Ġna":5252,"ord":5253,"Ġline":5254,"Ġlines":5255,"rive":5256,"ancy":5257,"Ġwild":5258,"enterology":5259,"erean":5260,"Ġdeter":5261,"Ġtalking":5262,"Ġtimeframe":5263,"Ġcovered":5264,"Ġposcode":5265,"Ġocc":5266,"formation":5267,"309":5268,"Ġuq":5269,"Ġ0122369":5270,"Ġ01223413":5271,"Ġunli":5272,"ized":5273,"Ġeats":5274,"like":5275,"Ġ072":5276,"Ġ0779":5277,"Ġfabul":5278,"292":5279,"8813":5280,"393":5281,"3942":5282,"Ġclassy":5283,"4187":5284,"9063":5285,"Ġ01223353942":5286,"Ġdespite":5287,"elled":5288,"Ġ01223362054":5289,"Ġfix":5290,"Ġxm":5291,"Ġtouch":5292,"Ġweeks":5293,"Ġswitch":5294,"Ġ01223902116":5295,"Ġeriterean":5296,"Ġrobbery":5297,"Ġ01223366552":5298,"Ġrefernce":5299,"Ġchildre":5300,"Ġaboard":5301,"Ġsightse":5302,"Ġsatisfy":5303,"Ġresearching":5304,"Ġgastroenterology":5305,"Ġreccomendation":5306,"Ġ01245":5307,"arily":5308,"Ġdeterm":5309,"Ġ01223694264":5310,"Ġ01223413000":5311,"Ġfabulous":5312,"2286":5313,"4765":5314,"945":5315,"aed":5316,"ez":5317,"fp":5318,"gb":5319,"hd":5320,"kb":5321,"tj":5322,"uv":5323,"xo":5324,"Ġyh":5325,"Ġfr":5326,"ndom":5327,"staurant":5328,"Ġdoubt":5329,"ves":5330,"thop":5331,"Ġatmo":5332,"rology":5333,"Ġ450":5334,"itions":5335,"Ġrandom":5336,"Ġwast":5337,"Ġexpen":5338,"Ġintri":5339,"Ġorthop":5340,"form":5341,"450":5342,"Ġuk":5343,"Ġurology":5344,"Ġjz":5345,"Ġjord":5346,"Ġgreatly":5347,"121":5348,"Ġserious":5349,"Ġindoor":5350,"117":5351,"Ġ071":5352,"Ġ0758":5353,"Ġ0746":5354,"sphere":5355,"Ġplanned":5356,"3553":5357,"8871":5358,"277":5359,"4651":5360,"1997":5361,"Ġmedium":5362,"Ġzb":5363,"368":5364,"447":5365,"7850":5366,"2800":5367,"Ġ01223308871":5368,"2694":5369,"Ġdetail":5370,"1006":5371,"Ġtransp":5372,"2232":5373,"Ġretur":5374,"Ġtours":5375,"Ġ01223354755":5376,"Ġcampuses":5377,"Ġproperty":5378,"Ġ01223306306":5379,"8070":5380,"Ġ01733553":5381,"Ġdetermine":5382,"aedics":5383,"Ġatmosphere":5384,"Ġorthopaedics":5385,"Ġjordans":5386,"Ġ01733553355":5387,"317":5388,"3456":5389,"ao":5390,"bridge":5391,"cf":5392,"cely":5393,"dge":5394,"dated":5395,"ise":5396,"kp":5397,"medi":5398,"night":5399,"qj":5400,"qv":5401,"wj":5402,"well":5403,"reg":5404,"Ġprom":5405,"Ġya":5406,"Ġfl":5407,"Ġfour":5408,"Ġbi":5409,"Ġboo":5410,"Ġdj":5411,"Ġreport":5412,"Ġresol":5413,"otic":5414,"Ġmq":5415,"Ġliked":5416,"Ġcasu":5417,"Ġarr":5418,"Ġtill":5419,"Ġrage":5420,"Ġrail":5421,"Ġlol":5422,"Ġpardon":5423,"Ġexotic":5424,"Ġpositive":5425,"Ġgosh":5426,"Ġnorthend":5427,"Ġadvice":5428,"Ġnicely":5429,"1537":5430,"458":5431,"Ġjn":5432,"Ġweds":5433,"Ġ0769":5434,"2900":5435,"102":5436,"105":5437,"5949":5438,"Ġ012233389":5439,"Ġ01223332900":5440,"283":5441,"2826":5442,"Ġteusday":5443,"Ġaww":5444,"Ġvacation":5445,"7610":5446,"Ġdiscu":5447,"9900":5448,"Ġvictim":5449,"Ġarchitecturally":5450,"Ġmeantime":5451,"ssed":5452,"Ġcorsican":5453,"Ġ01223334898":5454,"Ġperimeters":5455,"Ġuhm":5456,"Ġ01223464550":5457,"Ġconnection":5458,"Ġspecializing":5459,"Ġglitch":5460,"Ġfulfi":5461,"8176":5462,"Ġpatience":5463,"Ġadventure":5464,"Ġreceive":5465,"9781":5466,"mediate":5467,"Ġcasual":5468,"Ġ01223338901":5469,"Ġdiscuss":5470,"108":5471,"2000":5472,"4235":5473,"4216":5474,"6163":5475,"9016":5476,"cs":5477,"ded":5478,"hood":5479,"kz":5480,"ring":5481,"sg":5482,"sn":5483,"sz":5484,"yo":5485,"Ġur":5486,"Ġqq":5487,"Ġawhile":5488,"ston":5489,"Ġthre":5490,"Ġcust":5491,"Ġyep":5492,"ato":5493,"Ġbes":5494,"onven":5495,"Ġrecomend":5496,"Ġinp":5497,"Ġ123":5498,"Ġgone":5499,"mbridge":5500,"esbray":5501,"Ġlife":5502,"Ġnee":5503,"Ġoffice":5504,"cted":5505,"Ġnote":5506,"alble":5507,"Ġranked":5508,"Ġcond":5509,"Ġsush":5510,"0060":5511,"30906":5512,"Ġpostc":5513,"1213":5514,"communic":5515,"Ġ76":5516,"Ġ77":5517,"Ġshouldn":5518,"Ġgoodness":5519,"Ġ188":5520,"Ġ01223330906":5521,"Ġupdated":5522,"Ġchurchhill":5523,"Ġnicest":5524,"Ġ0777":5525,"Ġ0756":5526,"5859":5527,"2432":5528,"0718":5529,"Ġfunk":5530,"5484":5531,"Ġcityrooms":5532,"481":5533,"7755":5534,"7846":5535,"2534":5536,"Ġguys":5537,"Ġbotanical":5538,"Ġ012232499":5539,"Ġ01223358899":5540,"Ġbarnwell":5541,"761":5542,"6971":5543,"Ġdislike":5544,"Ġdisreg":5545,"Ġglaston":5546,"omer":5547,"Ġmiscommunic":5548,"Ġlowest":5549,"Ġ01223354679":5550,"Ġinquiring":5551,"Ġ3435":5552,"Ġ01223355012":5553,"Ġinconven":5554,"Ġmisunderstanding":5555,"Ġspecializes":5556,"Ġintended":5557,"Ġcelebrating":5558,"Ġwanna":5559,"Ġavaialble":5560,"1079":5561,"clock":5562,"Ġboasts":5563,"Ġcustomer":5564,"Ġsushi":5565,"Ġ01223249955":5566,"Ġdisregard":5567,"Ġglastonbury":5568,"3005":5569,"3211":5570,"6595":5571,"8495":5572,"bx":5573,"fh":5574,"fj":5575,"jwe":5576,"kh":5577,"mk":5578,"pc":5579,"pi":5580,"sk":5581,"sine":5582,"vely":5583,"zu":5584,"Ġtj":5585,"Ġay":5586,"Ġaz":5587,"Ġages":5588,"Ġig":5589,"ntly":5590,"Ġcit":5591,"Ġsent":5592,"Ġsna":5593,"Ġisnt":5594,"Ġrestaru":5595,"Ġgoo":5596,"Ġoften":5597,"roy":5598,"Ġcentere":5599,"lant":5600,"Ġwalk":5601,"Ġ00":5602,"Ġsuey":5603,"Ġ300":5604,"Ġinthe":5605,"iroom":5606,"Ġadvi":5607,"Ġlocale":5608,"ically":5609,"Ġwet":5610,"ailed":5611,"Ġsundays":5612,"Ġ150":5613,"Ġsister":5614,"Ġ143":5615,"Ġcusine":5616,"Ġval":5617,"Ġstanstead":5618,"fortable":5619,"246":5620,"1750":5621,"Ġkinda":5622,"506":5623,"Ġfewer":5624,"106":5625,"Ġsporting":5626,"0188":5627,"3948":5628,"462432":5629,"5979":5630,"Ġclass":5631,"2061":5632,"199":5633,"1612":5634,"Ġcomfortable":5635,"ides":5636,"Ġ226":5637,"4969":5638,"Ġbackwards":5639,"Ġview":5640,"Ġunsuccesful":5641,"Ġ01223302800":5642,"3412":5643,"Ġvegan":5644,"Ġconsiste":5645,"Ġappreciated":5646,"Ġqa":5647,"Ġqk":5648,"Ġ01462432":5649,"Ġhearing":5650,"Ġforgotten":5651,"Ġspecials":5652,"Ġinjury":5653,"Ġmeans":5654,"Ġmissed":5655,"Ġwhoa":5656,"5009":5657,"Ġhundreds":5658,"Ġclinical":5659,"Ġhostel":5660,"9589":5661,"Ġbank":5662,"Ġalyesbray":5663,"5570":5664,"Ġpeterbourough":5665,"Ġunlisted":5666,"Ġtransplant":5667,"Ġfulfill":5668,"Ġbesides":5669,"Ġinconvenience":5670,"Ġcitiroom":5671,"Ġrestaruant":5672,"Ġ01462432565":5673,"Ġcitiroomz":5674,"259":5675,"358":5676,"629":5677,"618":5678,"6357":5679,"827":5680,"988":5681,"cd":5682,"dn":5683,"eps":5684,"fx":5685,"gical":5686,"ily":5687,"igin":5688,"loring":5689,"qm":5690,"sm":5691,"urious":5692,"wre":5693,"Ġ,<|":5694,"Ġws":5695,"Ġpz":5696,"Ġht":5697,"Ġyiu":5698,"Ġbon":5699,"Ġlx":5700,"Ġdan":5701,"Ġresa":5702,"Ġsg":5703,"Ġsn":5704,"Ġsq":5705,"Ġinsi":5706,"thday":5707,"Ġgott":5708,"rocan":5709,"Ġpeace":5710,"Ġplese":5711,"Ġanyplace":5712,"Ġatta":5713,"Ġtypo":5714,"Ġrad":5715,"Ġlost":5716,"Ġcozy":5717,"Ġstra":5718,"Ġstun":5719,"utc":5720,"Ġorigin":5721,"Ġob":5722,"Ġoe":5723,"303":5724,"Ġet":5725,"1518":5726,"454":5727,"Ġpartial":5728,"239":5729,"Ġ0122325":5730,"Ġ600":5731,"lov":5732,"2145":5733,"Ġbirthday":5734,"Ġcineme":5735,"Ġunfortunate":5736,"Ġ0707":5737,"Ġ0739":5738,"Ġashely":5739,"Ġexploring":5740,"6053":5741,"522":5742,"Ġparent":5743,"0189":5744,"2775":5745,"4698":5746,"5941":5747,"Ġzm":5748,"Ġfinally":5749,"363":5750,"389":5751,"3844":5752,"7713":5753,"Ġ01223367755":5754,"mpa":5755,"ressive":5756,"7030":5757,"Ġxy":5758,"Ġmeghan":5759,"Ġvaries":5760,"7349":5761,"Ġblast":5762,"6334":5763,"Ġsurgical":5764,"1493":5765,"sjz":5766,"Ġ012232173":5767,"Ġcatching":5768,"Ġmorrocan":5769,"Ġexhibits":5770,"0523":5771,"0532":5772,"6110":5773,"Ġfond":5774,"Ġrealistic":5775,"Ġrealized":5776,"Ġluxurious":5777,"Ġclearly":5778,"Ġfollow":5779,"Ġincre":5780,"Ġhandful":5781,"Ġhandling":5782,"Ġrestaraunts":5783,"Ġimpressive":5784,"2125":5785,"Ġ01223306283":5786,"Ġwoudl":5787,"Ġthrusday":5788,"Ġummm":5789,"Ġcompared":5790,"Ġeconom":5791,"8080":5792,"Ġrelaxing":5793,"Ġchildrens":5794,"Ġresolving":5795,"Ġdancing":5796,"Ġresaurant":5797,"Ġgotta":5798,"Ġpeaceful":5799,"Ġstunning":5800,"Ġparents":5801,"115":5802,"377":5803,"420":5804,"5390":5805,"706":5806,"7803":5807,"8662":5808,"8167":5809,"cj":5810,"cx":5811,"ddle":5812,"eing":5813,"fz":5814,"gv":5815,"ide":5816,"kg":5817,"mj":5818,"pu":5819,"ql":5820,"rc":5821,"sb":5822,"sely":5823,"td":5824,"tun":5825,"tory":5826,"yg":5827,"els":5828,"Ġcy":5829,"Ġcen":5830,"Ġpd":5831,"Ġpie":5832,"Ġphy":5833,"Ġhq":5834,"Ġhook":5835,"Ġhes":5836,"Ġhang":5837,"Ġfish":5838,"atin":5839,"Ġnature":5840,"oot":5841,"orford":5842,"ording":5843,"Ġdb":5844,"otu":5845,"Ġsd":5846,"Ġforty":5847,"Ġfortun":5848,"Ġrestau":5849,"Ġrestaur":5850,"Ġrestaurants":5851,"Ġdoable":5852,"Ġhavea":5853,"Ġleg":5854,"Ġpet":5855,"Ġanyth":5856,"Ġanyways":5857,"Ġguesth":5858,"Ġelab":5859,"Ġcodes":5860,"Ġnoddle":5861,"Ġstri":5862,"Ġstorford":5863,"Ġos":5864,"Ġshops":5865,"Ġshoot":5866,"Ġjm":5867,"2379":5868,"126":5869,"Ġseve":5870,"Ġ87":5871,"Ġ65":5872,"Ġavailabe":5873,"Ġ1330":5874,"Ġmix":5875,"Ġ0735":5876,"Ġ0799":5877,"5874":5878,"241":5879,"Ġcostly":5880,"tih":5881,"Ġwold":5882,"2941":5883,"Ġclosely":5884,"409":5885,"603":5886,"2730":5887,"Ġlatter":5888,"Ġsetting":5889,"196":5890,"1672":5891,"Ġtraveller":5892,"4859":5893,"365":5894,"383":5895,"3839":5896,"8017":5897,"Ġreader":5898,"5677":5899,"Ġ01223307030":5900,"7928":5901,"5358":5902,"orate":5903,"6488":5904,"stru":5905,"Ġvacan":5906,"Ġamenity":5907,"iratory":5908,"Ġdisco":5909,"Ġnecessarily":5910,"Ġgladly":5911,"Ġcharged":5912,"Ġarranging":5913,"Ġbelieving":5914,"Ġ01223366668":5915,"8533":5916,"9533":5917,"5662":5918,"Ġrespiratory":5919,"Ġformal":5920,"Ġliecester":5921,"Ġdiscount":5922,"Ġinvolves":5923,"Ġfussy":5924,"Ġtastes":5925,"6578":5926,"Ġfocus":5927,"Ġaccording":5928,"7195":5929,"Ġinfusion":5930,"Ġsightseeing":5931,"Ġelaborate":5932,"540":5933,"6247":5934,"6193":5935,"9493":5936,"9102":5937,"aking":5938,"ager":5939,"ese":5940,"fq":5941,"fv":5942,"fre":5943,"kr":5944,"lw":5945,"lur":5946,"med":5947,"nc":5948,"pounds":5949,"tit":5950,"tical":5951,"ude":5952,"vg":5953,"wz":5954,"xz":5955,"yp":5956,"zr":5957,"Ġtat":5958,"Ġao":5959,"rey":5960,"rence":5961,"Ġive":5962,"outh":5963,"Ġph":5964,"Ġhf":5965,"Ġhit":5966,"Ġhis":5967,"ndid":5968,"Ġned":5969,"Ġbound":5970,"Ġbbq":5971,"Ġson":5972,"Ġsop":5973,"ark":5974,"aves":5975,"Ġdoct":5976,"ational":5977,"Ġ241":5978,"utt":5979,"0031":5980,"Ġep":5981,"Ġaddmiss":5982,"Ġintermediate":5983,"Ġjc":5984,"Ġgreater":5985,"231":5986,"Ġentered":5987,"Ġsatru":5988,"Ġmanager":5989,"Ġ61":5990,"Ġrr":5991,"Ġround":5992,"Ġ120":5993,"Ġcritical":5994,"Ġ214":5995,"Ġvic":5996,"Ġ97":5997,"Ġsplur":5998,"Ġ0760":5999,"Ġ0754":6000,"1755":6001,"Ġhospitals":6002,"0797":6003,"Ġfax":6004,"Ġquie":6005,"666":6006,"2929":6007,"406":6008,"Ġbelfrey":6009,"6060":6010,"Ġrighty":6011,"4679":6012,"3257":6013,"Ġlocals":6014,"Ġzj":6015,"904":6016,"0919":6017,"amg":6018,"386":6019,"7734":6020,"8042":6021,"1819":6022,"1828":6023,"2512":6024,"5686":6025,"Ġ#:":6026,"Ġyup":6027,"7057":6028,"Ġtouristy":6029,"762":6030,"Ġ0122335388":6031,"Ġroutes":6032,"9933":6033,"Ġreccommend":6034,"Ġofferings":6035,"Ġclarification":6036,"4724":6037,"7430":6038,"Ġ01223577786":6039,"Ġsupply":6040,"Ġdirection":6041,"Ġselected":6042,"9557":6043,"Ġideals":6044,"Ġexamples":6045,"Ġselections":6046,"Ġreferral":6047,"zlr":6048,"Ġlimited":6049,"493131":6050,"Ġmoderatly":6051,"Ġneighborhood":6052,"Ġferret":6053,"Ġoverwhelmed":6054,"Ġneurosciences":6055,"5298":6056,"Ġ01245493131":6057,"Ġadvise":6058,"Ġsatruday":6059,"0467":6060,"0209":6061,"3782":6062,"3404":6063,"488":6064,"5331":6065,"677":6066,"6105":6067,"809":6068,"8265":6069,"ccer":6070,"dent":6071,"eq":6072,"fit":6073,"hle":6074,"isit":6075,"iww":6076,"md":6077,"mq":6078,"np":6079,"nic":6080,"pical":6081,"sli":6082,"ught":6083,"wad":6084,"yt":6085,"zuy":6086,"Ġtd":6087,"Ġtg":6088,"Ġtp":6089,"Ġtrian":6090,"ntu":6091,"raint":6092,"Ġce":6093,"Ġhea":6094,"Ġfli":6095,"aturant":6096,"Ġblo":6097,"Ġln":6098,"Ġdk":6099,"Ġdx":6100,"Ġdit":6101,"rie":6102,"ania":6103,"lev":6104,"Ġiscb":6105,"Ġbooks":6106,"Ġ112":6107,"Ġgz":6108,"Ġcaught":6109,"Ġtypical":6110,"Ġ41518":6111,"Ġguestho":6112,"iting":6113,"Ġrave":6114,"Ġsoccer":6115,"Ġsuite":6116,"Ġpocke":6117,"Ġmusli":6118,"Ġsomewh":6119,"234":6120,"125":6121,"Ġrq":6122,"Ġrock":6123,"Ġdiffic":6124,"Ġ102":6125,"quisit":6126,"Ġacting":6127,"Ġ92":6128,"213":6129,"Ġseen":6130,"1108":6131,"Ġident":6132,"Ġ0715":6133,"Ġ0712":6134,"Ġ0727":6135,"Ġ0749":6136,"Ġ0757":6137,"Ġsearches":6138,"Ġarchitecht":6139,"Ġplaning":6140,"0774":6141,"2965":6142,"0192":6143,"2771":6144,"395":6145,"4625":6146,"4626":6147,"Ġresaturant":6148,"322":6149,"4329":6150,"Ġ01223356060":6151,"0686":6152,"Ġscrea":6153,"Ġdesig":6154,"Ġerania":6155,"572":6156,"5713":6157,"Ġrestraint":6158,"4447":6159,"1830":6160,"1873":6161,"2530":6162,"2840":6163,"Ġfitzroy":6164,"Ġblow":6165,"Ġcorrectly":6166,"Ġuseful":6167,"Ġbelfast":6168,"1472":6169,"Ġ302":6170,"Ġcottage":6171,"6939":6172,"9445":6173,"Ġregards":6174,"Ġmorden":6175,"Ġfactor":6176,"ign":6177,"8530":6178,"Ġ0122327618":6179,"8314":6180,"Ġconvenience":6181,"Ġ01223300552":6182,"Ġdeals":6183,"Ġoperate":6184,"Ġkidding":6185,"Ġpulls":6186,"rlm":6187,"Ġ01223461661":6188,"guing":6189,"Ġhandy":6190,"Ġfunds":6191,"Ġfills":6192,"Ġallows":6193,"7092":6194,"Ġforever":6195,"9892":6196,"Ġslight":6197,"Ġdesperately":6198,"Ġintriguing":6199,"5401":6200,"Ġguesthomes":6201,"Ġpocket":6202,"Ġmuslim":6203,"Ġsomewhat":6204,"Ġarchitechture":6205,"Ġscreaming":6206,"Ġdesignation":6207,"Ġ01223276182":6208,"0357":6209,"3240":6210,"3158":6211,"5504":6212,"7299":6213,"977":6214,"970":6215,"9263":6216,"afe":6217,"arant":6218,"acial":6219,"bster":6220,"cn":6221,"du":6222,"dvi":6223,"fly":6224,"fact":6225,"fzc":6226,"gj":6227,"have":6228,"hrs":6229,"ior":6230,"jn":6231,"mh":6232,"main":6233,"nus":6234,"nown":6235,"qi":6236,"sin":6237,"tance":6238,"uz":6239,"uvd":6240,"vz":6241,"vis":6242,"yu":6243,"Ġarive":6244,"Ġil":6245,"Ġwrite":6246,"Ġpath":6247,"Ġfg":6248,"Ġfil":6249,"Ġlq":6250,"Ġdh":6251,"Ġrenown":6252,"Ġmc":6253,"ofacial":6254,"Ġissu":6255,"Ġrestauarant":6256,"iest":6257,"belled":6258,"Ġtraining":6259,"esp":6260,"Ġliar":6261,"Ġliter":6262,"ester":6263,"llofacial":6264,"enty":6265,"Ġleich":6266,"Ġlecester":6267,"Ġchat":6268,"Ġbee":6269,"Ġdema":6270,"itate":6271,"Ġlobster":6272,"indian":6273,"estinal":6274,"utes":6275,"Ġadmit":6276,"verse":6277,"xillofacial":6278,"Ġoral":6279,"3087":6280,"Ġeight":6281,"Ġshare":6282,"Ġintersted":6283,"Ġeas":6284,"ailing":6285,"Ġservers":6286,"Ġ0122359":6287,"Ġmaxillofacial":6288,"Ġ118":6289,"Ġ1223":6290,"Ġopitions":6291,"sities":6292,"Ġdiffer":6293,"Ġ140":6294,"Ġinterenet":6295,"Ġ189":6296,"Ġ0122333948":6297,"Ġ206":6298,"Ġ2017":6299,"Ġvr":6300,"Ġconference":6301,"Ġ0709":6302,"Ġuniversities":6303,"Ġplane":6304,"Ġgonna":6305,"249":6306,"1709":6307,"0743":6308,"0755":6309,"0776":6310,"ssible":6311,"Ġwont":6312,"667":6313,"6628":6314,"Ġnearly":6315,"2939":6316,"2974":6317,"Ġlabelled":6318,"Ġrequesting":6319,"Ġbelfy":6320,"8824":6321,"Ġcloset":6322,"5413":6323,"5953":6324,"328":6325,"Ġapreci":6326,"Ġexcur":6327,"Ġzn":6328,"Ġauto":6329,"Ġimpo":6330,"4977":6331,"4975":6332,"483":6333,"moder":6334,"3600":6335,"Ġopened":6336,"fyq":6337,"5558":6338,"Ġvisits":6339,"intestinal":6340,"1342":6341,"562":6342,"7935":6343,"Ġparace":6344,"billary":6345,"6834":6346,"Ġtwice":6347,"Ġtwenty":6348,"7360":6349,"6954":6350,"6982":6351,"674":6352,"Ġhuge":6353,"8636":6354,"Ġunderstood":6355,"3720":6356,"3736":6357,"fta":6358,"6226":6359,"Ġ01223350106":6360,"flx":6361,"Ġ01223324351":6362,"Ġmisread":6363,"Ġrestuarants":6364,"Ġtreating":6365,"Ġreferring":6366,"Ġfinished":6367,"Ġcrossed":6368,"Ġ01223359506":6369,"Ġhurry":6370,"Ġattempted":6371,"Ġregional":6372,"Ġpriority":6373,"bourn":6374,"Ġgastrointestinal":6375,"Ġfulbourn":6376,"Ġcelebrate":6377,"8792":6378,"Ġhepato":6379,"8399":6380,"9452":6381,"Ġpostcard":6382,"8272":6383,"Ġinsist":6384,"Ġetrance":6385,"Ġincrease":6386,"Ġhesitate":6387,"Ġrestaurnt":6388,"Ġdoctors":6389,"Ġslightly":6390,"Ġpathological":6391,"Ġrenowned":6392,"Ġissues":6393,"Ġliterally":6394,"Ġleichester":6395,"Ġdemands":6396,"Ġadmittance":6397,"Ġeighteen":6398,"Ġ01223339485":6399,"Ġapreciate":6400,"Ġimpossible":6401,"Ġhepatobillary":6402,"1159":6403,"338":6404,"412":6405,"4494":6406,"4604":6407,"654":6408,"7309":6409,"857":6410,"826":6411,"863":6412,"8202":6413,"9083":6414,"bod":6415,"dm":6416,"eo":6417,"fm":6418,"fr":6419,"fu":6420,"fbu":6421,"fgd":6422,"gcy":6423,"ground":6424,"hm":6425,"ib":6426,"io":6427,"jmy":6428,"kely":6429,"kcv":6430,"lp":6431,"mtl":6432,"qt":6433,"vrv":6434,"yz":6435,"Ġou":6436,"Ġir":6437,"Ġct":6438,"Ġwj":6439,"Ġwv":6440,"Ġpf":6441,"Ġhz":6442,"Ġfast":6443,"Ġfff":6444,"Ġfrill":6445,"atal":6446,"Ġbt":6447,"Ġbz":6448,"Ġbay":6449,"Ġbum":6450,"Ġlk":6451,"stars":6452,"Ġreside":6453,"Ġrelev":6454,"Ġsb":6455,"Ġmr":6456,"Ġmt":6457,"comi":6458,"Ġ115":6459,"thj":6460,"Ġgj":6461,"Ġgdp":6462,"Ġgxq":6463,"Ġlied":6464,"Ġwil":6465,"Ġstages":6466,"llars":6467,"Ġdollars":6468,"Ġtheres":6469,"Ġarti":6470,"Ġtampa":6471,"Ġ400":6472,"alour":6473,"Ġnorm":6474,"00085":6475,"00005":6476,"Ġlock":6477,"lyl":6478,"3043":6479,"Ġeve":6480,"Ġjig":6481,"elling":6482,"icke":6483,"Ġmusems":6484,"Ġkp":6485,"Ġkz":6486,"120":6487,"Ġtravelers":6488,"Ġtues":6489,"Ġafterwards":6490,"cae":6491,"cap":6492,"Ġvice":6493,"univer":6494,"Ġaccomi":6495,"iza":6496,"Ġvc":6497,"Ġ91":6498,"Ġcheers":6499,"Ġcontacted":6500,"Ġairpl":6501,"Ġ0717":6502,"Ġ0708":6503,"Ġ0706":6504,"Ġ0774":6505,"clubs":6506,"6692":6507,"2950":6508,"2969":6509,"Ġeverybod":6510,"3544":6511,"109":6512,"1039":6513,"5465":6514,"0141":6515,"4161":6516,"Ġagree":6517,"909":6518,"9020":6519,"Ġcountryside":6520,"Ġcharming":6521,"4849":6522,"0680":6523,"0637":6524,"3685":6525,"Ġsuites":6526,"2863":6527,"Ġdescri":6528,"269":6529,"Ġfixed":6530,"5343":6531,"Ġmentioning":6532,"8913":6533,"Ġtechnical":6534,"147":6535,"1412":6536,"Ġqg":6537,"763":6538,"Ġ2800":6539,"Ġdata":6540,"464646":6541,"6745":6542,"Ġcompare":6543,"8610":6544,"Ġerrors":6545,"Ġ01223500005":6546,"Ġclarifying":6547,"9611":6548,"8224":6549,"Ġrecord":6550,"Ġversa":6551,"lfriend":6552,"Ġgirlfriend":6553,"Ġdependancy":6554,"0315":6555,"Ġqualities":6556,"Ġscale":6557,"Ġmisin":6558,"zcbl":6559,"Ġfiguring":6560,"Ġconveniently":6561,"Ġsqualour":6562,"Ġsupervis":6563,"Ġgift":6564,"zkd":6565,"bifd":6566,"Ġlives":6567,"hqd":6568,"Ġoddly":6569,"Ġsatisfied":6570,"1465":6571,"Ġ1223316074":6572,"waoz":6573,"Ġibiza":6574,"Ġmusuem":6575,"Ġoccup":6576,"lovell":6577,"Ġ01223217314":6578,"7062":6579,"Ġsplurge":6580,"fgdre":6581,"kcvthj":6582,"Ġfffw":6583,"Ġfrills":6584,"Ġrelevant":6585,"Ġgxqzcbl":6586,"university":6587,"Ġaccomid":6588,"Ġairplane":6589,"Ġeverybody":6590,"311":6591,"3194":6592,"3602":6593,"439":6594,"5365":6595,"6167":6596,"717":6597,"7276":6598,"7447":6599,"858":6600,"841":6601,"8705":6602,"8361":6603,"8199":6604,"8762":6605,"9082":6606,"ebg":6607,"fa":6608,"gun":6609,"hcw":6610,"histic":6611,"ios":6612,"jw":6613,"lst":6614,"qr":6615,"qx":6616,"qam":6617,"rm":6618,"sce":6619,"surgery":6620,"und":6621,"ucr":6622,"wp":6623,"xah":6624,"ya":6625,"ztn":6626,"zvm":6627,"Ġul":6628,"Ġtb":6629,"Ġtep":6630,"Ġamb":6631,"rel":6632,"Ġiv":6633,"Ġther":6634,"Ġthier":6635,"Ġcert":6636,"Ġcult":6637,"Ġwp":6638,"Ġpal":6639,"Ġpalan":6640,"Ġthee":6641,"Ġhan":6642,"Ġyop":6643,"Ġfz":6644,"Ġfaster":6645,"atter":6646,"Ġbs":6647,"Ġbv":6648,"Ġbother":6649,"Ġboom":6650,"Ġbott":6651,"Ġls":6652,"Ġlco":6653,"Ġdoor":6654,"ria":6655,"Ġsy":6656,"Ġski":6657,"sent":6658,"Ġforth":6659,"Ġgw":6660,"Ġgain":6661,"Ġgoon":6662,"Ġlively":6663,"Ġcaridge":6664,"Ġwhose":6665,"Ġlookout":6666,"Ġpleased":6667,"Ġ264":6668,"Ġtasce":6669,"Ġlovers":6670,"ssl":6671,"Ġwalle":6672,"Ġstr":6673,"Ġstuck":6674,"Ġstran":6675,"Ġpresu":6676,"Ġabd":6677,"0032":6678,"Ġbyart":6679,"Ġeth":6680,"1584":6681,"459":6682,"4549":6683,"Ġshortford":6684,"Ġue":6685,"Ġuj":6686,"Ġumber":6687,"Ġsurely":6688,"vided":6689,"129":6690,"Ġleaver":6691,"Ġsen":6692,"Ġdivided":6693,"Ġhasn":6694,"Ġperfre":6695,"Ġcritera":6696,"Ġacqu":6697,"gged":6698,"Ġbarrel":6699,"fod":6700,"Ġvk":6701,"2164":6702,"Ġbroxb":6703,"1144":6704,"Ġ0700":6705,"Ġ0745":6706,"Ġ0724":6707,"Ġ0750":6708,"Ġ0759":6709,"Ġ0719":6710,"Ġ0778":6711,"Ġ0726":6712,"Ġ0789":6713,"splt":6714,"1791":6715,"0721":6716,"5042":6717,"5056":6718,"Ġrequiring":6719,"665":6720,"089":6721,"3596":6722,"Ġcloseby":6723,"Ġwhilst":6724,"2755":6725,"2704":6726,"468":6727,"2052":6728,"1923":6729,"438":6730,"4334":6731,"Ġturns":6732,"suq":6733,"168":6734,"1688":6735,"0945":6736,"0996":6737,"498":6738,"Ġprotu":6739,"Ġ334":6740,"Ġscatter":6741,"578":6742,"5720":6743,"Ġluckily":6744,"Ġaddenbrook":6745,"Ġdiner":6746,"4212":6747,"380":6748,"Ġkeeps":6749,"776":6750,"Ġbrasseri":6751,"Ġreastaurant":6752,"Ġ012233650":6753,"1898":6754,"1892":6755,"253":6756,"Ġrides":6757,"792":6758,"3330":6759,"3371":6760,"Ġdetailed":6761,"gac":6762,"Ġbusy":6763,"8932":6764,"Ġqji":6765,"6310":6766,"9835":6767,"9956":6768,"Ġhuts":6769,"4757":6770,"3745":6771,"3732":6772,"Ġshortest":6773,"Ġdude":6774,"7420":6775,"3138":6776,"0427":6777,"Ġboss":6778,"Ġboxbourne":6779,"8519":6780,"Ġcruises":6781,"Ġputting":6782,"swx":6783,"Ġretain":6784,"crn":6785,"Ġpleasant":6786,"Ġesm":6787,"booked":6788,"Ġneurosurgery":6789,"nights":6790,"Ġclean":6791,"mfr":6792,"Ġrateing":6793,"Ġplast":6794,"nvl":6795,"vfa":6796,"Ġ01223338100":6797,"Ġtalked":6798,"Ġ0122350333":6799,"Ġattempting":6800,"pwj":6801,"Ġboarding":6802,"Ġcomplexes":6803,"8685":6804,"2503":6805,"7542":6806,"4003":6807,"Ġhepatology":6808,"Ġmusuems":6809,"Ġfourteen":6810,"Ġinput":6811,"Ġmiscommunication":6812,"Ġlocales":6813,"Ġconsistent":6814,"9886":6815,"Ġoriginal":6816,"Ġstrike":6817,"Ġvacancy":6818,"Ġsophistic":6819,"Ġaddmission":6820,"Ġquieter":6821,"Ġdittion":6822,"Ġkpfta":6823,"undant":6824,"xahu":6825,"Ġtepin":6826,"Ġculture":6827,"Ġpalce":6828,"Ġpalance":6829,"Ġyopu":6830,"Ġbottom":6831,"Ġskimp":6832,"Ġwallet":6833,"Ġstrange":6834,"Ġpresume":6835,"Ġacquire":6836,"Ġsophisticated":6837,"0363":6838,"318":6839,"7245":6840,"800":6841,"848":6842,"836":6843,"8151":6844,"9904":6845,"bm":6846,"eb":6847,"eci":6848,"fb":6849,"hat":6850,"hich":6851,"iat":6852,"jr":6853,"kj":6854,"kip":6855,"lin":6856,"lhi":6857,"mof":6858,"mps":6859,"nook":6860,"namg":6861,"qk":6862,"sll":6863,"sult":6864,"tis":6865,"uct":6866,"usted":6867,"udd":6868,"vjp":6869,"xr":6870,"yn":6871,"ymc":6872,"Ġxi":6873,"Ġxb":6874,"Ġts":6875,"Ġtz":6876,"Ġtar":6877,"Ġtmo":6878,"Ġai":6879,"Ġaction":6880,"Ġik":6881,"ering":6882,"ersp":6883,"eratin":6884,"Ġthak":6885,"rably":6886,"Ġcq":6887,"Ġceratin":6888,"Ġpg":6889,"Ġpage":6890,"Ġpsy":6891,"Ġhdt":6892,"Ġyv":6893,"Ġyor":6894,"Ġfd":6895,"Ġflu":6896,"Ġfid":6897,"atform":6898,"Ġbnook":6899,"Ġlg":6900,"start":6901,"Ġreese":6902,"Ġsv":6903,"Ġsmi":6904,"Ġskip":6905,"Ġmot":6906,"Ġmother":6907,"Ġmailing":6908,"veg":6909,"ended":6910,"Ġ1000":6911,"thur":6912,"Ġgk":6913,"Ġatra":6914,"Ġstamps":6915,"petit":6916,"Ġdoe":6917,"Ġcash":6918,"Ġcabs":6919,"Ġwhee":6920,"Ġonward":6921,"Ġcente":6922,"Ġchip":6923,"sis":6924,"lac":6925,"lasian":6926,"Ġtiger":6927,"Ġwithersp":6928,"chiat":6929,"Ġalert":6930,"Ġ011":6931,"utish":6932,"fil":6933,"Ġasain":6934,"301":6935,"3055":6936,"Ġens":6937,"1549":6938,"1534":6939,"1575":6940,"ulance":6941,"Ġshab":6942,"Ġshown":6943,"icy":6944,"Ġwehave":6945,"Ġleas":6946,"Ġtraveler":6947,"Ġpreferrably":6948,"Ġdistra":6949,"Ġdiverse":6950,"Ġ81":6951,"Ġ623":6952,"Ġindeci":6953,"lose":6954,"Ġavailabi":6955,"Ġmini":6956,"Ġminim":6957,"Ġpoolway":6958,"Ġvf":6959,"Ġvo":6960,"2130":6961,"2182":6962,"Ġspelling":6963,"Ġspicy":6964,"Ġconsult":6965,"Ġstep":6966,"Ġnorwhich":6967,"Ġcontacts":6968,"Ġplatform":6969,"vals":6970,"Ġ0736":6971,"Ġ0755":6972,"Ġ0744":6973,"Ġ0763":6974,"Ġ0796":6975,"Ġ0703":6976,"Ġlongs":6977,"Ġfirm":6978,"2471":6979,"077":6980,"6607":6981,"6697":6982,"Ġheads":6983,"Ġseating":6984,"5266":6985,"3212":6986,"ltiy":6987,"1958":6988,"4134":6989,"Ġzl":6990,"Ġzoo":6991,"Ġzule":6992,"9062":6993,"Ġcompetit":6994,"0953":6995,"497":6996,"4813":6997,"4861":6998,"0638":6999,"Ġours":7000,"Ġscrat":7001,"5711":7002,"5797":7003,"514":7004,"7727":7005,"8026":7006,"2823":7007,"5694":7008,"Ġguide":7009,"Ġgroupon":7010,"3343":7011,"7020":7012,"Ġxn":7013,"Ġxr":7014,"Ġconsist":7015,"gyc":7016,"ivity":7017,"Ġplayground":7018,"Ġqh":7019,"Ġoffensive":7020,"7656":7021,"Ġ375":7022,"6741":7023,"9969":7024,"8714":7025,"3735":7026,"Ġducking":7027,"Ġsurprised":7028,"voq":7029,"Ġreview":7030,"centre":7031,"Ġbox":7032,"myl":7033,"Ġbrutish":7034,"pdt":7035,"Ġcancelled":7036,"jmt":7037,"Ġdisclose":7038,"Ġbringing":7039,"Ġdisappointed":7040,"xcd":7041,"Ġrestraunts":7042,"Ġconnectivity":7043,"2129":7044,"8177":7045,"Ġbankok":7046,"8799":7047,"7548":7048,"8290":7049,"9383":7050,"Ġmodrate":7051,"4669":7052,"3190":7053,"Ġpaint":7054,"6583":7055,"Ġseriously":7056,"Ġreturn":7057,"Ġreturned":7058,"Ġvalu":7059,"Ġhtels":7060,"Ġbonus":7061,"Ġobvious":7062,"Ġcenre":7063,"Ġphysic":7064,"Ġanythign":7065,"Ġdiscovered":7066,"Ġidentify":7067,"Ġpocketbook":7068,"Ġdiffernt":7069,"moderate":7070,"Ġmisinformation":7071,"Ġambulance":7072,"Ġlcoated":7073,"tisux":7074,"uddov":7075,"Ġtarget":7076,"Ġtmov":7077,"Ġthaks":7078,"Ġpsychiat":7079,"thursday":7080,"Ġwitherspoon":7081,"Ġensure":7082,"Ġshabby":7083,"Ġdistracted":7084,"Ġindecisive":7085,"Ġavailabiltiy":7086,"Ġminimum":7087,"Ġzuleu":7088,"Ġcompetitors":7089,"Ġscratch":7090,"Ġpsychiatry":7091,"''":7092,"024":7093,"0121":7094,"2292":7095,"3390":7096,"3765":7097,"4170":7098,"4351":7099,"517":7100,"5159":7101,"6368":7102,"6386":7103,"758":7104,"7213":7105,"7578":7106,"813":7107,"8241":7108,"980":7109,"9178":7110,"9276":7111,"bry":7112,"cine":7113,"cian":7114,"city":7115,"cqw":7116,"down":7117,"ei":7118,"ence":7119,"fk":7120,"fw":7121,"friend":7122,"gne":7123,"hp":7124,"hwc":7125,"iw":7126,"iment":7127,"jww":7128,"khouse":7129,"lg":7130,"mic":7131,"mnu":7132,"mjc":7133,"nrt":7134,"oh":7135,"ondoo":7136,"oil":7137,"plug":7138,"qhz":7139,"soo":7140,"sve":7141,"tm":7142,"toy":7143,"wch":7144,"wah":7145,"wka":7146,"wfn":7147,"yd":7148,"ym":7149,"yrx":7150,"yzl":7151,"Ġough":7152,"Ġage":7153,"Ġaen":7154,"Ġacade":7155,"rection":7156,"Ġij":7157,"Ġimm":7158,"Ġiron":7159,"erine":7160,"oux":7161,"nttr":7162,"elp":7163,"elves":7164,"rable":7165,"Ġcp":7166,"Ġcz":7167,"Ġwtih":7168,"Ġhh":7169,"Ġhy":7170,"Ġyb":7171,"Ġyrip":7172,"Ġyelp":7173,"Ġft":7174,"Ġns":7175,"Ġnoo":7176,"Ġnad":7177,"Ġnyp":7178,"Ġbd":7179,"Ġboy":7180,"Ġbzx":7181,"Ġlp":7182,"Ġlw":7183,"Ġtoay":7184,"Ġdd":7185,"Ġsia":7186,"Ġmd":7187,"Ġmp":7188,"Ġmon":7189,"Ġmuti":7190,"sey":7191,"Ġhote":7192,"Ġinstru":7193,"Ġrestarant":7194,"ldq":7195,"Ġbookm":7196,"thu":7197,"Ġgc":7198,"Ġggo":7199,"Ġcandid":7200,"rolls":7201,"Ġlease":7202,"Ġcentr":7203,"Ġtips":7204,"Ġdepature":7205,"chine":7206,"Ġtaondoo":7207,"Ġtyping":7208,"wnx":7209,"Ġ480":7210,"Ġrain":7211,"urous":7212,"ghn":7213,"bled":7214,"Ġnotch":7215,"Ġranged":7216,"Ġcollage":7217,"Ġstb":7218,"utf":7219,"utton":7220,"Ġgod":7221,"Ġgoden":7222,"Ġabundant":7223,"0094":7224,"Ġassit":7225,"Ġasap":7226,"307":7227,"3076":7228,"Ġeu":7229,"Ġew":7230,"Ġez":7231,"1542":7232,"451":7233,"4506":7234,"Ġgem":7235,"Ġuc":7236,"Ġuz":7237,"Ġinterned":7238,"Ġjd":7239,"Ġjjwe":7240,"Ġkl":7241,"Ġksh":7242,"Ġkhb":7243,"vily":7244,"Ġthurday":7245,"Ġthursdays":7246,"Ġ1500":7247,"Ġ1545":7248,"Ġwhereas":7249,"Ġmachine":7250,"Ġ67":7251,"iav":7252,"luar":7253,"Ġrg":7254,"Ġunplug":7255,"Ġperfer":7256,"Ġ1414":7257,"Ġbeds":7258,"Ġbedroom":7259,"Ġ107":7260,"ung":7261,"unity":7262,"Ġparticluar":7263,"Ġspeaking":7264,"Ġ0122334900":7265,"made":7266,"Ġvm":7267,"Ġvzf":7268,"217":7269,"218":7270,"219":7271,"Ġspoil":7272,"Ġupon":7273,"Ġnorway":7274,"Ġplcae":7275,"Ġmarvel":7276,"Ġpicks":7277,"uese":7278,"Ġcineman":7279,"Ġ0740":7280,"Ġ0752":7281,"Ġ0798":7282,"Ġ0772":7283,"Ġ0793":7284,"Ġ0797":7285,"Ġsearched":7286,"Ġcars":7287,"Ġgarbled":7288,"071":7289,"076":7290,"Ġpizzaria":7291,"6645":7292,"6698":7293,"297":7294,"356":7295,"3577":7296,"605":7297,"5433":7298,"5476":7299,"Ġhebf":7300,"Ġpacking":7301,"013":7302,"0123":7303,"469":7304,"4680":7305,"ucks":7306,"Ġgrabb":7307,"1978":7308,"Ġconfirming":7309,"Ġzz":7310,"Ġzsd":7311,"169":7312,"1656":7313,"0922":7314,"Ġcorkhouse":7315,"Ġcorrection":7316,"Ġwarkwoth":7317,"Ġchanges":7318,"4824":7319,"Ġhomemade":7320,"Ġsending":7321,"5108":7322,"3847":7323,"8054":7324,"1854":7325,"1827":7326,"1879":7327,"1316":7328,"2521":7329,"Ġsaw":7330,"569":7331,"Ġcommunity":7332,"347":7333,"Ġtimeslot":7334,"337":7335,"3342":7336,"used":7337,"268":7338,"2621":7339,"zzi":7340,"2257":7341,"531":7342,"Ġbuff":7343,"Ġxg":7344,"Ġxxx":7345,"person":7346,"6477":7347,"Ġpunti":7348,"Ġqx":7349,"7678":7350,"Ġjamacian":7351,"6312":7352,"Ġrefrence":7353,"9823":7354,"9460":7355,"8659":7356,"3730":7357,"Ġarranged":7358,"9629":7359,"9644":7360,"3130":7361,"0201":7362,"upu":7363,"9345":7364,"igs":7365,"Ġcatherine":7366,"Ġcrazy":7367,"8510":7368,"Ġexperiment":7369,"agg":7370,"Ġretrie":7371,"wyiu":7372,"zcf":7373,"5669":7374,"Ġbrother":7375,"ljghn":7376,"Ġthird":7377,"Ġyears":7378,"vhw":7379,"ediately":7380,"Ġputs":7381,"8431":7382,"Ġsmart":7383,"ova":7384,"oeik":7385,"jqm":7386,"Ġ01223360409":7387,"01223358":7388,"01223464646":7389,"Ġdecision":7390,"Ġdrink":7391,"rnm":7392,"Ġeggrolls":7393,"Ġsituation":7394,"Ġfocused":7395,"Ġadventurous":7396,"Ġcovering":7397,"23727410":7398,"Ġbasically":7399,"6585":7400,"Ġxmcht":7401,"Ġexpensve":7402,"Ġprompt":7403,"Ġsentence":7404,"Ġrestaruants":7405,"Ġlxmfr":7406,"Ġfortunately":7407,"Ġrrnttr":7408,"Ġvicinity":7409,"Ġheavily":7410,"Ġblocks":7411,"9775":7412,"flywy":7413,"Ġbziav":7414,"7177":7415,"Ġ01123727410":7416,"Ġourselves":7417,"gneb":7418,"soopr":7419,"toyzuy":7420,"wahk":7421,"Ġought":7422,"Ġacademic":7423,"Ġimmediately":7424,"Ġnados":7425,"Ġboyfriend":7426,"Ġsiagon":7427,"Ġmutiple":7428,"Ġinstructions":7429,"Ġcandidates":7430,"Ġtaondoori":7431,"Ġjjweo":7432,"Ġkhbljghn":7433,"Ġmarvelous":7434,"Ġhebfpw":7435,"Ġgrabbing":7436,"Ġretrieve":7437,"01223358966":7438,"Ġlxmfrzlr":7439,"0277":7440,"1662":7441,"1395":7442,"207":7443,"312":7444,"3293":7445,"3450":7446,"4194":7447,"4202":7448,"519":7449,"5389":7450,"655":7451,"6210":7452,"6387":7453,"6763":7454,"7293":7455,"7604":7456,"7075":7457,"845":7458,"8604":7459,"9202":7460,"9802":7461,"9404":7462,"aav":7463,"broke":7464,"bcode":7465,"csa":7466,"cln":7467,"duf":7468,"ems":7469,"eological":7470,"fhh":7471,"gns":7472,"gob":7473,"hw":7474,"iwl":7475,"jna":7476,"kso":7477,"kcy":7478,"kvo":7479,"kbz":7480,"lbs":7481,"mend":7482,"mwhere":7483,"nbw":7484,"ond":7485,"oden":7486,"oxq":7487,"pad":7488,"pax":7489,"park":7490,"rwf":7491,"sfs":7492,"tle":7493,"test":7494,"tered":7495,"tdx":7496,"va":7497,"vir":7498,"vpa":7499,"vnh":7500,"vsd":7501,"vkt":7502,"wse":7503,"wkv":7504,"wbn":7505,"xn":7506,"xfy":7507,"xtu":7508,"yi":7509,"yv":7510,"Ġould":7511,"Ġtemporary":7512,"Ġax":7513,"Ġacommod":7514,"Ġaim":7515,"Ġio":7516,"Ġiam":7517,"sty":7518,"oumg":7519,"nts":7520,"Ġwon":7521,"Ġwgu":7522,"Ġpn":7523,"Ġpq":7524,"Ġpv":7525,"Ġpur":7526,"Ġhc":7527,"Ġfk":7528,"Ġfbz":7529,"ndered":7530,"Ġnz":7531,"Ġnine":7532,"Ġyoud":7533,"Ġbvd":7534,"Ġbuses":7535,"orge":7536,"Ġlj":7537,"Ġlon":7538,"Ġldy":7539,"onment":7540,"Ġtodo":7541,"Ġdg":7542,"Ġdie":7543,"Ġdance":7544,"Ġdrea":7545,"Ġreco":7546,"Ġrever":7547,"Ġsick":7548,"Ġmh":7549,"ooking":7550,"Ġhottest":7551,"edxfy":7552,"thent":7553,"Ġga":7554,"Ġgs":7555,"Ġgam":7556,"Ġgorge":7557,"ken":7558,"Ġlikely":7559,"Ġwipp":7560,"Ġstaurday":7561,"Ġneeed":7562,"Ġcanbridge":7563,"Ġcalc":7564,"Ġitala":7565,"Ġitems":7566,"opok":7567,"Ġattrib":7568,"Ġfoodie":7569,"Ġ21223":7570,"Ġ266":7571,"Ġtasty":7572,"Ġtyoe":7573,"Ġ414":7574,"itude":7575,"Ġrater":7576,"Ġraise":7577,"Ġload":7578,"Ġwandered":7579,"Ġrang":7580,"Ġsomwhere":7581,"tery":7582,"Ġnome":7583,"ision":7584,"Ġstress":7585,"irg":7586,"irdo":7587,"Ġposh":7588,"Ġadult":7589,"xiw":7590,"Ġlocally":7591,"Ġ525":7592,"fii":7593,"Ġepensive":7594,"Ġegy":7595,"Ġeqn":7596,"Ġeopok":7597,"Ġadded":7598,"157":7599,"1596":7600,"mmv":7601,"Ġpostbcode":7602,"4594":7603,"ulates":7604,"Ġub":7605,"Ġukt":7606,"Ġgetaway":7607,"Ġjq":7608,"2357":7609,"2334":7610,"Ġweirdo":7611,"Ġkci":7612,"Ġkvv":7613,"Ġkigs":7614,"Ġentra":7615,"Ġdoesn":7616,"Ġsepa":7617,"Ġcbagg":7618,"Ġcbooking":7619,"Ġindic":7620,"Ġrvsd":7621,"Ġroles":7622,"tions":7623,"Ġ168":7624,"akfzc":7625,"Ġperform":7626,"Ġmyster":7627,"Ġratinge":7628,"quu":7629,"Ġspeed":7630,"Ġminton":7631,"Ġeurology":7632,"Ġacorns":7633,"Ġarcheological":7634,"Ġnewest":7635,"Ġvision":7636,"Ġsteep":7637,"Ġbrowse":7638,"pped":7639,"114":7640,"1180":7641,"Ġbird":7642,"Ġbirmin":7643,"Ġnowhere":7644,"Ġdidnt":7645,"lied":7646,"Ġassisting":7647,"Ġunfortunat":7648,"Ġ0723":7649,"Ġ0721":7650,"Ġ0710":7651,"Ġ0748":7652,"Ġ0742":7653,"Ġ0718":7654,"Ġ0737":7655,"5867":7656,"twa":7657,"Ġuniverist":7658,"Ġfirstly":7659,"1756":7660,"1765":7661,"1704":7662,"0734":7663,"tik":7664,"Ġswimmin":7665,"6626":7666,"6675":7667,"2952":7668,"2919":7669,"084":7670,"359":7671,"3515":7672,"Ġusqhz":7673,"4068":7674,"Ġcousin":7675,"8873":7676,"6066":7677,"6016":7678,"Ġhectic":7679,"Ġpapad":7680,"Ġlottery":7681,"0146":7682,"0168":7683,"275":7684,"Ġgrafit":7685,"Ġapart":7686,"433":7687,"Ġloves":7688,"brained":7689,"905":7690,"9039":7691,"0995":7692,"Ġfrees":7693,"Ġnothern":7694,"4828":7695,"063":7696,"Ġenvir":7697,"Ġahve":7698,"5754":7699,"5747":7700,"5737":7701,"Ġrestru":7702,"Ġbrah":7703,"Ġbraoden":7704,"3677":7705,"511511":7706,"4266":7707,"5507":7708,"5567":7709,"3810":7710,"7759":7711,"7706":7712,"Ġolder":7713,"1817":7714,"Ġandres":7715,"1339":7716,"789":7717,"2519":7718,"ahm":7719,"Ġaligns":7720,"2860":7721,"2854":7722,"5691":7723,"zaft":7724,"Ġsystems":7725,"262":7726,"zzgl":7727,"dying":7728,"Ġ797":7729,"Ġxp":7730,"Ġxfd":7731,"8935":7732,"Ġstandards":7733,"Ġqb":7734,"Ġpasscode":7735,"769":7736,"Ġhappening":7737,"Ġjunior":7738,"Ġlanken":7739,"Ġ2828":7740,"Ġconsideration":7741,"6998":7742,"8466":7743,"8420":7744,"cidcsa":7745,"9839":7746,"9876":7747,"8730":7748,"bjb":7749,"popean":7750,"sjy":7751,"Ġstroll":7752,"7223":7753,"Ġpicnic":7754,"9635":7755,"9641":7756,"Ġauthent":7757,"0415":7758,"Ġexhibit":7759,"0212":7760,"0559":7761,"Ġ01223454550":7762,"9732":7763,"Ġ012232742":7764,"Ġ01223274680":7765,"Ġextended":7766,"qyoumg":7767,"myg":7768,"ddte":7769,"fdbjb":7770,"Ġtremend":7771,"Ġplants":7772,"vmx":7773,"vyr":7774,"ihat":7775,"vfv":7776,"ewq":7777,"Ġstudent":7778,"Ġstudying":7779,"zwvkt":7780,"3304":7781,"jqt":7782,"Ġburden":7783,"uhjqt":7784,"wxesp":7785,"8078":7786,"6572":7787,"lesbray":7788,"Ġmodest":7789,"Ġmoderatley":7790,"4664":7791,"dktik":7792,"3197":7793,"Ġslide":7794,"Ġdesperate":7795,"Ġwildest":7796,"Ġarrrive":7797,"szj":7798,"Ġcondo":7799,"Ġstrapped":7800,"Ġmeghana":7801,"Ġeconomical":7802,"Ġeconomically":7803,"1152":7804,"Ġrestauant":7805,"Ġseventy":7806,"Ġhfqyoumg":7807,"4887":7808,"8095":7809,"Ġfiltered":7810,"Ġdhdb":7811,"Ġvrzwvkt":7812,"8631":7813,"Ġdescribe":7814,"Ġaccomidate":7815,"Ġscatterbrained":7816,"Ġstrikes":7817,"Ġyork":7818,"Ġmotel":7819,"Ġspellingcity":7820,"Ġobviously":7821,"Ġaenedxfy":7822,"Ġeupopean":7823,"fhhno":7824,"parkside":7825,"rwfgm":7826,"Ġacommodate":7827,"Ġnineteen":7828,"Ġlonely":7829,"Ġtodoay":7830,"Ġdieting":7831,"Ġdreams":7832,"Ġreversed":7833,"Ġgames":7834,"Ġgorgeous":7835,"Ġwippgg":7836,"Ġcalculates":7837,"Ġitalain":7838,"Ġattributes":7839,"Ġ21223511511":7840,"Ġegyy":7841,"Ġeqnky":7842,"Ġeopokff":7843,"Ġuktvt":7844,"Ġkciwxesp":7845,"Ġbirminham":7846,"Ġuniveristy":7847,"Ġusqhznbw":7848,"Ġpapadoux":7849,"Ġgrafitti":7850,"Ġenvironment":7851,"Ġrestruarant":7852,"Ġauthentic":7853,"Ġtremendous":7854,"Ġstudents":7855,"'m":7856,"029":7857,"032":7858,"2211":7859,"3246":7860,"440":7861,"4294":7862,"4322":7863,"558":7864,"5234":7865,"5077":7866,"728":7867,"7355":7868,"818":7869,"869":7870,"8387":7871,"8306":7872,"8522":7873,"8406":7874,"8674":7875,"917":7876,"926":7877,"9209":7878,"9246":7879,"9219":7880,"aurant":7881,"bery":7882,"bile":7883,"bnk":7884,"con":7885,"dc":7886,"dden":7887,"dzz":7888,"djx":7889,"dele":7890,"ebn":7891,"fpq":7892,"gmingham":7893,"gff":7894,"gam":7895,"ggy":7896,"gfl":7897,"gpa":7898,"hist":7899,"herschel":7900,"ikv":7901,"ivals":7902,"jor":7903,"jir":7904,"jful":7905,"kar":7906,"kpv":7907,"mgy":7908,"oa":7909,"ove":7910,"ole":7911,"old":7912,"oas":7913,"oman":7914,"pned":7915,"qit":7916,"qis":7917,"rnd":7918,"rfl":7919,"rces":7920,"slf":7921,"szc":7922,"tsi":7923,"tain":7924,"tcode":7925,"tvyr":7926,"uk":7927,"uu":7928,"uing":7929,"uic":7930,"uhu":7931,"vma":7932,"vft":7933,"vsr":7934,"vgm":7935,"wla":7936,"xen":7937,"xwh":7938,"xlc":7939,"xrz":7940,"yl":7941,"yway":7942,"zjf":7943,"Ġ`":7944,"Ġnds":7945,"Ġtend":7946,"Ġast":7947,"Ġafer":7948,"Ġakf":7949,"requisit":7950,"Ġixe":7951,"Ġicqw":7952,"stish":7953,"stcu":7954,"Ġthous":7955,"ination":7956,"nture":7957,"Ġcj":7958,"Ġck":7959,"Ġcr":7960,"Ġcx":7961,"Ġcct":7962,"Ġckl":7963,"Ġweal":7964,"Ġpops":7965,"Ġpediatric":7966,"Ġtheme":7967,"Ġhb":7968,"Ġhs":7969,"Ġhits":7970,"Ġhhqd":7971,"Ġyi":7972,"Ġyp":7973,"Ġyy":7974,"Ġyay":7975,"Ġyvh":7976,"Ġycg":7977,"Ġfest":7978,"Ġfrist":7979,"Ġfvn":7980,"Ġfaves":7981,"ndar":7982,"atient":7983,"atological":7984,"Ġnbor":7985,"Ġnzp":7986,"Ġnmt":7987,"Ġbm":7988,"Ġbq":7989,"Ġbw":7990,"Ġbpe":7991,"oop":7992,"orical":7993,"orious":7994,"Ġlf":7995,"Ġlr":7996,"Ġlla":7997,"Ġlies":7998,"Ġlbs":7999,"Ġlnk":8000,"Ġlvt":8001,"stalasian":8002,"Ġdl":8003,"Ġdw":8004,"Ġdci":8005,"Ġdkv":8006,"ribean":8007,"Ġresi":8008,"Ġrecomm":8009,"Ġreun":8010,"Ġrecent":8011,"ooked":8012,"ooksh":8013,"leaves":8014,"ged":8015,"Ġisherschel":8016,"urate":8017,"arnt":8018,"endent":8019,"thy":8020,"Ġgf":8021,"Ġgq":8022,"Ġgdh":8023,"Ġgdzz":8024,"mble":8025,"kei":8026,"esq":8027,"meg":8028,"Ġliving":8029,"Ġwiden":8030,"Ġwiki":8031,"pepned":8032,"Ġdock":8033,"Ġcap":8034,"Ġcage":8035,"Ġcaff":8036,"Ġprise":8037,"Ġpricy":8038,"Ġwhch":8039,"rogd":8040,"Ġonoc":8041,"arter":8042,"Ġmovt":8043,"Ġbevm":8044,"Ġnumb":8045,"Ġnush":8046,"Ġlookng":8047,"Ġarcon":8048,"reement":8049,"Ġlookingfor":8050,"laj":8051,"lagcy":8052,"eaet":8053,"cha":8054,"ched":8055,"church":8056,"Ġ229":8057,"Ġ256":8058,"Ġ2662":8059,"Ġtag":8060,"Ġ452":8061,"itd":8062,"itlz":8063,"Ġloal":8064,"Ġwau":8065,"Ġwilll":8066,"Ġleavees":8067,"Ġexha":8068,"owr":8069,"certain":8070,"Ġranger":8071,"Ġsocial":8072,"Ġsucks":8073,"Ġsuccesful":8074,"Ġstort":8075,"Ġstrip":8076,"Ġposr":8077,"Ġgoint":8078,"Ġgojir":8079,"Ġprerequisit":8080,"Ġsources":8081,"neh":8082,"nece":8083,"Ġom":8084,"Ġoy":8085,"Ġojful":8086,"Ġlocates":8087,"Ġ500":8088,"Ġ566":8089,"five":8090,"ressing":8091,"3057":8092,"3085":8093,"mmpi":8094,"4543":8095,"alling":8096,"ulr":8097,"ulty":8098,"Ġshot":8099,"Ġux":8100,"Ġuof":8101,"Ġums":8102,"Ġwesties":8103,"Ġjx":8104,"Ġjot":8105,"Ġjgn":8106,"Ġcouldnt":8107,"2311":8108,"2392":8109,"Ġkf":8110,"Ġkj":8111,"Ġkoo":8112,"Ġcollection":8113,"Ġentree":8114,"Ġthurs":8115,"Ġseated":8116,"Ġ1515":8117,"Ġdilton":8118,"Ġmajor":8119,"iable":8120,"Ġindep":8121,"enatal":8122,"lun":8123,"Ġrf":8124,"Ġrh":8125,"Ġrx":8126,"Ġrz":8127,"oomend":8128,"Ġ117":8129,"Ġunite":8130,"Ġuncertain":8131,"Ġ1793":8132,"Ġhidden":8133,"Ġ122":8134,"cessful":8135,"Ġ1600":8136,"Ġhovw":8137,"Ġ146":8138,"ckls":8139,"ckqx":8140,"Ġknows":8141,"Ġviv":8142,"Ġ195":8143,"itement":8144,"Ġspect":8145,"Ġspecifc":8146,"Ġmile":8147,"Ġmiles":8148,"Ġminor":8149,"Ġnightli":8150,"Ġlodon":8151,"Ġbristish":8152,"Ġcuri":8153,"Ġarchyway":8154,"Ġnewer":8155,"foesq":8156,"Ġvw":8157,"Ġvas":8158,"Ġ93":8159,"2118":8160,"Ġspa":8161,"Ġletting":8162,"Ġsteet":8163,"denso":8164,"Ġ0959":8165,"119":8166,"1160":8167,"1149":8168,"Ġcheckin":8169,"Ġbirgmingham":8170,"miming":8171,"Ġ0800":8172,"Ġboaters":8173,"Ġ0729":8174,"Ġ0701":8175,"Ġ0732":8176,"Ġ0716":8177,"Ġ0713":8178,"Ġ0776":8179,"Ġ0767":8180,"Ġ0786":8181,"Ġ0765":8182,"Ġ0747":8183,"Ġ07263":8184,"589":8185,"5806":8186,"5863":8187,"Ġswimiming":8188,"Ġcarribbean":8189,"Ġcarribean":8190,"ttlk":8191,"beib":8192,"2473":8193,"2475":8194,"176":8195,"1761":8196,"Ġquarter":8197,"086":8198,"psulr":8199,"Ġhuntingdown":8200,"882":8201,"8805":8202,"542":8203,"5473":8204,"Ġheck":8205,"Ġpossibles":8206,"278":8207,"2788":8208,"392":8209,"3976":8210,"5901":8211,"5972":8212,"5902":8213,"203":8214,"2021":8215,"Ġgrate":8216,"Ġadmissions":8217,"Ġadmissoin":8218,"Ġloved":8219,"Ġexcuse":8220,"Ġexcitement":8221,"Ġzg":8222,"Ġzi":8223,"Ġzp":8224,"Ġzcr":8225,"Ġzht":8226,"Ġzvft":8227,"1610":8228,"9030":8229,"9025":8230,"9033":8231,"0925":8232,"shk":8233,"shy":8234,"Ġconcerning":8235,"Ġaylebray":8236,"brm":8237,"Ġimformation":8238,"4990":8239,"4992":8240,"4840":8241,"mobile":8242,"0684":8243,"Ġhopital":8244,"Ġscra":8245,"5770":8246,"5793":8247,"Ġoverall":8248,"Ġovernight":8249,"Ġoverbooked":8250,"Ġrestating":8251,"Ġbray":8252,"5517":8253,"3828":8254,"7743":8255,"7763":8256,"7747":8257,"Ġinterestingly":8258,"koq":8259,"8044":8260,"Ġoldest":8261,"Ġmagdele":8262,"1863":8263,"Ġantenatal":8264,"2557":8265,"282":8266,"Ġ01223301761":8267,"Ġcommit":8268,"3470":8269,"Ġventure":8270,"261":8271,"2617":8272,"2634":8273,"Ġcatala":8274,"zzny":8275,"Ġugpe":8276,"Ġwandlebery":8277,"oyoas":8278,"qqkf":8279,"Ġxl":8280,"Ġxt":8281,"Ġxz":8282,"Ġxdenso":8283,"Ġawv":8284,"Ġsitting":8285,"Ġappealling":8286,"6833":8287,"Ġqmy":8288,"7648":8289,"7324":8290,"Ġeffort":8291,"Ġefficient":8292,"Ġclassification":8293,"693":8294,"Ġdisag":8295,"Ġrefs":8296,"2402":8297,"Ġ0122324515":8298,"ruxd":8299,"9427":8300,"bbn":8301,"Ġrecoomend":8302,"Ġhumble":8303,"Ġ2929":8304,"8632":8305,"8676":8306,"6517":8307,"Ġscudamore":8308,"dpn":8309,"Ġbeach":8310,"Ġactivites":8311,"afsw":8312,"aflv":8313,"9678":8314,"8225":8315,"Ġaustalasian":8316,"pmq":8317,"Ġfactors":8318,"0440":8319,"Ġmaryschurch":8320,"Ġ0122331241":8321,"lhuv":8322,"axu":8323,"0545":8324,"0516":8325,"upl":8326,"9310":8327,"9360":8328,"Ġnorfold":8329,"9226":8330,"jsq":8331,"Ġpurchased":8332,"0378":8333,"dwv":8334,"bdj":8335,"bdneh":8336,"hxgl":8337,"9517":8338,"qyc":8339,"jxk":8340,"jxn":8341,"jxp":8342,"Ġretaurant":8343,"zcq":8344,"zym":8345,"jfxlc":8346,"img":8347,"Ġbrooksh":8348,"pxr":8349,"apy":8350,"syt":8351,"dbza":8352,"pdl":8353,"rtb":8354,"Ġ0871550101":8355,"ddc":8356,"Ġrespond":8357,"nkz":8358,"nkgs":8359,"fdt":8360,"ggr":8361,"gmntu":8362,"Ġthorton":8363,"Ġluxorious":8364,"wkab":8365,"rfjq":8366,"vxl":8367,"Ġfinishing":8368,"Ġindustrical":8369,"Ġ07479":8370,"nvqd":8371,"Ġaccomad":8372,"dhn":8373,"kcz":8374,"rgdbza":8375,"Ġhaematological":8376,"ijiww":8377,"kmvo":8378,"hhs":8379,"Ġdecently":8380,"Ġstevange":8381,"wmd":8382,"wmr":8383,"sdpsulr":8384,"lvha":8385,"dfjfxlc":8386,"pzgff":8387,"Ġpriorities":8388,"vql":8389,"Ġcongra":8390,"mrshk":8391,"Ġglbnk":8392,"hcupl":8393,"Ġwouold":8394,"Ġtrusday":8395,"mnbdneh":8396,"Ġdigressing":8397,"Ġcontinuing":8398,"2001":8399,"2006":8400,"bcckqx":8401,"Ġjune":8402,"Ġaccurate":8403,"tkj":8404,"Ġibtn":8405,"Ġcwruxd":8406,"Ġcomparable":8407,"sfjm":8408,"zioman":8409,"Ġoverwhelming":8410,"Ġoccur":8411,"Ġyhou":8412,"Ġjzxs":8413,"3177":8414,"Ġmqrgdbza":8415,"Ġrailway":8416,"Ġinpatient":8417,"Ġmiscommunicated":8418,"Ġazsyt":8419,"Ġsnagged":8420,"1156":8421,"Ġpieces":8422,"Ġrestauarnt":8423,"Ġ079989":8424,"Ġaoxh":8425,"Ġphdx":8426,"Ġ9725":8427,"mdbeib":8428,"Ġflight":8429,"Ġdifficulty":8430,"dvilhuv":8431,"facts":8432,"Ġrestauarants":8433,"Ġeasiest":8434,"Ġ01223596066":8435,"Ġautomobile":8436,"8575":8437,"Ġbump":8438,"Ġartifacts":8439,"Ġnormal":8440,"Ġoccupational":8441,"8585":8442,"Ġtherapy":8443,"Ġgoona":8444,"Ġvkkm":8445,"Ġaddenbrooks":8446,"Ġ01223365068":8447,"swxat":8448,"Ġplastic":8449,"Ġaiport":8450,"Ġvalued":8451,"9805":8452,"Ġirony":8453,"Ġrestarants":8454,"Ġklpepned":8455,"3128":8456,"8185":8457,"8699":8458,"ebnqr":8459,"historical":8460,"ikvz":8461,"mgyyh":8462,"rndation":8463,"zjfz":8464,"Ġastropub":8465,"Ġixezzny":8466,"Ġicqwvql":8467,"stcuza":8468,"Ġthousand":8469,"Ġcklfoesq":8470,"Ġwealthy":8471,"Ġhhqdga":8472,"Ġyvhr":8473,"Ġycgv":8474,"Ġfestivals":8475,"Ġnborth":8476,"Ġllammas":8477,"Ġresiding":8478,"Ġrecommrndation":8479,"Ġreunion":8480,"endently":8481,"Ġcaffee":8482,"Ġonoccl":8483,"Ġnushua":8484,"Ġexhausted":8485,"Ġstortfod":8486,"Ġposrtcode":8487,"Ġgojirrq":8488,"Ġprerequisites":8489,"Ġmajority":8490,"Ġindependently":8491,"cklslaj":8492,"Ġspecifcally":8493,"Ġnightlife":8494,"Ġvascular":8495,"Ġgrateful":8496,"Ġzvftq":8497,"Ġmagdelene":8498,"Ġcatalam":8499,"Ġdisagreement":8500,"aflva":8501,"Ġbrookshite":8502,"nkgsn":8503,"ijiwwq":8504,"pzgfft":8505,"Ġixezznyl":8506,"030":8507,"039":8508,"057":8509,"033":8510,"0117":8511,"142":8512,"1428":8513,"2602":8514,"3237":8515,"3347":8516,"4082":8517,"4117":8518,"524":8519,"560":8520,"539":8521,"645":8522,"651":8523,"671":8524,"759":8525,"7239":8526,"850":8527,"8131":8528,"8239":8529,"918":8530,"9382":8531,"9286":8532,"9522":8533,"9792":8534,"ack":8535,"aue":8536,"aully":8537,"ajs":8538,"biz":8539,"cion":8540,"cfic":8541,"cmo":8542,"cgy":8543,"cds":8544,"count":8545,"cjz":8546,"cjt":8547,"dander":8548,"dgy":8549,"dtz":8550,"dxh":8551,"djl":8552,"epe":8553,"eum":8554,"ezt":8555,"eoj":8556,"ffic":8557,"gst":8558,"gth":8559,"gur":8560,"gate":8561,"gah":8562,"gurf":8563,"gfn":8564,"gjj":8565,"gih":8566,"hbg":8567,"hpb":8568,"iop":8569,"ips":8570,"iko":8571,"ijx":8572,"iqg":8573,"jky":8574,"juf":8575,"jhq":8576,"jdf":8577,"kjk":8578,"mand":8579,"mky":8580,"mqq":8581,"mlj":8582,"nre":8583,"nwk":8584,"ozc":8585,"pte":8586,"polk":8587,"puw":8588,"qat":8589,"qot":8590,"rry":8591,"rum":8592,"rni":8593,"rcm":8594,"same":8595,"sly":8596,"squ":8597,"sions":8598,"smf":8599,"szk":8600,"tiz":8601,"table":8602,"ues":8603,"uate":8604,"ument":8605,"ucu":8606,"vso":8607,"vca":8608,"vince":8609,"vga":8610,"vvf":8611,"vbdj":8612,"wave":8613,"xli":8614,"xta":8615,"xob":8616,"yb":8617,"ynz":8618,"yem":8619,"yjm":8620,"yac":8621,"zte":8622,"Ġnd":8623,"Ġry":8624,"Ġtf":8625,"Ġtgf":8626,"Ġaj":8627,"Ġaver":8628,"Ġavi":8629,"Ġiu":8630,"Ġiil":8631,"Ġikc":8632,"erts":8633,"erue":8634,"oug":8635,"Ġthusday":8636,"inx":8637,"inks":8638,"ntsted":8639,"ntsy":8640,"elor":8641,"ray":8642,"ract":8643,"rating":8644,"rated":8645,"Ġcv":8646,"Ġcpri":8647,"Ġcvw":8648,"Ġcxf":8649,"Ġcnus":8650,"Ġww":8651,"Ġwz":8652,"Ġwoul":8653,"Ġpoor":8654,"Ġpatri":8655,"Ġpcrn":8656,"Ġhl":8657,"Ġyg":8658,"Ġyq":8659,"Ġywn":8660,"Ġyur":8661,"Ġyah":8662,"Ġysv":8663,"Ġfp":8664,"Ġfot":8665,"Ġfora":8666,"Ġfkv":8667,"ndca":8668,"ndors":8669,"ndtr":8670,"atc":8671,"aturing":8672,"atwave":8673,"Ġnl":8674,"Ġnn":8675,"Ġnv":8676,"Ġbend":8677,"Ġbly":8678,"ooth":8679,"ori":8680,"orp":8681,"Ġlc":8682,"Ġlz":8683,"Ġlma":8684,"Ġljo":8685,"Ġlaid":8686,"Ġlzl":8687,"onone":8688,"ington":8689,"Ġdn":8690,"Ġdy":8691,"Ġdest":8692,"Ġdea":8693,"Ġdjf":8694,"Ġdvd":8695,"Ġdpf":8696,"Ġdztn":8697,"Ġrefere":8698,"Ġremain":8699,"otford":8700,"Ġsly":8701,"Ġslyn":8702,"Ġsample":8703,"Ġsni":8704,"Ġmbg":8705,"vest":8706,"vepj":8707,"lest":8708,"lenta":8709,"lendar":8710,"aylk":8711,"ayfn":8712,"gently":8713,"seo":8714,"Ġhotal":8715,"Ġhotelex":8716,"Ġinside":8717,"cep":8718,"cedes":8719,"Ġbookn":8720,"Ġtraffic":8721,"iester":8722,"Ġgm":8723,"Ġgv":8724,"Ġgal":8725,"Ġgas":8726,"Ġgvq":8727,"Ġgfil":8728,"esa":8729,"Ġthatres":8730,"Ġthatwor":8731,"Ġlif":8732,"Ġstantsted":8733,"Ġdomain":8734,"Ġdodgy":8735,"Ġcalendar":8736,"Ġwht":8737,"Ġane":8738,"Ġanh":8739,"roam":8740,"ctuate":8741,"Ġleiester":8742,"Ġchain":8743,"Ġchips":8744,"Ġpeme":8745,"Ġpenn":8746,"Ġbegun":8747,"Ġnuw":8748,"sively":8749,"siove":8750,"Ġpleases":8751,"Ġanythe":8752,"Ġstarters":8753,"lain":8754,"nces":8755,"eair":8756,"Ġdemand":8757,"Ġattracion":8758,"Ġtitle":8759,"Ġdeperts":8760,"Ġwithouth":8761,"chs":8762,"chedule":8763,"Ġtall":8764,"Ġtyhat":8765,"Ġ463":8766,"Ġyours":8767,"Ġhelpp":8768,"Ġlose":8769,"Ġwall":8770,"Ġwaill":8771,"aten":8772,"Ġtimetable":8773,"Ġexquisit":8774,"ghx":8775,"Ġalley":8776,"Ġplaces":8777,"Ġnotable":8778,"houses":8779,"pensively":8780,"Ġsold":8781,"Ġcoin":8782,"Ġsum":8783,"Ġsuprise":8784,"Ġ345":8785,"Ġdestined":8786,"Ġreferences":8787,"Ġstree":8788,"Ġstates":8789,"Ġstinks":8790,"Ġpoe":8791,"Ġpolenta":8792,"Ġgoig":8793,"Ġcheapish":8794,"Ġprefe":8795,"Ġabou":8796,"Ġnigth":8797,"0017":8798,"0033":8799,"0085":8800,"Ġoi":8801,"Ġost":8802,"Ġosa":8803,"Ġoyg":8804,"llest":8805,"Ġ593":8806,"Ġmult":8807,"Ġaspect":8808,"3052":8809,"Ġeg":8810,"Ġeo":8811,"Ġebl":8812,"Ġeaten":8813,"156":8814,"1567":8815,"1562":8816,"455":8817,"Ġaddresss":8818,"eefi":8819,"Ġuy":8820,"Ġuuct":8821,"Ġeawi":8822,"Ġjw":8823,"Ġjumping":8824,"Ġjpk":8825,"Ġjeefi":8826,"2382":8827,"Ġinforma":8828,"Ġwen":8829,"Ġtrqq":8830,"Ġaffect":8831,"vigate":8832,"Ġcollegeare":8833,"Ġrecommending":8834,"ustrating":8835,"Ġsems":8836,"Ġsections":8837,"Ġsepte":8838,"Ġ718":8839,"Ġsorrry":8840,"Ġdial":8841,"caping":8842,"Ġmam":8843,"Ġindif":8844,"enrl":8845,"Ġrj":8846,"Ġru":8847,"Ġrude":8848,"Ġgoodnight":8849,"Ġunrated":8850,"lox":8851,"Ġ1350":8852,"Ġ1610":8853,"Ġhole":8854,"Ġhogurf":8855,"akcn":8856,"Ġknowing":8857,"Ġ194":8858,"Ġ1997":8859,"qujhq":8860,"Ġspecfic":8861,"Ġ012233481":8862,"Ġ012233483":8863,"Ġspecifications":8864,"Ġ210":8865,"Ġeurope":8866,"Ġcuts":8867,"Ġactaully":8868,"izvma":8869,"Ġnewcom":8870,"foyj":8871,"Ġvrn":8872,"Ġvyr":8873,"Ġvorp":8874,"Ġ925":8875,"Ġ973":8876,"2178":8877,"Ġspark":8878,"Ġconcent":8879,"Ġconstru":8880,"Ġconvince":8881,"Ġsteve":8882,"Ġsteam":8883,"Ġentertainent":8884,"Ġchef":8885,"Ġbroke":8886,"Ġbroad":8887,"Ġ0930":8888,"boroq":8889,"xbf":8890,"xby":8891,"1188":8892,"Ġfeedb":8893,"Ġfeaturing":8894,"wik":8895,"Ġalexdander":8896,"Ġarrivals":8897,"Ġ0711":8898,"Ġ0766":8899,"Ġ0743":8900,"Ġ0773":8901,"Ġ0775":8902,"Ġ0795":8903,"2436":8904,"174":8905,"072":8906,"0793":8907,"Ġfaxed":8908,"Ġfault":8909,"asg":8910,"2912":8911,"2985":8912,"0813":8913,"Ġfunction":8914,"Ġusb":8915,"psd":8916,"4015":8917,"1058":8918,"1090":8919,"1044":8920,"Ġearlest":8921,"Ġcoud":8922,"884":8923,"8893":8924,"Ġthoughts":8925,"Ġcloses":8926,"Ġchestert":8927,"oodles":8928,"6034":8929,"5408":8930,"5496":8931,"Ġheatwave":8932,"Ġpaces":8933,"0184":8934,"3922":8935,"4638":8936,"Ġrequirements":8937,"5965":8938,"5985":8939,"Ġreschedule":8940,"Ġclaire":8941,"206":8942,"2058":8943,"Ġriverbo":8944,"Ġtandoon":8945,"418":8946,"4115":8947,"4180":8948,"Ġbistros":8949,"Ġzwn":8950,"Ġzdt":8951,"164":8952,"Ġcorss":8953,"shtwa":8954,"Ġconcerts":8955,"Ġconcerns":8956,"ffa":8957,"Ġwarn":8958,"brl":8959,"Ġworthwhile":8960,"4987":8961,"49131":8962,"4863":8963,"Ġdefinite":8964,"0678":8965,"0672":8966,"Ġencount":8967,"Ġoverly":8968,"ipt":8969,"3634":8970,"368786":8971,"4250":8972,"4226":8973,"Ġaccommodating":8974,"385":8975,"3858":8976,"3854":8977,"3843":8978,"7721":8979,"8011":8980,"Ġjoke":8981,"4440":8982,"1862":8983,"785":8984,"7878":8985,"7864":8986,"256":8987,"izeyl":8988,"5688":8989,"Ġgroups":8990,"3466":8991,"34356":8992,"Ġenjoys":8993,"798":8994,"7917":8995,"7940":8996,"kycw":8997,"3370":8998,"Ġvendors":8999,"Ġmidst":9000,"Ġmidday":9001,"2635":9002,"2656":9003,"2673":9004,"zzahm":9005,"cyx":9006,"dyt":9007,"Ġguessing":9008,"Ġinexpensively":9009,"oyk":9010,"Ġguestshouses":9011,"7012":9012,"Ġfight":9013,"Ġxh":9014,"Ġxj":9015,"Ġxv":9016,"Ġxchs":9017,"Ġseason":9018,"Ġseasame":9019,"Ġteh":9020,"Ġjinlin":9021,"Ġawful":9022,"Ġstandby":9023,"Ġappetiz":9024,"Ġsays":9025,"8920":9026,"8944":9027,"Ġplaying":9028,"placed":9029,"jgoxq":9030,"1478":9031,"Ġqd":9032,"Ġqlc":9033,"Ġqewq":9034,"ightful":9035,"Ġ01233":9036,"Ġclassified":9037,"6930":9038,"Ġseemed":9039,"Ġrefine":9040,"Ġrefuse":9041,"diw":9042,"981":9043,"tula":9044,"6723":9045,"Ġrecall":9046,"8724":9047,"Ġcomplain":9048,"bjgh":9049,"6560":9050,"Ġdoubled":9051,"Ġswe":9052,"9188":9053,"dpb":9054,"dpaue":9055,"Ġfender":9056,"Ġduy":9057,"Ġemailed":9058,"Ġauumn":9059,"Ġiric":9060,"0466":9061,"0471":9062,"uproam":9063,"9366":9064,"9320":9065,"Ġselecting":9066,"tzh":9067,"Ġportrait":9068,"Ġamerica":9069,"Ġshortening":9070,"Ġmercedes":9071,"hxg":9072,"knf":9073,"Ġmisplaced":9074,"ufxta":9075,"Ġeverday":9076,"xhm":9077,"mywh":9078,"kvsmf":9079,"Ġ012233000085":9080,"zyc":9081,"crclo":9082,"imated":9083,"sxgd":9084,"Ġclso":9085,"Ġoperates":9086,"Ġescaping":9087,"huvga":9088,"bgiww":9089,"ejz":9090,"Ġ07727":9091,"Ġ0791862":9092,"ljaw":9093,"Ġestimated":9094,"4274":9095,"Ġ3654":9096,"jvt":9097,"lxvbdj":9098,"qcs":9099,"qcdt":9100,"qcba":9101,"Ġdelightful":9102,"phv":9103,"tqwl":9104,"ujkd":9105,"wki":9106,"fsn":9107,"pkhc":9108,"vytsi":9109,"xyh":9110,"xydz":9111,"ihn":9112,"4106":9113,"ewg":9114,"oise":9115,"oiwki":9116,"Ġowa":9117,"Ġowln":9118,"zbffa":9119,"Ġsmooth":9120,"ovti":9121,"vcx":9122,"ifex":9123,"Ġbrings":9124,"nhoj":9125,"sql":9126,"Ġ01223217231":9127,"Ġsporty":9128,"Ġapproximate":9129,"ykihn":9130,"Ġfuhpb":9131,"Ġfullest":9132,"ssyp":9133,"vvpv":9134,"vvzyc":9135,"dgment":9136,"01223368786":9137,"fcd":9138,"ulties":9139,"Ġrenting":9140,"Ġstatement":9141,"vlit":9142,"Ġcetnre":9143,"jlmp":9144,"9582":9145,"Ġheartbroke":9146,"mrw":9147,"pnc":9148,"Ġwoud":9149,"Ġmanagement":9150,"wxmky":9151,"Ġutufxta":9152,"qhd":9153,"Ġkilling":9154,"rzr":9155,"bcai":9156,"7094":9157,"slgy":9158,"Ġ1223300085":9159,"yxz":9160,"Ġjudgment":9161,"Ġreceipt":9162,"Ġmodel":9163,"Ġboasting":9164,"Ġneighboring":9165,"Ġpeterbourgh":9166,"9891":9167,"Ġsafety":9168,"Ġeconomy":9169,"alable":9170,"Ġinflexible":9171,"Ġtranfer":9172,"wgayfn":9173,"Ġnavigate":9174,"Ġ0124549131":9175,"Ġfrustrating":9176,"Ġexpensiove":9177,"Ġintrigue":9178,"qvgt":9179,"Ġreported":9180,"Ġreceived":9181,"Ġurgently":9182,"Ġrecomendations":9183,"Ġconsistently":9184,"Ġattactions":9185,"Ġfortunate":9186,"Ġguesthoise":9187,"126194":9188,"ytgb":9189,"Ġcembridge":9190,"Ġflip":9191,"Ġdifficulties":9192,"Ġcottages":9193,"jnxhm":9194,"nusha":9195,"Ġfgom":9196,"Ġexcursion":9197,"Ġexcursions":9198,"fyqha":9199,"Ġinsists":9200,"33823":9201,"6549":9202,"iovi":9203,"mtlqcba":9204,"Ġctv":9205,"Ġwjboroq":9206,"Ġjiggy":9207,"Ġsupervisor":9208,"Ġstrotford":9209,"Ġethiop":9210,"Ġsense":9211,"Ġprotugese":9212,"Ġinputting":9213,"Ġtsounds":9214,"Ġtzphv":9215,"Ġfluctuate":9216,"xcdmw":9217,"Ġphysician":9218,"7583":9219,"wkawi":9220,"yzlgjj":9221,"Ġddizeyl":9222,"Ġmonument":9223,"2078":9224,"Ġiohuvga":9225,"Ġ01223274284":9226,"Ġtremendously":9227,"Ġcrljaw":9228,"megfyqha":9229,"Ġviviting":9230,"Ġspectrum":9231,"Ġzcrpolk":9232,"Ġ07479126194":9233,"Ġ07998934356":9234,"ajsr":9235,"bizr":9236,"cmogur":9237,"cgynw":9238,"dxhdjl":9239,"gstqc":9240,"gahv":9241,"giho":9242,"ikohz":9243,"iqgaylk":9244,"jkymx":9245,"jufq":9246,"mqqfcd":9247,"rnii":9248,"squs":9249,"xlio":9250,"xobm":9251,"Ġtgfjkymx":9252,"Ġaverage":9253,"Ġavialable":9254,"ntsyb":9255,"elorqb":9256,"Ġcprio":9257,"Ġcvwakcn":9258,"Ġcxfenrl":9259,"Ġpatricks":9260,"Ġyahbizr":9261,"Ġysvsly":9262,"Ġbender":9263,"Ġljoey":9264,"Ġlzlsjz":9265,"Ġdealing":9266,"Ġdvdlh":9267,"Ġdpfnet":9268,"Ġreferenece":9269,"Ġslynf":9270,"Ġsnippy":9271,"Ġmbgjnxhm":9272,"Ġhotelexpensive":9273,"Ġthatwork":9274,"Ġpenny":9275,"Ġanytheing":9276,"Ġexquisite":9277,"Ġprefences":9278,"Ġnigthclubs":9279,"Ġosagfn":9280,"Ġaspects":9281,"Ġuuctfoyj":9282,"Ġeawiq":9283,"Ġinformant":9284,"Ġtrqqxobm":9285,"Ġsemsyf":9286,"Ġseptember":9287,"Ġindifferent":9288,"Ġhogurfvc":9289,"qujhqimg":9290,"Ġ01223348144":9291,"Ġnewcomers":9292,"Ġconcentrate":9293,"Ġconstructed":9294,"Ġconvinced":9295,"Ġfeedback":9296,"Ġriverboar":9297,"Ġencountering":9298,"Ġappetizing":9299,"jgoxqpx":9300,"bgiwwz":9301,"Ġ07918620184":9302,"vytsij":9303,"Ġsmoothly":9304,"nhojrd":9305,"Ġfuhpbza":9306,"Ġheartbroken":9307,"wxmkya":9308,"Ġwjboroqr":9309,"Ġethiopian":9310,"yzlgjjl":9311,"Ġcrljawx":9312,"Ġcxfenrlz":9313,"015":9314,"066":9315,"060":9316,"0393":9317,"0269":9318,"0217":9319,"1309":9320,"2016":9321,"2089":9322,"2514":9323,"339":9324,"3353":9325,"408":9326,"446":9327,"479":9328,"4210":9329,"4404":9330,"4249":9331,"545":9332,"559":9333,"624":9334,"616":9335,"689":9336,"745":9337,"738":9338,"7151":9339,"7222":9340,"7667":9341,"7468":9342,"7438":9343,"7169":9344,"821":9345,"844":9346,"8966":9347,"8149":9348,"8598":9349,"8504":9350,"8121":9351,"9494":9352,"9331":9353,"9303":9354,"9693":9355,":#":9356,"aut":9357,"ams":9358,"ared":9359,"bat":9360,"bll":9361,"bne":9362,"bers":9363,"bhz":9364,"bxw":9365,"bucks":9366,"cla":9367,"cad":9368,"dgh":9369,"dul":9370,"dsday":9371,"dws":9372,"dcc":9373,"dnb":9374,"ek":9375,"eave":9376,"ehouse":9377,"ets":9378,"eub":9379,"ecc":9380,"eki":9381,"eves":9382,"fst":9383,"fan":9384,"fir":9385,"fda":9386,"gp":9387,"gor":9388,"gde":9389,"gxb":9390,"gran":9391,"gbu":9392,"guw":9393,"gcl":9394,"gjp":9395,"giest":9396,"how":9397,"hsh":9398,"hqy":9399,"iian":9400,"iks":9401,"iky":9402,"ifdt":9403,"jed":9404,"jee":9405,"jen":9406,"jour":9407,"jci":9408,"jua":9409,"jqg":9410,"kle":9411,"kic":9412,"klm":9413,"lum":9414,"lcy":9415,"lru":9416,"lpm":9417,"lmyl":9418,"looked":9419,"ml":9420,"mri":9421,"mex":9422,"mia":9423,"mod":9424,"mexican":9425,"mtz":9426,"mnl":9427,"mvx":9428,"mxx":9429,"mvl":9430,"mqh":9431,"mveg":9432,"nm":9433,"npd":9434,"ncv":9435,"oing":9436,"oes":9437,"ogue":9438,"oah":9439,"oalf":9440,"ontu":9441,"pg":9442,"psp":9443,"pare":9444,"plly":9445,"prt":9446,"pgq":9447,"puq":9448,"pelled":9449,"qee":9450,"qgd":9451,"rting":9452,"rvation":9453,"rby":9454,"rjx":9455,"rvh":9456,"rvy":9457,"rmr":9458,"sry":9459,"snb":9460,"south":9461,"tthing":9462,"trip":9463,"tjo":9464,"tlk":9465,"taq":9466,"txd":9467,"tvv":9468,"tically":9469,"uss":9470,"uesday":9471,"uul":9472,"ufo":9473,"uvol":9474,"vp":9475,"vate":9476,"vjo":9477,"vvx":9478,"wai":9479,"wfo":9480,"wli":9481,"wdw":9482,"wxs":9483,"wjl":9484,"wknf":9485,"xk":9486,"xm":9487,"xct":9488,"xha":9489,"xol":9490,"xgy":9491,"xfl":9492,"xxh":9493,"xmy":9494,"xni":9495,"xpk":9496,"xov":9497,"xkh":9498,"yay":9499,"ylk":9500,"yru":9501,"ygl":9502,"ydo":9503,"ydx":9504,"yuc":9505,"yzx":9506,"yzo":9507,"zle":9508,"zed":9509,"zod":9510,"zft":9511,"zsy":9512,"zdb":9513,"zjm":9514,"Ġ*":9515,"Ġoom":9516,"Ġoodles":9517,"Ġtx":9518,"Ġtll":9519,"Ġtvf":9520,"Ġtcl":9521,"Ġaat":9522,"Ġaside":9523,"Ġaoy":9524,"Ġayq":9525,"Ġalesbray":9526,"Ġajsq":9527,"resh":9528,"revf":9529,"Ġiin":9530,"Ġikie":9531,"Ġigc":9532,"sti":9533,"sting":9534,"stnz":9535,"erl":9536,"oua":9537,"Ġths":9538,"Ġthich":9539,"Ġthuesday":9540,"inb":9541,"inent":9542,"ntime":9543,"rase":9544,"raxkh":9545,"Ġcic":9546,"Ġcma":9547,"Ġcops":9548,"Ġcqb":9549,"Ġckk":9550,"Ġwk":9551,"Ġwq":9552,"Ġwy":9553,"Ġwlu":9554,"Ġwzy":9555,"Ġwcv":9556,"Ġwdvi":9557,"Ġwfii":9558,"Ġps":9559,"Ġpsi":9560,"Ġpit":9561,"Ġpqa":9562,"Ġpiks":9563,"Ġhar":9564,"Ġhating":9565,"Ġhvy":9566,"Ġyyx":9567,"Ġfpq":9568,"Ġfjv":9569,"Ġfcz":9570,"Ġfcq":9571,"Ġfmtz":9572,"ater":9573,"atjee":9574,"Ġnh":9575,"Ġnk":9576,"Ġnr":9577,"Ġnay":9578,"Ġngh":9579,"Ġnast":9580,"Ġnaw":9581,"Ġnmc":9582,"Ġbb":9583,"Ġbx":9584,"Ġbct":9585,"Ġbood":9586,"Ġbck":9587,"Ġbnn":9588,"Ġbuck":9589,"Ġbbg":9590,"ooag":9591,"orow":9592,"Ġlv":9593,"Ġlay":9594,"Ġlso":9595,"Ġloop":9596,"Ġtomm":9597,"Ġdm":9598,"Ġdir":9599,"Ġdeap":9600,"Ġdad":9601,"Ġdang":9602,"Ġdyy":9603,"Ġdhs":9604,"rity":9605,"sten":9606,"Ġreq":9607,"Ġrez":9608,"Ġremo":9609,"Ġrecom":9610,"Ġrebook":9611,"Ġreph":9612,"Ġrecap":9613,"Ġreinb":9614,"Ġsver":9615,"Ġsfor":9616,"Ġself":9617,"Ġslac":9618,"Ġslum":9619,"Ġmf":9620,"Ġmx":9621,"Ġmtz":9622,"Ġmnf":9623,"Ġmkv":9624,"Ġmtl":9625,"Ġmrq":9626,"Ġmwd":9627,"Ġmpl":9628,"Ġmmind":9629,"Ġmxg":9630,"veboat":9631,"vezk":9632,"annc":9633,"lepn":9634,"lendid":9635,"ayfr":9636,"ayraxkh":9637,"sebray":9638,"Ġinsp":9639,"Ġinbe":9640,"cos":9641,"cew":9642,"Ġrestaira":9643,"ldpgq":9644,"aru":9645,"arole":9646,"Ġbookin":9647,"Ġtrashy":9648,"Ġandd":9649,"thouse":9650,"Ġgut":9651,"Ġgfor":9652,"Ġguese":9653,"Ġgpmq":9654,"Ġgwik":9655,"mbws":9656,"kev":9657,"Ġatzt":9658,"Ġatmxx":9659,"Ġliw":9660,"Ġlisten":9661,"Ġliketo":9662,"peq":9663,"people":9664,"pemvx":9665,"Ġprivate":9666,"opl":9667,"opo":9668,"Ġmeed":9669,"Ġcambridgesh":9670,"ctiy":9671,"Ġlehr":9672,"Ġleeave":9673,"Ġyessi":9674,"Ġchbhz":9675,"Ġchxfl":9676,"Ġpea":9677,"Ġpeopl":9678,"Ġnum":9679,"Ġcentrem":9680,"sical":9681,"sipb":9682,"Ġarthu":9683,"Ġarray":9684,"Ġanyhow":9685,"reen":9686,"Ġstarbucks":9687,"eander":9688,"Ġattitude":9689,"Ġdecad":9690,"Ġtick":9691,"Ġtired":9692,"Ġdepartung":9693,"dence":9694,"dega":9695,"devy":9696,"Ġ252":9697,"Ġ278":9698,"Ġtacos":9699,"Ġ439":9700,"Ġ420":9701,"itlhi":9702,"Ġraiting":9703,"urk":9704,"urne":9705,"Ġparing":9706,"ssgx":9707,"ghj":9708,"ghk":9709,"owlti":9710,"owfl":9711,"Ġfroms":9712,"Ġthankl":9713,"Ġcod":9714,"Ġsutxd":9715,"terly":9716,"Ġ360":9717,"Ġ3802":9718,"Ġ3293":9719,"Ġstating":9720,"Ġstvhw":9721,"Ġanythings":9722,"Ġpoast":9723,"Ġprecis":9724,"Ġprepare":9725,"Ġabound":9726,"Ġabnpd":9727,"neq":9728,"necess":9729,"vering":9730,"0013":9731,"Ġoou":9732,"Ġole":9733,"Ġodb":9734,"Ġodge":9735,"Ġlocked":9736,"Ġwanta":9737,"Ġ543":9738,"fib":9739,"fident":9740,"fidence":9741,"Ġsometthing":9742,"3093":9743,"Ġey":9744,"Ġevd":9745,"Ġeqc":9746,"Ġeooag":9747,"1590":9748,"1555":9749,"1570":9750,"mmfd":9751,"Ġnighclubs":9752,"Ġparties":9753,"Ġuv":9754,"Ġuoe":9755,"Ġuzf":9756,"Ġudg":9757,"Ġeafy":9758,"umj":9759,"Ġpostcod":9760,"Ġpostcodee":9761,"Ġjv":9762,"Ġjci":9763,"Ġjpn":9764,"Ġjbv":9765,"Ġhag":9766,"Ġhapp":9767,"Ġallright":9768,"icking":9769,"Ġweel":9770,"Ġkc":9771,"Ġku":9772,"Ġkcc":9773,"Ġkhh":9774,"Ġksfs":9775,"Ġkldpgq":9776,"Ġkicking":9777,"vill":9778,"commed":9779,"Ġsundaymo":9780,"Ġfridya":9781,"Ġthurdsday":9782,"Ġsecu":9783,"Ġseuss":9784,"Ġ1527":9785,"Ġafterall":9786,"Ġifxp":9787,"cari":9788,"caoa":9789,"Ġ01223257":9790,"Ġ0122300085":9791,"Ġ859":9792,"Ġindiian":9793,"enbd":9794,"enwm":9795,"Ġrc":9796,"Ġrp":9797,"Ġrjv":9798,"Ġrlt":9799,"Ġrcommed":9800,"Ġ1130":9801,"Ġunaw":9802,"Ġunnecess":9803,"Ġ174":9804,"loqw":9805,"Ġ125":9806,"Ġ12235":9807,"ourbe":9808,"Ġ164":9809,"Ġhosv":9810,"Ġhosons":9811,"Ġdiffident":9812,"Ġsized":9813,"Ġperim":9814,"Ġvig":9815,"Ġvisting":9816,"Ġ198":9817,"Ġ1900":9818,"Ġbreaking":9819,"Ġcrime":9820,"Ġcriti":9821,"Ġcristi":9822,"Ġmigran":9823,"Ġbright":9824,"Ġinclusive":9825,"Ġ204":9826,"Ġbarbers":9827,"izi":9828,"mac":9829,"foaj":9830,"Ġvh":9831,"Ġvy":9832,"Ġvan":9833,"Ġvmf":9834,"Ġvrx":9835,"2148":9836,"2106":9837,"2176":9838,"2175":9839,"Ġspelled":9840,"Ġsplendid":9841,"Ġticketsis":9842,"Ġassign":9843,"Ġrich":9844,"Ġrigam":9845,"Ġriveboat":9846,"Ġelypax":9847,"Ġfitted":9848,"Ġconfidence":9849,"Ġlyln":9850,"usq":9851,"usac":9852,"opsy":9853,"ppiness":9854,"1110":9855,"1165":9856,"Ġbirmi":9857,"lix":9858,"Ġmarger":9859,"wiv":9860,"nspk":9861,"byqu":9862,"Ġalexeander":9863,"Ġ0738":9864,"Ġ0780":9865,"Ġ0728":9866,"Ġ0733":9867,"Ġ0764":9868,"Ġ07330":9869,"Ġ07389":9870,"Ġlongon":9871,"580":9872,"5816":9873,"5831":9874,"spfc":9875,"betically":9876,"Ġgonvill":9877,"2494":9878,"1764":9879,"Ġcosting":9880,"0757":9881,"0798":9882,"Ġswimmoing":9883,"Ġinfomation":9884,"Ġquicke":9885,"Ġwoes":9886,"Ġwoah":9887,"501":9888,"5050":9889,"5089":9890,"5091":9891,"669":9892,"6673":9893,"6691":9894,"2958":9895,"0823":9896,"0822":9897,"0864":9898,"0862":9899,"Ġlapt":9900,"Ġlaeves":9901,"Ġeverywhere":9902,"Ġfunny":9903,"abx":9904,"Ġ2330":9905,"4016":9906,"sajv":9907,"8806":9908,"whg":9909,"6045":9910,"547":9911,"5412":9912,"Ġhejf":9913,"5245":9914,"5282":9915,"5285":9916,"kwt":9917,"daj":9918,"0115":9919,"0196":9920,"271":9921,"274":9922,"2759":9923,"2776":9924,"3912":9925,"3929":9926,"3934":9927,"3953":9928,"592":9929,"5909":9930,"5928":9931,"5971":9932,"Ġresrvation":9933,"2048":9934,"Ġgray":9935,"Ġgraded":9936,"3262":9937,"198":9938,"1911":9939,"1931":9940,"Ġshaddi":9941,"Ġapdcc":9942,"416":9943,"4344":9944,"Ġzf":9945,"Ġzh":9946,"Ġzt":9947,"Ġzx":9948,"Ġznn":9949,"Ġzza":9950,"Ġzizi":9951,"9024":9952,"Ġfins":9953,"0998":9954,"0992":9955,"Ġ01223355909":9956,"Ġdepartments":9957,"ffg":9958,"ffkm":9959,"kszq":9960,"4943":9961,"4928":9962,"Ġcharging":9963,"Ġprtu":9964,"Ġprxy":9965,"yalfst":9966,"480":9967,"487":9968,"4898":9969,"4803":9970,"Ġdefinately":9971,"0625":9972,"0674":9973,"tnq":9974,"Ġenoalf":9975,"Ġscreen":9976,"Ġoverlooked":9977,"3659":9978,"4230":9979,"4256":9980,"4283":9981,"Ġbedouis":9982,"5511":9983,"5538":9984,"778":9985,"7768":9986,"7769":9987,"Ġpizzerias":9988,"Ġjacu":9989,"Ġalphabetically":9990,"7852":9991,"7879":9992,"7822":9993,"Ġchophouse":9994,"ahjv":9995,"Ġsaurday":9996,"Ġalike":9997,"2815":9998,"2850":9999,"5648":10000,"5693":10001,"5695":10002,"Ġ0122330914":10003,"Ġcommunic":10004,"naopsy":10005,"zao":10006,"Ġdescriptions":10007,"hih":10008,"7956":10009,"7979":10010,"marks":10011,"kysnb":10012,"kkafp":10013,"2636":10014,"2625":10015,"2696":10016,"Ġmisspelled":10017,"cyj":10018,"Ġ791":10019,"Ġpoppin":10020,"Ġhmmmm":10021,"2250":10022,"oyghk":10023,"qqc":10024,"qqs":10025,"Ġfiday":10026,"Ġfilled":10027,"Ġfibne":10028,"Ġxpe":10029,"Ġxxa":10030,"Ġxpk":10031,"Ġxeo":10032,"Ġxams":10033,"Ġxusq":10034,"Ġused":10035,"Ġmegha":10036,"Ġimportance":10037,"gonville":10038,"Ġluch":10039,"Ġawa":10040,"Ġaware":10041,"Ġ0122324882":10042,"ptmtl":10043,"6473":10044,"ivx":10045,"8925":10046,"8928":10047,"8933":10048,"Ġheya":10049,"Ġbelt":10050,"jggjp":10051,"684":10052,"Ġastroturk":10053,"Ġqca":10054,"Ġqcla":10055,"Ġqygl":10056,"7310":10057,"Ġ011223":10058,"Ġclassic":10059,"6989":10060,"8885":10061,"6319":10062,"8476":10063,"Ġpmhz":10064,"Ġ701570":10065,"9831":10066,"tujxn":10067,"6715":10068,"6759":10069,"9417":10070,"9407":10071,"bbaj":10072,"bjt":10073,"Ġsleeps":10074,"4758":10075,"Ġestablished":10076,"3734":10077,"omrc":10078,"mwj":10079,"mwguw":10080,"bsbw":10081,"afs":10082,"7411":10083,"aqja":10084,"Ġlandmarks":10085,"Ġ0122321629":10086,"9688":10087,"Ġdriing":10088,"Ġmichehouse":10089,"lfb":10090,"lfvd":10091,"lho":10092,"lhqc":10093,"axdyt":10094,"0521":10095,"glmu":10096,"gljed":10097,"9225":10098,"egi":10099,"Ġ01223350420":10100,"9751":10101,"9756":10102,"gxpl":10103,"tzum":10104,"tzjq":10105,"Ġbilling":10106,"gwjc":10107,"gwvj":10108,"Ġ0122350655":10109,"jbn":10110,"jbqs":10111,"jbzo":10112,"Ġdirectory":10113,"swc":10114,"qfhx":10115,"agmlj":10116,"2236":10117,"pjjbzo":10118,"ufn":10119,"jxx":10120,"wytnq":10121,"myc":10122,"myx":10123,"mywn":10124,"zcfv":10125,"nfkvo":10126,"Ġfoggy":10127,"Ġ07621":10128,"jyn":10129,"zyq":10130,"zycc":10131,"Ġfigured":10132,"vdd":10133,"vdabx":10134,"cujq":10135,"Ġclbj":10136,"Ġespensive":10137,"Ġessent":10138,"Ġbrunch":10139,"pxc":10140,"tlw":10141,"pdm":10142,"rtree":10143,"Ġsquared":10144,"hgsjz":10145,"jev":10146,"Ġwrote":10147,"btg":10148,"btp":10149,"btgc":10150,"btbjt":10151,"8143":10152,"Ġeduc":10153,"uwf":10154,"qcxni":10155,"cvklm":10156,"php":10157,"Ġanswers":10158,"gmv":10159,"gdjz":10160,"gdto":10161,"mfg":10162,"mfon":10163,"Ġrealm":10164,"bqt":10165,"bqhc":10166,"vhb":10167,"Ġthorough":10168,"ehd":10169,"zkz":10170,"Ġcolto":10171,"Ġreferrence":10172,"wkmu":10173,"dode":10174,"dohu":10175,"gnham":10176,"jzu":10177,"jzwai":10178,"rxn":10179,"rxkq":10180,"Ġcanceled":10181,"2575401":10182,"fsfj":10183,"pku":10184,"rfa":10185,"vxd":10186,"dtry":10187,"ials":10188,"vytx":10189,"Ġsettled":10190,"ihcz":10191,"ihpemvx":10192,"lqhd":10193,"1887":10194,"nvn":10195,"vfzt":10196,"Ġresponses":10197,"Ġapprove":10198,"nyhs":10199,"ozv":10200,"zbh":10201,"Ġsmh":10202,"cwcf":10203,"rgoi":10204,"vtpj":10205,"Ġdisappoint":10206,"ijp":10207,"lcnfkvo":10208,"svu":10209,"rkj":10210,"vcad":10211,"9110":10212,"9114":10213,"ifp":10214,"zwxd":10215,"bfup":10216,"sqo":10217,"bno":10218,"jcsvu":10219,"nwl":10220,"ykji":10221,"jpu":10222,"zsm":10223,"01223355":10224,"vbm":10225,"lzxj":10226,"zqv":10227,"Ġinformatin":10228,"nrmv":10229,"vlgu":10230,"ledge":10231,"Ġsatisfact":10232,"gfk":10233,"gfw":10234,"oqsq":10235,"oqkev":10236,"zmcr":10237,"Ġlimitations":10238,"9580":10239,"iyannc":10240,"wbmyc":10241,"Ġadvanced":10242,"ugzk":10243,"Ġboutiques":10244,"znjx":10245,"4078":10246,"boh":10247,"Ġutterly":10248,"2633912":10249,"cql":10250,"bvrlm":10251,"fgi":10252,"xgplly":10253,"2508":10254,"Ġpatient":10255,"bkfic":10256,"Ġcambrigde":10257,"Ġalysebray":10258,"Ġ1223314960":10259,"Ġ01223365454":10260,"klra":10261,"vrpp":10262,"9384":10263,"9386":10264,"Ġ5535":10265,"Ġytou":10266,"theat":10267,"ycmi":10268,"yqdy":10269,"Ġntkq":10270,"Ġmnkwt":10271,"mins":10272,"nqi":10273,"uoivx":10274,"Ġ07229":10275,"Ġswitching":10276,"Ġsightseers":10277,"Ġfrm":10278,"Ġ07462575401":10279,"3173":10280,"aoctiy":10281,"Ġprominent":10282,"Ġflori":10283,"Ġbiking":10284,"Ġbibtgc":10285,"atoions":10286,"Ġpostcdode":10287,"Ġayels":10288,"Ġsnappiness":10289,"Ġvalue":10290,"Ġhtel":10291,"Ġbonjour":10292,"Ġsgssgx":10293,"Ġsnoring":10294,"Ġattached":10295,"Ġstraight":10296,"Ġobfyq":10297,"Ġxyaoctiy":10298,"4205":10299,"Ġcenrtree":10300,"Ġpieh":10301,"Ġphysical":10302,"Ġsdrn":10303,"Ġdiscovering":10304,"Ġdiscounts":10305,"Ġtatse":10306,"Ġroundtrip":10307,"Ġviczdb":10308,"Ġlnrxn":10309,"Ġdxzbh":10310,"9704":10311,"Ġmcitlhi":10312,"flxpt":10313,"Ġbtts":10314,"Ġsbdevy":10315,"Ġjiggiest":10316,"Ġagreeable":10317,"Ġqgi":10318,"Ġsupervisors":10319,"zkdnrmv":10320,"ebgt":10321,"iosf":10322,"Ġcertre":10323,"Ġcertian":10324,"Ġhank":10325,"Ġhanging":10326,"Ġbroxburne":10327,"Ġbroxbourbe":10328,"Ġxipjjbzo":10329,"Ġsmidge":10330,"Ġatrain":10331,"Ġvfux":10332,"Ġxnqn":10333,"Ġqhkc":10334,"voqphp":10335,"jmtai":10336,"8134":10337,"wchymc":10338,"Ġagent":10339,"Ġftvoqphp":10340,"Ġgcghx":10341,"Ġucspfc":10342,"Ġrgowfl":10343,"Ġ07722633912":10344,"012325":10345,"Ġxgbqhc":10346,"8453":10347,"aava":10348,"wbnrp":10349,"Ġdgghj":10350,"Ġgaaqja":10351,"Ġmystery":10352,"Ġunfortunatley":10353,"Ġxpcari":10354,"7285":10355,"Ġ``":10356,"Ġndsugzk":10357,"Ġypou":10358,"Ġjgnhu":10359,"Ġkjbb":10360,"Ġcongradul":10361,"8509":10362,"9187":10363,"kjkzod":10364,"vcak":10365,"yemrmr":10366,"Ġajte":10367,"Ġyqxgplly":10368,"Ġnnyalfst":10369,"Ġnvznjx":10370,"Ġdemanding":10371,"Ġpoeple":10372,"Ġdialogue":10373,"Ġswear":10374,"545456":10375,"autumn":10376,"batdn":10377,"bxwkv":10378,"dghac":10379,"dwsqn":10380,"etsl":10381,"eubhwc":10382,"ecccs":10383,"ekiufo":10384,"fanwj":10385,"gbuzf":10386,"juaa":10387,"lrugfw":10388,"lpmkm":10389,"mnlc":10390,"prtqhd":10391,"rjxc":10392,"rvhje":10393,"tlkh":10394,"uulb":10395,"uvolvxd":10396,"vjobno":10397,"wdwlv":10398,"xolra":10399,"xovbbaj":10400,"ydoa":10401,"yzxfd":10402,"zlefo":10403,"zsyzs":10404,"Ġoomoe":10405,"Ġtvfex":10406,"Ġtclmex":10407,"Ġaoyflxpt":10408,"Ġayqo":10409,"Ġajsqzy":10410,"revfj":10411,"Ġikieezt":10412,"Ġcicina":10413,"Ġcmabridge":10414,"Ġwluoqkev":10415,"Ġwzycql":10416,"Ġwcvy":10417,"Ġpsidghac":10418,"Ġpitc":10419,"Ġpiksvfzt":10420,"Ġharvest":10421,"Ġyyxr":10422,"Ġfpqjqm":10423,"Ġfjvatjee":10424,"Ġfczjmtai":10425,"Ġfcqzw":10426,"Ġfmtzqot":10427,"Ġnghd":10428,"Ġnasty":10429,"Ġbckqcxni":10430,"Ġbnnzycc":10431,"Ġtommorow":10432,"Ġdirty":10433,"Ġdeaprting":10434,"Ġdyyute":10435,"Ġremove":10436,"Ġrephrase":10437,"Ġsveral":10438,"Ġmtzoyghk":10439,"Ġmnfwdwlv":10440,"Ġmkvvdabx":10441,"Ġmwdlzxj":10442,"lepncc":10443,"Ġinspire":10444,"Ġinbetween":10445,"Ġrestairant":10446,"Ġguten":10447,"Ġguesethouse":10448,"Ġatztdm":10449,"Ġatmxxnqi":10450,"Ġcambridgeshire":10451,"Ġyessiree":10452,"Ġchbhzpdm":10453,"sipbf":10454,"Ġarthurian":10455,"Ġdecadent":10456,"Ġtickle":10457,"Ġprecisely":10458,"Ġabounding":10459,"Ġabnpdu":10460,"Ġevdo":10461,"Ġeqclfb":10462,"Ġeooagzcf":10463,"Ġuzfw":10464,"Ġudgbvrlm":10465,"Ġeafyz":10466,"Ġjpnlh":10467,"Ġjbvumn":10468,"Ġhappily":10469,"Ġkhhjbqs":10470,"Ġksfskic":10471,"Ġsundaymonday":10472,"Ġsecurity":10473,"Ġifxpnyhs":10474,"enbdth":10475,"Ġrjvne":10476,"Ġrltot":10477,"Ġunaware":10478,"Ġunnecessarily":10479,"loqwxpk":10480,"Ġ1223512596":10481,"Ġhosvdega":10482,"Ġdiffidently":10483,"Ġperimater":10484,"Ġcritieria":10485,"Ġmigranes":10486,"foaja":10487,"Ġvmfxyh":10488,"Ġassigned":10489,"Ġrigamarole":10490,"Ġelypaxqz":10491,"Ġbirmignham":10492,"Ġmargerita":10493,"Ġ07330545456":10494,"Ġ07389012325":10495,"Ġswimmoingpool":10496,"Ġquickest":10497,"Ġlaptop":10498,"Ġhejfvrpp":10499,"kszqnwl":10500,"Ġprtuguese":10501,"Ġprxymnlc":10502,"Ġenoalfav":10503,"Ġjacuzzi":10504,"Ġ01223309147":10505,"Ġcommunication":10506,"Ġxpkrjxc":10507,"Ġxamsdtry":10508,"Ġqclab":10509,"Ġqyglcine":10510,"Ġ01223216297":10511,"gljedpz":10512,"gwjcj":10513,"agmljm":10514,"Ġessentials":10515,"gdjzq":10516,"vytxwh":10517,"ihczv":10518,"01223355397":10519,"Ġsatisfactory":10520,"Ġflorida":10521,"Ġbibtgcna":10522,"Ġayelsbray":10523,"Ġobfyqjzu":10524,"Ġsbdevyh":10525,"Ġgcghxnvn":10526,"Ġucspfcvi":10527,"Ġgaaqjaqq":10528,"Ġcongradulatoions":10529,"Ġbnnzyccs":10530,"Ġmwdlzxjr":10531,"Ġkhhjbqsz":10532,"058":10533,"055":10534,"0236":10535,"0662":10536,"0481":10537,"0328":10538,"0469":10539,"138":10540,"1088":10541,"14600":10542,"1233":10543,"1393":10544,"288":10545,"280":10546,"2013":10547,"329":10548,"3279":10549,"3111":10550,"3661":10551,"3292":10552,"4454":10553,"4905":10554,"5124":10555,"5167":10556,"5293":10557,"640":10558,"610":10559,"649":10560,"644":10561,"62456":10562,"6456":10563,"6125":10564,"700":10565,"790":10566,"7458":10567,"7409":10568,"7483":10569,"7278":10570,"823":10571,"834":10572,"870":10573,"831":10574,"8233":10575,"8531":10576,"8542":10577,"8385":10578,"9100":10579,"9299":10580,"9495":10581,"afast":10582,"abe":10583,"agon":10584,"aua":10585,"aract":10586,"bco":10587,"btt":10588,"btu":10589,"bae":10590,"blc":10591,"blt":10592,"bkd":10593,"bvl":10594,"cies":10595,"cws":10596,"crh":10597,"ccu":10598,"czk":10599,"czf":10600,"cqz":10601,"cutc":10602,"dra":10603,"dal":10604,"dha":10605,"dnn":10606,"dka":10607,"dze":10608,"dlx":10609,"dnv":10610,"ees":10611,"eha":10612,"eky":10613,"eww":10614,"eif":10615,"ekt":10616,"evw":10617,"estaurant":10618,"frid":10619,"fxb":10620,"fli":10621,"fwh":10622,"fuw":10623,"frx":10624,"fau":10625,"fwx":10626,"fbo":10627,"fhj":10628,"gouse":10629,"gbr":10630,"gzz":10631,"grl":10632,"gbi":10633,"gvm":10634,"gij":10635,"grd":10636,"gvr":10637,"gmpa":10638,"grc":10639,"hri":10640,"han":10641,"hould":10642,"har":10643,"hut":10644,"hub":10645,"hzz":10646,"hcu":10647,"hensive":10648,"iate":10649,"ilo":10650,"ijz":10651,"ioz":10652,"iwmr":10653,"jme":10654,"jad":10655,"jnn":10656,"jnf":10657,"jrt":10658,"jny":10659,"jrb":10660,"jau":10661,"kmb":10662,"klu":10663,"kbe":10664,"kff":10665,"kmo":10666,"kjs":10667,"khx":10668,"ktq":10669,"kxx":10670,"lel":10671,"lit":10672,"lclub":10673,"lies":10674,"lpl":10675,"mns":10676,"mtw":10677,"mgx":10678,"mxa":10679,"mzl":10680,"mqw":10681,"nia":10682,"nito":10683,"nbu":10684,"nxa":10685,"nph":10686,"nesa":10687,"oend":10688,"olen":10689,"ojb":10690,"oqa":10691,"ovx":10692,"ohh":10693,"oxc":10694,"okt":10695,"par":10696,"pss":10697,"pital":10698,"pcu":10699,"pial":10700,"pgcy":10701,"qo":10702,"qts":10703,"qli":10704,"qah":10705,"qbu":10706,"qlh":10707,"qxs":10708,"rin":10709,"rnch":10710,"rte":10711,"rgy":10712,"rdd":10713,"rmg":10714,"sat":10715,"sct":10716,"sal":10717,"sbs":10718,"svx":10719,"swhg":10720,"tg":10721,"tca":10722,"tfe":10723,"tqq":10724,"tfl":10725,"ufi":10726,"uvy":10727,"ukm":10728,"vha":10729,"vbb":10730,"vpn":10731,"wu":10732,"went":10733,"wol":10734,"wjy":10735,"wrd":10736,"wzq":10737,"wqh":10738,"xl":10739,"xme":10740,"xum":10741,"xoc":10742,"xdq":10743,"xvm":10744,"xji":10745,"xxby":10746,"yat":10747,"yir":10748,"yka":10749,"ydy":10750,"yhu":10751,"ygn":10752,"ykf":10753,"ysuq":10754,"zar":10755,"zll":10756,"zby":10757,"zps":10758,"zfs":10759,"zgq":10760,"zqe":10761,"zmc":10762,"zuc":10763,"Ġnth":10764,"Ġtn":10765,"Ġtge":10766,"Ġtie":10767,"Ġtcy":10768,"Ġtjs":10769,"Ġtqa":10770,"Ġtqd":10771,"Ġain":10772,"Ġari":10773,"Ġakn":10774,"Ġaojg":10775,"reo":10776,"req":10777,"rely":10778,"reom":10779,"resent":10780,"rehensive":10781,"Ġiir":10782,"Ġiun":10783,"Ġireq":10784,"sts":10785,"stig":10786,"stqb":10787,"erol":10788,"eristic":10789,"ermediate":10790,"ousity":10791,"Ġthus":10792,"inc":10793,"innn":10794,"eling":10795,"eljf":10796,"elvha":10797,"rained":10798,"Ġcc":10799,"Ġcd":10800,"Ġcm":10801,"Ġcul":10802,"Ġcred":10803,"Ġcej":10804,"Ġcrj":10805,"Ġwd":10806,"Ġwf":10807,"Ġwx":10808,"Ġwde":10809,"Ġwfo":10810,"Ġwjc":10811,"Ġwbh":10812,"Ġwtj":10813,"Ġwql":10814,"Ġwreo":10815,"Ġpest":10816,"Ġpertain":10817,"Ġpun":10818,"Ġpint":10819,"Ġpunch":10820,"Ġpfl":10821,"Ġpuw":10822,"Ġpxs":10823,"Ġpdl":10824,"Ġplox":10825,"Ġhv":10826,"Ġhx":10827,"Ġhat":10828,"Ġhld":10829,"Ġhsi":10830,"Ġhng":10831,"Ġhni":10832,"Ġhsv":10833,"Ġhreom":10834,"Ġyfi":10835,"Ġyff":10836,"Ġybt":10837,"Ġyfn":10838,"Ġff":10839,"Ġfry":10840,"Ġfive":10841,"Ġftz":10842,"Ġfgm":10843,"Ġfxd":10844,"Ġfhz":10845,"Ġfneq":10846,"atch":10847,"atjmy":10848,"Ġnb":10849,"Ġnf":10850,"Ġnal":10851,"Ġncz":10852,"Ġnsl":10853,"Ġbk":10854,"Ġbse":10855,"Ġbple":10856,"Ġbnf":10857,"Ġbvt":10858,"Ġbvc":10859,"Ġbbo":10860,"oople":10861,"oops":10862,"orq":10863,"orwe":10864,"orfz":10865,"Ġll":10866,"Ġlne":10867,"Ġlak":10868,"Ġlhy":10869,"Ġlgm":10870,"Ġltq":10871,"Ġllt":10872,"Ġlwe":10873,"Ġlpz":10874,"Ġlqs":10875,"oni":10876,"onatal":10877,"Ġtod":10878,"Ġdq":10879,"Ġdke":10880,"Ġdgm":10881,"Ġdki":10882,"Ġdtx":10883,"Ġdldq":10884,"Ġdutton":10885,"Ġdfsn":10886,"rig":10887,"riffiti":10888,"Ġreff":10889,"Ġremod":10890,"Ġreestaurant":10891,"Ġsan":10892,"Ġsce":10893,"Ġsyx":10894,"Ġsssl":10895,"Ġszgq":10896,"Ġml":10897,"Ġmes":10898,"Ġmgy":10899,"Ġmnl":10900,"Ġmxj":10901,"Ġmfp":10902,"Ġmwjy":10903,"vec":10904,"ano":10905,"anp":10906,"anxme":10907,"lege":10908,"least":10909,"leted":10910,"gedh":10911,"sec":10912,"sen":10913,"sewy":10914,"Ġinxji":10915,"exhu":10916,"Ġforu":10917,"Ġareat":10918,"arpt":10919,"arzr":10920,"arcqz":10921,"Ġtrack":10922,"edl":10923,"iej":10924,"through":10925,"thdk":10926,"Ġgun":10927,"Ġgyne":10928,"Ġgkd":10929,"Ġgxt":10930,"Ġgpu":10931,"Ġggj":10932,"Ġgpgcy":10933,"Ġgriffiti":10934,"mba":10935,"mef":10936,"Ġatb":10937,"Ġatleast":10938,"Ġthatnk":10939,"Ġwiil":10940,"Ġwires":10941,"llly":10942,"pefs":10943,"pezt":10944,"Ġnetf":10945,"Ġneonatal":10946,"Ġcawrd":10947,"Ġwhould":10948,"Ġwhic":10949,"Ġwhoops":10950,"Ġankle":10951,"Ġitermediate":10952,"Ġamd":10953,"Ġamf":10954,"Ġample":10955,"Ġammen":10956,"Ġmea":10957,"Ġmeh":10958,"Ġmeat":10959,"Ġcambir":10960,"ctly":10961,"ctpezt":10962,"Ġlekn":10963,"Ġyesm":10964,"Ġcentry":10965,"Ġcharact":10966,"Ġpez":10967,"Ġpeple":10968,"Ġpeoople":10969,"Ġbeast":10970,"Ġbejrb":10971,"sible":10972,"sition":10973,"Ġpeopleat":10974,"Ġargu":10975,"Ġattta":10976,"Ġdeoend":10977,"Ġattract":10978,"Ġtiye":10979,"Ġwithing":10980,"deg":10981,"chance":10982,"Ġ259":10983,"Ġ244":10984,"Ġtydeg":10985,"wnh":10986,"Ġ468":10987,"Ġ4668":10988,"Ġguestgouse":10989,"Ġrarte":10990,"urc":10991,"Ġwaqs":10992,"Ġmoderite":10993,"Ġexlp":10994,"ryhj":10995,"Ġals":10996,"Ġalkk":10997,"Ġalkso":10998,"Ġnotes":10999,"Ġnotice":11000,"als":11001,"aljt":11002,"alyd":11003,"Ġ010":11004,"Ġ0277":11005,"Ġsolo":11006,"Ġcomb":11007,"Ġcolege":11008,"Ġsucessful":11009,"terborough":11010,"Ġ358":11011,"Ġ325":11012,"isness":11013,"Ġstone":11014,"Ġstolen":11015,"utm":11016,"Ġpreder":11017,"Ġprestig":11018,"Ġabotu":11019,"Ġabkff":11020,"0035":11021,"0088":11022,"Ġog":11023,"Ġoq":11024,"Ġoz":11025,"Ġoic":11026,"Ġoae":11027,"Ġoyy":11028,"Ġobk":11029,"Ġodv":11030,"Ġozzgl":11031,"Ġ544":11032,"Ġ581":11033,"Ġmuwl":11034,"Ġmubtu":11035,"fili":11036,"fidq":11037,"308":11038,"3021":11039,"3066":11040,"3062":11041,"Ġeference":11042,"Ġeww":11043,"Ġehh":11044,"Ġewf":11045,"Ġetih":11046,"Ġeebg":11047,"155":11048,"1577":11049,"1526":11050,"mmo":11051,"Ġposto":11052,"4515":11053,"4546":11054,"Ġpartner":11055,"Ġshound":11056,"Ġshoul":11057,"Ġshutt":11058,"Ġshoes":11059,"Ġuft":11060,"Ġuorey":11061,"Ġuber":11062,"Ġuxy":11063,"Ġinterist":11064,"Ġgetme":11065,"umped":11066,"Ġpostcodein":11067,"Ġjb":11068,"Ġjp":11069,"Ġjwi":11070,"Ġjff":11071,"Ġjam":11072,"Ġjhi":11073,"Ġjix":11074,"Ġjwd":11075,"Ġjhq":11076,"Ġjqp":11077,"Ġjquu":11078,"Ġjarzr":11079,"Ġjctpezt":11080,"Ġjumped":11081,"Ġokv":11082,"Ġhaha":11083,"icmm":11084,"icide":11085,"Ġweather":11086,"Ġtrin":11087,"Ġkh":11088,"Ġkxe":11089,"Ġkvj":11090,"Ġkcd":11091,"Ġkgmv":11092,"Ġaffili":11093,"aio":11094,"aiment":11095,"Ġcolleag":11096,"Ġwifii":11097,"Ġentert":11098,"Ġleav":11099,"ishment":11100,"Ġleavinga":11101,"Ġwednsday":11102,"Ġsatiate":11103,"Ġsemi":11104,"Ġsens":11105,"Ġsevent":11106,"Ġsestaurant":11107,"Ġmanufi":11108,"Ġcitycentre":11109,"Ġsory":11110,"Ġ1524":11111,"Ġdiabe":11112,"Ġ0122344":11113,"Ġ0122362456":11114,"Ġ815":11115,"Ġserveal":11116,"Ġ676":11117,"Ġ6383":11118,"ias":11119,"Ġcbm":11120,"Ġcbr":11121,"Ġcbfd":11122,"Ġavol":11123,"Ġavpk":11124,"Ġrl":11125,"Ġrt":11126,"Ġrood":11127,"Ġrlc":11128,"Ġrmg":11129,"Ġrtp":11130,"Ġrzd":11131,"Ġrvoq":11132,"Ġfeet":11133,"Ġindiana":11134,"Ġ111":11135,"Ġ114":11136,"Ġ1145":11137,"lozqv":11138,"Ġ1300":11139,"Ġ121":11140,"Ġ12263":11141,"Ġoppss":11142,"iced":11143,"haen":11144,"Ġsillly":11145,"Ġperchance":11146,"cka":11147,"ckccu":11148,"Ġtells":11149,"Ġ104":11150,"Ġ1064":11151,"Ġ1836":11152,"Ġ1955":11153,"unl":11154,"itean":11155,"Ġbreafast":11156,"Ġbreaker":11157,"Ġacw":11158,"quqa":11159,"Ġminist":11160,"Ġnightlclub":11161,"Ġ211":11162,"Ġcuy":11163,"izs":11164,"izgbi":11165,"maedl":11166,"Ġnewham":11167,"foyc":11168,"Ġvx":11169,"Ġvross":11170,"Ġvkw":11171,"Ġvsj":11172,"Ġvjs":11173,"Ġvxq":11174,"Ġvhb":11175,"Ġvmz":11176,"Ġvurc":11177,"Ġ901":11178,"Ġ991":11179,"2141":11180,"Ġseek":11181,"Ġseeuniversity":11182,"nnr":11183,"Ġspare":11184,"Ġsprained":11185,"feild":11186,"fehf":11187,"Ġlyymc":11188,"Ġchear":11189,"Ġupjb":11190,"1193":11191,"Ġbirdw":11192,"Ġplft":11193,"Ġplbf":11194,"Ġplrlm":11195,"Ġstevens":11196,"miq":11197,"Ġpizzas":11198,"liwo":11199,"nsy":11200,"nswk":11201,"Ġ0720":11202,"Ġ0770":11203,"Ġ0753":11204,"Ġ0768":11205,"Ġ0784":11206,"Ġ0704":11207,"Ġ07623":11208,"Ġ0762":11209,"Ġ0792":11210,"Ġ0785":11211,"Ġ07598":11212,"bpmp":11213,"bpdka":11214,"5870":11215,"twwh":11216,"Ġcarpool":11217,"244":11218,"2442":11219,"2478":11220,"171":11221,"1744":11222,"1772":11223,"1731":11224,"070":11225,"asa":11226,"tii":11227,"tistqb":11228,"olw":11229,"508":11230,"5017":11231,"Ġexpres":11232,"6655":11233,"2925":11234,"0843":11235,"abnrt":11236,"Ġ236":11237,"Ġ2320":11238,"Ġ23926":11239,"psc":11240,"psgf":11241,"1027":11242,"Ġ0500":11243,"sajf":11244,"8830":11245,"606":11246,"6037":11247,"5488":11248,"5428":11249,"5431":11250,"5497":11251,"Ġhemp":11252,"Ġlensdi":11253,"Ġlensfeild":11254,"5267":11255,"0112":11256,"Ġohn":11257,"399":11258,"3940":11259,"Ġbeforehand":11260,"463":11261,"4655":11262,"4689":11263,"4673":11264,"Ġitshould":11265,"5910":11266,"5906":11267,"5998":11268,"Ġclassed":11269,"Ġcityroomzs":11270,"205":11271,"2029":11272,"3207":11273,"Ġresulting":11274,"1955":11275,"431":11276,"4379":11277,"4382":11278,"Ġtursday":11279,"epi":11280,"epk":11281,"Ġabsolute":11282,"sukp":11283,"Ġzk":11284,"Ġzxi":11285,"Ġzko":11286,"Ġzbj":11287,"Ġzpd":11288,"Ġzkt":11289,"Ġzwc":11290,"1699":11291,"1674":11292,"902":11293,"9098":11294,"Ġfinest":11295,"Ġcomleted":11296,"098":11297,"ilv":11298,"ilple":11299,"shc":11300,"Ġ01223355711":11301,"fftty":11302,"brc":11303,"brtc":11304,"brht":11305,"499":11306,"Ġavaliable":11307,"Ġbacking":11308,"Ġyeas":11309,"osmvl":11310,"4800":11311,"4848":11312,"4877":11313,"mobv":11314,"0677":11315,"tnhq":11316,"Ġgrj":11317,"ulll":11318,"Ġerm":11319,"Ġeritean":11320,"arently":11321,"570":11322,"ipf":11323,"Ġrestrant":11324,"Ġbrand":11325,"362":11326,"369":11327,"Ġdiners":11328,"422":11329,"Ġbedouln":11330,"381":11331,"3873":11332,"3891":11333,"Ġapologise":11334,"7738":11335,"7771":11336,"phasis":11337,"Ġolds":11338,"Ġendoc":11339,"antic":11340,"444":11341,"Ġ0122336233":11342,"Ġ01223369299":11343,"Ġcaroline":11344,"184":11345,"1835":11346,"1832":11347,"1871":11348,"7834":11349,"ahh":11350,"ahco":11351,"ahtb":11352,"ahkt":11353,"Ġ0632":11354,"287":11355,"2819":11356,"2831":11357,"5678":11358,"5626":11359,"3415":11360,"3420":11361,"3476":11362,"Ġguarant":11363,"naoo":11364,"796":11365,"797":11366,"7994":11367,"Ġapplies":11368,"Ġapparently":11369,"Ġmidnight":11370,"26151":11371,"kokg":11372,"tem":11373,"zzkq":11374,"zzwo":11375,"cyirg":11376,"dye":11377,"70330":11378,"703476":11379,"qqr":11380,"Ġcorrected":11381,"Ġbuisness":11382,"empo":11383,"Ġxlk":11384,"Ġxsq":11385,"Ġxdwv":11386,"Ġteel":11387,"Ġ01223358399":11388,"Ġfranky":11389,"6471":11390,"8918":11391,"jgrh":11392,"jgcm":11393,"683":11394,"6806":11395,"6844":11396,"6870":11397,"Ġqit":11398,"Ġqhg":11399,"Ġqvc":11400,"Ġqrd":11401,"Ġqbv":11402,"Ġqowr":11403,"Ġqoqa":11404,"Ġqahkt":11405,"dsrh":11406,"7634":11407,"7696":11408,"7329":11409,"7372":11410,"Ġ0140":11411,"zeu":11412,"bud":11413,"buqli":11414,"6925":11415,"Ġstyled":11416,"Ġstyles":11417,"6336":11418,"ngvlit":11419,"dim":11420,"lnf":11421,"tuesday":11422,"6725":11423,"9424":11424,"9420":11425,"Ġregarded":11426,"Ġ4734":11427,"Ġcoldhar":11428,"Ġcomprehensive":11429,"Ġclarified":11430,"bjho":11431,"bjmq":11432,"8627":11433,"Ġ3800":11434,"Ġ3854":11435,"Ġ38589":11436,"475":11437,"Ġunderwent":11438,"avoo":11439,"Ġ0122351241":11440,"Ġswfuw":11441,"Ġbuddha":11442,"dpl":11443,"dpm":11444,"Ġduh":11445,"mwr":11446,"Ġspecialize":11447,"Ġemphasis":11448,"Ġ012232177":11449,"Ġ0122357168":11450,"9616":11451,"8260":11452,"8252":11453,"vox":11454,"Ġsupplied":11455,"ualfe":11456,"Ġ3515":11457,"efs":11458,"efx":11459,"0449":11460,"Ġrelation":11461,"Ġrelating":11462,"Ġexhibitions":11463,"Ġdesires":11464,"lhzu":11465,"axd":11466,"Ġmichae":11467,"dqcl":11468,"0554":11469,"6223":11470,"glg":11471,"upai":11472,"upcw":11473,"7519":11474,"Ġ01223323555":11475,"Ġvolkswagon":11476,"uajna":11477,"Ġbobt":11478,"Ġ0196":11479,"Ġ0195414600":11480,"9724":11481,"9714":11482,"gxd":11483,"gxw":11484,"flmf":11485,"gwk":11486,"jbg":11487,"jbih":11488,"Ġ3112":11489,"swd":11490,"swq":11491,"9545":11492,"Ġecbrm":11493,"bwkg":11494,"qfq":11495,"tybj":11496,"Ġbelgry":11497,"agst":11498,"agdqcl":11499,"qyjh":11500,"qypsgf":11501,"Ġ07851":11502,"pjeh":11503,"ufxj":11504,"nzbg":11505,"Ġmutilple":11506,"wym":11507,"myzll":11508,"zcl":11509,"nfd":11510,"kvhn":11511,"Ġ07629":11512,"Ġ07657":11513,"jyt":11514,"eywv":11515,"eytd":11516,"zyj":11517,"pqpv":11518,"crco":11519,"imx":11520,"vdxy":11521,"ogzjm":11522,"Ġesle":11523,"Ġassbu":11524,"Ġbrqc":11525,"1120":11526,"bgv":11527,"syc":11528,"tlbk":11529,"Ġromantic":11530,"Ġsqucln":11531,"ejqj":11532,"Ġ07715":11533,"ljfidq":11534,"qbzuy":11535,"nkti":11536,"nkjm":11537,"jvlz":11538,"lxm":11539,"Ġthirsday":11540,"uwxxby":11541,"qcnph":11542,"cvb":11543,"phr":11544,"phir":11545,"3882":11546,"gdf":11547,"Ġsidgwich":11548,"wwvh":11549,"bqh":11550,"bqs":11551,"bqmf":11552,"bqkh":11553,"njh":11554,"njp":11555,"Ġpunds":11556,"5110":11557,"zkjyt":11558,"Ġglodal":11559,"wkc":11560,"wkj":11561,"dozkz":11562,"gnb":11563,"jzi":11564,"jzqe":11565,"jzmv":11566,"rxz":11567,"rfm":11568,"uxg":11569,"uxrg":11570,"uxxum":11571,"uxalyd":11572,"biolw":11573,"xyr":11574,"xyt":11575,"xyzb":11576,"jmg":11577,"nvnf":11578,"qeu":11579,"qecrh":11580,"vfh":11581,"Ġresponsible":11582,"Ġowxj":11583,"Ġ0122335942":11584,"clw":11585,"kcboh":11586,"kcnbu":11587,"5216":11588,"52160":11589,"qwfwx":11590,"8285":11591,"hhpj":11592,"nthk":11593,"mgrf":11594,"oeiv":11595,"sqr":11596,"xqj":11597,"mukmo":11598,"Ġfifty":11599,"kiwfn":11600,"trut":11601,"weqk":11602,"Ġoter":11603,"kqdp":11604,"xedgdf":11605,"ztfda":11606,"pvb":11607,"Ġmaths":11608,"6072":11609,"rvtnhq":11610,"augq":11611,"ykxc":11612,"Ġjoints":11613,"0122321":11614,"gslhi":11615,"xwzar":11616,"Ġrepresent":11617,"Ġsupposedly":11618,"Ġplubry":11619,"Ġselling":11620,"Ġlargest":11621,"Ġconstrained":11622,"Ġrespective":11623,"jlp":11624,"kuvl":11625,"wlr":11626,"wlsp":11627,"xfzm":11628,"xfmk":11629,"Ġglby":11630,"Ġglutton":11631,"hcn":11632,"hcmyx":11633,"mzqy":11634,"Ġzipcode":11635,"Ġ0179952160":11636,"Ġ07558":11637,"wxpz":11638,"Ġcategorized":11639,"mnp":11640,"yhrk":11641,"zvp":11642,"zxo":11643,"Ġghandhi":11644,"entials":11645,"7556":11646,"ughq":11647,"rrga":11648,"8793":11649,"Ġalydozkz":11650,"wtaljt":11651,"Ġjuz":11652,"8292":11653,"hfqts":11654,"hvte":11655,"vjze":11656,"Ġentires":11657,"pyok":11658,"pyzby":11659,"Ġihphir":11660,"cpi":11661,"hrcy":11662,"mtg":11663,"yqnnr":11664,"Ġntpyzby":11665,"Ġiauxalyd":11666,"jhos":11667,"minutes":11668,"udkcnbu":11669,"Ġhjhe":11670,"Ġhjkokg":11671,"Ġhjcyirg":11672,"Ġtransition":11673,"xujb":11674,"Ġpygl":11675,"Ġpydlx":11676,"Ġchildren":11677,"gboni":11678,"gbagst":11679,"uvz":11680,"Ġexpense":11681,"Ġflg":11682,"Ġfloor":11683,"Ġarrving":11684,"Ġglitched":11685,"sgim":11686,"szjzmv":11687,"Ġqqvpn":11688,"skorq":11689,"Ġayilo":11690,"Ġgooh":11691,"Ġstansteadthrough":11692,"Ġqaod":11693,"9883":11694,"Ġoev":11695,"Ġ01223256645":11696,"Ġxyiq":11697,"Ġxygxd":11698,"cjpo":11699,"Ġcybpdka":11700,"Ġhqosmvl":11701,"Ġpetterborough":11702,"Ġstrictly":11703,"Ġseverely":11704,"Ġvacancies":11705,"ypss":11706,"Ġphsey":11707,"Ġnedeed":11708,"Ġbbqxvm":11709,"Ġepnsy":11710,"Ġjczkjyt":11711,"8092":11712,"Ġtdpeq":11713,"Ġtgkx":11714,"Ġtgdye":11715,"Ġblond":11716,"Ġdkhcmyx":11717,"Ġrqljfidq":11718,"fzcvec":11719,"Ġmcswq":11720,"Ġznro":11721,"flxsj":11722,"jmyoi":11723,"Ġouf":11724,"Ġwjch":11725,"Ġbumped":11726,"Ġlkle":11727,"Ġartists":11728,"Ġvcupcw":11729,"Ġqgabnrt":11730,"Ġoccupancy":11731,"fafy":11732,"hcwce":11733,"qamughq":11734,"ztnk":11735,"Ġulz":11736,"Ġulswhg":11737,"Ġbvu":11738,"Ġbvdpm":11739,"Ġstrpxc":11740,"Ġethnic":11741,"Ġujwym":11742,"Ġsensitive":11743,"Ġprotuguese":11744,"3183":11745,"8364":11746,"Ġsmile":11747,"Ġatractions":11748,"Ġ07632382":11749,"0244":11750,"nrtv":11751,"yrxr":11752,"Ġlpnkz":11753,"Ġrainid":11754,"Ġkshhcwce":11755,"Ġvmwiv":11756,"Ġzsdxs":11757,"Ġzsdflxsj":11758,"Ġxxxx":11759,"kbzum":11760,"Ġmherl":11761,"Ġentrace":11762,"Ġseparate":11763,"Ġindicate":11764,"qitl":11765,"qisg":11766,"xenh":11767,"xrzd":11768,"Ġakfp":11769,"Ġcctlxm":11770,"Ġcapable":11771,"Ġnumbe":11772,"itdrh":11773,"Ġuxglg":11774,"Ġjxkuvl":11775,"Ġkooj":11776,"Ġcuriousity":11777,"Ġvwcr":11778,"Ġspaces":11779,"Ġ0726370330":11780,"Ġscrape":11781,"Ġaccomadation":11782,"Ġryed":11783,"Ġtfup":11784,"Ġwzrj":11785,"Ġygmyzll":11786,"Ġlcexhu":11787,"Ġdyamg":11788,"Ġremainder":11789,"Ġgalley":11790,"Ġuywwvh":11791,"Ġjwerol":11792,"Ġ01223348313":11793,"Ġsteveanage":11794,"Ġchestertom":11795,"44610":11796,"6895":11797,"bllw":11798,"puqpr":11799,"wxsl":11800,"xgyl":11801,"stnzy":11802,"Ġlvrg":11803,"Ġjvgyc":11804,"Ġ07621703476":11805,"vhbcg":11806,"btti":11807,"blcsb":11808,"bkdr":11809,"czfpqpv":11810,"cutcph":11811,"dzeg":11812,"ekyi":11813,"ewwr":11814,"eifxn":11815,"friday":11816,"fxbr":11817,"fhjvd":11818,"gbrmr":11819,"grdrb":11820,"hubdz":11821,"jrtr":11822,"kbev":11823,"kjsrrga":11824,"khxr":11825,"ktqseo":11826,"kxxpr":11827,"niaa":11828,"nxaor":11829,"ojbnt":11830,"ovxx":11831,"pialjo":11832,"qbuv":11833,"rinology":11834,"rnchza":11835,"rddl":11836,"rmgsh":11837,"saljyn":11838,"sbsnjp":11839,"tqqg":11840,"ukmliwo":11841,"wqhv":11842,"ygnka":11843,"ykfj":11844,"ysuqo":11845,"zpsl":11846,"Ġnthe":11847,"Ġtcyavoo":11848,"Ġtjsxo":11849,"Ġtqdmtw":11850,"Ġaknpf":11851,"Ġaojgd":11852,"Ġiirb":11853,"Ġiunu":11854,"eristics":11855,"Ġcredentials":11856,"Ġcejp":11857,"Ġwdetdx":11858,"Ġwfoqfq":11859,"Ġwjcua":11860,"Ġwbhzzwo":11861,"Ġwtjer":11862,"Ġpesticide":11863,"Ġpertaining":11864,"Ġpunishment":11865,"Ġpinto":11866,"Ġpflvz":11867,"Ġpuwpi":11868,"Ġpdlpm":11869,"Ġhsiinnn":11870,"Ġhsvg":11871,"Ġyfiorwe":11872,"Ġyffshc":11873,"Ġyfnh":11874,"Ġfives":11875,"Ġftzqcnph":11876,"Ġfxdnf":11877,"Ġfhzmukmo":11878,"atching":11879,"Ġnalgedh":11880,"Ġnczqbzuy":11881,"Ġnslkei":11882,"Ġbsejzqe":11883,"Ġbplease":11884,"Ġbvtk":11885,"orfzpb":11886,"Ġlakqv":11887,"Ġlhylov":11888,"Ġltqhut":11889,"Ġlweogzjm":11890,"Ġdgmg":11891,"Ġdldqir":11892,"Ġremodeling":11893,"Ġscene":11894,"Ġssslfoyc":11895,"Ġszgqo":11896,"Ġmessed":11897,"Ġmgyr":11898,"Ġmxjrf":11899,"Ġmwjyc":11900,"anxmea":11901,"arptz":11902,"arcqzh":11903,"Ġgynecology":11904,"Ġgkddpl":11905,"Ġgxtxw":11906,"Ġggjcv":11907,"Ġgpgcypcu":11908,"Ġnetflix":11909,"Ġammenities":11910,"Ġcambirdge":11911,"Ġlekni":11912,"Ġcharacteristics":11913,"Ġbejrbnda":11914,"Ġargument":11915,"Ġatttaction":11916,"Ġdeoendancy":11917,"Ġexlpress":11918,"ryhjtp":11919,"Ġ3587":11920,"Ġprestigous":11921,"Ġoicbjmq":11922,"Ġoaejmyoi":11923,"Ġoyyuxxum":11924,"Ġodvzeu":11925,"Ġozzglcvb":11926,"Ġmuwlbllw":11927,"Ġmubtuutm":11928,"Ġehhsin":11929,"Ġewfxujb":11930,"Ġetiher":11931,"Ġeebgs":11932,"Ġshuttle":11933,"Ġjamican":11934,"Ġjixsct":11935,"Ġjhqjlp":11936,"Ġjqpiej":11937,"Ġkxequqa":11938,"Ġkvjnzbg":11939,"Ġkgmvnkjm":11940,"Ġaffiliations":11941,"Ġcolleagues":11942,"Ġentertaiment":11943,"Ġsensational":11944,"Ġseventeen":11945,"Ġmanufique":11946,"Ġdiabetes":11947,"Ġcbfdx":11948,"Ġavolon":11949,"Ġavpktybj":11950,"Ġrvoqbwkg":11951,"Ġministry":11952,"Ġvkwmnp":11953,"Ġvjsd":11954,"Ġvxqs":11955,"Ġupjbmq":11956,"Ġbirdwatching":11957,"Ġplftp":11958,"Ġplbfmns":11959,"bpmpu":11960,"Ġexpresses":11961,"sajfu":11962,"Ġlensdield":11963,"Ġzkogbrmr":11964,"Ġzpdxc":11965,"Ġzwcf":11966,"brhtv":11967,"Ġendocrinology":11968,"Ġguarantees":11969,"26151603":11970,"Ġxlkz":11971,"Ġxsqhk":11972,"Ġqhgualfe":11973,"Ġqvcsajfu":11974,"Ġqrdn":11975,"Ġqbvp":11976,"dsrhj":11977,"buqlik":11978,"Ġcoldharms":11979,"flmfk":11980,"jbihkc":11981,"Ġecbrmjs":11982,"qypsgfh":11983,"pjehzw":11984,"vdxyhih":11985,"Ġsquclnla":11986,"ejqjws":11987,"kcbohzb":11988,"kiwfnou":11989,"Ġrepresentative":11990,"Ġplubryfc":11991,"hfqtsau":11992,"Ġtransitional":11993,"Ġpydlxtii":11994,"Ġcybpdkaz":11995,"Ġbbqxvmzk":11996,"Ġvcupcwda":11997,"Ġqgabnrtx":11998,"Ġulswhgvk":11999,"Ġstrpxcft":12000,"Ġ07632382262":12001,"Ġvmwivzv":12002,"Ġmherlswd":12003,"Ġ07263703306":12004,"Ġlcexhuaz":12005,"Ġuywwvhk":12006,"Ġyfiorwek":12007,"023":12008,"0292":12009,"0497":12010,"0176":12011,"1382":12012,"1238":12013,"1082":12014,"1328":12015,"260":12016,"251":12017,"225":12018,"228":12019,"300":12020,"360":12021,"3504":12022,"3498":12023,"3433":12024,"3798":12025,"4005":12026,"4414":12027,"47769":12028,"530":12029,"550":12030,"5291":12031,"641":12032,"636":12033,"6413":12034,"6459":12035,"711":12036,"749":12037,"7178":12038,"7277":12039,"7307":12040,"7013":12041,"7156":12042,"8238":12043,"8118":12044,"8126":12045,"8337":12046,"930":12047,"915":12048,"952":12049,"939":12050,"964":12051,"9765":12052,"9803":12053,"9605":12054,"aar":12055,"aion":12056,"aow":12057,"aunt":12058,"ague":12059,"aok":12060,"bge":12061,"bnce":12062,"bur":12063,"bale":12064,"bmg":12065,"bkq":12066,"birg":12067,"cch":12068,"cwn":12069,"cwh":12070,"cnx":12071,"doo":12072,"dress":12073,"dod":12074,"dft":12075,"ddz":12076,"dnk":12077,"dvq":12078,"eel":12079,"eve":12080,"eys":12081,"ebq":12082,"eiry":12083,"eoyk":12084,"fts":12085,"frent":12086,"fua":12087,"fbz":12088,"fux":12089,"fhz":12090,"fkb":12091,"futf":12092,"fmiq":12093,"gr":12094,"gul":12095,"gci":12096,"gdz":12097,"gpd":12098,"grq":12099,"gjv":12100,"gsq":12101,"hir":12102,"hks":12103,"hqq":12104,"hrq":12105,"hnv":12106,"hew":12107,"hwo":12108,"ith":12109,"iir":12110,"ibr":12111,"istal":12112,"iits":12113,"iog":12114,"iung":12115,"jmb":12116,"jsu":12117,"jnk":12118,"jjv":12119,"jwt":12120,"kel":12121,"kex":12122,"kend":12123,"kow":12124,"kut":12125,"kir":12126,"kol":12127,"kks":12128,"kds":12129,"kig":12130,"kty":12131,"kcu":12132,"loo":12133,"lon":12134,"ltw":12135,"lbj":12136,"lrs":12137,"ljxx":12138,"mate":12139,"mal":12140,"mir":12141,"mwi":12142,"mda":12143,"mks":12144,"mtn":12145,"mko":12146,"muse":12147,"mcy":12148,"mrq":12149,"mrk":12150,"mlr":12151,"nks":12152,"nga":12153,"nom":12154,"nov":12155,"nrb":12156,"ogh":12157,"oad":12158,"oet":12159,"oag":12160,"ober":12161,"oew":12162,"ozzgl":12163,"pis":12164,"pose":12165,"pas":12166,"pjo":12167,"pah":12168,"qay":12169,"qci":12170,"qck":12171,"qdy":12172,"qsj":12173,"qim":12174,"qlx":12175,"qgg":12176,"qkm":12177,"qlv":12178,"qxf":12179,"qjd":12180,"rly":12181,"rinese":12182,"rps":12183,"rfd":12184,"rwd":12185,"rmyg":12186,"sow":12187,"sns":12188,"sfl":12189,"sdo":12190,"snr":12191,"smz":12192,"tar":12193,"tad":12194,"ttish":12195,"tbw":12196,"tdb":12197,"tjz":12198,"tvb":12199,"uof":12200,"uke":12201,"uhi":12202,"uqf":12203,"ukd":12204,"uuo":12205,"uvxl":12206,"vmo":12207,"vlk":12208,"vng":12209,"vav":12210,"vtz":12211,"vnl":12212,"vnb":12213,"vgnb":12214,"wood":12215,"wss":12216,"wind":12217,"wly":12218,"wun":12219,"wick":12220,"wys":12221,"wtq":12222,"wdo":12223,"wrv":12224,"wlv":12225,"wja":12226,"wgfk":12227,"wbud":12228,"xla":12229,"xne":12230,"xfo":12231,"xda":12232,"xtn":12233,"xza":12234,"xcum":12235,"xag":12236,"xej":12237,"xfc":12238,"xesp":12239,"yce":12240,"yln":12241,"yey":12242,"ypx":12243,"yuy":12244,"yxa":12245,"yfn":12246,"yzb":12247,"ymg":12248,"yxd":12249,"ycm":12250,"yno":12251,"yquu":12252,"znt":12253,"zmb":12254,"zsi":12255,"zut":12256,"zee":12257,"zha":12258,"zpq":12259,"zpb":12260,"zjv":12261,"zww":12262,"zih":12263,"zoi":12264,"Ġ+":12265,"Ġridge":12266,"Ġoth":12267,"Ġuti":12268,"Ġtc":12269,"Ġtjz":12270,"Ġtjl":12271,"Ġtxe":12272,"Ġale":12273,"Ġasi":12274,"Ġach":12275,"Ġaward":12276,"Ġayk":12277,"Ġambridge":12278,"Ġaqim":12279,"rets":12280,"revation":12281,"rezc":12282,"refn":12283,"Ġii":12284,"Ġiq":12285,"Ġix":12286,"Ġiko":12287,"Ġiqc":12288,"Ġigm":12289,"Ġioj":12290,"Ġigf":12291,"sthouse":12292,"stqi":12293,"erac":12294,"Ġthhe":12295,"Ġthnks":12296,"ining":12297,"inking":12298,"ntch":12299,"ntvhw":12300,"raus":12301,"Ġcere":12302,"Ġcouse":12303,"Ġcde":12304,"Ġcrow":12305,"Ġcpb":12306,"Ġcxc":12307,"Ġczq":12308,"Ġcrlm":12309,"Ġcfr":12310,"Ġcfpq":12311,"Ġwb":12312,"Ġwood":12313,"Ġwxi":12314,"Ġwff":12315,"Ġwbd":12316,"Ġwvs":12317,"Ġwlb":12318,"Ġwgv":12319,"Ġpw":12320,"Ġpor":12321,"Ġpran":12322,"Ġpqq":12323,"Ġpdi":12324,"Ġphx":12325,"Ġpwf":12326,"Ġpnp":12327,"Ġpvfa":12328,"Ġhic":12329,"Ġhia":12330,"Ġhkw":12331,"Ġhrs":12332,"Ġhvt":12333,"Ġyon":12334,"Ġyiz":12335,"Ġyys":12336,"Ġynz":12337,"Ġybg":12338,"Ġytb":12339,"Ġywe":12340,"Ġykx":12341,"Ġfh":12342,"Ġfw":12343,"Ġfat":12344,"Ġfing":12345,"Ġfco":12346,"Ġfrs":12347,"Ġfcg":12348,"Ġfkd":12349,"Ġftf":12350,"Ġfzr":12351,"ndb":12352,"ndd":12353,"ndz":12354,"ndraus":12355,"atvb":12356,"Ġnm":12357,"Ġnon":12358,"Ġnqf":12359,"Ġnqc":12360,"Ġnzx":12361,"Ġbia":12362,"Ġbfo":12363,"Ġbcy":12364,"Ġbix":12365,"Ġbmz":12366,"Ġboring":12367,"oomb":12368,"oons":12369,"oovy":12370,"oowm":12371,"ormc":12372,"Ġlfe":12373,"Ġlwi":12374,"Ġlny":12375,"Ġlpv":12376,"Ġlmj":12377,"Ġdf":12378,"Ġdv":12379,"Ġdse":12380,"Ġdood":12381,"Ġdak":12382,"Ġdxd":12383,"Ġdzn":12384,"Ġdgo":12385,"ritish":12386,"riott":12387,"rictions":12388,"Ġreth":12389,"Ġrester":12390,"Ġreplace":12391,"Ġremind":12392,"Ġrebooked":12393,"otkf":12394,"otyz":12395,"Ġsr":12396,"Ġsx":12397,"Ġsge":12398,"Ġsould":12399,"Ġsed":12400,"Ġsis":12401,"Ġsrs":12402,"Ġslw":12403,"Ġms":12404,"Ġmth":12405,"Ġmere":12406,"Ġmouse":12407,"Ġmlk":12408,"Ġmjj":12409,"Ġmlq":12410,"Ġmrv":12411,"Ġmgc":12412,"Ġmtx":12413,"Ġmwt":12414,"Ġmmh":12415,"Ġmicke":12416,"ved":12417,"vefo":12418,"veerac":12419,"anav":12420,"ookes":12421,"leg":12422,"letn":12423,"leverton":12424,"levh":12425,"ayr":12426,"ayoet":12427,"geuese":12428,"gewick":12429,"sexh":12430,"Ġhotels":12431,"Ġini":12432,"Ġinquest":12433,"Ġiniti":12434,"Ġfortr":12435,"ceby":12436,"cekg":12437,"Ġisv":12438,"ldf":12439,"ldz":12440,"ldda":12441,"ldnj":12442,"Ġbookit":12443,"Ġtrail":12444,"Ġtraid":12445,"edady":12446,"iepe":12447,"Ġgge":12448,"Ġgur":12449,"Ġgds":12450,"Ġgvd":12451,"Ġgsd":12452,"Ġglv":12453,"Ġgnb":12454,"Ġgqs":12455,"Ġgja":12456,"Ġgwz":12457,"mbb":12458,"mbur":12459,"keyj":12460,"Ġatyka":12461,"Ġwich":12462,"Ġwipple":12463,"Ġwiqe":12464,"Ġwiukd":12465,"esthwo":12466,"Ġstaud":12467,"llh":12468,"pevy":12469,"Ġdox":12470,"Ġdoers":12471,"Ġofter":12472,"Ġtherea":12473,"Ġwhop":12474,"Ġwhhat":12475,"Ġanf":12476,"Ġanim":12477,"Ġitail":12478,"option":12479,"ctf":12480,"cture":12481,"ctober":12482,"Ġlemrq":12483,"artial":12484,"Ġchien":12485,"Ġchrinese":12486,"Ġmonder":12487,"Ġbehal":12488,"sicr":12489,"Ġanyting":12490,"lash":12491,"eafs":12492,"Ġdeep":12493,"Ġdeem":12494,"Ġtiyzb":12495,"Ġdepartiung":12496,"depi":12497,"Ġ240":12498,"Ġ2761":12499,"Ġtapas":12500,"wnu":12501,"Ġ4269":12502,"Ġ4455":12503,"iter":12504,"itti":12505,"itjj":12506,"Ġrance":12507,"Ġraving":12508,"Ġraeg":12509,"urjs":12510,"urje":12511,"ssah":12512,"Ġexcep":12513,"ghg":12514,"ghnz":12515,"inds":12516,"Ġalpah":12517,"Ġalsexh":12518,"Ġfreee":12519,"Ġelaa":12520,"sox":12521,"sozl":12522,"Ġsue":12523,"Ġsumm":12524,"Ġsummer":12525,"terfly":12526,"Ġ356":12527,"Ġ353":12528,"ising":12529,"Ġfindme":12530,"tsc":12531,"tsnq":12532,"tsormc":12533,"Ġstops":12534,"Ġstore":12535,"Ġstup":12536,"utlu":12537,"utical":12538,"irns":12539,"ircwh":12540,"Ġposey":12541,"Ġpolun":12542,"Ġpoinds":12543,"Ġcheapmoderate":12544,"Ġnorthe":12545,"Ġnorthham":12546,"Ġadjo":12547,"Ġadam":12548,"Ġnigo":12549,"Ġnifutf":12550,"verside":12551,"0044":12552,"0014":12553,"Ġobl":12554,"Ġoxw":12555,"Ġontime":12556,"Ġoasa":12557,"Ġoaow":12558,"Ġoesthwo":12559,"Ġoctober":12560,"Ġ554":12561,"Ġ546":12562,"Ġ536":12563,"lyp":12564,"lyjq":12565,"Ġmud":12566,"Ġmucy":12567,"Ġmueiry":12568,"fika":12569,"304":12570,"30209":12571,"Ġev":12572,"Ġeza":12573,"Ġeka":12574,"Ġebq":12575,"Ġadddress":12576,"150":12577,"mmd":12578,"4558":12579,"4509":12580,"4564":12581,"Ġnighclub":12582,"uli":12583,"ulsp":12584,"ulfl":12585,"uluc":12586,"Ġshucks":12587,"Ġgest":12588,"Ġuow":12589,"Ġuaz":12590,"Ġuknown":12591,"Ġuuh":12592,"Ġuwr":12593,"ums":12594,"umsy":12595,"Ġjg":12596,"Ġjt":12597,"Ġjy":12598,"Ġjra":12599,"Ġjak":12600,"Ġjua":12601,"Ġjvc":12602,"Ġjzm":12603,"ellg":12604,"Ġhaw":12605,"Ġhaak":12606,"Ġhakks":12607,"ains":12608,"icsa":12609,"Ġweill":12610,"Ġmusem":12611,"Ġtrua":12612,"Ġbutterfly":12613,"Ġkwn":12614,"Ġkad":12615,"Ġkpo":12616,"Ġkix":12617,"Ġkkv":12618,"Ġkvk":12619,"Ġkdft":12620,"Ġwasnt":12621,"viqay":12622,"127":12623,"Ġnightsstar":12624,"Ġcollect":12625,"Ġcolleague":12626,"Ġsercr":12627,"Ġleavers":12628,"adj":12629,"Ġwedding":12630,"Ġwednedady":12631,"Ġsett":12632,"Ġsejbn":12633,"Ġmanny":12634,"Ġcityr":12635,"Ġ732":12636,"Ġ738":12637,"Ġ7562":12638,"Ġ7089":12639,"Ġsorting":12640,"Ġ1532":12641,"caw":12642,"cazn":12643,"cambridge":12644,"Ġ01223596":12645,"Ġmap":12646,"Ġmariott":12647,"Ġ819":12648,"Ġ853":12649,"Ġ8665":12650,"Ġ653":12651,"luxu":12652,"Ġavvx":12653,"Ġavaion":12654,"Ġrw":12655,"Ġrfd":12656,"Ġrbq":12657,"Ġrrk":12658,"Ġrjq":12659,"Ġrocks":12660,"Ġroez":12661,"Ġroverside":12662,"Ġunwind":12663,"Ġ1700":12664,"Ġhiding":12665,"Ġhiya":12666,"Ġ134":12667,"Ġopaf":12668,"Ġopgq":12669,"Ġ165":12670,"Ġ1645":12671,"haa":12672,"Ġhoild":12673,"Ġholel":12674,"akdvq":12675,"Ġdiffrent":12676,"Ġ1430":12677,"Ġparkign":12678,"Ġknrf":12679,"cked":12680,"Ġ1830":12681,"unzjv":12682,"itecture":12683,"Ġworkers":12684,"Ġ01223348":12685,"Ġbrillia":12686,"Ġbrittish":12687,"urosy":12688,"Ġ2100":12689,"Ġcenters":12690,"Ġcuza":12691,"minghan":12692,"Ġ2030":12693,"Ġ2058":12694,"Ġsuggetions":12695,"izqt":12696,"mavy":12697,"Ġseverail":12698,"Ġvq":12699,"Ġvwi":12700,"Ġvbp":12701,"Ġvzb":12702,"Ġvzp":12703,"Ġvhn":12704,"Ġvvbm":12705,"Ġvoons":12706,"Ġvcaw":12707,"Ġvakdvq":12708,"Ġ95":12709,"Ġ918":12710,"Ġ989":12711,"2144":12712,"2102":12713,"2162":12714,"nnfn":12715,"nnxw":12716,"Ġsplash":12717,"Ġcontains":12718,"fet":12719,"sterton":12720,"Ġconformation":12721,"ppdy":12722,"ppoz":12723,"Ġstansed":12724,"1162":12725,"11625":12726,"Ġbirminghan":12727,"mip":12728,"Ġpizze":12729,"libility":12730,"wid":12731,"Ġids":12732,"Ġoutstanding":12733,"uek":12734,"uemwr":12735,"nsl":12736,"nsbf":12737,"msav":12738,"msvt":12739,"msuuo":12740,"Ġ0734":12741,"Ġ07245":12742,"Ġ0794":12743,"Ġ0782":12744,"Ġ07906":12745,"Ġ070552":12746,"bpcy":12747,"bpqw":12748,"5869":12749,"Ġswiming":12750,"beww":12751,"2417":12752,"2408":12753,"24600":12754,"173":12755,"179":12756,"1766":12757,"1770":12758,"1773":12759,"0767":12760,"0762":12761,"Ġfae":12762,"asq":12763,"olqy":12764,"Ġhinto":12765,"Ġchery":12766,"Ġchersterton":12767,"ropod":12768,"5032":12769,"5018":12770,"5034":12771,"6650":12772,"6678":12773,"6668":12774,"66552":12775,"290":12776,"298":12777,"2970":12778,"2998":12779,"0890":12780,"0899":12781,"abu":12782,"abqg":12783,"abctf":12784,"3543":12785,"3564":12786,"3547":12787,"4045":12788,"4017":12789,"4067":12790,"4031":12791,"1047":12792,"1062":12793,"Ġcouny":12794,"ubq":12795,"887":12796,"whfpq":12797,"whwlv":12798,"Ġgastropod":12799,"543":12800,"544":12801,"Ġhev":12802,"5207":12803,"5256":12804,"kwg":12805,"kwma":12806,"2764":12807,"398":12808,"462":12809,"4629":12810,"463830":12811,"594":12812,"5975":12813,"5903":12814,"2026":12815,"Ġpolitely":12816,"Ġgraff":12817,"3245":12818,"3259":12819,"3267":12820,"1952":12821,"1975":12822,"Ġapha":12823,"4136":12824,"437":12825,"4300":12826,"4373":12827,"Ġturn":12828,"etvs":12829,"etnnfn":12830,"suxc":12831,"Ġportugeuese":12832,"Ġzs":12833,"Ġzw":12834,"Ġzuf":12835,"Ġznv":12836,"Ġzif":12837,"Ġzjp":12838,"Ġzyo":12839,"Ġzfre":12840,"Ġzcjz":12841,"Ġzetnnfn":12842,"165":12843,"Ġfurthu":12844,"Ġhutington":12845,"Ġafrian":12846,"09887":12847,"shu":12848,"shv":12849,"Ġ0122335124":12850,"odnsbf":12851,"idance":12852,"ksx":12853,"brx":12854,"brmy":12855,"492":12856,"4971":12857,"494679":12858,"Ġcharlin":12859,"Ġbahv":12860,"osfm":12861,"482":12862,"485":12863,"489":12864,"4890":12865,"4875":12866,"mores":12867,"mohd":12868,"0615":12869,"0627":12870,"0613":12871,"Ġhopistal":12872,"tnz":12873,"Ġenxxh":12874,"Ġgroovy":12875,"Ġdesination":12876,"573":12877,"5790":12878,"5773":12879,"Ġproblems":12880,"ipcz":12881,"ipime":12882,"Ġrestrictions":12883,"amxi":12884,"amna":12885,"ampt":12886,"36297":12887,"5146":12888,"4288":12889,"4259":12890,"fyo":12891,"3842":12892,"3805":12893,"Ġkept":12894,"Ġsuited":12895,"774":12896,"7744":12897,"7703":12898,"8040":12899,"Ġreaches":12900,"Ġjoyg":12901,"Ġ012233626":12902,"Ġ0122336265":12903,"1869":12904,"18407":12905,"137":12906,"7808":12907,"7855":12908,"7853":12909,"Ġantolia":12910,"ahe":12911,"ahds":12912,"ahuy":12913,"ahhb":12914,"mpoew":12915,"Ġdaa":12916,"Ġdaey":12917,"564":12918,"Ġguidance":12919,"najf":12920,"kav":12921,"7964":12922,"kyw":12923,"kyz":12924,"itimate":12925,"332400":12926,"Ġsalsas":12927,"Ġveg":12928,"Ġvedx":12929,"Ġparage":12930,"2613":12931,"2687":12932,"zzc":12933,"zzvv":12934,"Ġugu":12935,"Ġblowing":12936,"Ġbloomb":12937,"Ġ0122390268":12938,"7043":12939,"5349":12940,"5344":12941,"Ġbloomsbur":12942,"Ġbupk":12943,"Ġmargherit":12944,"Ġxx":12945,"Ġxal":12946,"Ġxell":12947,"Ġxoy":12948,"Ġxrr":12949,"Ġxldda":12950,"Ġtehcn":12951,"ysz":12952,"Ġkywf":12953,"gywss":12954,"6419":12955,"Ġheding":12956,"urftu":12957,"jgkv":12958,"681":12959,"6811":12960,"Ġqf":12961,"Ġqsas":12962,"Ġqlk":12963,"Ġqgl":12964,"Ġqbq":12965,"Ġqzp":12966,"Ġqsns":12967,"Ġqlyjq":12968,"Ġsidgewick":12969,"Ġamenites":12970,"Ġregular":12971,"dsbs":12972,"7692":12973,"7630209":12974,"Ġefgw":12975,"Ġdarling":12976,"Ġclassify":12977,"bua":12978,"buqp":12979,"697":12980,"6908":12981,"6946":12982,"lksu":12983,"lkmz":12984,"8410":12985,"Ġvaried":12986,"1008":12987,"azc":12988,"azn":12989,"Ġrefresh":12990,"ruwch":12991,"tugn":12992,"tuyx":12993,"6788":12994,"9926":12995,"9984":12996,"9931":12997,"9992":12998,"Ġ47559":12999,"Ġ5636":13000,"Ġwilliam":13001,"pom":13002,"474":13003,"4723":13004,"avu":13005,"Ġ0122355017":13006,"372":13007,"etyf":13008,"sjwc":13009,"sjqkm":13010,"Ġ02233":13011,"Ġbudge":13012,"omv":13013,"7212":13014,"7460":13015,"Ġlexux":13016,"Ġtesiir":13017,"Ġ01223216811":13018,"Ġ0122390216":13019,"Ġ5257":13020,"962":13021,"9680":13022,"wsg":13023,"Ġauhg":13024,"3108":13025,"pmzk":13026,"pmnb":13027,"pmucr":13028,"Ġhkmr":13029,"ftk":13030,"lhx":13031,"Ġgirl":13032,"0558":13033,"glx":13034,"uphir":13035,"9312":13036,"9346":13037,"9332":13038,"Ġ0122332361":13039,"uagg":13040,"tcm":13041,"egc":13042,"Ġboko":13043,"0339":13044,"9733":13045,"gxhks":13046,"tzff":13047,"Ġcrash":13048,"bdl":13049,"bdbf":13050,"dzw":13051,"hxf":13052,"Ġ0122331162":13053,"knm":13054,"knzyj":13055,"swfb":13056,"Ġ01223274222":13057,"Ġengine":13058,"Ġengland":13059,"Ġscandanav":13060,"8335":13061,"srqi":13062,"tyb":13063,"tyl":13064,"tynu":13065,"Ġalternatively":13066,"qyupu":13067,"aeksx":13068,"ixj":13069,"ixr":13070,"ixgge":13071,"nzd":13072,"nzkow":13073,"jxa":13074,"wyuf":13075,"wycw":13076,"volr":13077,"Ġhungting":13078,"nfsrqi":13079,"Ġ07608":13080,"Ġ07625":13081,"Ġ07636297":13082,"jytw":13083,"jyol":13084,"zyv":13085,"zyru":13086,"pqmz":13087,"2361":13088,"Ġsingapore":13089,"Ġ0122333516":13090,"sxt":13091,"vdh":13092,"Ġclumsy":13093,"hughes":13094,"huyuy":13095,"Ġyontch":13096,"Ġ07739":13097,"Ġ0773854":13098,"Ġ07726151603":13099,"jebz":13100,"jezp":13101,"uyin":13102,"uyqck":13103,"Ġgibf":13104,"ljq":13105,"ljrt":13106,"ddfw":13107,"4279931":13108,"btdt":13109,"8135":13110,"qbm":13111,"qbzy":13112,"rately":13113,"htb":13114,"nimy":13115,"nkqu":13116,"nkty":13117,"nkkol":13118,"jvpx":13119,"lxw":13120,"lxx":13121,"lxz":13122,"uwgdz":13123,"qcc":13124,"qcqdy":13125,"6166":13126,"cvkz":13127,"cvluxu":13128,"phzut":13129,"bzvy":13130,"bzkav":13131,"mfa":13132,"mfm":13133,"Ġhmn":13134,"Ġhmuh":13135,"Ġrealize":13136,"Ġcompanion":13137,"Ġcompanies":13138,"fnc":13139,"vhm":13140,"ccgz":13141,"hlm":13142,"hls":13143,"hljo":13144,"zkx":13145,"awbi":13146,"gnq":13147,"nuco":13148,"Ġooghnz":13149,"Ġooamxi":13150,"jjn":13151,"uxkir":13152,"vxvb":13153,"vxazn":13154,"gqj":13155,"gqtnz":13156,"gqmfm":13157,"Ġtopic":13158,"Ġ07411":13159,"Ġ074218":13160,"lqra":13161,"lqbdl":13162,"oimm":13163,"oiuy":13164,"dhipime":13165,"qgj":13166,"2333057":13167,"Ġapprox":13168,"nyc":13169,"nyh":13170,"ozr":13171,"ozak":13172,"tbm":13173,"zbn":13174,"Ġ07039":13175,"Ġ07048":13176,"Ġ0704379":13177,"zlmlr":13178,"cwj":13179,"ijn":13180,"iju":13181,"svq":13182,"svpom":13183,"ovk":13184,"rkt":13185,"rkxu":13186,"hhood":13187,"ifk":13188,"zwp":13189,"Ġaccomodation":13190,"bfw":13191,"bfxw":13192,"nhc":13193,"nhp":13194,"nhso":13195,"prfe":13196,"sqsc":13197,"xqvc":13198,"Ġimpartial":13199,"Ġ01223217450":13200,"Ġ01223217261":13201,"bnbr":13202,"rdabu":13203,"wdnd":13204,"wdkf":13205,"wdnm":13206,"pvzd":13207,"Ġmathcing":13208,"7509":13209,"cgc":13210,"cgot":13211,"wfhnv":13212,"audv":13213,"hzqe":13214,"nwndb":13215,"hqfy":13216,"hqvd":13217,"zsf":13218,"01223332400":13219,"ajh":13220,"dfpo":13221,"pzhljo":13222,"vbkj":13223,"Ġreplied":13224,"Ġ4673":13225,"Ġreserevation":13226,"bourhood":13227,"Ġchesterson":13228,"005105":13229,"Ġinformtion":13230,"nrcwj":13231,"Ġadvic":13232,"zmvox":13233,"qsfkb":13234,"yygy":13235,"yydoo":13236,"yyijn":13237,"gcsqr":13238,"wbx":13239,"iikbz":13240,"lmk":13241,"lmxs":13242,"Ġamongst":13243,"jacgot":13244,"jdar":13245,"4076":13246,"46740":13247,"hnmj":13248,"rphxf":13249,"wvu":13250,"rzrh":13251,"Ġavaible":13252,"Ġavaibale":13253,"Ġavailibility":13254,"bcji":13255,"rrjvpx":13256,"Ġpatch":13257,"Ġfocuses":13258,"Ġneighbourhood":13259,"7095":13260,"Ġmessing":13261,"Ġsecrets":13262,"Ġ1223311625":13263,"Ġinquired":13264,"75434":13265,"hjsu":13266,"klg":13267,"Ġ07887630209":13268,"2472408":13269,"8297":13270,"hfucr":13271,"iqnsl":13272,"juvw":13273,"kxrkt":13274,"tenpin":13275,"uqim":13276,"Ġ0730836":13277,"Ġneighborhhood":13278,"tkid":13279,"Ġibfe":13280,"Ġcwlkmz":13281,"Ġytoiuy":13282,"sfko":13283,"Ġntqsj":13284,"8089":13285,"lbcu":13286,"udn":13287,"yjn":13288,"Ġnautical":13289,"Ġunlikely":13290,"Ġxml":13291,"ezldf":13292,"tjse":13293,"Ġyhns":13294,"cfq":13295,"qjphzut":13296,"Ġpromising":13297,"Ġflick":13298,"Ġbibj":13299,"1086":13300,"Ġcondition":13301,"Ġconduct":13302,"Ġ07562472408":13303,"bxl":13304,"bxnrb":13305,"Ġsnacks":13306,"82719":13307,"Ġinsisted":13308,"Ġattacked":13309,"Ġradically":13310,"Ġoebh":13311,"Ġ01223256459":13312,"Ġ01223256650":13313,"Ġ01223256166":13314,"Ġzmgywss":13315,"Ġzmzlmlr":13316,"Ġincrements":13317,"Ġcyjdar":13318,"Ġpdms":13319,"Ġhqka":13320,"Ġhqgn":13321,"Ġhqsozl":13322,"Ġsdmc":13323,"Ġlegnth":13324,"Ġlegitimate":13325,"Ġguesthous":13326,"19630":13327,"lwvq":13328,"lwlxz":13329,"Ġaddmisson":13330,"Ġrounding":13331,"Ġ076099":13332,"Ġquiet":13333,"ytamna":13334,"Ġidentical":13335,"Ġ07121756":13336,"Ġ0757463830":13337,"jnuy":13338,"uzfnc":13339,"Ġ1223568988":13340,"fmnhc":13341,"Ġirde":13342,"Ġctetvs":13343,"Ġmrrv":13344,"Ġmrtsnq":13345,"Ġgjpmzk":13346,"lylsh":13347,"Ġdescrioption":13348,"zkdit":13349,"Ġaccomidations":13350,"gunh":13351,"rmlz":13352,"Ġtbicsa":13353,"Ġwpgq":13354,"Ġwpkwg":13355,"Ġfzlk":13356,"Ġgwme":13357,"Ġgoonville":13358,"Ġueklg":13359,"Ġujumj":13360,"Ġaddenbrooke":13361,"38056":13362,"Ġ01223365098":13363,"swxej":13364,"Ġretained":13365,"Ġplastics":13366,"Ġskimping":13367,"Ġtsrefn":13368,"Ġpages":13369,"Ġgkjebz":13370,"Ġ07444279931":13371,"Ġ0703494679":13372,"Ġxrwycw":13373,"Ġphysically":13374,"5173":13375,"cinemas":13376,"fkixr":13377,"iwuzfnc":13378,"Ġcpndraus":13379,"Ġhhbz":13380,"Ġhyppoz":13381,"Ġybcvluxu":13382,"Ġbdjacgot":13383,"Ġrains":13384,"Ġ6742":13385,"Ġrgbb":13386,"Ġzzpp":13387,"Ġxgdp":13388,"jnac":13389,"wkvk":13390,"yvgz":13391,"Ġpqpb":13392,"Ġpurpose":13393,"Ġrecoment":13394,"Ġloaded":13395,"Ġentrabnce":13396,"Ġseparately":13397,"Ġindication":13398,"Ġ074818407":13399,"9179":13400,"djxlt":13401,"djxazc":13402,"rflpz":13403,"vsrvh":13404,"vsrrz":13405,"Ġcjsen":13406,"Ġyyppdy":13407,"Ġfvnmsuuo":13408,"Ġlfbb":13409,"Ġlfqbm":13410,"Ġkfhqfy":13411,"Ġrzkwma":13412,"Ġ07862333057":13413,"Ġxzhnmj":13414,"afswe":13415,"afswla":13416,"kczqa":13417,"hhslxw":13418,"1426":13419,"Ġwwzs":13420,"Ġlmap":13421,"Ġdestroy":13422,"Ġsamples":13423,"Ġmulto":13424,"Ġegrkxu":13425,"Ġwenesday":13426,"Ġrjoua":13427,"Ġzdtm":13428,"Ġxhrx":13429,"Ġ0123366552":13430,"Ġclsoer":13431,"Ġ07727005105":13432,"0601":13433,"6242":13434,"6162":13435,"miavh":13436,"srytu":13437,"xmyy":13438,"Ġwyixgge":13439,"Ġpsnfsrqi":13440,"Ġnhcrn":13441,"Ġdmiepe":13442,"Ġrequre":13443,"Ġmxmohd":13444,"Ġmrqellg":13445,"Ġolezkdit":13446,"Ġeyegc":13447,"Ġweelkend":13448,"Ġvhwyuf":13449,"Ġzzaa":13450,"Ġawaepk":13451,"theatres":13452,"Ġhankering":13453,"ohhp":13454,"xocsa":13455,"Ġhvgcsqr":13456,"Ġnbaudv":13457,"Ġnfkr":13458,"Ġbnfzmvox":13459,"Ġdqrt":13460,"rigty":13461,"Ġsany":13462,"Ġcombination":13463,"Ġpostocode":13464,"Ġjbbpqw":13465,"Ġzxibge":13466,"01223210353":13467,"cpifs":13468,"6364":13469,"cchv":13470,"ddzb":13471,"eelpu":13472,"evew":13473,"eysd":13474,"ebqsqsc":13475,"ftsp":13476,"gulpv":13477,"gpdoy":13478,"grqwbx":13479,"gjvz":13480,"gsqvs":13481,"hqqulfl":13482,"ithcs":13483,"iitsnd":13484,"jsuf":13485,"jnkdod":13486,"kelm":13487,"kexq":13488,"kutua":13489,"kdsff":13490,"kigns":13491,"ltwhg":13492,"lrsl":13493,"mirfir":13494,"mksm":13495,"museums":13496,"ngavnb":13497,"novfd":13498,"oghua":13499,"oadqcc":13500,"oagc":13501,"piswdkf":13502,"qciiz":13503,"qggj":13504,"qjdno":13505,"rlyzkx":13506,"rpsy":13507,"rfdcgc":13508,"sflv":13509,"sdoh":13510,"tadit":13511,"tdbiju":13512,"tjznf":13513,"ukeyo":13514,"uhiuu":13515,"wysleg":13516,"wdokb":13517,"xlaq":13518,"xfobdbf":13519,"xfcshu":13520,"yeyutc":13521,"yxaff":13522,"yxdk":13523,"ycmlxx":13524,"zmbuc":13525,"zsihls":13526,"zpqn":13527,"zpbnfd":13528,"zwwqn":13529,"zihsz":13530,"Ġridgewood":13531,"Ġothe":13532,"Ġtjzmy":13533,"Ġtjlzzc":13534,"Ġtxeb":13535,"Ġasia":13536,"Ġachitecture":13537,"Ġawarded":13538,"Ġaqimz":13539,"Ġikoi":13540,"Ġigmrvy":13541,"Ġiojtyl":13542,"Ġcerep":13543,"Ġcpbuemwr":13544,"Ġcrlmatvb":13545,"Ġwoodbridge":13546,"Ġwxiaok":13547,"Ġwffljrt":13548,"Ġwvsmpoew":13549,"Ġportions":13550,"Ġprank":13551,"Ġpqqvsrvh":13552,"Ġpdiwvu":13553,"Ġpwfvg":13554,"Ġpnpgqmfm":13555,"Ġhicmiavh":13556,"Ġhiassah":13557,"Ġhvtafs":13558,"Ġyonurjs":13559,"Ġybgswxej":13560,"Ġywekso":13561,"Ġfingered":13562,"Ġfrsz":13563,"Ġfcgnzkow":13564,"Ġfkdue":13565,"Ġftfrigty":13566,"Ġnzxpp":13567,"Ġbiazmbuc":13568,"Ġbfodsbs":13569,"Ġbcynhp":13570,"Ġbixl":13571,"oowmjen":13572,"Ġlwixne":13573,"Ġlnygvm":13574,"Ġlpvgjvz":13575,"Ġdakq":13576,"Ġrethinking":13577,"Ġresteraunt":13578,"Ġreplacement":13579,"Ġreminded":13580,"otkfh":13581,"Ġsgezxo":13582,"Ġsrsotyz":13583,"Ġmthf":13584,"Ġmlqzyru":13585,"Ġmrvafswe":13586,"Ġmgcsvpom":13587,"Ġmtxch":13588,"Ġmmhron":13589,"Ġmickey":13590,"vefog":13591,"Ġinitially":13592,"cebyu":13593,"ldnjzee":13594,"Ġgursthouse":13595,"Ġglvbzvy":13596,"Ġgnbko":13597,"Ġgqsot":13598,"Ġwiqebn":13599,"Ġstaudct":13600,"pevyv":13601,"Ġwhopping":13602,"Ġanimals":13603,"Ġitailian":13604,"Ġchiense":13605,"Ġmondern":13606,"Ġbehalf":13607,"sicrd":13608,"eafsm":13609,"Ġdeeply":13610,"itjjmjc":13611,"Ġraegfil":13612,"Ġexception":13613,"Ġalsexhly":13614,"Ġstupid":13615,"irnsv":13616,"Ġpolunesian":13617,"Ġnorthhampton":13618,"Ġadjoining":13619,"Ġnifutfqf":13620,"Ġoxwo":13621,"Ġoasaahhb":13622,"Ġoaowj":13623,"Ġmueiryk":13624,"Ġezawt":13625,"Ġebqn":13626,"Ġuazuxkir":13627,"Ġuwrmv":13628,"Ġjuapvb":13629,"Ġhaaka":13630,"Ġtruama":13631,"Ġkadpmucr":13632,"Ġkixyygy":13633,"Ġkvkizqt":13634,"Ġkdftbeww":13635,"Ġnightsstarting":13636,"Ġsercrcln":13637,"Ġsettling":13638,"Ġ75625428":13639,"Ġavvxfl":13640,"Ġrbqlun":13641,"Ġrrkzoi":13642,"Ġrjqo":13643,"Ġhoilday":13644,"Ġknrffo":13645,"Ġbrilliant":13646,"mavyrq":13647,"Ġvbpwad":13648,"Ġvzpwhwlv":13649,"Ġvhnbpcy":13650,"Ġvakdvqnb":13651,"Ġ9892":13652,"Ġsplashing":13653,"msvtp":13654,"olqyp":13655,"whfpqt":13656,"Ġgraffitti":13657,"Ġzufsd":13658,"Ġznvpvzd":13659,"Ġzyohew":13660,"Ġzfrek":13661,"Ġfurthuer":13662,"brmyhp":13663,"Ġbahva":13664,"ipczjp":13665,"amptj":13666,"Ġjoygndz":13667,"Ġ01223362682":13668,"ahdsd":13669,"ahuyb":13670,"zzvvl":13671,"Ġbloombury":13672,"Ġbloomsburg":13673,"Ġbupkjytw":13674,"Ġxlddagqj":13675,"Ġtehcnology":13676,"Ġkywfgunh":13677,"urftuc":13678,"Ġqzpcebyu":13679,"Ġqsnsuagg":13680,"Ġqlyjqkty":13681,"Ġefgwy":13682,"Ġrefreshed":13683,"ruwchn":13684,"tuyxww":13685,"sjwcxza":13686,"Ġ0223324600":13687,"Ġtesiirj":13688,"Ġauhgvolr":13689,"Ġhkmrsi":13690,"uphirt":13691,"Ġscandanavian":13692,"tynuq":13693,"Ġ07636297454":13694,"huyuygs":13695,"Ġyontchwd":13696,"Ġ07738544250":13697,"jezpdw":13698,"Ġgibfwdnm":13699,"ddfwph":13700,"btdtol":13701,"nkkolwnu":13702,"qcqdyfq":13703,"Ġooghnzgw":13704,"Ġ07043795737":13705,"bfxwtp":13706,"wfhnvgm":13707,"vbkjft":13708,"qsfkbm":13709,"iikbzbl":13710,"Ġ07308367931":13711,"Ġcwlkmzer":13712,"Ġntqsjsp":13713,"Ġzmgywsso":13714,"Ġhqsozlwh":13715,"ytamnaao":13716,"Ġ07121756826":13717,"Ġ07574638307":13718,"Ġmrtsnqmu":13719,"Ġtsrefnqw":13720,"Ġgkjebzn":13721,"Ġ07034946796":13722,"Ġxrwycwbt":13723,"Ġhyppozmf":13724,"Ġpurposes":13725,"Ġ07481840729":13726,"Ġxzhnmjrs":13727,"Ġdmiepety":13728,"Ġmxmohdj":13729,"Ġawaepkrt":13730,"Ġjbbpqwa":13731,"Ġzxibgevs":13732,"Ġyonurjsx":13733,"Ġbfodsbsl":13734,"Ġglvbzvyo":13735,"Ġvhnbpcyy":13736,"0279":13737,"0106":13738,"0904":13739,"0605":13740,"0275":13741,"166":13742,"1480":13743,"252":13744,"315":13745,"366":13746,"346":13747,"341":13748,"371":13749,"3000":13750,"3387":13751,"3447":13752,"3769":13753,"4909":13754,"4902":13755,"533":13756,"5164":13757,"678":13758,"6270":13759,"707":13760,"734":13761,"7147":13762,"7514":13763,"801":13764,"806":13765,"853":13766,"8782":13767,"8390":13768,"8363":13769,"935":13770,"919":13771,"941":13772,"953":13773,"9236":13774,"9531":13775,"9084":13776,"aook":13777,"ape":13778,"afi":13779,"alex":13780,"acks":13781,"bre":13782,"bing":13783,"bpe":13784,"bit":13785,"bsit":13786,"bqy":13787,"bnu":13788,"bqqs":13789,"came":13790,"cur":13791,"cso":13792,"cwor":13793,"cnl":13794,"ccode":13795,"cjv":13796,"cxj":13797,"dr":13798,"din":13799,"dat":13800,"dts":13801,"dose":13802,"did":13803,"dfy":13804,"eu":13805,"eive":13806,"eops":13807,"ebe":13808,"ebb":13809,"egl":13810,"eqw":13811,"ecology":13812,"ecb":13813,"eku":13814,"fry":13815,"ftt":13816,"fza":13817,"fze":13818,"fpb":13819,"fhg":13820,"frf":13821,"fvv":13822,"fmx":13823,"fud":13824,"ffet":13825,"gine":13826,"gose":13827,"gas":13828,"gies":13829,"gging":13830,"glk":13831,"goi":13832,"gtr":13833,"gzp":13834,"gcae":13835,"hil":13836,"hsy":13837,"hrl":13838,"hzf":13839,"hkq":13840,"hcg":13841,"hpf":13842,"ixi":13843,"ille":13844,"iil":13845,"igy":13846,"iht":13847,"ioq":13848,"iwb":13849,"jfi":13850,"jsp":13851,"jds":13852,"jqy":13853,"jnv":13854,"jlt":13855,"jrd":13856,"kgy":13857,"kje":13858,"kbl":13859,"krn":13860,"kgt":13861,"lha":13862,"ljb":13863,"lqf":13864,"lww":13865,"lrf":13866,"lbi":13867,"mits":13868,"mdb":13869,"mht":13870,"mjz":13871,"mjk":13872,"mqz":13873,"mqd":13874,"mouth":13875,"nat":13876,"nge":13877,"nke":13878,"now":13879,"nam":13880,"nber":13881,"nrk":13882,"ox":13883,"osity":13884,"osa":13885,"oje":13886,"obz":13887,"ojc":13888,"pse":13889,"ppe":13890,"pum":13891,"pby":13892,"pnf":13893,"pcl":13894,"qsh":13895,"qka":13896,"qef":13897,"qzb":13898,"qmu":13899,"qvl":13900,"rw":13901,"rme":13902,"rday":13903,"rms":13904,"rinity":13905,"rnx":13906,"rzn":13907,"rcp":13908,"sot":13909,"sally":13910,"spp":13911,"szt":13912,"sgt":13913,"skx":13914,"saru":13915,"tv":13916,"tra":13917,"tie":13918,"tvx":13919,"tpr":13920,"tftk":13921,"uve":13922,"ufe":13923,"uguese":13924,"uries":13925,"uds":13926,"uzk":13927,"uzp":13928,"uug":13929,"ucessful":13930,"vay":13931,"vna":13932,"vqf":13933,"vxh":13934,"vuy":13935,"vlj":13936,"vbz":13937,"vjm":13938,"vnr":13939,"vjl":13940,"vuhu":13941,"vysz":13942,"wat":13943,"wce":13944,"wed":13945,"waf":13946,"wdz":13947,"wrt":13948,"wcv":13949,"wxy":13950,"xts":13951,"xad":13952,"xds":13953,"xwy":13954,"xcw":13955,"xoe":13956,"xoj":13957,"xpz":13958,"xkl":13959,"ywn":13960,"yul":13961,"yna":13962,"yhg":13963,"ymf":13964,"yhh":13965,"yzf":13966,"yto":13967,"yvg":13968,"yqqs":13969,"yghg":13970,"yhtb":13971,"zj":13972,"zla":13973,"zam":13974,"zwilliam":13975,"zudn":13976,"Ġtext":13977,"Ġtth":13978,"Ġtss":13979,"Ġtxi":13980,"Ġtqq":13981,"Ġtjf":13982,"Ġtcr":13983,"Ġtnu":13984,"Ġttr":13985,"Ġtxx":13986,"Ġae":13987,"Ġaed":13988,"Ġaain":13989,"Ġack":13990,"Ġaab":13991,"Ġastra":13992,"Ġaqm":13993,"Ġaqr":13994,"Ġaeb":13995,"Ġauli":13996,"rema":13997,"recomend":13998,"Ġie":13999,"Ġiy":14000,"Ġima":14001,"Ġipo":14002,"Ġign":14003,"state":14004,"erling":14005,"ergies":14006,"ouxbourne":14007,"Ġtha":14008,"Ġthyat":14009,"ins":14010,"inyn":14011,"ntion":14012,"elu":14013,"raa":14014,"Ġcf":14015,"Ġcn":14016,"Ġcoo":14017,"Ġcince":14018,"Ġcoor":14019,"Ġcdh":14020,"Ġcmbridge":14021,"Ġcxz":14022,"Ġcigy":14023,"Ġwt":14024,"Ġwoo":14025,"Ġwri":14026,"Ġwsp":14027,"Ġwcr":14028,"Ġwku":14029,"Ġwwq":14030,"Ġwucr":14031,"Ġpc":14032,"Ġpity":14033,"Ġpad":14034,"Ġpgy":14035,"Ġpbg":14036,"Ġpbz":14037,"Ġpgq":14038,"Ġpho":14039,"Ġpkei":14040,"Ġpbnbr":14041,"Ġtheie":14042,"Ġhlen":14043,"Ġhcy":14044,"Ġhbb":14045,"Ġhrt":14046,"Ġhxs":14047,"Ġhxy":14048,"Ġhjp":14049,"Ġhbx":14050,"Ġyj":14051,"Ġyn":14052,"Ġype":14053,"Ġyuck":14054,"Ġyello":14055,"Ġybd":14056,"Ġynu":14057,"Ġyyk":14058,"Ġydg":14059,"Ġyku":14060,"Ġyrr":14061,"Ġyxv":14062,"Ġfj":14063,"Ġfn":14064,"Ġfss":14065,"Ġfror":14066,"Ġfdp":14067,"Ġfcr":14068,"Ġfzk":14069,"Ġfrfm":14070,"ndor":14071,"ndtvx":14072,"atus":14073,"atpj":14074,"atgu":14075,"Ġnx":14076,"Ġny":14077,"Ġnsta":14078,"Ġnch":14079,"Ġnbw":14080,"Ġnvl":14081,"Ġnsg":14082,"Ġyoulike":14083,"Ġbry":14084,"Ġbust":14085,"Ġbast":14086,"Ġbourne":14087,"Ġbcu":14088,"Ġbnh":14089,"Ġbwx":14090,"Ġbcm":14091,"Ġbxr":14092,"ooq":14093,"oogy":14094,"ootz":14095,"oro":14096,"orting":14097,"orzp":14098,"Ġlt":14099,"Ġlbu":14100,"Ġlzy":14101,"Ġlfn":14102,"Ġlbh":14103,"onne":14104,"Ġtow":14105,"Ġtome":14106,"ingy":14107,"Ġdc":14108,"Ġdt":14109,"Ġdsi":14110,"Ġdour":14111,"Ġdough":14112,"Ġdtu":14113,"Ġdmk":14114,"Ġdql":14115,"Ġdpjo":14116,"ricular":14117,"rita":14118,"Ġreread":14119,"Ġreverse":14120,"Ġsf":14121,"Ġsof":14122,"Ġsarch":14123,"Ġsket":14124,"Ġsrt":14125,"Ġsbh":14126,"Ġsrc":14127,"Ġmb":14128,"Ġmj":14129,"Ġmm":14130,"Ġmz":14131,"Ġmla":14132,"Ġmvi":14133,"Ġmht":14134,"Ġmqg":14135,"vezi":14136,"ofk":14137,"ofz":14138,"aner":14139,"ays":14140,"aylesbray":14141,"gej":14142,"gevp":14143,"Ġhotell":14144,"Ġinmarket":14145,"Ġineed":14146,"cenv":14147,"cefrf":14148,"Ġisor":14149,"Ġarent":14150,"lde":14151,"ldn":14152,"ldo":14153,"arp":14154,"Ġtray":14155,"edon":14156,"iency":14157,"iegt":14158,"iepcl":14159,"Ġtraindid":14160,"thh":14161,"thp":14162,"Ġgb":14163,"Ġgue":14164,"Ġgdy":14165,"Ġgbb":14166,"Ġgbz":14167,"Ġgvn":14168,"Ġgfg":14169,"Ġgnrk":14170,"Ġgyna":14171,"mbled":14172,"kefy":14173,"esu":14174,"menation":14175,"Ġthatk":14176,"Ġlimits":14177,"Ġstands":14178,"Ġstaff":14179,"llas":14180,"llwm":14181,"pee":14182,"pey":14183,"Ġdope":14184,"Ġoffi":14185,"Ġtherefore":14186,"Ġthereban":14187,"Ġpriiced":14188,"Ġano":14189,"Ġanq":14190,"eres":14191,"roza":14192,"roqg":14193,"ctt":14194,"Ġlezo":14195,"Ġleva":14196,"Ġleaner":14197,"Ġchicke":14198,"Ġpets":14199,"Ġpeppe":14200,"Ġbeg":14201,"Ġbecame":14202,"Ġnuecb":14203,"Ġnuvbz":14204,"ouses":14205,"Ġwhata":14206,"laat":14207,"eaa":14208,"eas":14209,"Ġdebit":14210,"Ġtip":14211,"debrookes":14212,"demz":14213,"chy":14214,"chway":14215,"Ġ27":14216,"Ġtai":14217,"Ġtandor":14218,"Ġguestouses":14219,"itol":14220,"Ġraves":14221,"Ġarrivi":14222,"urso":14223,"urxq":14224,"ssf":14225,"Ġwama":14226,"Ġwillrecomend":14227,"derss":14228,"ghna":14229,"ghzv":14230,"ryc":14231,"rym":14232,"rylh":14233,"owa":14234,"oww":14235,"owrr":14236,"Ġalmentum":14237,"Ġalfli":14238,"Ġplacem":14239,"Ġfreeway":14240,"ali":14241,"alv":14242,"Ġelese":14243,"some":14244,"sovuhu":14245,"Ġcore":14246,"Ġsup":14247,"Ġsus":14248,"Ġsuucessful":14249,"Ġnomin":14250,"Ġ324":14251,"Ġ327":14252,"Ġ318":14253,"Ġ3245":14254,"Ġintalian":14255,"Ġintrinity":14256,"tskq":14257,"tsoubt":14258,"Ġstres":14259,"Ġsterling":14260,"Ġstatus":14261,"Ġstingy":14262,"irsf":14263,"irhqy":14264,"Ġpoccode":14265,"Ġcheapt":14266,"nec":14267,"nej":14268,"Ġorvr":14269,"Ġadz":14270,"Ġadios":14271,"Ġaddebrookes":14272,"Ġadderss":14273,"003":14274,"009":14275,"0007":14276,"0077":14277,"0025":14278,"0071":14279,"004877":14280,"Ġbytskq":14281,"Ġogx":14282,"Ġogb":14283,"Ġovnr":14284,"Ġodemz":14285,"Ġ5797":14286,"Ġ5150":14287,"Ġmuf":14288,"Ġmucn":14289,"Ġmugged":14290,"Ġmunber":14291,"fiph":14292,"305":14293,"3023":14294,"3078":14295,"Ġeh":14296,"Ġeq":14297,"Ġeqg":14298,"Ġeki":14299,"Ġeoj":14300,"Ġeoq":14301,"Ġehn":14302,"Ġeuo":14303,"Ġeuz":14304,"1524":14305,"457":14306,"4537":14307,"4531":14308,"456838":14309,"Ġpartricular":14310,"ulcke":14311,"ulpr":14312,"ulkb":14313,"Ġshell":14314,"Ġshore":14315,"Ġsharp":14316,"Ġuf":14317,"Ġuuj":14318,"Ġuqg":14319,"Ġuov":14320,"Ġuau":14321,"Ġugej":14322,"Ġintervals":14323,"Ġeager":14324,"umae":14325,"Ġpostcodecb":14326,"Ġji":14327,"Ġjck":14328,"Ġjumn":14329,"Ġjjk":14330,"Ġokhx":14331,"Ġalll":14332,"Ġallergies":14333,"2324":14334,"2319":14335,"2325":14336,"2398":14337,"icthp":14338,"Ġwets":14339,"Ġwebsit":14340,"Ġtrqit":14341,"Ġbutthe":14342,"Ġkis":14343,"Ġkross":14344,"Ġkuq":14345,"Ġkqlh":14346,"1215":14347,"1242":14348,"aijm":14349,"Ġweden":14350,"Ġsatrday":14351,"Ġ735":14352,"Ġ739":14353,"Ġ751":14354,"Ġ714":14355,"Ġ1536":14356,"Ġifhsy":14357,"caor":14358,"cazm":14359,"Ġmalasian":14360,"Ġmaghna":14361,"Ġ800":14362,"Ġ630":14363,"iagd":14364,"iantion":14365,"luld":14366,"Ġrk":14367,"Ġrby":14368,"Ġrga":14369,"Ġrsd":14370,"Ġrhf":14371,"Ġrcj":14372,"Ġrnge":14373,"Ġrkefy":14374,"Ġunv":14375,"Ġunnam":14376,"lol":14377,"Ġhim":14378,"Ġ1345":14379,"Ġ1329":14380,"Ġ1200":14381,"Ġ1245":14382,"ourz":14383,"Ġ1601":14384,"ciwl":14385,"hax":14386,"aker":14387,"akwb":14388,"Ġpercept":14389,"Ġ149":14390,"Ġ1412":14391,"Ġparkin":14392,"Ġparkland":14393,"Ġknick":14394,"Ġknhd":14395,"Ġknacks":14396,"Ġ1029":14397,"Ġknowledge":14398,"Ġ180":14399,"Ġ184":14400,"Ġ1815":14401,"Ġ1845":14402,"uno":14403,"unrh":14404,"Ġbread":14405,"Ġbreakfastin":14406,"Ġbreakfastritish":14407,"Ġacron":14408,"Ġaccu":14409,"Ġaccep":14410,"Ġacllas":14411,"quhj":14412,"Ġmifn":14413,"Ġ:<|":14414,"ficiency":14415,"Ġmintu":14416,"Ġminosa":14417,"Ġ2145":14418,"Ġvisited":14419,"Ġcups":14420,"Ġsuggestfor":14421,"izm":14422,"izlj":14423,"Ġsevering":14424,"Ġvb":14425,"Ġvs":14426,"Ġvu":14427,"Ġvde":14428,"Ġvince":14429,"Ġvrh":14430,"Ġvxh":14431,"Ġvkv":14432,"Ġvwf":14433,"Ġvvj":14434,"Ġvjqm":14435,"Ġvvso":14436,"Ġ900":14437,"portuguese":14438,"2192":14439,"Ġspskx":14440,"feq":14441,"fegx":14442,"Ġticketss":14443,"Ġfitbillies":14444,"ables":14445,"Ġsteer":14446,"Ġchekc":14447,"Ġupper":14448,"Ġ090":14449,"Ġ096":14450,"xbd":14451,"Ġbisheops":14452,"ppd":14453,"ppqg":14454,"ppsg":14455,"pppee":14456,"113":14457,"1111":14458,"Ġbirds":14459,"livl":14460,"Ġmarga":14461,"wign":14462,"wigas":14463,"Ġidf":14464,"msf":14465,"msmb":14466,"msrk":14467,"msurso":14468,"Ġunfortunt":14469,"byv":14470,"Ġ0790":14471,"Ġ0722":14472,"Ġ0787":14473,"Ġ0783":14474,"Ġ07611":14475,"Ġ07511":14476,"Ġ07413":14477,"Ġ07146":14478,"Ġ07504":14479,"Ġ072054":14480,"Ġ07193":14481,"Ġ0719630":14482,"583":14483,"5866":14484,"5825":14485,"5853":14486,"58552":14487,"spt":14488,"twfu":14489,"Ġsearchby":14490,"Ġuniversally":14491,"Ġcaring":14492,"Ġfirday":14493,"Ġcurmu":14494,"unte":14495,"tten":14496,"2435":14497,"2440":14498,"2409":14499,"242400":14500,"175":14501,"1729":14502,"1719":14503,"1784":14504,"Ġchoise":14505,"073":14506,"079":14507,"0749":14508,"0713":14509,"0726":14510,"0768":14511,"0763":14512,"asbz":14513,"Ġashbury":14514,"Ġashitd":14515,"Ġquote":14516,"Ġqueries":14517,"Ġwoluld":14518,"503":14519,"505":14520,"5060":14521,"50129":14522,"6633":14523,"6662":14524,"2943":14525,"2913":14526,"2999":14527,"2982":14528,"29188":14529,"080":14530,"0826":14531,"08880":14532,"Ġlaw":14533,"Ġlack":14534,"Ġlagging":14535,"Ġlapse":14536,"Ġfunhouse":14537,"abs":14538,"abil":14539,"abowrr":14540,"Ġ2312":14541,"Ġ2379":14542,"3566":14543,"3560":14544,"3537":14545,"357708":14546,"354679":14547,"4052":14548,"40318":14549,"Ġclunk":14550,"101":14551,"1012":14552,"1036":14553,"1037":14554,"10981":14555,"Ġclubbing":14556,"Ġcoulc":14557,"Ġallenbelle":14558,"Ġhuntingon":14559,"Ġhuntingdo":14560,"6011":14561,"6027":14562,"6056":14563,"60248":14564,"546":14565,"5492":14566,"527":14567,"528":14568,"daldo":14569,"Ġartchway":14570,"0162":14571,"273":14572,"2713":14573,"2762":14574,"276037":14575,"3932":14576,"3999":14577,"Ġgastropubed":14578,"4615":14579,"4608":14580,"Ġlovel":14581,"590":14582,"5936":14583,"5918":14584,"5996":14585,"Ġclair":14586,"Ġgrat":14587,"325":14588,"3266":14589,"3255":14590,"3283":14591,"192":14592,"1906":14593,"1951":14594,"1903":14595,"jos":14596,"Ġaplha":14597,"Ġbistoro":14598,"434":14599,"4346":14600,"4364":14601,"4376":14602,"4387":14603,"Ġsounding":14604,"Ġzc":14605,"Ġzr":14606,"Ġzone":14607,"Ġzua":14608,"Ġzuw":14609,"Ġziy":14610,"Ġzug":14611,"Ġzcm":14612,"Ġzwmr":14613,"1691":14614,"16276037":14615,"Ġafrica":14616,"Ġhamilit":14617,"ilx":14618,"shall":14619,"odle":14620,"odyj":14621,"odsg":14622,"oddn":14623,"odhqy":14624,"odkgt":14625,"ksk":14626,"brp":14627,"4967":14628,"redi":14629,"484":14630,"4831":14631,"485866":14632,"Ġlaters":14633,"0607":14634,"Ġenozr":14635,"Ġahley":14636,"Ġ3330":14637,"Ġscud":14638,"Ġdesint":14639,"Ġercazm":14640,"576":14641,"577":14642,"amlivl":14643,"Ġaddenbook":14644,"Ġbrain":14645,"Ġbrained":14646,"367":14647,"3624":14648,"3689":14649,"3637":14650,"363682":14651,"518":14652,"513560":14653,"Ġamericans":14654,"Ġamericanindian":14655,"fyr":14656,"fyyw":14657,"556":14658,"5556":14659,"7728":14660,"7779":14661,"7776":14662,"7785":14663,"8036":14664,"8029188":14665,"1800":14666,"1347":14667,"784":14668,"7827":14669,"7843":14670,"7847":14671,"782800":14672,"Ġtele":14673,"ahej":14674,"ahwe":14675,"Ġsaaook":14676,"2835":14677,"2855":14678,"2833":14679,"2895":14680,"28719":14681,"5600":14682,"5611":14683,"5649":14684,"Ġcommunte":14685,"Ġtenpen":14686,"793":14687,"795":14688,"7900":14689,"Ġsalon":14690,"Ġ#<|":14691,"Ġvekf":14692,"Ġmidbi":14693,"2630":14694,"2616":14695,"2631":14696,"Ġugroza":14697,"cyzt":14698,"dyjm":14699,"22802":14700,"22303":14701,"halmqd":14702,"oynj":14703,"53603":14704,"Ġcorrecting":14705,"Ġbloomsber":14706,"Ġbuzz":14707,"Ġbuffet":14708,"Ġxf":14709,"Ġxln":14710,"Ġxokt":14711,"Ġxooq":14712,"Ġxabowrr":14713,"Ġxdyjm":14714,"yskr":14715,"perative":14716,"Ġawsome":14717,"Ġwishing":14718,"Ġ0122324600":14719,"gyo":14720,"897":14721,"8954":14722,"8991":14723,"Ġbelow":14724,"Ġbeleive":14725,"jgwfn":14726,"jgoogy":14727,"685":14728,"686":14729,"6823":14730,"6866":14731,"6809":14732,"1419":14733,"1477":14734,"Ġqj":14735,"Ġqm":14736,"Ġqt":14737,"Ġqw":14738,"Ġqol":14739,"Ġqey":14740,"Ġqfn":14741,"Ġqbh":14742,"Ġqgz":14743,"Ġqwz":14744,"Ġoutdoors":14745,"Ġmoments":14746,"dsxpz":14747,"Ġlearning":14748,"Ġholding":14749,"7621":14750,"7318":14751,"Ġefficiency":14752,"primavera":14753,"Ġ2815":14754,"Ġredo":14755,"6958":14756,"6913":14757,"7144":14758,"lkgevp":14759,"637":14760,"6366":14761,"6313":14762,"8488":14763,"84706":14764,"diq":14765,"9854":14766,"tudsxpz":14767,"991":14768,"9942":14769,"9964":14770,"bbd":14771,"bbwce":14772,"Ġ01223446400":14773,"8723":14774,"8760":14775,"8743":14776,"874600":14777,"Ġhuvqf":14778,"8626":14779,"8653":14780,"472":14781,
[...]
